#version: 0.2
Ġ t
i n
Ġ a
r e
h e
o n
t i
e n
Ġt he
Ġ s
Ġ o
e r
Ġ c
e d
Ġ p
a l
e s
Ġ in
o r
a t
Ġ w
n d
i s
Ġo f
Ġ d
i t
ti on
Ġ f
Ġa nd
Ġ m
r o
a n
Ġ b
in g
i c
a s
a r
Ġ re
Ġt o
en t
l e
Ġ e
u s
e c
a tion
v e
Ġ h
Ġt h
l y
a c
Ġ (
o m
Ġ n
u l
o s
u r
Ġ l
i d
Ġ T
i m
l l
e t
i r
it h
Ġ v
i g
Ġw ith
Ġf or
c e
o l
Ġs t
Ġc on
Ġ is
u t
Ġw e
Ġp ro
Ġ g
Ġ C
Ġa s
u n
Ġa n
Ġb e
o t
o w
a ti
t er
re s
Ġ I
Ġ A
i l
Ġ S
u c
e m
a m
Ġ on
Ġth at
i f
a b
it y
o d
Ġ 1
t s
v er
s t
Ġ .
t ed
u m
Ġe x
o c
Ġ 2
at e
Ġre s
at ed
ĠT he
u d
ti c
r a
r i
s i
Ġw as
q u
o p
he r
ent s
Ġc om
s e
a y
f ec
Ġb y
Ġd e
a g
Ġwe re
Ġa re
Ġo r
Ġa c
ro m
o g
a d
t h
u re
Ġd is
Ġ r
Ġ us
p l
a in
Ġ P
Ġw h
m ent
Ġ im
u p
e l
o re
ic al
es s
t e
Ġ F
Ġa l
Ġ M
er s
re n
Ġ Ġ
Ġf rom
p or
Ġs e
re d
Ġ H
as e
u nd
Ġin c
an t
in e
Ġa t
i es
ti ve
p ec
Ġc o
u g
Ġp ati
d i
Ġ R
Ġs h
Ġc h
Ġa d
Ġst ud
Ġh a
i z
u b
Ġ he
ig h
e ll
Ġcom p
Ġ en
Ġn e
Ġth is
c h
) .
r an
Ġcon t
ab le
si on
Ġn ot
a nd
ation s
Ġ 3
or m
Ġ le
ĠI n
o us
t her
ve l
ic h
es t
1 9
Ġ E
Ġp er
Ġ D
Ġ N
tion s
en ce
i al
Ġp re
I D
g e
Ġ it
Ġpati ents
Ġ B
d uc
Ġha ve
O V
Ġv ir
Ġin fec
ig n
Ġc ell
ac t
Ġc l
v id
OV ID
p er
i on
en ti
Ġp ar
v i
Ġc an
Ġs y
Ġ W
if ic
Ġas s
ĠC OVID
f e
0 0
) ,
Ġwh ich
os t
p t
Ġf o
i ll
ar y
Ġa p
p h
i p
f orm
Ġg en
k e
i a
or y
p ro
Ġc a
is t
Ġd i
y s
d ing
v ed
or s
ti v
Ġm od
Ġe f
p le
Ġh as
Ġin ter
al ly
Ġ 4
e ar
om e
an ce
ul d
ol og
as ed
Ġd if
le c
fe ren
Ġd at
Ġ un
Ġ 5
s o
Ġ O
Ġ G
u e
ati ve
por t
on g
Ġre c
Ġa b
Ġin t
Ġres p
v en
ran s
i ti
al th
et w
Ġstud y
Ġa ll
Ġ 0
m un
Ġ ,
Ġcon s
ac h
ar i
Ġ L
en c
R S
ag e
Ġal so
p res
as es
ug h
l ud
ĠT h
Ġp l
al l
Ġw he
Ġp os
re at
Ġbe en
i b
Ġs c
f ic
Ġ2 0
Ġt rans
en d
Ġo b
uc h
Ġsh ow
y p
id e
Ġs ign
Ġm e
Ġdat a
os e
Ġg ro
or k
Ġo ut
at h
t ing
Ġdif feren
Ġ y
v ir
t r
Ġo ther
o V
Ġp res
Ġthe ir
Ġd et
Ġ k
at es
Ġvir us
a k
f l
Ġan ti
Ġres ul
Ġre g
Ġa f
ri b
ul ar
Ġan al
e en
Ġ qu
Ġdis e
v al
Ġm ore
Ġhe alth
Ġm ay
Ġ U
te in
il ity
Ġcell s
etw een
u al
Ġt im
T he
Ġthe se
Ġef fec
C oV
i ed
Ġb etween
o ut
Ġinc lud
e p
e w
Ġre l
Ġm ed
at ory
Ġs ub
Ġinc re
Ġs am
A RS
Ġ und
Ġmod el
N A
Ġst r
o ur
em ic
b er
Ġa g
Ġus ed
a p
Ġin d
igh t
Ġs pec
Ġm an
ti m
oc i
p it
ur ing
Ġm et
Ġc or
e ver
2 0
Ġus ing
a il
Ġd es
Ġs p
Ġh igh
Ġth an
as t
en s
ĠS ARS
Ġpro tein
Ġresp on
Ġs ur
st r
Ġp h
Ġac c
Ġ ro
Ġs uch
Ġpar tic
Ġa m
ul ation
Ġinfec tion
Ġp r
o uld
ĠTh is
Ġs er
er m
as s
u res
Ġ 6
ar d
Ġ =
Ġv ari
vel op
Ġn um
Ġgro up
Ġn o
Ġtim e
t ain
Ġs up
Ġe m
st em
ec h
l o
Ġdise ase
Ġp o
ay s
Ġund er
p os
v es
Ġl i
d er
t al
Ġb ut
Ġsign ific
b le
Ġle vel
w o
di tion
at ing
ra p
Ġanal ys
n e
Ġim mun
Ġd ec
pl ic
Ġde velop
re e
Ġo ver
an g
i le
t en
an c
Ġo ur
Ġw ill
' s
Ġd uring
Ġ â
is k
Ġus e
Ġ V
ot h
u tion
Ġsy stem
iz ed
Ġsignific ant
Ġcl in
un c
ac e
Ġon e
ĠF ig
Ġap pro
Ġ "
Ġv al
Ġthe re
Ġwh o
Ġre por
ll ow
ra in
l es
Ġin fl
ro l
Ġt wo
Ġw ork
ac c
Ġl ow
c ess
ow ever
ec t
s er
a re
ac k
Ġt reat
Ġstud ies
ation al
on e
Ġpro vid
ĠW e
a red
Ġs im
Ġ id
Ġc ol
ro s
Ġnum ber
Ġm o
un g
an ts
in es
ul t
u es
Ġr isk
Ġa r
um an
Ġfo llow
Ġass oci
Ġ 7
on d
Ġc ases
Ġf act
Ġresul ts
Ġh ad
tiv ity
ar g
Ġcon c
Ġf in
ow n
Ġdifferen t
Ġco un
vir us
ec tion
re c
al s
Ġaf ter
l i
Ġm ost
in t
ac ter
Ġdis t
Ġid enti
Ġ1 0
us e
f er
Ġ 9
Ġgen er
y t
ir st
iti es
m is
Ġme as
il d
Ġclin ical
Ġon ly
f ore
i tive
Ġa ut
ic e
Ġper form
Ġt est
Ġ es
Ġint o
m pt
Ġpres ent
Ġe ach
Ġv acc
Ġex per
h od
ati c
Ġthe y
Ġanalys is
Ġo p
Ġp e
he d
Ġwe ll
and emic
Ġvir al
Ġfor m
ub l
olog ical
Ġin di
Ġb oth
os pit
Ġb i
ro ugh
Ġp ath
Ġrepor ted
ent r
Ġn on
uc t
iz ation
ut e
o ver
m ents
v ing
Ġh uman
enti al
tic al
Ġp op
mpt om
Ġh ig
m on
Ġm on
at er
Ġd o
in ed
Ġco uld
Ġ q
is m
Ġob ser
Ġa v
c es
Ġp andemic
ab ility
ter n
Ġex pres
Ġit s
Ġl oc
Ġt r
g en
ur ther
r am
qu i
Ġm a
us t
Ġcomp le
Ġ up
Ġca re
Ġtreat ment
vid ual
o ugh
og en
Ġ K
er g
duc ed
1 0
in ation
Ġ 8
Ġv er
Ġne ed
Ġex am
Ġfo und
Ġin form
Ġp ot
Ġs ome
Ġre m
Ġwhe n
Ġim port
Ġf irst
v ol
e f
Ġindi vidual
c c
or d
he n
ag n
h ib
enc y
i an
Ġmet hod
olog y
unc tion
Ġ J
Ġth rough
at ure
Ġs ec
duc tion
res s
Ġp ubl
C T
Ġ ra
m ed
ren t
Ġcont rol
ĠI t
Ġre ce
Ġanti b
o k
vi ew
ĠH owever
ti t
os is
Ġidenti f
Ġt yp
Ġres ear
Ġ Î
p r
Ġd em
Ġind ic
Ġb ec
ug g
ospit al
mis sion
or t
y l
it ed
Ġm in
Ġ -
Ġsh ould
Ġc ar
Ġy ear
Ġassoci ated
Ġpati ent
Ġne w
Ġim p
Ġp red
Ġm ul
Ġhig her
r ic
A A
Ġcon f
am m
g an
Ġk n
il ar
Ġdis c
I n
Ġs et
Ġs ugg
Ġpartic ip
on s
pec tive
Ġc ur
Ġpro t
Ġpro cess
Ġwhe re
e x
ent ly
Ġinclud ing
ve re
Ġf l
re l
it e
ac tion
Ġs o
an ge
Ġad dition
ar t
ir atory
is e
Ġsy mptom
ate g
ti es
Ġ j
ol d
n ing
si ve
us ion
Ġth ose
i tion
em ent
Ġ ).
oc ial
ar k
fic i
Ġen d
Ġp ers
i v
Ġpos itive
it s
pl es
d e
o x
i ve
Ġre qui
Ġav ail
em b
Ġse qu
ĠF or
Ġc r
Ġs m
iz e
Ġlevel s
Ġf e
ĠC h
om es
ĠFig ure
ĠĠ ĠĠ
he s
ech n
Ġd ue
vi ous
Ġdes c
si ble
i e
on a
Ġpro g
ag es
Ġpop ulation
Ġl im
Ġcomp ared
Ġ20 20
Ġin s
u f
Ġdi agn
c on
k s
Ġse ver
Ġm ain
re ad
Ġd r
C R
ur al
Ġshow n
Ġincre ased
Ġli ke
Ġc ase
Ġinfl u
Ġb ased
Ġab out
ĠA s
ple ment
Ġap p
Ġinform ation
a f
Ġrespon se
Ġ Â
Ġresear ch
Ġr ate
Ġf unction
Ġspec ific
Ġresp iratory
i ly
Ġo cc
r on
n ess
Ġh y
val u
Ġimport ant
tic s
Ġstr uct
l d
Ġh ospital
Ġantib od
Ġmul ti
. ,
et y
Ġd ays
Ġin hib
he m
Ġm or
T T
arg et
Ġass ess
Ġe p
ar ge
Ġwith in
Ġs ocial
rec t
Ġse vere
F ig
in al
Ġpred ic
Ġthe rap
ra ph
Ġpubl ic
Ġt ra
Ġag ain
Ġp a
Ġam ong
Ġan y
Ġa ge
% )
al ity
f ul
op le
Ġth ree
Ġ i
Ġe t
Ġavail able
al e
ĠA n
Ã ©
Ġeffec t
ĠR NA
Ġ if
Ġe valu
Ġcoun t
Ġobser ved
Ġin te
Ġw ould
ĠThe se
Ġ +
ĠThe re
Ġcom mun
ĠT able
ti g
Ġde f
Ġt echn
Ġdet erm
i x
j ec
i od
ro p
a use
Ġim pro
ion s
o un
o und
Ġaut h
p tion
oc k
ri es
ar ly
Ġt arget
ĠS t
Ġexpres sion
Ġgen e
o id
Ġsim ilar
Ġme an
it er
ros s
ver s
Ġshow ed
Ġpot ential
Ġpe ople
c l
Ġle ad
Ġpre vious
Ġac tivity
Ġyear s
en g
c er
Ġpr im
ona virus
Ġt es
Ġdesc rib
Ġch ar
Ġper iod
Ġwh ile
ic ro
Ġcol lec
is s
Ġcl ass
Ġe l
s es
ul ated
ad e
ati s
Ġb in
Ġch ild
C A
Ġperform ed
g ative
Ġinfec ted
Ġes tim
ĠĠ Ġ
Ġde p
Ġagain st
ent al
Ġman y
enc es
Ġre view
Ġre pres
o ve
i ved
Ġeffec ts
en se
ech an
Ġout c
Ġchar acter
Ġt e
Ġ )
Ġp ol
Ġfact ors
Ġsymptom s
Ġthe m
p ar
Ġf urther
h a
v ent
u ce
Ġdr ug
Ġsam e
m in
Ġsam ples
Ġt ri
Ġincre ase
Ġmeas ure
o b
Ġca us
Ġch ang
Ġex pl
Ġgroup s
Ġl ong
Ġin vol
ĠA l
on str
in ce
id er
Ġor gan
Ġin iti
lo b
Ġm echan
Ġc yt
ĠC D
in c
Ġc al
Ġob tain
Ġs ol
en z
lo od
th ough
o od
ac y
Ġs us
Ġâ Ī
Ġthe n
ical ly
om ic
uc le
Ġde ath
00 0
ven tion
Ġto tal
Ġocc ur
Ġaf fec
x im
i qu
Ġsec ond
am et
p s
Ġprotein s
Ġcur rent
ves tig
m a
Ġimmun e
Ġl arge
Ġ z
m er
Ġres pective
m e
Ġfin ding
Ġp ri
Ġdevelop ment
Ġ Ã
Ġfollow ing
Ġdec re
h ip
Ġsup port
re ak
m it
Ġro le
Ġl ess
Ġw or
l ine
Ġindividual s
Ġep id
Ġc le
i ven
Ġcom mon
ate ly
Ġvirus es
Ġlow er
ti l
Ġl ung
Ġe vid
b ased
pos ed
Ġin vestig
Ġbe ing
Ġcont ain
R NA
Ġse lec
l ed
Ġcount ries
Ġl ab
Ġrel ated
Ġwith out
Ġinfec tions
ĠH e
Ġm emb
Ġsm all
Ġf ac
Ġmodel s
ro ph
Ġ ed
Ġne gative
ĠU n
Ġparticip ants
Ġsignificant ly
Ġstr ateg
S A
j or
Ġ u
Ġdem onstr
Ġb lood
Ġd er
s y
og raph
if ied
Ġrec om
Ġinclud ed
Ġb l
r y
se qu
Ġ '
Ġ <
Ġt erm
orm al
Ġre le
Ġ1 2
Ġd id
Ġbec ause
Ġdes ign
1 2
Ġl a
Ġe qu
pr int
s ed
is h
in a
Ġconf ir
re qu
Ġidentif ied
plic ation
tal ity
C E
ec ted
Ġexper i
or ding
ic es
Ġb as
Ġpr ac
Ġp ost
Ġall ow
u id
op h
Ġcor onavirus
Ġma jor
Ġad d
Ġs it
i o
in k
Ġst and
Ġrespective ly
c ri
Ġconc entr
Ġis ol
Ġpos sible
o res
Ġv is
er n
Ġac id
enz a
ide red
Ġh ow
Ġsever al
Ġpre print
t o
ar m
Ġcons idered
Ġpartic ular
T G
Ġvacc ine
Ġmor tality
ot her
Ġqu es
Ġ1 9
Ġac tiv
Ġimp act
Ġmed ical
ĠT o
Ġat t
ĠI L
Ġem erg
Ġex t
Ģ ¢
Ġrem ain
he l
Ġinfl amm
en si
Ġtrans mission
is hed
Ġeffec tive
Ġdist rib
t y
i um
Ġt re
Ġcom b
etw ork
vir on
o f
ro und
at or
Ġm icro
i el
Ġchild ren
Ġmo lec
in d
Ġwe e
re g
x t
Ġhe l
Ġcons ider
Ġsam ple
o v
end ent
v ant
b reak
Ġchang es
Ġ1 5
Ġpro b
Ġ ill
Ġappro ach
Ġcomple x
Ġm ut
Ġac ute
ic s
st and
d uce
o y
Ġval ues
Ġprovid e
Ġres id
Ġpro duc
r ation
Ġ ke
c ed
Ġval ue
Ġlike ly
Ġrepres ent
Ġanal y
1 1
Ġbe fore
Ġexper im
Ġinhib it
Ġph ys
z ed
Ġm ark
ab les
Ġf requ
Ġt em
on al
Ġdescrib ed
Ġresul t
a ke
Ġsur ve
Ġdi rect
Ġpro f
Ġexam ple
Ġa ir
ha vi
Ġdise ases
Ġtyp e
Ġcomp ar
di tions
Ġevid ence
Ġman ag
ar ch
og n
Ġout break
is ed
f t
Ġd ay
Ġcont in
Ġpo ly
y n
en ing
Ġm at
T A
Ġsp read
Ġrece pt
Ġf am
Ġtest ing
Ġ3 0
Ġle ar
Ġg reat
a v
Ġ ly
Ġe arly
Ġmeas ures
u ally
ver age
Ġcont rib
Ġgener al
y c
ing le
w ard
Ġcon ditions
ne um
c ent
Ġsugg es
ver y
Ġser v
Ġbe havi
ut ed
Ġmechan ism
Ġ5 0
Ġn etwork
ce pt
Ġm ight
Ġen viron
Ġm ade
Ġca p
ver se
Ġgro w
Ġpar t
I V
c are
Ġpar amet
Ġe ven
if e
b ility
rel ated
Ġfinding s
ĠA f
Ġan im
ĠA ll
Ġobtain ed
Ġkn ow
Ġre t
Ġg iven
ti s
Ġin f
Ġf oc
n al
Ġsy n
Ġre f
Ġcon duc
Ġver y
Ġsugg est
iel d
Ġl o
is ts
Ġcal c
ce p
Ġb en
ti ous
m s
p on
Ġg lob
Ġc ult
Ġ est
Ġs ingle
Ġd om
Ġbin ding
Ġm ice
an ti
Ġh yp
Ġmon th
Ġn ucle
Ġch all
ent er
ol s
w ay
as ing
Ġt rain
Ġmulti ple
Ġp ur
Ġt iss
1 5
Ġdevelop ed
r al
Ġl ic
Ġor der
ĠR es
ĠC on
Ġn ec
f ace
1 4
Ġinflu enza
ul ations
Ġpro ble
end ed
Ġl ine
Ġloc al
Ġre port
Ġc op
Ġh ost
Ġc ri
ĠR e
Ġreg ion
in s
is ion
fici ent
Ġmethod s
s pec
f or
Ġ1 4
ac tions
Ġpri or
Ġst rain
Ġimpro ve
Ġfoc us
Ġb et
ific ation
Ġdiagn os
pl oy
Ġc er
Ġv i
ial ly
t he
Ġrel ative
Ġstand ard
Ġy o
u tions
Ġp at
a i
Ġdet ection
Ġauth or
ul ts
Ġ [
over n
Ġex tr
s ure
om en
our ces
Ġim plement
it her
Ġp neum
ic k
Ġprog ram
pec ted
ab l
Ġe lec
Ġkn own
as c
ĠF urther
Ġb acter
in fec
Ġl os
Ġunder stand
Ġstruct ure
ous e
Ġrel ations
1 8
Ġ er
Ġinclud e
c op
Ġch ange
Ġrespon ses
Ġh ist
Ġst atis
Ġdis pl
ĠC om
Ġpol ic
Ġenviron ment
Ġwor ld
Ġst ate
Ġac ross
1 6
ĠI F
ĠO n
Ġoutc omes
ot yp
Ġwhe ther
n er
Ġtherap y
tr y
et s
Ġ Z
Ġantibod y
oc yt
ak ing
Ġdifferen ces
Ġs ize
1 3
ĠA d
Ġsystem s
Ġha nd
Ġpres ence
plic ations
Ġinte res
Ġpl as
ep ti
Ġfo ur
e u
Ġlim it
el f
oun t
Ġs ensi
Ġfact or
Ġ rap
ĠI g
ep endent
Ġr ates
Ġhel p
Ġvari ous
es sion
Ġantibod ies
Ġcont r
Ġf ul
Ġ Q
Ġepid emic
Ġrecom m
ter s
ut ure
sy ch
tic ally
W e
Ġn ormal
Ġrequi red
Ġpro duction
y m
led ge
Ġst at
Ġidentif y
Ġen c
Ġcan cer
5 0
ĠâĪ Ĵ
i vers
w e
id ence
r u
s ing
j ect
Ġinfec tious
ti ll
ĠP ro
Ġconfir med
Ġ2 4
Ġv ol
an s
Ġe con
Ġne ut
ur n
Ġdisc us
Ġab s
ĠI nd
rom e
ore d
Ġc at
Ġlic ense
med i
ĠM ore
on ia
Ġ Y
1 7
l ation
at ors
Ġrap id
Ġstr ong
Ġcont act
Ġrelations hip
Ġst ress
Ġ2 00
h old
Ġr ange
Ġe le
ĠCh ina
a x
Ġdiagn osis
Ġre duced
Ġv it
d own
p ut
res sion
% ,
Ġre al
Ġ1 3
Ġ1 8
c i
Ġprim ary
Ġgen es
ran e
t t
Ġed uc
Ġ1 00
Ġv ia
ul es
he st
ĠD NA
ĠThere fore
Ġcharacter is
g er
Ġdom ain
se l
Ġab ove
Ġcommun ity
it or
Ġex pos
Ġe v
Ġdet ected
ab ly
Ġstud ents
ĠA CE
l ow
ĠI C
Ġrec ent
Ġqu ality
ac ts
ro ll
G A
ĠW h
C s
Ġo x
Ġmanag ement
Ġad min
an n
Ġpro ced
Ġdispl ay
Ġcons ist
Ġof ten
Ġg overn
Ġsc re
Ġre ve
Ġdistrib ution
Ġs uc
Ġglob al
Ġs ince
ot e
Ġ1 6
Ġacc ess
nd om
Ġcollec ted
Ġvari ables
Ġsequ ence
ir c
at a
Ġis s
te red
Ġprovid ed
Ġpresent ed
Ġs elf
ch o
Ġin j
Ġle ast
Ġ X
Ġlim ited
Ġpro m
Ġhealth care
0 5
Ġknow ledge
d es
iti s
Ġl ife
Ġe ither
at ures
Ġtes ted
Ġlab or
yn am
ater ial
Ġp sych
Ġlear ning
m ph
iz ing
ti ce
ĠHe alth
Ġbet ter
2 1
Ġf uture
Ġg ra
Ġacc ording
Ġm as
Ġdemonstr ated
Ġl ack
Ġo l
Ġa verage
ter m
Ġconduc ted
str uc
Ġs till
Ġop tim
nd rome
Ġpath ogen
af f
Ġf ail
ir d
Ġe pit
x iv
Ġ1 1
Ġcor rel
Ġver sion
Ġcar di
Ġra ndom
pres sion
R xiv
Ġpat tern
Ġh owever
Ġd a
Ġ ur
anc es
Ġm y
Ġ2 5
Ġprevious ly
Ġspec ies
Ġo per
Ġre ad
Ġsh ort
Ġpneum onia
ag ing
Ġcon te
Ġincre asing
Ġiniti al
Ġke y
an e
Ġrecept or
Ġsign al
Ġde g
Ġtes ts
Ġcyt ok
Ġen h
Ġth us
feren ce
Ġhy per
c om
Ġmonth s
ti vi
Ġques tion
in o
P CR
Ġde l
pec t
Ġpro per
al ed
Ġin st
Ġr at
ur ation
c o
pec ially
m ore
ar di
Ġhigh ly
Ġg o
y r
ir al
Ġâ Ģ¢
Ġest abl
Ġg ran
Ġcri tical
Ġg uid
Ġtim es
Ġrequi re
ce ll
M P
ti f
Ġac h
Ġshow s
spec ific
Ġca use
iqu e
i er
Ġfac il
ib le
od e
Ġare as
Ġset ting
T h
Ġparamet ers
Ġass um
p ri
Ġach ie
Ġpre vent
Ġtrain ing
Ġass ay
w ays
Ġrec ogn
er v
Ġpre val
Ġdo es
li ke
am e
Ġexpos ure
s et
Ġf ew
Ġs um
Ġp ul
Ġmed Rxiv
Ġly mph
g l
Ġnec ess
Ġ Ï
Ġde li
ron ic
Ġsur face
Ġmin im
Ġac tive
Ġin v
n ot
Ġgrow th
our ce
Ġfam ily
ing s
pl ied
Ġad v
/ /
Ġst ep
Ġperform ance
Ġar tic
Ġre as
Ġm g
ĠIF N
Ġs w
Ġc irc
Ã ¤
ĠAl though
A P
Ġdifferen ce
tivi ties
ic t
Ġmed ic
Ġad j
d en
w h
Ġes pecially
od y
Ġinvol ved
Ġre duce
Ġr ati
Ġg l
: //
ĠI I
Ġsc ore
Ġem ploy
d ro
Ġconc ern
jec ts
Ġc hem
Ġdef ined
Ġh ome
i ous
ens ity
Ġacc ur
Ġaddition al
Ġm ust
Ġpro posed
Ġex p
Ġcontin u
igh ts
ĠTh us
Ġfollow ed
p ati
Ġne u
Ġauth ors
Ġac t
asc ular
Ġs a
Ġsur vi
Ġserv ices
Ã ³
ĠH C
ic ity
mit ted
Ġactiv ation
Ġsy ndrome
Ġcor res
Ġa im
Ġtiss ue
b o
Ġl iter
Ġp epti
Ġtem per
ĠC T
Ġsc i
ul ate
Ġ20 19
Ġsit u
Ġdif fic
b e
Ġphys ical
Ġra di
l as
Ġm al
b id
an y
Ġpo int
p e
Ġre duction
Ġstrateg ies
Ġor ig
ic ian
el ine
g o
ar ding
ĠC o
h y
Ġd oc
R I
hes is
Ġben ef
Ġf ram
Ġex ist
Ġser um
Ġcomple te
Ġcaus ed
Ġterm s
is tic
Ġval id
Ġinte g
ĠE n
in ant
s c
Ġinter action
Ġsurve y
Ġapp ear
id es
Ġm ac
Ġto p
Ġfo od
Ġtyp es
ak en
Ġ1 7
Ġchall eng
Ġen g
Ġco ur
ect or
ĠP CR
Ġac tivities
Ġrespon d
Ġre plication
Ġobser v
Ġu til
Ġcharacteris tics
Ġgreat er
Ġcomp on
w n
Ġ >
A S
Ġloc k
om y
Ġw omen
Ġtrans cri
Ġare a
Ġc re
Ġthere fore
Ġre str
Ġstat us
Ġev ents
Ġs ite
os ph
u le
Ġconte xt
Ġdrug s
Ġph ase
af ety
Ġsever ity
ĠH IV
Ġab le
Ġreg ions
in ated
Ġse e
ab il
Ġconcentr ation
Ġch ronic
Ġf il
r it
Ġm en
Ġno vel
Ġrec ord
ur y
Ġmemb rane
Ġcult ure
Ġs oci
i ke
Ġcl us
g i
anc ed
C C
Ġg ly
Ġd own
he re
Ġinflamm atory
Ġon line
Ġover all
Ġtre ated
ĠO ur
Ġfe atures
ĠS e
mon ary
Ġc ateg
Ġs k
Ġcomp ound
i or
Ġv enti
Ġsequ ences
Ġadd ress
ĠM E
por tion
Ġsuc cess
our s
P s
Ġd ynam
Ġdet ail
Ġwee ks
D S
ocyt es
em s
ĠMore over
2 5
ĠFurther more
s p
fici ency
en e
Ġw ater
Ġdeath s
Ġm uch
Ġvacc ines
ĠA t
Ġ ess
um ent
Ġcr iter
Ġan tiv
Ġat ten
B D
ĠI m
Ġpers on
en sion
ti al
is on
A R
Ġs uf
ot he
Ġanti gen
ly ing
Ġdeterm ined
Ġprot oc
Ġexperi ence
ĠE x
Ġen z
Ġse en
Ġda ily
om et
Ġanalys es
Ġd ose
Ġl og
ogen e
fic ation
em ber
z e
in ts
Ġm aterial
Ġpre c
Ġg ood
et her
Ġaffec ted
P E
enc ed
Ġb ro
Ġt um
pit e
cep ti
ĠR T
g or
Ġdat as
ut es
% ),
Ġhe m
erg y
Ġneed ed
Ġab ility
Ġvacc ination
Ġl es
i ent
Ġco h
Ġc ross
Ġe vol
Ġm ental
Ġdeterm ine
Ġl ink
w are
gor ith
Ġlock down
T able
Ġoutc ome
ĠC C
an k
el s
Ġper cent
Ġ her
ĠIn tern
Ġwh at
Ġb ack
Ġan other
Ġpreval ence
er ation
Ġrestr ic
ap s
er c
Ġre duc
Ġint ro
ac tive
Ġdi e
Ġinter actions
Ġst aff
Ġ ;
Ġh ol
Ġpl ay
P S
Ġto ward
ow er
Ġanaly zed
p re
Ġad mission
3 0
Ġ9 5
Ġgen ome
Ġappro pri
Ġliter ature
Ġinter vention
Ġl arg
Ġf ib
Ġins tit
Ġf ield
Ġmeasure d
Ġrece ived
ĠAf ter
Ġlos s
em i
in ally
9 5
p et
Ġw ide
Ġcl ose
Ġecon omic
Ġmolec ular
Ġex c
hel ial
ac ted
G G
l usion
Ġc entr
Ġpa per
Ġde v
Ġtherap eu
Ġap plied
Ġcle ar
her s
ivers ity
Ġn at
od es
Ġcon dition
ac hes
Ġinc ub
Ġres ist
Ġg e
Ġreve aled
in fl
a ir
Ġtemper ature
Ġa round
ab ol
eng th
Ġs l
Ġd on
Ġp hen
Ġb u
Ġindic ated
Ġc ent
R F
Ġv s
Ġexpres sed
oc h
Ġbehavi or
Ġcap ac
por ted
Ġanim als
M S
p o
se e
Ġantiv iral
Ġma ke
Ġrati o
Ġb est
Ġlabor atory
Ġres ources
anc ing
Ġrele vant
p ose
Ġsensi tivity
enti ally
R T
Ġinter n
Ġ4 0
und er
Ġw ay
Ġselec ted
Ġal though
Ġe very
Ġex pected
tt ps
e ed
ĠÂ ±
Ġparticular ly
fic acy
Ġs cho
Ġpro te
ĠI f
b or
Ġprac tice
u k
Ġ x
Ġproble m
B S
Ġdecre ased
Ġill ness
Ġal gorith
Ġm ix
a ve
Ġd ys
Ġn ur
Ġe th
Ġsus cepti
Ġc all
Ġs afety
Ġmechanism s
Ġpl ace
Ġâ ī
fer red
Ġs tim
Ġcoun try
Ġmed ia
ĠM ed
Ġestim ated
Ġstrateg y
ograph ic
enc ing
u rop
x i
ĠC I
k n
Ġinc idence
Ġmon itor
Ġwee k
si bility
oc y
it al
Ġwork ers
Ġse par
ĠC l
Ġd am
Ġexpl ain
Ġpro portion
A s
over y
Ġref lec
T o
Ġeduc ation
I C
o virus
Ġ *
Ġcommun ic
if y
Ġmain tain
or g
Ġf r
t ro
us tr
Ġcon n
in ing
and s
Ġfl ow
Ġcalc ulated
Ġassoci ation
Ġb ody
Ġgovern ment
ĠA c
s tit
A C
ĠIC U
Ġcon st
Ġpolic y
Ġf ive
Ġdecre ase
Ġpredic t
Ġsub sequ
ist ration
Ġevalu ated
is ing
r ing
um e
Ġcontr ast
ĠThe y
Ġcar ri
Ġpul monary
Ġper ce
Ġst ar
S V
Ġcriter ia
Ġc ost
Ġgran ted
ĠO ne
i at
ĠM arch
Ġresul ting
Ġ2 8
Ġdiffic ult
ro up
Ġassess ment
Ġdirect ly
Ġprof ession
Ġprot ec
Ġappro xim
Ġstrain s
ĠWh ile
Ġmed i
er ate
Ġsugges ted
Ġnecess ary
r up
Ġess ential
urop e
ab or
ven tions
Ġplas ma
ĠÂ µ
Ġtri als
Ġreg arding
Ġpres sure
Ġma xim
Ġsit es
Ġinteres t
Ġcour se
Ġother s
Ġ2 2
ve ment
Ġcer tain
Ġco ll
in ary
Ġneed s
ĠC O
u ity
Ġsub st
Ġrecomm end
Ġtri al
r id
Ġneut ral
L I
b ers
Ġfl u
ill ion
Ġappropri ate
Ġcell ular
Ġth ough
t le
H O
f under
Ġd en
yr ight
Ġsc ale
Ġrepor ts
Ġunderstand ing
Ġsum m
Ġsecond ary
Ġf em
Th is
Ġs u
Ġha ving
Ġfail ure
Ġn ational
Ġscre ening
l ong
infl amm
xi ety
roll ed
y gen
ar tic
al es
C D
Ġinflamm ation
Ġcons um
00 1
ro w
Ġcop yright
ra d
og ens
Ġte am
4 0
ac es
Ġwhere as
e qu
Ġcapac ity
ul ating
Ġmemb ers
Ġdet ect
ĠIg G
Ġav oid
r im
Ġb ar
i k
Ġli ver
us c
Ġn ow
Ġpop ulations
ĠS im
Ġcon sequ
y mptom
Ġbec ome
Ġmet abol
out h
Ġ3 7
in ess
ĠE urope
ol ar
Ġcontain ing
ĠP ati
ĠU S
Ġpubl ished
Ġch ain
Ġyo u
b i
Ġef ficacy
l or
Ġin n
Ġ2 3
Â °
Ġful l
op ath
pon ding
Ġpo or
on t
Ġ6 0
ĠA r
Ġinter ventions
it ation
Ġimport ance
Ġ2 1
up plement
k ing
L A
ar r
Ġad ults
Ġper pet
f usion
Ġbl ock
tim e
ane ous
p ared
el ines
Ġt as
Ġd im
Ġinj ury
0 1
Ġevalu ation
Ġcorrel ation
Ġtherapeu tic
p p
w ide
Ġgener ated
Ġn an
d ay
ĠU SA
Ġdiagnos tic
p ir
or ies
Ġsol ution
Ġre action
Ġlo ad
ys is
I I
w w
ĠP E
Ġl ater
om a
Ġinflu ence
Ã ¼
Ġhist ory
Ġprovid es
it ing
Ġemerg ency
Ġen ergy
Ġd ig
t yp
Ġhigh l
ĠIntern ational
Ġpe ak
Ġmean s
Ġe vent
Ġappro aches
fic ial
en ari
Ġcoh ort
Ġ ent
ap p
h an
Ġassess ed
Ġd ri
a e
Ġlead ing
ĠS p
at form
d o
Ġanim al
Ġf ace
Ġf und
Ġyo ung
Ġhy dro
olog ies
Ġfin al
Ġl at
Ġl ip
Ġf ever
Ġhuman s
Ã³ n
2 2
il i
Ġrat her
A T
Ġf at
ĠN o
ĠÎ ¼
Ġm it
Ġ enter
Ġpers onal
Ġag ents
Ġh om
Ġad op
Ġimmun ity
Ġhol der
Ġdi ab
Ġbro ad
â Ģ¢
Ġt aken
Ġbacter ial
Ġfrequ ency
Ġm ild
Ġnat ural
e re
unc tions
Ġcr is
Ġan xiety
le t
Ġsc ores
Ġm RNA
C OVID
Ġques tions
ra g
N F
Ġvit ro
Ġol der
Ġprocess es
form ation
ren ce
Ġcomb ination
L R
anc y
Ġcompar ison
enc ies
Ġconcentr ations
Ġdec ision
Ġon set
Ġpath ogens
Ġb rain
Ġtechn ology
pl ant
p ly
Ġp ower
dition al
Ġconsist ent
Ġproduc ts
Ġvi ew
Ġal tern
am in
Ġind ex
b s
Ġindic ate
read y
Ġmed ian
Ġaffec t
Ġcorres ponding
is c
Ġreas on
Ġph arm
Ġhealth y
Ġwe ight
Ġfunction al
Ġperpet uity
ician s
Ġs al
Ġse x
Î ±
en ess
Ġpl an
Ġox ygen
Ġinteg r
Ġe as
Ġvari able
Ġsub jects
Ġt ake
Ġch o
Ġcomp ut
P A
Ġro om
Ġ2 6
em ia
Ġnum bers
in duced
Ġreg ression
Ġinter val
Ġf ree
Ġal ong
E M
Ġ2 9
Ġind ependent
Ġpl atform
mer ic
G F
inflamm atory
Ġl ay
Ġhig hest
otyp e
Ġcl os
Ġl ast
ac tiv
ĠW ith
Ġevalu ate
iat ric
Ġprob ability
Ġst age
es is
tion al
Ġuse ful
Ġfacil it
os ts
Ġh ours
ymptom atic
Ġelec tr
Ġte le
Ġaf f
Ġin duced
Ġal ready
Ġint r
h ing
Ġrelative ly
Ġn as
et es
if ically
Ġrec ently
Ġisol ated
) ;
Ġproble ms
Ġp or
Ġpos ted
Ġincre ases
Ġs ource
e b
wh ich
Ġrem o
Ġdep end
Ġfin d
ra y
2 4
Ġadd ed
Ġgene tic
ĠP re
Ġc yc
Ġexperim ents
Ġsc enari
Ġb o
Ġsugges ts
Ġprot ection
art ment
er ative
ĠÎ ²
Ġex ten
an tit
Ġdat ab
Ġspec ial
Ġf it
enti fic
I S
Ġph osph
ex t
Ġisol ation
ud e
Ġso ft
h ood
Ġiss ues
Î ²
Ġh ttps
o ti
Ġpo ints
Ġint en
e ad
ĠW hen
Ġam ino
y me
Ġ ve
Fig ure
b y
Ġcollec tion
Ġc he
Ġbe low
ak es
Ġpath way
en ding
N C
S ARS
ĠM et
Ġd uration
ul atory
Ġr ang
Ġqu ar
Ġpe er
Ġdeli very
ospit als
Ġproper ties
ar ing
op e
ari ly
Ġsurvi val
8 0
Ġsuccess ful
ew ork
m ost
Ġl ength
Ġser ies
Ġpot entially
Ġresear c
Ġto g
Ġbe li
Ġpos ition
N D
Ġim ages
Ġbi ological
cer tain
Ġpartic les
cl usion
on ic
Ġcompound s
Ġun til
entr y
Ġst ates
Ġstruct ures
ot s
Ġhe ter
ag ed
s ide
Ġs ection
Ġform ation
Ġreg ard
ĠME RS
on es
B V
pr il
Ġtog ether
Ġcan not
Ġap plication
Ġmajor ity
Ġproced ures
Ġe ar
â Ī
Ġacc ount
P D
Ġimpro ved
Ġm ass
f ort
Ġrel i
ger y
Ġvol ume
ĠR ec
Ġ2 7
Ġop en
ati ves
port un
Ġestabl ished
ran si
Ġchalleng es
Ġs ix
Ġprotec tive
Ġth rom
Ġex hib
Ġf unctions
Ġhe re
is ted
Ġre st
er o
infec ted
Ġre qu
Ġwork ing
ĠP h
Ġremain s
Ġguid elines
Ġstruct ural
Ġcomp os
Ġm illion
Ġtre nd
n ai
l ess
Ġmolec ules
Ġt it
ĠA R
N S
ne y
ĠÎ ±
lud ed
le x
y st
Ġh ouse
at s
ĠSim ilar
Ġventi lation
iqu es
Ġer r
Ġo wn
Ġartic le
or bid
ĠA m
Ġup on
Ġantib io
Ġen ti
Ġbas eline
Ġsuggest ing
jec tive
2 3
O S
dition ally
am p
Ġele v
Ġinter pre
Ġpro duced
Ġqu anti
Ġresist ance
Ġprotoc ol
Ġ ),
Ġt ub
Ġtrans port
Ġsam pl
Ġpa ren
d s
en ge
Ġof f
ure d
Ġs ens
2 9
Ġh ospitals
Ġ entry
g n
Ġstud ied
Ġcurrent ly
er ved
Ġto x
Ġem b
Ġepid emi
ĠM S
Ġpro v
% ).
g ical
Ġop portun
Ġprom ot
Ġmain ly
H C
ĠAf ric
ĠUn ited
Ġmonitor ing
Ġdevelop ing
et h
Ġpsych ological
l er
Ġen sure
6 0
Ġsitu ation
Ġd os
is ation
Ġ :
Ġto ol
ĠÃ Ĺ
Ġinvestig ated
rol og
Ġ ir
Ġse arch
E S
ograph y
Ġass ays
go ing
Ġdam age
i i
Ġd ate
k ed
Ġas ymptomatic
Ġam pl
Ġp ass
y si
Ġcon struc
Ġdifferen ti
Ã Ń
is tered
Ġfram ework
ĠA meric
Ġpattern s
Ġdesign ed
Ġstatis tical
g round
Ġmut ations
Ġdef in
Ġt ransi
Ġcontrol s
Ġdec l
Ġadmin istration
Ġb ur
Ġintern ational
Ġcompon ents
op las
w ise
Ġmac roph
Ġcris is
C M
Ġg u
Ġn ature
a z
Ġh al
Ġlarg er
C G
Ġm ic
ĠC or
Ġprac tic
Ġpre vention
Ġtranscri ption
iz es
Ġ ide
Ġre pe
P I
ac ed
ĠA pril
Ġint ra
ĠUn iversity
Ġtra vel
Ġr ight
Ġpredic ted
Ġcont ent
Ġexperim ental
Ġus ually
upplement ary
e red
ill ance
Ġsec re
Ġre pro
Ġ ul
D A
Ġwho le
cc ording
Ġac tion
Ġf ore
Ġdeg ree
i ving
ĠO f
Ġhe art
Ġdatas et
ĠSt ud
Ġa er
% .
ĠF inally
Ġcytok ines
Ġ4 8
olog ic
Ġinhib ition
P R
Ġd il
Ġse g
Ġdiab etes
kn own
20 20
Ġm id
ĠD ata
ros cop
Ġro b
Ġv ers
Ġmark et
tion ed
Ġresid ues
Ġabs ence
g es
Ġenvironment al
Ġserv ice
Ġevol ution
Ġcaus es
in ical
fl u
a pt
Ġun ique
Ġrecom b
Ġre ference
Ġhyp ot
ove red
ĠD e
P V
and id
Ġapproxim ately
Ġcentr al
o ly
anc ial
Ġcarri ed
Ġcom plications
Ġselec tion
Ġth ird
Ġy et
t hesis
ra nd
Ġdis s
Ġrec ru
Ġimplement ation
I R
Ġqu antit
Ġam ount
tif ied
Ġne xt
Ġexam ined
Ġbe g
Ġ /
Ġdi rec
Ġdoc ument
Ġpre gn
1 00
as is
ell ular
Ġag g
Ġrele ase
ro tein
Ġalgorith m
Ġclus ter
Ġaccur acy
Ġp ain
ur rent
tiv es
Ġem o
Ġp an
f old
Ġsignal ing
ed ing
2 7
Ġad verse
Ġdist ancing
A n
ri al
atis f
ur ity
roph il
t rans
Ġun it
Ġchall enge
Ġres ol
ar c
ren g
a h
Ġbacter ia
Ġim aging
ĠS ince
Ġtum or
ub le
Ġsp ace
othe rap
Ġb ound
re am
Ġm m
Ġtechn iques
Ġme et
Ġmed ium
Ġscho ol
Ġsur gery
Ġinhibit ors
ol es
m L
Ġproced ure
Ġpl ate
Ġsp ike
Ġpath ways
Ġestim ate
oid s
Ġl ed
Ġv iv
Ġdist ance
ocy te
Ġs ide
ĠI tal
Ġtoward s
Ġcommunic ation
if est
Ġs ources
ron ch
Ġr un
Ġnot ed
tiv eness
Ġsy st
Ġsoft ware
Ġpr inc
Ġcytok ine
est inal
t re
Ġh is
9 0
Ġresul ted
Ġ3 5
ord ers
Ġd one
m an
Ġquestion nai
Ġatten tion
w here
Ġvis ual
b ial
ĠO r
Ġlong er
Ġexist ing
. .
it es
Ġtr act
m l
Ġsubst anti
Ġpepti de
ĠB e
Ġw ord
Ġf ar
C AA
Ġconfir m
Ġcontrib ute
Ġrecomm ended
2 8
Ġsw ab
or ld
2 6
d ependent
O R
Ġs he
Ġca pt
ĠJ an
Ġt urn
ĠB i
Ġdist inc
Ġdynam ics
Ġl ig
Ġ %
Ġdel ay
E V
Ġsup plement
Ġp ast
Ġcontinu ous
Ġrecept ors
ib ility
Ġrec overy
Ġm M
Ġrequi res
b l
Ġpercent age
Ġoccur red
ary n
ri x
Ġinclud es
c ence
Ġk id
Ġc od
Ġrespond ents
A L
A D
Ġl ight
Ġcomb ined
Ġviv o
Ġallow ed
Ġm uc
ac ellular
Ġre d
Ġaltern ative
str uct
Ġgener ally
i Ã³n
Ġenz yme
Ġspec im
C S
â Ģ
Ġatt rib
im er
ĠM ay
Ġun certain
Ġrespon sible
Ġfollow s
Ġinc or
Ġg et
Ġbas is
f unction
Ġsurve illance
ĠU K
or der
om p
c al
d om
Ġinter view
Ġp ig
ĠS ome
Ġmod erate
uf act
typ e
Ġcon ver
Ġunder lying
Ġprovid ing
4 3
Ġsetting s
C L
m od
Ġfin ancial
Ġrepres ents
Ġlimit ations
Ġhouse hold
Ġus ers
A G
Ġidenti fication
ul in
un e
Ġst reng
Ġdiscus sed
Ġad ap
Ġestim ates
n ormal
Ġv ul
res hold
Ġin put
Ġd ensity
Ġex posed
Ġef ficiency
ĠS ec
ap e
M I
ĠF irst
4 5
ib r
Ġcharacter ized
Ġro ut
Ġpri v
for ts
Ġ8 0
Ġm ouse
ĠS c
Ġde pression
Ġresearc hers
ĠD ec
Ġequ ip
ac he
Ġimplement ed
Ġder ived
Ġquar ant
B Y
D V
Ġbu il
Ġsur gical
ĠSt ates
Ġto ols
Ġrapid ly
qu e
Ġtiss ues
Ġsus tain
Ġappro ved
u ary
b in
Ġindic ating
Ġmaxim um
Ġpolic ies
a ren
Ġw ild
Ġc andid
Ġspecific ity
Ġm aking
Ġf ix
7 0
al ysis
Ġpractic es
el i
Ġsubsequ ent
) -
os ter
Ġad vant
ĠAd ditionally
b an
ĠP R
Ã ¶
Ġbar ri
s h
Ġfl uid
Ġpre pared
Ġag re
Ġv ector
Ġproduc t
3 5
si a
Ġnetwork s
Ġle ft
Ġbi om
ĠC F
Ġbenef it
Ġbi as
Ġcardi ac
Ġf usion
Ġsa fe
Ġallow s
Ġpro duce
ach ing
er al
medi ated
Ġs atisf
por ts
Ġcon cept
Ġst ay
I T
Ġqu e
ĠPati ents
Ġreduc ing
Ġman ufact
ĠRes ults
al y
Ġd ra
o le
Ġth reat
Ġpredic tion
Ġsign s
ar ies
Ġe in
Ġar g
oci ated
Ġth reshold
pec ts
Ġtr ig
Ġform s
Ġdis ch
ĠS y
ĠP D
e g
le vel
Ġrisk s
Ġsyn the
Ġcom orbid
ĠN ew
3 8
Ġim medi
ros is
Ġvul ner
Ġ9 0
iz ations
ĠR BD
Ġef forts
Ġoutbreak s
Ġenh ance
er t
Ġm usc
Ġsh if
M E
Ġindic ates
infec tion
Ġ3 1
Ġac cept
ut ri
ĠB y
Ġrecord ed
Ġsuscepti ble
Ġtrans plant
Ġor al
si b
ĠCo vid
Ġpol i
Ġfrequ ently
Ġstatis tically
ĠD es
Ġst ain
Ġgly c
Ġ3 6
Ġl ines
en ed
do i
F or
Ġb us
u ed
Ġj ust
l and
Ġoptim al
Ġcommon ly
Ġb re
Ġperce ived
ĠIn te
Ġgen der
Ġle g
Ġline ar
ĠJan uary
Ġc hest
ear ch
ĠA ccording
Ġexperim ent
Ġsup er
Ġpers ist
ism s
Ġimprove ment
Ġc ut
Ġsim ple
Ġworld wide
Ġtarget s
Ġal one
S D
Ġdatab ase
of f
Ġret urn
ol ic
Ġsyst emic
Ġre pl
Ġl it
âĪ Ĵ
Ġsyn thesis
Ġim age
Ġche c
Ġag ent
Ġy ield
Ġtrans fer
Ġbenef its
o tic
I F
d le
Ġhe ad
Ġhal f
Ġconcern s
Ġwide ly
Ġdist ress
ĠĠĠĠ Ġ
3 3
ĠC R
us ted
ĠG en
Ġfe ature
Ġpoly mer
ĠA g
y cl
ĠO ther
Ġbas ic
Ġmat rix
Ġpa ir
Ġinvestig ate
Ġb uf
Ġenti re
Ġco ugh
Ġad apt
Ġ4 5
Ġestabl ish
Ġf rag
cri pt
oc ardi
Ġext re
Ġli ving
Ġas th
ic ine
it able
Ġreport ing
Ġlead s
ac hed
Ġfocus ed
Ġnum er
Ġachie ved
Ġass ign
ad es
igh ted
Ġm ale
Ġinter nal
Ġb ronch
Ġend ot
g roup
Ġcons ent
Ġparamet er
Ġal most
Ġar ter
Ġan tic
Ġdis orders
" ,
y ear
Ġm ig
ĠD uring
Ġsystem atic
Ġincor por
Ġoccur s
ines e
hel ess
Ġconc lusion
Ġcer tified
S T
Ġst able
Ġmacroph ages
10 1
Ġit ems
Ġas pects
s is
ass ociated
t a
E R
Ġdig ital
Ġap plications
Ġinstit ution
is ions
Ġe c
Ġclass ification
mer c
Ġill ustr
4 8
Ġelev ated
Ġrelationship s
Ġles ions
Ġt end
Ġeffec tiveness
Ġv ary
Ġ3 3
otherap y
sel f
t ual
m et
is es
ed iatric
Ġepit helial
Ġbi o
D NA
N T
Ġthrough out
Ġind uce
Ġpos i
iti g
Ġp H
. "
Ġacid s
ĠRe g
M V
Ġneut rophil
Ġun known
Ġrout ine
ang u
Ġsampl ing
Ġpharm ac
p ond
ov ascular
im mun
Ġse as
id s
Ġdi vid
m ic
Ġprogram s
Ġspec ifically
Ġmas k
I P
in ity
p ed
M A
O C
Ġdiscus sion
Ġdem and
Ġra re
Ġex erc
4 9
E C
Ġneu ro
Ġfr action
in ate
Ġsci entific
l ing
ĠCh inese
ĠD i
Ġvers us
as tr
fe red
Ġco ef
Ġful ly
A l
Ġv es
Ġext ent
Ġkid ney
ag ement
con t
or ing
Ġo ld
Ġvari ants
al ing
ok ing
Ġad ult
Ġcyc le
hod s
Ġad he
Ġsumm ar
Ġin duc
Ġdiagnos ed
Ġloc ation
Ġm il
ip her
Ġm is
ac ing
Ġt er
ĠA T
Ġdis rup
Ġlear n
ĠS ci
as ive
Ġl as
Ġinhibit or
Ġsp ati
i RNA
li er
Ġfe ed
Ġun its
ist ry
re en
Ġpos sibility
ĠW HO
t ure
ect ors
ĠW u
ĠAs s
Ġqu al
Ġincub ated
Ġgener ation
Ġdes pite
Ġre plic
l if
Ġexperi enced
Ġup per
Ġan s
Ġser ious
Ġaut om
as ter
Ġc osts
te e
Ġsequ encing
om er
Ġvari ation
Ġcommun ities
z ing
Ġm ach
Ġfam il
Ġfem ale
pos itive
A V
Ġinst ance
ĠG erm
y ing
Ġbeg in
Ġy our
Ġg ain
ĠN S
Ġp ut
Ġbeli e
Ġcor related
Ġhospital ized
pati ent
Ġsk in
Ġus er
Ġex ce
Ġprog ression
Ġorig inal
Ġtreat ments
p i
Ġcr uc
Ġl ist
otyp es
Ġcont acts
Ġout side
Ġrob ust
Ġ7 0
Ġw a
r h
Ġcom pl
Ġprocess ing
Ġmut ation
Ġv ide
p ers
Ġâī ¥
Ġsup ply
g ed
Ġad equ
Ġ3 8
o int
Ġg raph
Ġcoll abor
ri ef
h ol
Ġrecommend ations
ros pective
or gan
Ġhospital ization
7 5
b ack
ĠC ons
Ġw rit
9 9
Ġet c
Ġc ogn
Ġvari ety
ĠEurope an
Ġef ficient
Ġmechan ical
Ġcontain s
Ġres pect
Ġinten sive
Ġ20 21
* *
ĠAm ong
The re
ĠT NF
Ġpepti des
Ġm iss
Ġad mitted
Ġdistinc t
Ġgl uc
Ġ3 2
Ġconst ant
ill s
ting ly
Ġcall ed
Ġlink ed
Ã ¡
Ġt w
Ġsignific ance
jec ted
Ġexten sive
Ġan n
ph yl
ir ing
Ġflu ores
Ġfacil ities
er b
Ġpro mis
Ġwe ak
Ġgener ate
Ġachie ve
Ġdesc ri
ĠM ost
be ing
Ġiss ue
ĠN ational
Ġemerg ing
Ġd og
Ġtem por
Ġcruc ial
Ġartic les
Ġp ack
om al
Ġfe el
Ġcol on
Ġn or
Ġcomple ment
Ġbur den
as h
Ġnot e
Ġn orm
ogen ic
ĠWu han
ever al
Ġenh anced
B M
Ġf ig
ĠIn c
Ġdemonstr ate
Ġtechn ique
ĠS outh
Ġacc um
Ġde ep
op erative
ot ox
Ġdescrib e
Ġconf idence
Ġdi arr
ten sion
C I
Ġl ate
Ġquestionnai re
ti tion
Ġm itig
pos ition
3 4
Ġmas ks
C l
in ter
Ġsim ulation
Ġlit tle
Ġconsum ption
Ġextr acted
ĠCon t
Ġb al
at in
Ġaer os
Ġasth ma
3 6
Ġpre par
oc hem
lud ing
se ud
ec ause
ĠA D
Ġdo i
Ġreg ular
Ġne ur
Ġur ban
o qu
Ġinterpre t
Ġpro p
Ġre nal
m ia
Ġal le
Ġal ter
i re
Ġdep endent
Ġquarant ine
Ġex pect
le ar
Ġph ysi
r ich
oti de
Ġem ph
Ġtra ditional
Ġtrans l
at al
ĠIn stit
ĠF eb
Ġf av
Ġab normal
Ġexc luded
Ġatt em
Ġst ages
Ġal ign
Ġappear s
ĠL e
Ġdomain s
ard s
a w
f act
Ġn odes
Ġcomp re
Ġquantit ative
Ġequip ment
3 7
si zed
Ġinter act
T R
Ġprog n
Ġheter ogene
Ġbuf fer
ĠH R
Ġse ems
Ġsup ported
k g
Ġm ar
Ġprog ress
Ġcomp are
Ġun c
H V
ag en
Ġcompon ent
g ens
Ġst er
Ġinvol vement
Ġb at
po int
Ġexam ination
ĠC oV
2 00
Ġn ame
Ġsub ject
ast ro
ru ary
1 101
Ġc ore
Ġcont rolled
Ġst ability
Ġh ar
Ġman ifest
Ġstrong ly
Ġn m
Ġdys function
ĠA b
ĠO RF
oph il
ĠS D
Ġsus pected
Ġstep s
in ations
Ġcom merc
Ġpro ject
yc in
Ġout put
Ġdetail ed
Ġon going
6 5
ĠS h
Ġm em
ĠH ospital
Ġfamil ies
Ġdim ension
Ġchem ical
res tingly
Ġenz ym
Ġap op
Ġst art
Ġdi vers
LI SA
Ġcol le
Ġprom ote
Ġsuf ficient
Ġloc ated
Ġpo ll
ĠSimilar ly
Ġavail ability
Ġl angu
Ġmet a
Ġd u
P C
Ġreas ons
Ġtarget ing
ch ing
Ġfix ed
Ġpur pose
Ġper ipher
Ġob es
W h
Ġinvestig ation
Ġ3 4
Ġhypot hesis
ĠHe re
Ġaut o
Ġsensi tive
Ġextre me
Ġcar b
Ġtechn ologies
ĠM e
ĠO ver
oc oc
ĠP A
Ġd ro
ap an
y ond
Ġc reat
Ġch ann
Ġbus iness
Ġreg ulation
Ġemploy ed
Ġf al
Ġon ce
Ġpro lif
m o
Ġrecomb inant
Â ·
Ġrece iving
Ġcur ve
Ġrecogn ition
Ġmen tioned
Ġt aking
Ġpo ol
Ġb ed
Ġresid ents
Ġconsequ ences
ĠE R
o u
Ġsl ight
c rib
Ġw ar
c y
s or
Ġintro duced
Ġlung s
ĠSec ond
H S
Ġcardi ovascular
Ġmo b
Ġcons tit
x y
Ġli ve
Ġadmin istered
ens us
Ġsymptom atic
ĠH A
H R
le ep
ĠO R
Ġele ments
Ġear lier
Ġcompre hen
Ġshow ing
Ġcor rect
I t
feren ces
ĠB l
Ġco ord
ĠW orld
N P
tre ated
Ġal ways
ĠD ise
ph al
ĠB oth
Ġlay er
yl ation
Ġexperi ences
us ive
Ġsh are
vention al
Ġspecim ens
Ġmedic ine
Ġtr ue
ĠC S
Ġf ear
Ġconsider ing
a us
res sive
ĠâĪ Ī
ĠItal y
tern al
Ġret rospective
fec t
ad a
Ġtas k
Ġerr or
Ġt ext
Ġrece ive
Ġnas al
a rent
p ts
virus es
ĠC A
Ġr ights
Ġelec tro
Ġcateg ories
Ġthrom b
b rid
ell ing
ĠFeb ruary
ĠN or
Ġlab el
Ġinn ate
Ġhe p
Ġs il
O ur
Ġcontin ue
Ġag ed
Ġocc up
Ġde vi
Ġs low
ĠE D
Ġman us
Ġpresent ation
Ġcont am
res t
Ġass ist
Ġpers ons
Ġobserv ations
c hed
ĠRes earch
Ġcoronavirus es
Ġw ays
ĠE ach
Ġmaterial s
ep end
Ġcomp r
Ġprovid ers
I L
ĠT wo
Ġb reat
d is
I G
Ġprofession als
Ġdev ices
ĠAl so
abil ities
ĠJ une
ĠS pec
Ġas ked
Ġcre ated
Ġm L
op es
Ġan gi
Ġsus p
Ġmod ified
Ġtarget ed
ĠC ol
Ġscenari o
Ġincub ation
Ġvis its
Ġsub str
ĠAn other
st ream
l im
Ġof fer
S t
r in
our nal
val ent
ĠJ apan
ĠS uch
u ly
N V
Ġinc lusion
um n
Ġrestric tions
Ġacc oun
Ġ3 9
Ġpos sib
Ġob jective
ve olar
Ġinform ed
Ġfrequ ent
es tern
Ġsol utions
Ġagg reg
Ġsh ared
Ġobserv ation
m icro
M D
em ents
on omic
Ġc ity
Ġanti gens
Ġsmall er
Ġh um
Ġdos es
Ġprote ase
Ġinc ome
0 4
Ġmic roscop
ĠS ub
er ing
Ġk in
Ġcomple ted
ĠT r
ge al
Ġrec ip
Ġmix ed
h al
Ġdro ple
us try
Ġepidemi ological
Ġpoli tical
i ents
ve red
Ġw ave
ir th
oc al
g ent
Ġre actions
ĠOr gan
Ġcoun ter
Ġv on
ar ia
Ġair way
Ġox id
aryn geal
ĠB ased
Ġquanti f
ĠS ection
ra z
ac iÃ³n
oph ag
Ġad en
Ġinter fer
Ġcon j
at her
cop rotein
ul f
Ġplas m
Ġs ense
Ġvis it
Ġel im
t ra
qui red
Ġre fer
v ari
Ġimmun os
it ative
Ġthe ory
ĠN ot
Ġmark ers
Ġexpl ore
ĠAR DS
Ġexam ine
Ġhyper tension
ĠInd ia
ad emic
Ġreg im
Ġcon fl
ubl ic
a u
il tr
Ġb ase
e k
Ġinn ov
Ġle uk
6 3
Ġ5 5
Ġqu ick
Ġapp e
Ġin duction
r isk
Ġcomp et
Ġtyp ically
Ġspati al
Ġprinc ip
Ġre verse
m en
Ġf er
ĠU sing
ĠS ur
B P
ut h
ĠInte restingly
Ġnur ses
M R
Ġ |
ĠI V
Ġcomorbid ities
Ġneu rolog
ĠF rom
Ġint ensity
Ġst em
artic ip
ĠAfric a
Ġpro s
ĠInd eed
Ġreview ed
G TT
os a
Ġmanus cript
Ġse em
Ġn utri
ĠM od
or n
Ġendot helial
ers hip
ro gen
Ġcle arly
Ġbe long
A CE
Ġfacilit ate
Ġv ascular
Ġenc od
Ġinstit utions
Ġdi et
plic ated
ul a
Ġset s
Ġpro long
A ll
Ġre p
ĠP M
et al
tr um
Ġremain ing
Ġperipher al
sel ves
ĠMet hods
Ġne ar
Ġorig in
um ents
Ġaff inity
ĠT LR
Ġgen omic
Ġinv est
Ġequ al
Ġperiod s
ĠP BS
Ġcorres pond
Ġtra um
ogen ous
Ġcomprehen sive
Ġdec isions
Ġmeasure ment
Ġmeasure ments
Ġcons ult
Ġman ner
oqu ine
ĠDec ember
os omes
Ġass emb
Ġs ession
t osis
Ġdetail s
Ġm l
Ġg ive
f ree
ĠI s
Ġc enter
Ġin oc
Ġmem ory
Ġphys icians
fec ted
ĠA p
mit tee
Ġimp acts
Ġremo ved
Ġs leep
Ġmusc le
Ġprof ile
Ġ rib
Ġreg ulatory
Ġin struc
Ġsub stit
Ġse ven
H D
Ġremain ed
Ġben e
C V
Ġans w
e es
Ġcre ate
Ġenc our
Ġactiv ated
Ġbehavi ors
ĠC an
m al
Ġcogn itive
Ġne igh
Ġin str
Ġeffective ly
Ġw ind
am ine
iti z
Ġwh ose
w ith
Ġup d
pl ies
Ġventi l
Ġstar ted
Ġhy d
Ġel der
Ġde b
ĠThe n
Ġexerc ise
op en
reg ulated
Ġuncertain ty
C O
he a
or al
N N
E T
ac erb
Ġregion al
Ġdatas ets
Ġpred om
Ġclass ified
Ġg astro
i ance
ot t
al le
Ġim m
Ġmo bility
Ġa w
as ion
6 8
Ġch rom
ig en
Ġneutral izing
Ġmicro bi
Ġco verage
Ġsup pres
Ġparticip ant
Ġover l
Ġaccur ate
eli hood
Ġit self
p ing
Ġbe yond
n el
um ab
Ġdynam ic
t heless
st e
Ġind ustry
Ġdif f
Ġrel ation
ĠG iven
Ġpan el
Ġdi verse
Ġc as
lor oquine
Ġseg ment
Ġsubstanti al
Ġprim arily
Ġlip id
C h
Ġmor bid
pro tein
Ġbin d
Ġsuscepti bility
Ġgra d
P P
ph a
ĠS T
app ing
Î ³
Ġback ground
Ġpolymer ase
Ġpathogen esis
Ġsec urity
Ġinvol ving
Ġparen ts
Ġto o
ĠP er
ĠP l
Ġlat ter
Ġstreng th
Ġm agn
ĠM D
Ġke ep
ĠR SV
o llow
ĠS upplementary
Ġm ess
Ġrem ote
ater al
Ġus es
Ġvir tual
c hem
Ġm akes
Ġdivid ed
Ġj ob
Ġp ap
lo ad
Ġd est
Ġex ternal
ul ative
4 7
oc ation
Ġex acerb
Ġact ual
Ġrec overed
ĠE LISA
ĠGerm any
ĠH ence
Ġbehavi our
Ġdeg rad
or ph
os cop
Ġmet h
" .
is sion
i red
Ġconst rain
le ts
vir al
Ġminim um
9 8
Ġgly coprotein
Ġdivers ity
Ġth ink
Ġcl im
Ġbuil ding
Ġgo al
o h
reat ment
Ġprofession al
Ġv an
Ġar ch
3 2
U S
T C
ĠB ecause
Ġre ach
reg ulation
k elihood
ax is
Ġres ource
Ġsoci o
Ġin activ
ĠEn gl
5 7
t ag
er y
Ġf lex
ĠDes pite
Ġmean ing
Ġen s
Ġexplain ed
Ġrecogn ized
Ġclus ters
Ġcon ventional
Ġexp and
si an
Ġfal se
ul l
Ġd rop
Ġol ig
Ġcho ice
as tic
og lob
ur b
Ġmost ly
Ġ4 2
ens in
Ġeas ily
Ġp en
Ġdev ice
A b
Ġde le
term inal
ic o
T AA
Ġro les
Ġindi rect
Ġcaus ing
opath y
on ucle
Ġdi ed
us ed
Ġbegin ning
Ġreflec t
Ġac ademic
Ġaim ed
ut ing
Ġrepresent ed
Ġr h
Ġm amm
Ġmin or
Ġc ities
Ġrequ iring
Ġelder ly
Ġlangu age
Ġsci ence
Ġinst ead
Ġisol ates
arg ed
b it
Ġadequ ate
ow s
Ġtr ack
ĠV ir
6 7
Ġprot ect
Ġt en
Ġf arm
Ġrepe ated
Ġprob ably
Ġex act
Ġtransi tion
ĠT rans
micro bial
Ġcult ures
4 4
ĠT B
R es
ĠN e
ps is
Ġcateg or
av age
Ġ7 5
um in
ol a
Ġdistrib uted
bin ding
ure r
Ġextr action
Ġrequire ments
Ġf all
Ġdog s
u tive
Ġrecru it
3 9
Ġtit ers
Ġprotoc ols
Ġdif fer
Ġac tions
Ġs ector
w ent
nd er
ĠM in
Ġdo uble
Ġst op
Ġgro und
m ark
Ġwas te
Ġvol un
t ake
Ġsk ills
Ġatt ack
d r
he alth
Ġ6 5
Ġthem selves
oc ks
Ġthe ore
ĠC ell
i vir
3 1
ell a
Ġn ode
Ġsoci ety
Ġon es
c hes
ult aneous
Ġsc an
Ġvulner able
Ġmark ed
Ġr ank
i j
Ġsub s
Ġex cept
A d
es ted
Ġantibio tics
Ġpromis ing
Ġpers pective
y e
Ġc ere
Ġadop ted
Ġapop tosis
Ġfil ter
Ġca pit
Ġcat s
p tions
Ġen velop
och ond
Ġb il
Ġsu itable
Ġb irth
B C
ĠI S
Ġab und
Ġmo tiv
Ġat tit
Ġâī ¤
Ġtherap ies
p iratory
olog ists
Ġconn ec
Ġprof il
Ġh ard
ĠN O
ĠAmeric an
Ġdep ending
Ġp ay
ĠE V
Ġclass es
Ġcoun ts
ĠÂ ¼
Ġthough t
ist ing
Ġmy ocardi
em a
G AA
Ġpl aced
Ġdisch arge
a im
w ell
ant ly
Ġse psis
Ġmorbid ity
Ġtrans form
Ġphen omen
od ies
ustr al
Ġ4 4
Ġp seud
Ġlarge ly
en di
l u
ĠP r
Ġpl ant
Ġclinical ly
Ġcommerc ial
Ġtyp ical
end s
Ġen ough
ĠS everal
Ġemo tional
id ent
hem atic
Ġs ch
Ġassum ed
Ġiniti ally
Ġresol ution
Ġepit opes
fici ently
Ġc um
Ġthere by
Ġ20 18
ĠM any
I s
Ġantibio tic
T CT
Ġli kelihood
ĠE m
Ġfe as
os en
R A
pati tis
c he
c or
i ves
ĠI D
Ġla w
Ġcons erved
t est
o on
ac tivity
Ġp ediatric
Ġmin utes
Ġbre ast
Ġ4 7
Ġs ent
Ġco ver
Ġscenari os
Ġplan ning
Ġdem ographic
Ġdefin ition
ĠHC V
a vi
Ġe qui
Ġdifferen tial
Ġadvant age
Ġnucle ic
Ġagre ement
Ġqual itative
Ġadv anced
Ġword s
ic ular
ot ensin
Ġmodel ing
ĠIn ter
Ġsepar ate
Ġpriv ate
ac ement
ox id
0 2
ar s
Ġa x
n ce
Ġem pir
Ġder iv
ic a
8 8
o z
Ġgen omes
fec tion
Ġinf iltr
Ġf ir
Ġsubsequ ently
Ġparticip ation
Ġobes ity
ron t
Ġintr acellular
Ġs em
4 1
C P
ĠII I
Ġrang ing
Ġanti microbial
al ities
f aces
Ġbiom ark
Ġstar ting
Ġprolif eration
Ġeduc ational
Ġscho ols
Ġrecord s
Ġmo ve
Ġinf ants
Ġimp air
Ġin ser
Ġtrain ed
Ġcomplete ly
Ġt able
Ġl and
v ity
Ġb ond
Ġsuccessful ly
Ġk ind
ĠA S
ro ke
Ġcle an
eth yl
sequ ently
ĠD E
Ġre ached
Ġ4 1
Ġthe r
Ġmo vement
it ude
ww w
Ġind epend
ĠCon clusion
os omal
Ġmetabol ic
ever theless
oc l
Ġâ Ģ
W s
Ġdef ine
' t
Ġsub un
ĠMed ical
Ġrandom ized
Ġvide o
ĠC H
Ġph ot
Ġcent ers
Ġmolec ule
der ived
Ġb one
ĠS er
Ġ5 6
Ġstud ent
ĠDise ase
pos es
. )
ĠA I
b al
sc ale
Ġbi os
Ġim plications
Ġem ission
Ġhe patitis
ĠS w
Ġc ust
Ġs hed
Ġl ibr
Ġ4 6
ĠA ustral
Ġcol umn
lud e
Ġgluc ose
ĠJ uly
ĠSy stem
S e
Ġnan op
Ġexpl an
Ġidentify ing
Ġext ended
Ġpregn ancy
Ġcompar ing
ec onomic
Ġex ch
Ġclose ly
Ġpar ts
Ġcri tically
Ġb reak
Ġap plic
ĠĠĠĠ ĠĠĠĠ
Ġpredic tive
articip ants
Ġcompar able
endi x
L P
Ġdoc t
Ġcontinu ed
Ġbene ficial
Ġpros pective
os ome
Ġsim ultaneous
Ġdocument ed
Ġcol i
aren ess
ĠP PE
Ġmod e
Ġsign als
C on
Ġchec k
Ġanaly ze
Ġc m
Ġ ï
pres sive
Ġpl ays
Ġcle avage
P ro
Ġcomp an
Ġpres ents
ĠP T
p en
5 5
Ġmedi ated
Ġabs or
Ġp le
Ġslight ly
Ġtrans lation
Ġvari ant
for ce
omes tic
Ġadap tive
u pl
Ġ4 3
Ġmemb ran
Ġadj usted
Ġcar ry
Ġz u
Ġalgorith ms
est he
M T
Ġd ur
Ġdiarr hea
ul ates
Ġly s
astr uct
Ġopportun ity
Ġte ac
Ġpur ified
Ġser ve
ĠS E
Ġmanufact urer
ĠC V
0 3
Ġaeros ol
Ġnur sing
ĠC X
9 7
Ġpartic le
ochem ical
Ġcapt ure
Ġvalid ation
ĠD r
Ġint estinal
Ġdisc re
Ġe ight
Ġsh ock
Ġcons ists
ur s
Ġfore c
Ġparticip ate
Ġbec ame
ai red
Ġmit ochond
p an
Ġpar as
ri tis
o e
ag ulation
B L
Ġopportun ities
Ġacc es
ting u
Ġc am
Ġassoci ations
Ġpossib ly
Ġenzym es
el t
Ġlymph ocytes
Ġextr act
Ġwh y
Ġph yl
Ġal co
Ġn sp
id ed
Ġam b
Ġlarg est
Ġte aching
r ant
Ġre v
Ġsp eed
Ġ5 7
G CT
Ġsim ulations
Ġsitu ations
i ver
ent ed
Ġadj ust
Ġun p
Ġinteres ting
Ġgrow ing
Ġcateg ory
Ġdepend s
Ġallow ing
Ġcirc um
ĠS up
ar b
Ġidenti ty
Ġal veolar
ran ce
ĠH S
5 3
Ġre ferred
bor ne
Ġdegrad ation
Ġmach ine
ter ior
ĠN F
Ġhy brid
ĠC P
Ġdis tingu
Ġinj ection
Ġdec line
ĠCl inical
H A
hy dro
Ġexhib ited
Ġampl ification
Ġpar tial
Ġcum ulative
Ġ5 8
ud es
Ġ #
Ġshif t
Ġimmunos up
Ġtr ust
Ġbec omes
Ġs pl
Ġpublic ation
Ġhyp ox
ific ations
Ġchang ed
Ġnucle ar
ot al
Ġatten u
ĠA P
Ġdon or
Ġe ine
Ġsumm ary
Ġr ise
Ġorgan izations
ĠIm mun
Ġfeed back
ne gative
Ġcontrib uted
im e
Ġpl us
ĠAn ti
Ġsuf fer
Ġcont roll
Ġind ust
Ġeng agement
ĠS A
Ġcontain ed
Ġcomp e
m ing
Ġplatform s
Ġimmedi ately
Ġmor ph
Ġsp e
Ġdis order
Ġch osen
c t
Ġsy m
or rh
tain ing
Ġnew s
es ides
an alysis
ari ate
plic it
ist r
Ġc ode
Ġnucle otide
Ġform ed
Ġpl ot
Ġassign ed
4 6
Ġto ur
art ments
s on
Ġconn ected
alle l
Ġ7 2
Ġh ab
O D
Ġsc hed
Ġguid ance
Ġintegr ated
ung en
ich t
ĠN evertheless
tim es
Ġ4 9
Ġcompos ition
Ġchalleng ing
Ġclin ic
L S
Ġnumer ous
Ġrepresent ative
E D
Ġimpro ving
F A
, "
Ġcontrib ution
Ġmo tif
Ġutil ized
ri e
Ġreli able
Ġcolle ag
Ġcr yst
Ġcomplex es
Ġha pp
ub ation
Ġmiss ing
Ġr ural
ollow ing
Ġst ored
ĠK ore
5 9
Ġwh ite
er ve
c ome
ĠO b
Ġm other
if i
Ġn it
Ġassum e
ĠÃ ł
Ġprepar ation
Ġpredom inant
Ġmid dle
âĢ ²
if ug
Ġunc lear
Ġhyp othe
Ġeth n
Ġstr ict
Ġcoef ficient
ĠS ch
Ġapp arent
Ġnanop artic
Ġvit amin
Ġbi op
Ġexpl ored
Ġh arm
S S
Ġvi ol
Ġinterval s
Ġm ember
ĠÃ Ģ
Ġeng ine
ĠD ep
Ġpig s
Ġconsider ation
E P
Ġmedic ation
t on
Ġg reen
Ġmob ile
Ġprolong ed
G TG
Ġcons ensus
ti ally
Ġemph as
Ġdon ors
immun e
ĠH LA
Ġoccur rence
Ġfem ales
Ġcl aim
Ġ5 9
p read
Ġphosph ory
Ġpathogen ic
ĠN a
Ġmaintain ed
Ġvalid ated
Ġn am
Ġbal ance
uc tion
Ġstatis tics
Ġdep artment
Ġrepro duc
tr as
Ġ Ã©
Ġ5 2
Ġecon omy
Ġaw areness
Ġo d
r astruct
Ġup take
f fic
Ġor d
I K
ace u
Ġcompl iance
s ection
Ġcomp uted
Ġne ver
Ġpro phyl
Ġloc ations
Ġstim ulation
ĠN K
Ġd omestic
Ġsol id
Ġanal og
Ġmembran es
Ġmal es
Ġcandid ate
atic ally
ĠC a
is her
Ġclim ate
Ġhighl ighted
Ġsimilar ity
G E
Ġn g
ol ute
Ġto ler
Ġst roke
Ġform al
ĠM A
ern at
Ġtechn ical
7 7
Ġbarri ers
ĠD ue
Ġinterpret ation
Ġrele ased
Ġ9 6
Ġquick ly
ock ing
ĠOrgan ization
Ġdiscus s
amet er
Ġmet ric
ĠN P
ran ge
li um
Ġac quired
Ġef fort
Ġcyt oplas
Ġcere b
Ġappe ared
Ġcyt otox
Ġcom e
pl ate
p tive
if orm
d im
c yt
Ġindic ators
Ġen able
Ġne on
Ġdiss em
ly c
Ġtas ks
Ġcolleag ues
Ġk it
Ġtox icity
ol id
Ġclin icians
it ect
Ġyoung er
ed ic
Ġhe at
ill ed
Ġr ab
fec tive
ĠÂ ·
L C
Ġsubstr ate
int estinal
ce phal
Ġlo op
Ġhem at
ord ance
Ġspec trum
Ġrat s
Ġdisc rim
Ã¼ r
l ife
ĠAfric an
Ġv en
Ġg as
am ent
Ġt ax
Ġinter medi
Ġdifferenti ation
I N
Ġminim al
Ġop tions
Ġinvol ves
L D
Ġof fic
Ġf ung
ig ible
ul ti
6 4
Ġ $
Ġpositive ly
Ġequ ation
F P
ven ous
Ġprim ers
Al though
Ġalco hol
ok ine
Ġcor rec
Ġ5 1
ĠPati ent
ph one
Ġpot ent
Ġ5 4
Ġswab s
h uman
Ġ5 00
Ġtrend s
Ġperson nel
ob ic
d ed
raz il
Ġmul tiv
ven tive
ĠOn ly
Ġle t
is ons
Ġlo ok
inc luding
Ġresp ir
Ġmy el
fl ow
h r
ify ing
Ġhe nce
b ola
Ġexam ples
l ic
Ġmut ant
ic ts
8 5
Ġinterfer on
Ġrecruit ment
Ġcompan ies
Ġcap able
crib ed
Ġf ast
ĠG roup
Ġsc hem
Ġt ree
Ġstandard s
Ġsupport ing
Ġdet ec
ub iqu
Ġa ud
Ġc ycl
RS V
ar ity
Ġperce ption
Ġselec tive
ĠIg M
Ġtra de
Ġfor ce
Ġvacc inated
Ġfluores cence
Ġus age
o or
omet ry
ak ers
U C
Ġemerg ed
ĠA nd
Ġinf rastruct
Ġemerg ence
ib ri
Ġsub group
Ġprim er
c in
ĠOver all
Ġanalys ed
Ġm ater
Ġphysi ological
ĠS o
Ġsh aring
Ġtransplant ation
ic les
Ġpregn ant
Ġun like
Ġheterogene ity
ĠP ar
Ġtranscri pt
ĠH E
Ġc amp
Ġprac tical
ur ance
Ġsur faces
9 6
il ities
Ġlig and
Ġestim ation
al k
ili ence
Ġbarri er
Ġapp ly
ĠÎ ³
ĠE r
Ġvari ance
ĠR V
ĠB ut
Ġwas hed
Ġne arly
Ġpresent ing
Ġcarb on
Ġmal ign
Ġmanifest ations
Ġsh or
Ġpart n
ec utive
Ġprevent ing
Ġexpres sing
Ġorgan ization
Ġtop ic
Ġtraum a
ĠA pp
Ġbelie ve
Ġdra w
Ġac qu
o lec
Ġ5 3
a vir
Ġfund ing
Ġvari ability
S upplementary
C CT
Ġv ectors
Ġins uf
Ġkin ase
c us
Ġsm o
Ġtra ffic
ĠN on
Ġstain ing
a res
g et
) )
Ġm es
ĠInstit ute
Ġtr acing
Ġdevi ation
Ġcor tic
Ġw er
7 1
Ġz ero
Ġsup ernat
Ġdisplay ed
g ing
Ġad oles
Ġb r
Ġcon form
os tic
Ġprogn osis
Ġsm art
I A
R E
ĠB razil
Ġac ce
Ġaffec ting
Ġvit al
0 6
Ġis t
Ġeth ical
Ġ20 17
Ġaut ophag
Ã© s
N Ps
Ġneurolog ical
Ġfig ure
ac tic
Ġep is
Ġinv asive
Ġst ake
oph aryngeal
re t
Ġsec tions
L T
os in
Ġvir ul
5 6
Ġlog istic
Ġh old
Ġfib rosis
l ink
cep tions
Ġindepend ently
Ġaddress ed
Ġcharacteris tic
Ġat tr
Ġa uf
Ġtrig ger
ch ar
a ving
open ia
th al
Ġj us
Ġpoly m
om b
Ġaffec ts
anc er
Ġname ly
Ġop tion
Ã ¨
is ter
Ġappro val
Ġlow est
ogene tic
Ġarch itect
Ġw all
ĠVir us
ĠH uman
ator ies
ver sion
Ġenc oun
i tions
Ġbu ild
Ġfrag ment
Ġimmun ization
i R
ur ally
Ġcirc ulating
Ġother wise
Ġpar a
Ġ &
Ġemb ed
r ate
Ġreduc es
ĠE U
ann ed
Ġser a
omet ric
Ġelectr onic
Ġpar allel
Ġinhibit ory
Ġt ail
ces sive
ĠH is
Ġattrib uted
ocyt osis
M O
Ġf u
Ġs qu
Ġprec ise
Ġcomplex ity
l ab
Ġneutrophil s
G s
Ġcon struct
ĠCor onavirus
Ġspread ing
on in
Ġdeli ver
ti le
ides pread
Ġg el
Ġsatisf action
ob acter
Ġmedic ations
IC U
Ġinfec t
ocl onal
Ġunder st
Ġabs olute
Ġconduc t
Ġpro xim
Ġtempor al
ag ul
Ġli qu
vol ution
Ġorgan s
Ġaccum ulation
qu es
h ospital
jec tives
t hen
' '
Ġexpres s
7 8
ec al
O n
ĠD if
Ġdisc overy
Ġin equ
v it
E s
Ġinflu enced
Ġrepro duction
Ġmetabol ism
4 2
Ġco upl
Ġl isted
val ue
ĠE th
erc ul
Ġinstitution al
M s
ĠE ven
Ġmat ter
Ġpre ventive
Ġm arg
Ġb le
n s
Ġphen otype
Ġ ion
med icine
Ġhy gi
oun ts
oc om
v ors
Ġrestric ted
om ing
id ae
Â ±
Ġs at
y le
ubiqu it
Ġw ors
Ġcom m
Ġacc omp
Ġex pon
Ġnew ly
Ġclear ance
Ġfor ward
Ġobser ve
Ġclos ed
Ġext ra
Ġf a
Ġne ural
Ġp as
Ġro ute
Ġcons erv
Ġsur ge
Ġinhib ited
ol i
ĠC al
Ġm ap
ĠCont rol
Ġcapit al
Ġst abil
ĠM an
ĠC NS
en tical
Ġsecre tion
Ġoccur ring
Ġeas y
Ġth or
Ġgu ide
) :
Ġfew er
erg ic
TA T
Ġinterview s
Ġexper ts
Ġauthor ities
Ġdecre ases
Ġw idespread
Ġmethod ology
Ġstand ardi
Ġunder went
pers on
Ġdrople ts
E x
Ġsub mitted
Ġm om
Ġre n
ot a
Ġca ps
Ġgastro intestinal
Ġwrit ten
Ġop in
Ġval u
Ġprofil es
Ġextreme ly
oc r
Ġt akes
t roph
s ts
act ing
N et
Ġsur round
6 6
Ġtrans ferred
Ġhist or
Ġmark er
Ġdelay ed
Ġs izes
Ġepidemic s
ĠS P
s ess
Ġconc er
Ġtw ice
Ġpl ates
ex isting
st rand
Ġmon it
Ġto ok
Ġenviron ments
Ġb rief
D P
Ġst ated
Ġen cephal
kn ow
ĠE bola
Ġins ights
0 8
A CT
Ġincreasing ly
Ġh ot
0 7
Ġpl ants
Ġequ il
Ġcentr ifug
Ġqu ite
ack ground
ish ing
Ġmig ration
ad o
Ġres ilience
ĠC enter
Ġth ick
pt ember
Ġelectr on
Ġlimit ation
Ġplace bo
k en
Ġexch ange
h aps
Ġfav or
A TT
Ġpur ch
Ġ' '
ĠG u
Ġcop ies
yl ated
Ġcomput er
Ġf ed
g ram
ĠH CoV
ĠU V
Ġm and
ĠG P
Ġpro pose
in ating
Ġnegative ly
Ġconstruc ted
Ġpap ers
Ġpredic tions
Ġt rop
Ġexp an
Ġscre en
flu enza
ati g
Ġsub set
Ġinteg ration
Ġintro duction
Ġpersist ent
tt p
Ġun s
Ġoper ating
Ġr ules
Ġn one
Ġiniti ation
Ġbehavior al
ri a
T P
Ġplate let
Ġc itiz
Ġsm oking
Ġcult ural
cl usive
Ġmix ture
Ġerr ors
6 9
ĠĠĠĠ ĠĠ
Ġdirec tion
Ġ20 15
C F
Ġst ock
Ġcandid ates
ĠE q
Ġwe b
Ġro und
ot ed
Ġadhe rence
Ġe ti
I g
Ġres erved
um b
u x
ĠP articipants
Ġimmedi ate
Ġtr ache
Ġvari ations
ĠQ u
u ous
ic le
Ġele ment
ĠT e
Ġrandom ly
cl inical
Ġdeterm in
Ġcare ful
Ġ20 16
Ġst orm
Ġdis tr
Ġcortic oster
Ġchang ing
Ġh ous
R s
Ġconsider able
on ym
es e
ul um
Ġtheore tical
Ġvari ed
iz umab
Ġper mission
Ġprog ressive
Ġrepresent ation
Ġm el
Ġfac ility
ĠT echn
Ġempir ical
Ġun a
Ġsummar ized
v ance
0 9
ĠW estern
Ġemploy ees
Ġexhib it
ar an
Ġcontam ination
Ġf ront
Ġcont ag
Ġangi otensin
IK V
e e
Ġunderst ood
ic ted
Ġtreat ing
ne a
entr al
ogen esis
Ġof ficial
igh ting
ĠSt atis
ĠA ug
ĠB o
Ġacc om
olog ous
' ,
i en
Ġel ic
ĠM O
ten ance
Ġli ves
Ġremo val
Ġo il
Ġal pha
Ġgovern ments
Ġh osts
5 8
ĠHC Ws
ĠV ero
urrent ly
or age
Ġar ri
Ġsal iv
Ġchann el
] .
Ġser op
ĠC are
Ġal tered
Ġves sel
m aking
ĠD M
Ġinfrastruct ure
Ġb ig
Ġha em
w ork
Ġs iRNA
ent ation
Ġwer den
Ġassemb ly
e i
Ġhydro gen
Ġbe i
od ium
B I
enti sts
Ġmil k
ĠE ast
Ġmon oclonal
ĠAn g
Ġaim s
ĠG o
Ġob vious
Ġhighl ight
Ġwork s
om s
Ġam ounts
Ġmagn itude
Ġcat aly
Ġpath ology
Ġcol or
re pt
Ġbeli ef
tim ately
Ġmat hematic
Ġpur poses
Ġsynthe tic
ĠPE DV
Ġequi valent
Ġo ri
Ġintra venous
ercul osis
ĠV er
Ġposi tions
Ġinter face
Ġmal aria
RS S
Ġp ort
Ġen rolled
y ro
T S
Ġg ut
j ection
os al
ont in
Ġn ation
Ġexpan sion
atig ue
og ram
Ġn a
ap pro
n o
Ġan not
ĠCom mittee
Ġnanopartic les
p art
L E
Ġprob e
ĠL D
Ġwe bs
ag ne
Ġst ri
Ġwh om
Ġf ile
ative ly
Ġorgan isms
v o
Ġprop ag
Ġsh ape
Ġtra ject
p es
Ġd ram
A TG
i as
l os
i ples
Ġadj u
Ġpair s
Ġcontroll ing
y stem
ic tion
Ĩ Ĵ
Ġadvant ages
Ġcircum st
ĠSe ptember
ĠStud ies
B s
w ater
vi an
Ġp il
er a
Ġoper ation
t es
Ġassess ing
Ġminim ize
Ġimmun o
Ġstim ul
Ġman age
ension al
if t
ign ific
Ġc red
Ġrecip ients
Ġresid ue
Ġ ~
anc re
Ġcompos ed
ĠT M
Ġnas opharyngeal
Ġphys ician
ĠÂµ g
ro g
Ġj ud
Ġhygi ene
Ġpos sess
ul ties
ĠNor th
Ġb ox
Ġide a
Ġha z
Ġinduc es
oci ation
ovirus es
ĠÎ¼ g
ĠS O
Ġid entical
s uch
Ġve h
ot es
f ied
Ġcompar isons
Ġ9 9
Ġperform ing
Ġabnormal ities
Ġul tras
Ġch lor
ple te
ĠC ent
Ġplasm id
Ġex ists
ĠÎ »
ĠP I
Ġresist ant
Ġconsequ ence
Ġinfec tivity
aceu tical
Ġlay ers
Ġun e
ad s
Ġbl ue
om as
am ental
a que
Ġpro ven
G S
Ġf i
6 2
Ġur gent
Ġmin d
ĠF ollowing
T CA
ac ent
ĠN ote
in ks
Ġassum ption
emb rane
Ġun able
Ġacc ordance
Ġcur ves
7 3
Ġsome times
Ġmater nal
Ġcar cin
ĠM on
Ġge ograph
ke y
Ġins ulin
at o
Ġmaintain ing
ric ult
Ġneigh bor
Ġphenomen on
Ġreview s
Ġd as
ur ine
Ġrepresent ing
Ġdecl ared
Ġun ivers
Ġconcer ning
Ġb ov
D M
Ġd ental
id al
ch loroquine
Ġsens or
L V
ĠS tr
st ate
ĠP S
it ary
Ġtrans mitted
Ġvary ing
Ġliqu id
pr ising
n a
ment al
Ġr ule
ĠF rance
Ġrati os
Ġepit ope
Ġcr y
as ting
ĠL PS
Ġextr acellular
ĠT w
am ples
Ġdistrib utions
C H
Ġsimultaneous ly
Ġdecre asing
ĠA sia
Ġseas on
l ig
ĠP a
Ġgo als
Ġtox ic
all ed
ococ cus
ĠKore a
am ide
Ġvalu able
Ġteac hers
Ġf old
Ġimp aired
OV A
Ġde ficiency
ĠN A
Ġcal ves
Ġre ag
Ġ1 000
ap se
Ġmyocardi al
Ġadmin istr
Ġst orage
ĠSpec ifically
Ġ200 9
Ġvolun te
Ġmain tenance
Ġcat he
Ġcomput ational
ĠH igh
E A
ist ent
C om
s ur
eng ue
Ġb ats
Q R
ploy ment
Ġ3 00
ĠÂ °
m ber
Ġevid ent
MP RSS
Ġcollabor ation
Ġsup erv
ĠAmeric a
Ġmon ocytes
s s
Ġins ide
Ġt we
Ġne g
os p
ĠL a
Ġp ac
Ġun iversity
% ;
Ġglob ally
Ġinvol ve
ĠI BV
hold ers
Ġinvestig ations
Ġbiomark ers
Ġencod ing
ed ed
Ġj oint
Ġh or
Ġpar tially
ot or
Ġan g
Ġevalu ating
Ġreli ability
o unc
Ġprot ected
Ġsubun it
Ġseas onal
Ġac et
C CA
Ġbin ds
Ġor th
Ġmonit ored
Ġob struc
ph osph
Ġg ap
y th
Ġneutral ization
Ġc DNA
Ġf atigue
Ġprinc iples
Ġf ri
Ġcol d
Ġal b
Ġpoll ution
Ġintermedi ate
an ted
Ġobserv ational
Ġtele medicine
Ġthrom bo
Ġtum ors
Ġsup ports
Ġculture d
Ġret rie
des ivir
dom inal
.. ..
Ġansw er
Ġrele vance
val ence
ang er
Ġin h
Ã Ł
h ttps
Ġconj ug
Ġex plicit
ĠCan ada
ĠP L
or onavirus
O ne
Ġdec ades
Ġchain s
Ġover come
cep ts
om ers
ill ing
Ġoptim ization
g al
Ġrecru ited
ĠD et
Ġdeli vered
ĠS a
ove mber
Ġout patient
Ġinter s
8 9
res h
ĠB AL
we ek
Ġd ocking
xy chloroquine
Ġdi ameter
al ian
ĠH y
Ġdil ution
Ġexce ption
R e
Ġdet er
ĠD ie
re ported
or ts
Ġsynthe sized
000 1
it ud
Ġwor se
Ġch ick
Ġattem pt
Ġsession s
Ġd ial
Ġfund amental
Ġod ds
8 6
ĠA N
r s
h abil
Ġadap ted
ĠAug ust
Ġpr ice
d ose
Ġcod ing
v is
Ġoper ations
Ġsw it
Ġfram e
r is
Ġfib ro
ĠL abor
Ġ20 14
fec ts
Ġprocess ed
Ġsurve ys
Ġinstruc tions
Ġon to
es cent
p tic
ibri um
Ġstr ati
Ġ {
is ol
ĠSp ain
et er
oti des
ĠTh ree
Ġtop ics
Ġsim pl
Ġantic ip
R P
ĠMe an
Ġgra di
Ġco vari
ĠH F
Ġm iRNA
Ġcyc les
Ġconf ound
Ġwill ing
Ġmicro bial
Ġn ine
Ġpriv acy
Ġread s
on ary
c to
Ġex cess
Ġein er
Ġph ases
Î º
Ġreve al
Ġdiffic ulties
tag on
Ġneur ons
ĠAustral ia
ird s
Ġl ost
Ġs ed
Ġmicroscop y
Ġreason able
ĠR A
ĠV P
Ġenvelop e
Ġstreng then
ac et
ĠW T
Ġp ancre
Ġcalc ulate
Ġas pect
cto ber
Ġprov ision
Ġmitochond rial
cri ption
d ata
Ġpop ular
port ing
ĠDep artment
ĠP e
Ġtub e
Ġspec t
7 2
Ġresid ual
Ġdescri ption
Ġhousehold s
ci pl
Ġrang ed
n en
v asive
A c
Ġform at
ed s
Ġa id
Ġradi ation
m es
Ġdimension s
Ġbe h
agne tic
Ġpredict ors
Ġcollec t
Ġt iter
Ġcircumst ances
ĠF our
Ġtrans fusion
Ġa way
ĠIn formation
dim ensional
7 9
Ġcl ar
Ġteam s
z en
un ately
Ġvalid ity
Ġrestric tion
ounc ed
Ġbuil t
s in
Ã Ĺ
Ġbreat h
ĠU nder
ra de
ell ed
Ġdown stream
Ġ ubiquit
c ents
ĠD is
Ġhem orrh
Ġr ac
pl ace
ĠO ut
Ġfield s
Ġpre lim
ll ig
ĠIg A
id dle
Ġphosphory lation
Ġs in
Ġdatab ases
Ġauto immune
Ġl act
Ġdil uted
Ġper me
Ġapplic able
Ġz oon
Ġprior ity
ĠM HV
in ted
Ġb ran
5 2
section al
res ist
Ġas pir
Ġdeterm ining
Ġs odium
ten sive
Ġwor th
ac char
le uk
Ġan tagon
Ġmod ification
M C
Ġde al
Ġweek ly
e tic
Ġoxid ative
Ġindic ator
Ġmet ast
Ġdirec ted
l in
ro se
Ġcluster ing
Ġsubstanti ally
ĠT G
T E
v ascular
ill in
Ġfail ed
Ġs an
Ġbe gan
dis cipl
A t
Ġmom ent
ĠP ublic
ĠCO PD
w ing
Ġe en
ĠI R
ĠE S
omic s
Ġpromot ing
A f
as k
Ġc e
Ġemploy ment
H E
ĠB io
Ġlymph ocyte
Ġlim its
ĠCD C
re active
re view
b ody
he rent
Ġscre ened
Ġlibr ary
Ġr ational
Ġattit udes
Ġepit he
D a
Ġres erv
ra di
cep ted
ĠIm port
ĠCons ider
Ġconfl ict
ĠCR P
Ġra ised
ĠI P
- ,
Ġrequire ment
Ġnec rosis
Ġcop ing
m ol
Ġiniti ated
ĠRe view
D R
ati tis
Ġtub erculosis
Ġleg al
ĠB esides
O N
Ġis chem
ĠN ovember
Ġint ake
Ġexten sion
Ġsim ply
Ġac know
Ġf elt
Ġon c
Ġcomp artment
5 4
ĠPre vious
- -
o ir
ĠMed icine
ach ment
R ec
ĠS oci
Ġprec a
c ut
Ġshed ding
Ġph one
in ine
Ġef ficiently
Ġcitiz ens
fici ents
Ġhyd roph
Ġs en
Ġro t
Ġatt end
Ġglyc os
ĠP F
Ġselec t
Ġhe ight
lob al
Ġconc luded
u ation
Ġpandemic s
M L
ur g
Ġmeet ing
Ġprac tition
habil itation
Ġre in
b ound
cl ass
Ġf Ã¼r
rom ised
duc ing
ĠM RI
Ġcons ecutive
Ġrecogn ize
Ġconstruc tion
ĠE l
Ġar th
B A
Ġadv ance
Ġadapt ation
Ġfore ign
ĠRes piratory
Ġpublic ations
9 4
is ition
CM O
Ġdr y
Ġm iR
ec es
K I
me an
ĠEngl ish
Ġb urn
ĠRec ently
Ġexpl o
W ith
l ich
Ġchem otherapy
Ġmod ifications
. ;
ĠS S
Ġa ver
Ġno ise
Ġex ec
Ġdetec ting
Ġpl aces
Ġp i
ĠM HC
Ġdif fusion
Ġregard less
Ġrem ark
7 6
Ġstake holders
Ġun iform
8 1
i ence
Ġdoct ors
Ġb ud
Ġpl ans
ĠM aterial
Ġwind ow
Ġbov ine
Ġg ives
anc ies
Ġof fered
Ġprelim inary
Ġre use
pos ing
Ġarter ial
Ġint ubation
Ġpreval ent
Ġwe l
gl ut
S ince
l ands
Ġconstrain ts
Ġpro jects
ĠT yp
Ġcorrel ations
RNA s
ĠWh at
Ġinteres ts
Ġimpair ment
k t
Ġrec onstr
Ġst e
Ġ6 4
uc id
Ġunder go
i et
9 3
Ġlabor atories
Ġfat ality
ran g
inc ome
um p
ox ide
Ġt et
Ġwrit ing
k in
Ġhelp ful
ĠStud y
Ġcoef ficients
Ġsa id
Ġexpl or
Ġarchitect ure
oles ter
Ġfram es
Ġpath ological
Ġfrequ encies
Ġa us
itud inal
v est
ĠG ene
Ġ15 0
ĠO ctober
in ding
ÃŃ a
Ġh our
Ġsub jected
Ġde ple
Ġcor onary
pro t
ay er
w ord
Ġhum id
Ġan a
ĠM R
os ystem
Ġs ich
Ġappear ance
Ġoff ers
m embrane
ug e
Ġex cell
Ġtim ing
Ġbl ot
F V
ĠT est
or tic
Ġfrag ments
Ġprincip le
Ġgreat ly
Ġg old
Ġb ring
Ġl ob
ĠÏ ĥ
Ġgra de
Ġmark ets
Ġapp lying
Ġper t
Ġdetect able
Ġur ine
p id
8 3
ig ma
Ġcon val
at ch
Ġread ing
ĠP C
Ġutil ity
Ġst rand
em por
Ġpack age
ĠS he
Ġepithe lium
Ġes c
Ġautophag y
20 19
Ġun ex
Ġdifficult y
Ġbet a
9 2
Ġdeter ior
O H
Ġb ott
ĠM al
Ġs ulf
Ġmuc osal
Ġbil ateral
Ġpro min
op rotein
ion e
hy th
Ġassess ments
Ġcontrib uting
am ple
Ġisol ate
Ġcons olid
Ġco agulation
Ġinhib its
ĠThe ir
ĠApp endix
] ,
Ġdri ven
Ġphyl ogenetic
ĠM ulti
Ġmeas uring
discipl inary
Ġtime ly
Ġinf usion
Ġarter y
Ġfeas ible
Ġb and
Ġrec over
Ġann ual
Ġchann els
Ġsuper ior
Ġar m
Ġact ually
Ġpac ient
Ġab str
ĠAn alysis
Ġdisc overed
ĠT C
Ġequil ibrium
7 4
Ġdisrup tion
Ġr ig
Ġinstr ument
ĠItal ian
stand ing
Ġdi ver
Ġbreat hing
Ġassum ptions
Ġ( "
pres sed
Ġrel ax
Ġconsist ing
9 1
ef ined
Ġcons isted
Ġ8 5
Ġsurvi vors
ad j
ĠY ork
Ġr ace
Ġsex ual
Ġel se
ĠS I
Ġf etal
Ġke pt
' .
aps id
Ġconclusion s
mon th
Ġpre ferred
ĠTh at
Ġfat al
Ġtransport ation
ĠR ep
Ġlig ands
Ġstandardi zed
ona vir
Ġv as
z er
Ġtem plate
Ġend ogenous
tain ed
verse ly
ĠM icro
Ġadoles cents
Ġgo ing
ran k
ĠT MPRSS
Ġus ual
Ġcreat ing
ĠL A
Ġh ier
Ġsepar ated
ough t
ell ow
te x
I m
H P
z ation
Ġlabel ed
Ġpredic ting
ti ficial
Ġexist ence
Ġs ectors
Ġexplan ation
d ri
olec ular
pon se
ill ary
Ġal s
Ġcollec tive
am s
Ġv o
a ign
Ġpneumonia e
n t
Ġsevere ly
Ġmod ern
ĠE f
id ad
id ine
Ġsu ic
Ġacqu isition
Ġantic o
Ġbl ack
Ġb ul
Ġcon cepts
Ġ20 10
ig er
Ġe ye
ĠEx per
5 1
Ġk ine
ĠMod el
Ġcon ven
it ter
Ġinsuf ficient
A bs
Ġag encies
Ġa ug
ĠAr ab
Ġf resh
Ġcoh orts
ic ation
ĠBl ack
Ġto m
âĢ ¦
Ġmamm alian
Ġcontrib utions
Ġrem ove
Ġc yst
Ġcontrib utes
ten tion
oly tic
Ġref ers
ĠM a
Ġequ ations
8 7
Ġdisch arged
y el
Ġpredominant ly
acter ial
ian s
ĠRNA s
Ġsc ope
m atic
Ġeng age
Ġreg istered
isc hen
Ġshor ter
res tim
Ġalign ment
ynam ic
G O
c ing
GF P
ĠH D
Ġconf ig
Ġun f
Ġh omes
ĠD C
D es
g r
ĠF isher
Ġpool ed
b re
Ġm urine
Ġrang es
Ġsepar ately
ĠPro tein
Ġp ict
W HO
Ġbed s
G TA
s tim
ĠL ike
Ġcomp any
6 1
Ġdis aster
Ġdescrib es
Ġwe aring
Ġinc om
Ġch arge
Wh ile
Ġm im
Ġper haps
p ath
form ed
Ġtour ism
Ġclass ical
Ġco vered
Ġit em
ID S
Ġdis par
Ġmitig ate
Ġa vian
Ġw r
Ġad ding
r or
Îº B
u ate
S E
link ed
Ġv entr
Ġex cessive
oscop y
Ġins ight
Ġint ended
Ġ20 12
Ġpro ved
ĠA sian
ĠF DA
Ġel ucid
Ġâ ĨĴ
c ers
Ġdemonstr ates
if er
Ġab dominal
Ġinvest ment
Ġnam ed
i os
Ġbelie ved
Ġk g
w an
Ġindust rial
Ġhep atic
epti de
Ġper ceptions
Ġa ware
in ement
Ġecon om
D ata
Ġrec ur
Ġpredict or
Ġaccomp an
ĠK ong
Ġconte x
Ġre active
Ġcl on
Ġlack ing
Ġform er
Ġul timately
Ġlimit ing
Ġtrans fected
ĠS ocial
Ġde ad
RI S
um es
Ġsurround ing
at he
ĠÏ Ħ
he um
Ġconn ection
Ġex clusive
av y
U n
ult y
H owever
Ġpolym orph
f rom
Ġunlike ly
d imer
Ġmicro organ
Ġtrans formation
Ġex clusion
Ġdys p
Ġag ricult
ul ator
Ġcom mit
Ġbec oming
Ġ20 13
ĠG I
Ġend emic
Ġstrong er
ĠCon sequently
am b
Ġinnov ation
Ġpa rent
ip s
rain ed
ung s
pati ents
Ġacces sible
ĠH ong
Ġexcell ent
oc on
ĠS al
ĠN T
Ġthromb osis
op er
Ġrespon sibility
Ġs ick
ro at
Ġp ip
Ġsup pression
Ġsens ors
Ġser ological
R D
em ble
Ġnormal ized
Ġge ographic
t ail
Ġhighl ights
Ġwe ights
v a
ĠCell s
resist ant
Ġag ree
in der
Ġsustain able
om ycin
Ġunivers al
Ġpro of
Ġactiv ate
og le
8 4
Ġpromot er
ab led
Ġmut ants
ar row
Ġmar row
Ġsocio economic
Ġsim ulated
Ġin fer
Ġdisc ontin
Ġmathematic al
vere x
t reatment
olester ol
Ġcod on
it o
ĠB MI
Ġillustr ated
Ġs ke
Ġan esthe
th rough
Ġproduc ing
Ġsat uration
Ġra w
Ġadop tion
Ġ2 000
Ġmanag ed
l ined
bo ok
ĠA B
Ġse arc
Ġsaliv a
Ġvirul ence
Ġblock ing
Ġunder going
Ġw ant
Ġinhibit ing
Ġevolution ary
rough t
u z
Ġemission s
ous ly
- (
ra ft
ĠV iral
Ġexper t
Ġd edic
Ġac cepted
im al
ĠR ed
und red
Ġpre m
ple x
lec t
Ġhydro xychloroquine
Ġproper ty
g g
Ġles ion
Ġmetric s
II I
Ġble eding
Ġdom inant
Ġd end
Ġemb ry
ur ies
Ġe osin
Ġcamp aign
ĠAd ditional
Ġhydroph obic
gen ic
ĠG A
Ġevent ually
Ġsp aces
ocy tic
Ġcom plicated
Ġs ay
p ted
Ġimprove ments
Ġim plies
R BD
ins ic
ĠRec ent
Ġepidemi ology
ĠP V
ĠDi agn
8 2
Ġp al
lab el
Ġfir ms
g ivers
Ġsuffer ing
Ġgen otype
d R
men tioned
Ġel igible
Ġsp ont
Ġsc ales
Ġa z
Ġgradi ent
Ġm apping
Ġreserv oir
plic ate
Ġn erv
Ġg ather
ti tive
Ġcirc ulation
Ġinten tion
ĠP P
un ic
Ġma x
Ġb odies
ĠH P
ĠNot ably
Ġbi ology
i ol
ric hed
ĠW est
ul monary
Ġen rich
Ġind eed
Ġimmun oglob
Ġf aster
ch ain
es ter
ogen icity
k al
Ġ200 3
Ġparticip ating
Ġdistingu ish
Ġaug ment
ĠImport antly
fort unately
Ġv ic
y es
Ġkn ock
Ġlong itudinal
i pl
Ġall ocation
Ġsustain ed
ic illin
Ġgeograph ical
Ġrecomb ination
b ed
Ġc odes
M et
Ġreg ulate
ran ts
Ġrep air
Ġabund ance
ignific ant
Ġd engue
Ġpro inflammatory
ĠG overn
Ġpos terior
Ġcaus al
Ġread ily
el le
Ġf air
ĠB ay
ĠÂ ®
uth or
Ġra d
Ġlat ent
f it
M ed
Ġconval escent
ĠSci ence
u ing
es ts
em ographic
Ġide al
Ġs n
Ġanaly tical
Ġpre v
20 21
Ġd ies
Ġschem e
Ġgener ating
Ġstain ed
Ġquantif ied
n ight
re es
N o
ĠIn iti
Ġcorrespond s
Ġso on
N s
Ġprov ince
Ġsee k
Ġh orm
ade qu
Ġhel ps
ĠH SV
Ġdim in
Ġs ought
an ks
Ġclin ics
ĠCh ild
in vasive
v ision
Ġintern et
Ġmat ched
Ġspecim en
Ġob jectives
v ation
Ġmitig ation
Ġmod elling
Ġcall s
Ġseg ments
ĠH BV
W hen
Ġnerv ous
Ġn ative
H e
Ġcom es
Ġsci entists
Ġconsist ently
Ġreg ulated
feren t
Ġaccept able
Ġconc lude
ve y
Ġ vel
ad os
Ġnecess arily
Ġreg ulations
Ġtele health
Ġrel ig
ĠAc ute
Ġsol uble
Ġincorpor ated
Ġc ul
Ġl if
Ġderiv atives
Ġsimilar ly
il s
qu ar
ĠSt ate
ĠS V
ĠÎ ¸
The se
Ġhand s
ure us
Ġd Ã©
Ġser ial
gen eration
Ġhep at
Ġagre ed
an ol
ĠP rim
act ory
af ter
Ġalter ations
b en
Ġn icht
Ġac ts
ĠSci entific
Ġbiop sy
ĠP o
Ġspont aneous
C o
ge red
oph ysi
P ati
con f
hy dr
N E
Ġexperi encing
or th
Ġ6 3
Ġst ream
Ġcomb inations
leuk in
_ _
Ġhypothe sized
as al
Ġrequ est
ĠE C
Ġinters ti
Ġanti oxid
Ġcapt ured
Ġaccompan ied
Ġdist urb
Ġenti ties
Ġcharacter ization
Ġprote ases
an o
Ġ6 2
Ġmas sive
ĠÎ ´
Ġpoor ly
Ġupd ated
ĠC MV
Ġneon atal
Ġent re
Ġcyt os
Ġultras ound
Ġg r
cho ol
G en
Ġfin ally
Ġcontin ues
er ge
Ġautom ated
Ġsusp ension
Ġunder t
Ġpartn ers
A CA
Ġfocus ing
n ec
Ġth roat
Ġpar ad
cyt es
Ġins urance
Ġre ly
Ġcontex ts
PS S
Ġinterpre ted
Ġpol ar
os itive
Ġatt achment
ol ip
Ġcoupl ed
isc he
g rad
us h
Ġs ple
Ġtranscri pts
Ġa uch
i O
rom ycin
oc apsid
Ġen ables
Ġhistor ical
ul ed
Ġrepl aced
p m
Ġle ct
op eration
Ġd erm
Ġprob es
Ġutil ization
Ġconcept ual
A g
Ġbin ary
t arget
Ġadmission s
D s
Ġpl anned
Ġviol ence
ĠTh ird
ok ines
olog ist
Ġadhe sion
Ġprogn ostic
ari an
ĠN C
s m
ĠCom pared
Ġcomp ens
Ġh undred
ĠSoci ety
Ġcho ose
ĠAT P
ĠDe velop
Ġprophyl axis
Ġcon formation
app ed
wh ile
am ily
Ġpre p
a j
A m
con taining
Ġa ureus
Ġzoon otic
c ine
ĠS erv
Ġdetermin ants
Ġaccept ance
G T
Ġax is
Ġtrans mis
v acc
Ġmanufact uring
b es
Ġlead ership
ĠHC Q
ĠÂµ M
Ġins ec
Ġd ual
review ed
ĠM V
11 11
Ġdemonstr ating
ro t
Ġrepl acement
ad en
Ġg ave
ĠC ity
u it
en n
n c
ĠP K
ĠM T
ĠM iddle
Ġimmun ological
Ġbeh ind
Ġconcern ed
Ġmultiv ariate
uc k
Ġvel oc
Ġconsult ation
Ġpre ced
Ġg est
G B
Ġexpon ential
Ġreproduc tive
O L
5 00
Ġsmo oth
Ġassist ance
Ġflex ibility
Ġen tit
Ġ( >
Ġcalc ulation
Ġph ag
og ether
Ġmul tic
im ent
Ġexpand ed
ĠÃ ħ
ĠOn ce
Ġprec ision
D uring
Ġreflec ted
Ġl ag
Ġdeterm ination
Ġpromin ent
a ves
Ġman ip
om od
d ra
ost asis
strand ed
ol ding
Ġgl ut
typ es
Ġl inks
Ġwas hing
Ġsupernat ant
Ġreflec ts
Ġbroad er
ĠEngl and
ĠIntern et
Af ter
Ġrare ly
ĠA E
ĠEm erg
re ed
Ġir on
Ġsup por
Ġv ac
Ġt ag
Ġcharacter ize
til ity
Ġsp ut
Ġ1 20
Ġne ither
s ub
g ence
s qu
Ġcataly tic
Ġaccur ately
Ġinoc ulated
Ġprior iti
ing er
S P
ĠT ai
Ġhe ld
ther n
Ġhe par
Ġ 000
Ġemo tions
M B
Ġint est
Ġop ac
ill us
Ġmod er
et ry
Ġpen et
Ġwe ar
dR p
Ġtechn ological
ĠS C
Ġdo ing
m at
wh at
lec tr
all ing
si ties
Ġfr act
Ġhe avy
Ġampl ified
om an
Ġspec ified
Ġopin ion
CS F
Ġdur ch
Ġthem es
pl as
Ġmod ule
cont rolled
p op
amm a
Ġ6 1
Ġdoc uments
Ġg am
Ġcare givers
Ġsepar ation
" )
O P
line ar
ĠN I
ĠS m
Ġj our
ĠSc ale
A E
Ġher pes
Ġintro duce
tro duction
Ġ9 8
Ġin g
Ġdedic ated
Ġrem desivir
Ġdesign ated
Ġed ema
Ġdep artments
Ġcorticoster oids
ploy ed
Ġcalc ium
Ġheterogene ous
Ġintegr ity
ĠB rief
Ġpsych iatric
os ide
% -
Ġsupplement ed
Ġequ ally
ĠE qu
Ġmo ving
Ġplas tic
Res ults
Ġther mal
ĠIF IT
av ail
ĠA ut
Ġimplement ing
Ġsampl ed
Ġair borne
Ġacce ler
Ġfl uct
Ġlocal ization
he ad
at us
cell s
Ġord ers
Ġattenu ated
Ġorgan iz
oc ated
Ġventil ator
Ġn M
Ġmeaning ful
Ġgrad ually
Ġpr one
Ġin adequ
F inally
en sive
Ġpres um
M e
ĠV E
Ġinte llig
c ol
Ġconsider ations
h and
if ier
ĠV ari
ti se
ĠR OS
Ġo verex
Ġre habilitation
hes es
A r
Ġvir ions
Ġinfiltr ation
Ġb irds
ĠH ub
Ġar ray
Ġ4 00
Ġm otor
it us
Ġve ter
Ġrec urrent
Ġvulner ability
as ts
Ġmac ro
Ġim plicated
an ish
Ġth ous
Ġflex ible
Ĥ ·
Ġf ecal
Ġform ula
Ġ6 8
Ġantigen ic
Ġpractition ers
Ġch olesterol
Ġimp acted
fact ory
ion es
Ġprovid er
ĠGo ogle
rec ed
Ġdep th
Ġlead ers
y g
Ġmeth yl
st ep
Ġtrans p
Ġclos ure
Ġv aries
ra f
ly sis
ĠN ext
si ze
N O
Ġv or
ĠIn st
ĠE CMO
ĠH u
s up
Ġfri ends
ab ric
I QR
Ġmanag ing
Ġquantif y
ution al
Ġrepe at
Ġch ance
Ġl ifest
Ġsub jective
Ġs ind
Ġgrow n
Ġgu aran
Ġpr on
Ġc asc
Ġpath ophysi
Ġdele tion
ĠG l
ĠK ing
Ġr ich
L a
E n
Ġz one
Ġvi ability
ĠM L
Ġneigh b
ud den
Ġsput um
Ġepis odes
Ġm aps
Ġregim en
Ġdef ense
Ġtele phone
Ġcon ce
B ased
Ġm agnetic
Ġeffect or
Ġb es
Ġpower ful
Ġdiff use
ward s
ĠF e
Ġy e
Â ®
ĠG lobal
Ġcytotox ic
Ġquestionnai res
Ġw ard
y a
Ġar tificial
Ġconsist ency
Ġj o
ud i
Ġpres s
ĠW ork
Ġe ver
reced ented
Ġaden ovirus
il st
ĠN eu
Ġgreat est
Ġex ha
Ġmacroph age
Ġstat ement
ll ing
Ġt ur
Ġaff ord
ri tic
b io
A K
ĠP H
l ength
Ġeth ics
ti ary
ĠG S
Ġven ous
ch ron
od ing
Ġdes ired
an tic
Ġaddress ing
Ġconstruc ts
Ġfluores cent
po ints
c ons
cut aneous
Ġw ww
Ġtrans membrane
ĠCS F
ĠCom mon
ĠT reatment
Ġadju vant
ĠThe rap
ĠPro t
Ġro ot
Ġb illion
an te
ĠCom par
ot rop
Ã¤ t
Ġpromot es
Ġabs ent
Ġpil ot
Ġfil tr
Ġm ill
Ġgovern ance
op o
Ġnutri tion
Ġdrople t
jec tions
Ġnorm ally
Ġl ot
Ġv ast
ol in
Ġsal ine
et ric
oe a
Ġso le
Ġhor iz
Ġb rought
Ġcour ses
Ġo ste
Ġaccoun ts
Ġbond s
ĠR em
Ġcontam inated
yro id
Ġvol umes
Ġ6 6
Ġpor tion
Ġgen us
Ġas tro
p in
Ġs on
Ġoverl ap
el iness
Ġdra wn
Ġcryst al
Ġprepared ness
oglob in
Ġst o
Ġo der
ĠD S
ac r
Ġsp p
Ġf ine
activ ation
Ġunp recedented
ĠTai wan
Ġm ening
Ġm ature
Ġanaly zing
us es
dri ven
Ġcontain ment
Ġmess ages
Ġenhance ment
Ġfunction ing
ĠG C
ves ted
ef fective
it ant
Ġnucle us
rec i
her n
ĠE nd
Ġposi tivity
e ties
Ġfir m
ĠL et
An other
Ġc ame
ĠInc re
Ġdi ag
Ġpro ve
Ġnumer ical
Ġhier arch
ĠT R
Ġroom s
Ġdiet ary
ren e
IF N
Ġre ality
activ ated
ĠH er
Ġpacient es
o ud
ĠC B
Ġprincip al
Ġmat ching
Ġ9 4
Ġover night
Ġl on
cell ular
d ic
Ġdem ands
a ques
Ġresol ved
Ġvessel s
ad vant
Ġm os
ĠH B
ĠPre vention
Ġin herent
Ġform ulation
on omy
Ġa di
Ġ6 7
gen e
ĠStatis tical
Ġbi ot
Ġbl ocks
im ilar
Ġcarcin oma
Ġob ject
unic ip
Ġvis ible
Ġcap ability
iz er
Ġoper ational
ĠN H
Ġmother s
Ġhous ing
Ġag es
Ġtwe ets
Ġadjust ment
ĠS IR
Ġsple en
ĠHR V
Ġhumid ity
Ġfo ot
Ġinst ances
b ut
Ġcent ury
Ġinactiv ation
pec tives
Ġde pos
ĠG e
ĠF c
Ġen riched
Ġextr acts
ĠP res
och astic
ĠIn fec
Ġpro ce
Ã ¯
G CA
Ġcereb ral
Ġag ing
ograph ics
Ġwebs ite
ĠP ri
Ġabsor ption
Ġover view
O ver
Ġeosin ophil
Ġs emi
Ġlearn ed
Ġcytoplas m
us ing
Ġ 00
Ġspl it
Ġstim ulated
Ġinj uries
Ġrecommend ation
Ġso und
Ġpl aque
Ġadv ice
a ut
Ġvolunte ers
Ġol factory
Ġtemper atures
oc c
ang l
Ġcur ric
ec e
Ġintersti tial
q PCR
Ġs el
D C
Ġinduc ing
astr ic
g a
ina vir
Ġgl ass
N K
Ġst ead
Ġdescri ptive
Ġproxim ity
ĠS ing
Ġnur se
ĠS TAT
Ġd ans
Ġquantit y
b r
ĠZ IKV
Ġs udden
Ġhe t
ys ical
Ġa u
Ġens uring
Ġprogram me
Ġhum oral
h as
Ġdri ve
Ġpharm aceutical
se vere
Ġwell being
Ġg iving
Ġlos ses
ĠC urrently
Ġoptim ized
Ġbelong ing
Ġcap abilities
GF R
Ġthreat s
D E
Ġinf arc
Ġj ournal
lec tion
ec ond
Ġsur prising
ĠCom mun
Ġtoler ance
Ġpl ots
ĠM y
Ġc y
ores cence
ad i
m m
I f
Ġt y
Ġbi ochemical
onym ous
ĠSe vere
Ġro utes
de hy
Ġf ra
Ġ20 11
Ġob jects
ĠR el
ĠH ow
te p
Ġdiscussion s
te en
Ġman ual
in formation
P h
Ġfung al
Ġn arr
pos ite
Ġhead ache
ĠBay es
le ge
Ġd s
ox y
Ġdecl are
Ġpost operative
ti d
Ġcompar ative
pro of
Ġsuppor tive
Ġcount y
Ġ( <
Ġmicroorgan isms
Ġdeg rees
Ġtr y
Ġr Ã©
I M
ĠF uture
ĠÏ ģ
ap ter
Ġpro por
ĠE B
ib ration
ĠFig ures
ĠÂµ L
Ġter tiary
Ġquanti fication
Ġprec ip
ĠH ep
Ġpeak s
Ġcat tle
et te
Ġg aps
ĠN etwork
Ġt ight
Ġadop t
asc ul
Ġesc ape
Ġbelief s
las ts
Ġillness es
l ines
un t
Ġle ave
ĠBrief ly
Ġinoc ulation
Ġw ound
1 20
Ġful f
ir med
ĠN LR
Ġsp ent
Ġr heum
Ġon t
Ġinactiv ated
Ġnat urally
ensi tivity
Ġh ope
ra ys
Ġcent re
ar a
ĠĠĠĠ ĠĠĠ
Ġnucle ocapsid
2 12
or ous
Ġed ge
il izumab
ĠDr ug
Ġchrom at
ĠC E
Ġk Da
o tion
ĠM or
ion al
F s
Ġf ru
Ġhaz ard
Ġapp oint
Ġle ak
Ġtransi ent
ag ic
Ġdiagnos es
Ġinv asion
Ġdis advant
Ġcor d
ink ing
Ġpro mpt
opath ic
it one
Ġcomple tion
Ġwe ighted
Ġphosph ate
Ġmotiv ation
Ġethn ic
Ġfeas ibility
Ġcan cers
ĠâĪ ¼
Ġre aching
Ġse ptic
Ġp el
ĠZ e
ail s
ĠIn fluenza
pro cess
Ġsubs ets
Ã ±
Ġpass eng
Ġcont ro
Ġcom mittee
G P
Ġstructure d
Ġ ign
ĠÎ¼ M
Ġpict ure
Ġext end
Ġtrack ing
Ġconsum ers
el ing
Ġs or
os ine
ĠP ers
ĠGen eral
in ates
i vidual
Ġsw ine
al king
il ization
Ġcom ing
form s
et heless
ul ators
uc ifer
se q
Ġstudy ing
Ġmet al
Ġro ugh
l s
Ġdig es
Ġexam ining
Ġcomplement ary
l ast
Ġmat ch
Ġp ow
p ase
Ġ9 7
re nd
Ġtrans mit
Ġvi able
Ġl um
Ġdis ag
Ġn erve
Ã© e
Ġcorrel ate
Ġgeneral ized
Ġfib rin
Ġorgan ism
Ġv om
ap ed
p ass
Ġextensive ly
Ġmedi ators
Ġwith dra
Ġcop y
Ġun less
ĠAss ociation
ri ed
Ġsubstit ution
Ġw ider
as ome
ĠA L
Ġamong st
cont rol
Ġenrich ment
Ġhypox ia
Ġfe eding
ven ess
ĠW here
Ġall ergic
ii i
ĠC ar
ĠHub ei
os por
ĠC AP
Ġinflu ences
Ġelec tive
Ġsc oring
Ġin patient
Ġn ach
Ġcaps id
Ġdissem ination
Ġpublic ly
Ġorgan is
Ġd anger
Ġpr ices
Ġin ner
ĠA F
Ġchild hood
ĠP BM
Ġdisc ipl
om ial
Ġmultiple x
ĠL C
Ġpa id
Ġconform ational
gen er
um or
Ġsc ans
Ġob st
abl ing
Ġdec ided
Ġpers pectives
C OV
Ġcareful ly
Ġexper tise
Ġmuc osa
Ġver ified
Ġview s
c hen
Ġwork ed
enti a
j ug
Ġresid ent
Ġfac ed
Ġmod es
rain ing
at en
Ġelse where
Ġmicrobi ota
th rom
Ġc row
Ġpo ver
omet er
ro om
Ġan th
ri le
Ġimmun omod
Ġro ta
Ġim per
Ġpover ty
ig m
one y
ĠConsider ing
in ces
Ġcytoplas mic
Ġpur ification
a ult
Ġengine ering
Ġactive ly
dr ug
Ġline age
Ġn os
Ġro d
Ġattem pts
re valence
Ġsee king
w orld
Ġinvestig ators
Ġmeet ings
min istration
Ġtrig gered
Ġorgan ic
ĠS an
to tic
g u
in ting
lec ted
an ine
N ase
ib er
ar se
Ġrh ino
ĠF l
Ġcriter ion
Ġf abric
Ġm outh
Ġr ating
Ġtr im
Ġcompr ised
Ġbroad ly
qu ito
ĠV acc
Ġfiltr ation
ap ore
ĠE M
Ġlic ens
Ġcom plication
ĠTh ose
N I
CT TT
Ġenh ancing
Ġn arrow
Ġpur s
Ġpersist ence
ĠSy ndrome
h ouse
ĠDE NV
Ġveloc ity
Ġp ure
we ight
am pl
il le
Ġput ative
qu ality
Ġ7 1
ad ing
Ġer a
Ġalb umin
H IV
Ġst ochastic
Ġocc asion
Ġorganiz ational
Ġdescrib ing
Ġth ings
Ġpas sive
Ġreduc tions
Ġo c
Ġnucle otides
ĠK it
Ġprob able
Ġveh icle
ĠAc t
ĠV al
Ġaeros ols
Ġcomp ati
Ġadv ances
Ġye ast
Ġaggreg ation
Ġsc ar
yp sin
ucifer ase
Ġwors ening
Ġget ting
um m
Ġfocus es
ĠTw itter
Ġdeple tion
Ġe gg
Ġdis pos
Ġform ing
Ġincom plete
n on
Ġg rid
Ġattrib utes
Ġser ver
Ġencephal itis
Ġimmun ode
Ġdisc los
Ġorgan ized
ococ cal
Ġpoly p
ĠMin istry
Ġun em
g ov
ac ic
Ġiss ued
Ġs tig
Ġis o
ĠO S
Ġrun ning
ĠM P
ĠC K
Ġdysp nea
ĠS R
Ġreturn ed
Ġg re
enc ia
Ġundert aken
o vir
Ġbas al
Ġmarg inal
out hern
Ġcom ment
Ġim posed
Ġcent res
Ġn od
Ġreve als
Ġinstr uments
ĠI RF
Ġhelp ed
Ġterm inal
Ġc it
Ġconnec tions
ĠSw ed
ti fication
Ġinadequ ate
am ination
Ġimmun ized
n CoV
Ġpreca utions
Ġpre ference
ĠI ts
Ġto day
F urther
Ġn et
h ome
Ġcoun ties
Ġpropor tions
Ġtranscription al
F T
ĠB r
al ys
Ġin hal
Ġm us
Ġsequ enced
Ġembed ded
Ġyield ed
Â µ
iver sities
ok ed
pl o
Ġr ing
Ġsyn cy
Ġnew bor
Ġproduc es
Ġh ors
Ġinvestig ating
ĠAccording ly
Ġan at
E G
Ġret ro
Ġer yth
Ġinteract ing
Ġhab it
l ated
ol gi
nd rom
Ġencod ed
h t
Ġattit ude
c k
ĠSp ike
ĠAp pro
TG TT
â Ħ
t ri
Ġindi vid
Ġ2 50
Ġinter leukin
Ġindic ation
Ġcorrect ly
ang i
a ved
Ġori entation
Ġre per
Ġneu rop
as hing
atic s
Ġdepend ence
Ġintest ine
Ġves icles
Ġcarri ers
Ġb ac
Ġiniti atives
ps y
Ġsub types
ci Ã³n
Ġwaste water
Ġcom fort
Ġm Ab
Ġhepar in
ĠGovern ment
G C
ĠI AV
ĠLabor atory
Ġconver sion
Ġlifest yle
ĠP ol
Ġcyt ometry
ĠEth ics
ĠPR RSV
Ġ ure
ĠM AP
Ġpart ner
Ġinf ant
Ġintr insic
ĠPro gram
Ġm unicip
it ory
Ġp y
Ġproportion al
Ġencour age
Ġaccoun ted
ĠT ur
Ġsegment ation
ol ution
Ġfat ty
d ep
ĠP an
Ġca vity
d et
Ġabund ant
dehy de
Ġben ch
Ġtherapeu tics
Ġ7 6
Ġthink ing
ĠP O
Ġcarry ing
Ġc iv
Ġoccup ational
ur a
a emia
Ġhand ling
g lyc
ĠPh ase
Ġover w
ĠY et
Ġdec ade
e ine
Ġconsider ably
Ġinteres ted
Ġadj acent
Ġar ise
Ġventr icular
Ġin jected
ĠO pen
ĠS DS
Ġ200 8
Ġdim er
Ġdri ving
H g
Ġgran ul
Ġfac ing
Ġur g
Ġdefin itions
Ġsol ve
Ġcomb ining
de red
Ġad sor
si es
Ġch i
Ġaccom mod
Ġobtain ing
Ġprov inces
ĠR us
ĠM I
Ġ8 8
Ġpre fer
Ġde pressive
Ġtom ography
ĠT ra
Ġfit ness
ver ting
in form
ĠInd ian
end er
Ġrec all
S I
ĠSing apore
f i
ĠWith in
Ġmm ol
Ġm yc
Ġcre ation
Ġb ank
em ed
ĠB M
Ġup regulated
Ġcategor ized
Ġreplic ate
F rom
Ġindic es
Ġantioxid ant
ens or
s ite
os ed
it Ã©
Ġrec ording
Ġun com
Ġbl ind
Ġh uge
B ackground
Ġmove ments
Ġapp reci
ĠF ood
Ġmos quito
Ġan c
Ġfig ures
Ġn s
Ġf lo
AS T
Ġmat uration
B io
Ġansw ers
Ġload s
Ġide as
B E
Ġimmun ogenicity
ĠC NN
ĠTh rough
ĠÎ Ķ
Ġkeep ing
Ġclean ing
ĠB lood
ĠC re
P re
Ġbehavi ours
lec tive
Ġcontinuous ly
s ch
Ġsupplement ation
or a
ĠSe qu
Ġinnov ative
âĢ¢ âĢ¢
Ġdend ritic
ne e
n ia
Ġref r
Ġ6 9
Ġpred is
id enti
Ġbott om
Ġres on
f are
us ting
le tal
Ġpercent ages
ren ch
Ġg erm
Ġvolun t
Ġrad ical
ensi tive
Ġfac ulty
Ġp our
Ġop tical
Ġperme ability
Ġen roll
Ġelec troph
Ġfeel ing
Ġcompe tition
Ġact ors
ĠÏ Ģ
ĠF lu
ro te
ari able
ĠU se
Ġcytotox icity
Ġz inc
Ġyield s
Ġdis ability
ĠH T
st age
d enti
Ġg ame
ĠR CT
CA M
Ġp ock
re pres
Ġflu or
Ġen abled
Ġle thal
Ġund e
ĠM o
Ġco operation
Ġwork place
Ġconserv ation
Ġimmunoglob ulin
Ġb rid
Ã Ģ
Ġ ri
Ġrepor ter
Ġstr ing
Ġbo ok
Ġexpect ations
Ġevol ved
h igh
ĠR dRp
Ġminor ity
ect in
Ġ7 8
Ġconc om
ith romycin
Ġrac ial
Ġ ut
Ġhoriz on
M ore
Ġag on
Ġplay ed
Ġarri val
f ol
in ol
Ġkine tics
Ġcoord ination
Ġpharmac ological
Ġlocal ized
Ġper m
Ġplate lets
ĠA KI
B e
oc omp
Ġcorrec tion
ser v
rec ted
on om
n als
Ġres c
Ġfor ced
acc o
Ġdiscre p
ip p
at t
ĠB el
Ġachie ving
Ġfavor able
ĠR P
Ġcl ones
Ġillustr ate
Ġpor cine
Ġden ote
Ġmo tion
ut ral
Ġoverw hel
ĠG DP
T her
ci ous
Ġvalid ate
Ġprob abilities
Ġavoid ing
Ġs hel
ĠP ath
Ġbo ard
Ġaccoun ting
Ġfour th
Ġfor ces
Ġelim ination
ĠD o
M M
ĠL i
Ġ7 9
Ġpoll ut
Ġb order
ĠCom p
Ġunex pected
Ġ9 2
f ig
Ġburn out
Ġconcentr ated
Ġair ways
Ġparticip ated
ili ary
Ġpres cribed
Ġblock ed
op inavir
Ġvir ion
ar in
en ic
ĠI ran
Ġloc ally
Ġcompl ain
Ġ9 3
Ġs ug
R O
Ġsustain ability
Ġentit y
Ġtrans fection
Ġstim ulate
Ġun treated
ĠÃ ¾
Ġmetabol ites
â ī
ic in
ĠP oly
word s
ĠÎ¼ L
Ġ7 3
** **
ĠE d
ter ing
am y
Ġimmunosup pressive
Ġgen otypes
Ġroutine ly
be it
c alled
Ġalle le
Ġfeel ings
act or
Ġas k
Ġinter fe
ĠUn fortunately
Ġthor ough
Ġro w
Ġtri age
Ġe ch
f all
Ġconver ted
Ġe ating
ĠCX CL
Ġs ial
in in
Ġtraject ory
ĠD Cs
Ġalign ed
Ġdiscrim ination
ĠPro v
Ġwork force
pro portion
ĠE arly
otyp ic
Ġst ation
ĠKing dom
imer ic
H F
n am
Ġcom ments
il ed
Ġarg ue
Ġhem od
Ġher d
Ġsh ar
ĠSt and
Ġoverl apping
d efined
omet hing
ĠS U
Ġdis infection
ĠJ ournal
Ġfit ting
ĠDevelop ment
ĠSub sequently
Ġmess age
Ġadministr ative
Ġde position
Des pite
Ġmicro gl
ĠCl ass
S p
ĠD R
vid ence
ĠSp anish
Ġmonth ly
Ġterm in
T I
Ġhar vested
Ġcho ices
ĠSa udi
ĠmRNA s
h ttp
Ġlater al
Ġn ic
ĠP las
B B
ĠTyp e
Ġdem entia
ĠChild ren
29 3
Ġprep are
Ġw id
Y P
Ġdiagnos tics
ĠQ ual
ĠCC L
med ian
Ġmorph ology
Ġpropag ation
Ġre tention
ĠR o
Ġparen tal
Ġcathe ter
H ere
ĠD el
um er
ĠIn fection
z z
Ġs i
Ġnutri tional
D I
Ġtum our
Ġsusp ic
Ġreg ulating
Ġent ered
ĠM ark
Ġob lig
Ġeti ology
Ġunde restim
Ġprevent ed
Ġdem ographics
Ġac ting
S everal
Ġk its
Ġacces sibility
Ġ8 4
ient o
g ers
ĠPe ople
Ġproper ly
Ġ7 7
Ġfam ili
Ġver ify
por ation
uf f
Ġconsequ ently
ed ical
Ġphen otypes
Ġdep icted
ĠH ist
os s
Ġcompet ing
ĠHealth care
ĠH PV
at ology
Ġalle vi
Ġmarked ly
a per
Ġtre es
Ġst ra
Ġper man
ar ation
Ġsubgroup s
St ud
fer ase
Ġur inary
id i
ol ism
Ġpro pos
Ġmicro ar
Ġmeas les
Ġim pos
ĠAN OVA
Ġinter rup
Ġsp an
ant a
Ġmen tion
Ġarth ritis
Ġutil izing
ai re
Ġdram atically
ĠC t
upplement al
li x
ĠConclusion s
ĠBo ard
am er
Ġsome what
Ġmand atory
Ġvisual ization
olar s
Ġinflu encing
Ġimpro ves
Ġdiab etic
Ġmedic ines
Ġcan n
Ġh ttp
m osp
Ġsubst ance
Ġrespond ed
Ġ8 2
Ġop ening
Ġpos e
as ters
t or
Ġw ur
ec tive
Ġw estern
op ic
Ġautom atically
Ġconfirm ation
Ġhome ostasis
Ġsp inal
Ġexclusive ly
ll a
Ġen abling
Ġwa iting
Ġassum ing
A ccording
He alth
Ġhom ogene
Ġs enti
p ens
ensi ties
s acchar
os es
Ġsuppres s
Ġhom ology
ir y
Ġacknow led
Ġethn icity
Ġemo tion
l og
val ues
id ents
Ġsup plies
Ġcategor ical
id ase
E N
Ġec osystem
Ġweak ness
Ġ8 3
Ġop posite
um ing
Ġcomp artments
Ġemph asis
Ġdifferenti ate
MP s
ĠPh arm
Ġch loroquine
Ġcontag ious
Ġevol ving
Ġconduc ting
Ġfl av
Ġdist ances
p andemic
Ġ7 4
Ġtend ency
AR DS
Ġbo ost
ter min
Ġsuf ficiently
ost r
ges tion
Ġvis ion
Ġcover ing
ĠT GF
Ġy outh
po ly
Ġdiscre te
ĠB as
ME RS
m end
Ġdest r
ur is
Ġb p
dom ain
b odies
Ġtransform ed
yp ical
f ord
Ġsubstr ates
Ġcomp ute
Ġun iversities
Ġpre ferences
Ġpurch ased
Ġec ological
he ther
ĠD a
ect omy
Ġatten ding
Ġconsolid ation
fe k
Ġser ved
Ġdeterior ation
B ank
os ocial
ĠD ist
Ġne ph
Ġsens ing
f f
Ġnot able
ec k
Ġgra ft
Ġeng aged
S C
Ġcalc ulations
ĠC L
Ġcl oud
ĠÃ ¼
ĠB ackground
Ġv ill
Ġregard ed
Ġprogram mes
ĠN Ps
Ġsoci eties
Ġo u
Ġexplicit ly
ĠAl tern
Ġsqu are
Ġserop revalence
ether lands
ĠInd ividual
Ġw ird
R R
MP V
Ġconsum er
i asis
rit in
ĠU l
Ġtransl ated
Ġsecre t
ch ym
pres s
Ġser ine
Ġz ur
g ia
Ġchem okines
ĠInst ead
Ġser ves
Ġattack s
Ġreag ents
Ġinc ons
Ġpa ired
ĠE duc
ĠT A
Ġno tion
Ġstat ements
adj usted
is hes
Ġvir t
Ġspec tra
Ġlon eliness
ĠInd ex
Ġem p
ĠN one
ĠC ase
s ense
ĠCom mission
Ġsc at
ul try
Ġsupplement ary
pres sing
Ġillustr ates
Ġmanag ers
Ġwa ves
S L
Ġf ell
Î ¼
ĠR MS
met ric
O T
Ġregular ly
Ġspecial ized
Ġcut off
Ġrespir ator
Ġstimul i
Ã© n
Ġnit rogen
Ã ŀ
Ġ ]
I nd
Ġclaim s
Ġfood s
ug in
Ġs omething
ir able
Ġindirect ly
Ġretrie ved
Ġstrateg ic
Ġag ency
cor onavirus
Ġshif ts
Ġcovari ates
Ġwork er
l a
Ġsec ure
Ġg p
if ies
ad ian
Ġ8 1
d ist
Ġre activity
m g
ĠC entral
Ġoffic e
Ġ um
an a
T M
Ġpro gen
avir in
Ġneur onal
Ġind oor
Ġout er
rib ution
Ġve get
Ġglycoprotein s
R V
Ġconfl icts
Ġy ellow
Ġto b
ĠT a
ĠN etherlands
echn ology
Ġsh op
ĠM ann
' -
Ġreturn s
ad ic
Ġde emed
Ġed ges
Ġre ass
le ase
Ġmix ing
Ġcompos ite
rolog y
p red
Ther mo
Ġden otes
Ġdispar ities
Ġdel ays
Ġelim inate
Ġencour aged
ĠE P
Ġimportant ly
Ġischem ic
Ġchalleng ed
an ing
pan ic
l ies
Ġcomp rom
V HD
fact or
Ġpl aus
Ġproduc tivity
Ġse iz
Ġinser tion
ĠM ex
Ġprof ound
Ġindust ries
ur ia
Ġd ark
K U
Ġsimilar ities
ĠL ast
Ġsc ored
Ġox ide
Ġcon vers
Ġch am
Ġfil es
ox yl
Ġex em
ocyt openia
Ġvic tim
ĠA uthor
Ġver tical
ĠD isc
Ġ ions
us p
ĠG ram
Ġc ys
Ġst rept
conf irmed
d ens
Ġhypot heses
Ġmm Hg
Ġsuic ide
Ġpass ed
par tic
ĠC yt
Ġlo oking
Ġrab bit
ĠH a
Ġembed ding
Ġim ported
Ġe ase
ess ment
Ġconsult ations
Con clusion
Ġdisc our
Ġthe ories
Ġm Abs
L U
ĠP ost
Ġ8 6
Ġmedi ate
struct ural
e y
ang ed
) /
Ġclos er
id ing
Ã º
N R
ĠA A
Ġcompe titive
ult ure
Ġreplic ates
Ġwel fare
G GA
in ib
Ġexc lude
Ġfluct u
ell itus
Ġcomput ation
ĠF rench
Ġv ascul
Ġcomput ing
ĠS F
ĠC hem
ocomp romised
Ġradi ological
ĠD A
Ġload ing
Ġsubst ances
Ġadv oc
hyth m
i ers
Ġ8 7
ular ly
ĠBayes ian
ell en
Ġincorpor ate
ĠÃ© t
Ġspect rom
Ġsp ons
: :
ĠC AR
Ġcentrifug ation
Ġin ference
Ġint act
omp ass
Ġd ass
et a
Ġland sc
Ġoxygen ation
Ġir radi
Ġfr actions
Ġcollabor ative
Ġat mosp
Ġgain ed
ocom ial
Ġm ent
D e
ur in
ĠNa Cl
Pati ents
Ġsecre ted
Ã¡ s
ĠâĪ Ĩ
Ġindic ations
N L
ĠEmerg ency
oh ist
ce l
Ġb ow
Ġeth anol
Ġbench mark
Ġf ight
ĠMaterial s
Ġcris es
Ġestablish ing
Ġapp s
Ġagg ressive
Ġch ose
Ġinter acts
Ġatt ached
Ġ8 9
ĠCh ar
Ġrelig ious
Ġexp ensive
ĠA UC
xim ately
Ġutil ize
Ġfil ters
Ġw inter
Ġaf ore
Ġbronch ial
Ġs om
ĠTG EV
ĠG FP
Ġco inc
R eg
Ġfarm s
ier t
Ġprophyl actic
re mia
PI s
ĠT ables
ĠReg arding
valu ation
CM V
Ġop i
Ġwell s
Ġsh ut
Ġup regulation
Ġn t
Ġmod ulate
Ġout lined
ag glut
Ġdown load
Ġimmunosup pression
ĠR h
vit rogen
ĠL T
sy stem
Ġcontr act
Ġrota virus
3 00
Ġqu ery
Ġfoc al
Ġforec ast
Ġjour nals
Ġanticip ated
Ġimmunode ficiency
Ġimm ob
ĠO p
Ġ9 1
Ġfed eral
Ġar rest
on y
Ġint ense
Ġvom iting
ĠC r
l ock
ĠIm p
Ġdesign s
Ġto c
id a
Ġv ag
ĠS M
Ġprom otion
c an
Ã¯ ve
Ġmel an
ĠS PSS
if f
con verting
Ġm ism
h ost
ik a
Ġmicroscop e
Ġwilling ness
ch y
Ġpo ultry
roscop ic
Ġmor al
Ġthick ness
ĠCol lege
Ġestablish ment
ĠF in
Ġex er
Ġcom o
ĠF ace
Ġafore mentioned
Ġtempor ary
Ġreg en
E F
Ġple ural
Ġchromat ography
Ġfluid s
Ġg astric
ge b
iv ariate
Ġrel ies
ĠCon versely
os ing
Ġcontr ary
Ġcas pase
P T
ĠV SV
ro zen
Ġmotif s
Ġm ellitus
ĠM at
me as
Ġexam inations
Ġab use
ĠmiRNA s
TT TT
Ġintellig ence
Ġun us
f ers
ph ase
ĠV L
Ġrh in
Ġdis proportion
Ġsc aff
Ġâ ĸ
Ġsyn erg
a phyl
Ġplasm ids
Ġexpos ures
Ġdiag ram
Ġpron ounced
Ġnec k
Ġle aving
ĠN Y
ĠÂµ m
Ġhist opath
z es
Î »
Ġfund s
Ġvol ati
il ized
ok ers
Ġre tic
ĠD ay
flu orescence
ochem istry
id ential
az ole
Ġca ution
ang es
Ġhe avi
ĠE BV
Ġex ogenous
ac oronavirus
Ġacce l
Ġre vers
ĠS ix
Ġde fic
Ġupd ate
Ġdoct or
aryn g
s en
Ġderiv ative
Ġbiomark er
ke it
Ġforec asting
um ber
u ro
Ġcor por
ĠB L
Ġ* **
b lasts
Ġreflec ting
ĠPatient en
Ġqu ad
Ġjud g
ol ved
Ġam in
O f
Ġf ish
Ġa pt
Ġneighbor hood
ĠL V
Ġantib acterial
m ethyl
a ur
Ġstrati fied
ĠT otal
end it
Ġlab els
Ġg lo
Ġgroup ed
ef in
Ġenc ompass
Ġn ose
ot ing
Ġconf inement
Ġl uciferase
C ons
a it
ĠS L
Ġde fects
Ġch ol
Ġth ym
Ġar rang
Ġcaus ative
Ġ* *
Ġrefer ral
Ġcust om
Ġhors es
O M
Ġha ir
Ġmod ulation
if orn
Ġconfound ing
Ġcryst all
Ġtoc ilizumab
par amet
op tim
ist an
Ġk ill
Ġch arged
Ġbusiness es
ĠLike wise
Ġap art
ĠS amples
Ġpart ly
g ly
ad der
Ġab er
ĠO D
Ġim bal
C ov
ĠG M
Ġl ists
Ġsign alling
. ).
Ġp g
plic ity
Ġdial ysis
ĠIFIT M
Ġcompr ising
CC AA
ĠIn troduction
A pp
ĠL ik
in te
Ġg ram
Ġaut op
Ġpul se
Ġcont ents
Ġenzym atic
Ġsy ndrom
Ġeas ier
Ġleg is
Ġfit ted
ĠI T
Ġoptim ize
ac in
Ġpass age
so ur
reat ening
Ġcomb at
label ed
th at
ĠRep ublic
Ġve in
Ġclass ifier
ar th
ĠN HS
Ġconstit ute
v age
ti e
Ġsh all
Ġindivid ually
Ġdis infec
Ġmaxim al
n et
ĠCoV s
Ġagricult ural
ugh t
O X
Ġly sis
Ġconcom itant
Ġend point
ĠM yc
oc he
Ġâ Ħ
Ġemerg encies
f amily
ĠJapan ese
Ġcasc ade
B R
Ġsum mer
Ġchick en
Ġ ult
Ġparas ite
ĠÃ¼ ber
d L
Ġinput s
ĠSci ences
Ġcon volution
Ġde aling
Ġcer v
P L
Ġdec om
Ġshort age
Ġt rap
Ġout do
Ġw ards
Ġno tice
Ġster ile
ab s
00 2
n ic
ver sible
Ġdis asters
Ġlibr aries
Ġaccom pl
Ġrev ised
ĠCl in
or b
Ġimmun ocompromised
ĠP ub
Ġfil tered
Ġem ail
Ġtraject ories
Ġag o
G D
ĠAn y
ari o
Ġd ense
ĠA ir
Ġentire ly
ti fic
Ġcurric ulum
Ġenvelop ed
ĠT reg
Ġcoll agen
Ġir re
Ġhighl ighting
Ġpartn ership
Ġdec ay
Ġexp endit
hy d
Ġbound ary
Ġt ro
Ġstead y
Ġremo ving
ak er
Ġb ands
Ġrep ur
1 000
Ġsupernat ants
Ġsubun its
ĠÎ ·
he res
ĠMS Cs
sh op
w al
ol it
Ġrel ating
Ġcreat inine
ĠN E
Ġalle les
ĠDif ferent
Ġpresent ations
ric es
er ves
Ġcorrel ates
Ġinequ ality
ot rans
qui re
et ary
Ġh it
Ġanc est
CD C
ĠT ime
c re
si al
fici encies
oly sis
Ġ ice
Ġelev ation
Ġsc al
Ġsystematic ally
Ġp ix
or i
Ġo wing
Ġh im
ĠGerm an
Ġdiarr h
ens es
Ġdeb ate
st ud
Ġat ypical
Ġb orn
uk ary
Ġint ran
Ġsched ule
Ġw oman
Ġper fect
ic ting
Ġph age
Ġund et
ash ion
Ġmalign ant
Ġtob acco
ĠC as
si veness
G iven
oc ortic
arb on
Ġgene tically
Ġimpos sible
u ent
bo hydr
Ġdifferenti ally
Ġchec ked
Ġharm ful
Ġvide os
Ġcul tiv
Ġregim ens
ind ependent
Ġenter ic
ugin osa
ĠHE K
Ġsym b
Ġfl at
Ġsoci etal
Ġre ally
Ġoper ator
in ator
Ġgraph s
u est
Ġme at
S igma
all i
Ġexperiment ally
Ġsequ ential
Ã §
Ġread er
Ġconfig uration
iforn ia
is ch
Ġre tained
squ are
Ġsin us
Ġtra its
ĠProv ince
Ġpancre atic
ut able
ĠNon etheless
Ġpromot ed
Ġlip ids
ĠAd ministration
c m
ĠF A
O ther
Ġpar ty
Ġdefin itive
Ġfra il
Ġnos ocomial
ĠT CR
ear son
T NF
Ġpig lets
Ġbe ads
pl ay
Ġster oids
GA TG
Ġs plic
Ġdat es
Ã¶ n
unc il
Ġorig inally
Ġdisc over
Ġinfarc tion
Ã¶ r
amet has
Ġec t
chym al
Ġcompati ble
Ġf reed
ĠC CR
in f
Ġhospital izations
onucle ar
5 49
Ġb is
Ġprev ents
Ġimm ig
Ġg rant
Ġef fusion
con jug
ig her
Ġfacilit ated
Ġtra ine
Ġmim ic
Ġparas ites
Ġprotec ting
Ġde x
am ivir
ĠCh i
D i
roscop y
Ġvac u
Ġcontro ver
s it
Ġd pi
Ġpot ency
Ġcred it
Ġpsych osocial
Ġrel apse
Î Ķ
n ow
Ã £
Ġsch olars
Ġn ull
Ġat oms
Ġnorm s
Ġarg ued
Ġstop ped
M F
ĠBi ot
Ġem erge
Ġavoid ed
Ġman if
Ġinter ference
ap a
N e
Ġro ad
Ġestim ating
Ġstra ight
Ġsuf fered
Ġaer uginosa
ĠWh ite
ur sor
Ġinc l
ĠR isk
Ġvisual ized
Ġhold s
Ġm apped
Ġencoun tered
Ġwild life
tr al
Ġaggreg ate
Ġrhino virus
Ġabsor b
ĠPri or
Ġdif fered
pro duc
Ġdecl ined
ĠE pid
ĠInfec tious
id den
ĠB CG
yn thesis
ij ing
G I
Ġre act
ĠSe e
Ġun related
Ġfacilit ates
Ġrecur rence
Ġsto ol
Ġleuk emia
ĠA cc
amethas one
Ġc ir
Ġmiss ed
Ġim ag
Ġkind s
Ġso il
ĠEV s
Ġwe ather
Ġglycos ylation
Ġattr active
ĠT RI
Ġdis tal
Ġexacerb ation
ĠO x
Ġobstruc tive
pri ate
ĠT X
Ġcerv ical
Ġclin ician
et o
Ġcondition al
Ġfacilit ating
Ġm ock
Ġn ations
en viron
ĠAn imal
ological ly
Ġhemorrh age
Ġh all
Ġre ferences
Ġun infected
Ġcon v
Ġlat est
p d
ĠA C
Ġcyst eine
Ġadj usting
ĠC oun
i ro
Ġra ise
utri tion
id ers
s he
W T
Ġremark able
Ġb ab
Ġcolle ge
ĠB P
i op
Ġpre clinical
Ġdet rim
t wo
Ġtr ace
c r
it ney
ĠR F
rop y
ed uc
Ġrob ot
rec ip
ĠG olgi
on as
Ġreconstr uction
Ġdo or
Ġ %)
â Ĳ
Ġcomorbid ity
ĠJ oh
we red
ĠA U
ĠMulti ple
J ournal
h l
p ur
ĠI ll
Ġmulti disciplinary
Ġsign ature
Ġp ed
Ġup stream
Ġview ed
Ġmamm als
W S
Ġtub es
Ġenter ing
Ġcust omers
L s
ĠG O
Ġsubstit utions
Ġan terior
Ġdram atic
itone al
ades h
b one
Ġevalu ations
an z
Ġno tic
pos ure
Ġscan ning
angl adesh
nec ess
Ġm oney
Ġterm ed
ĠÏ ī
d a
Ġc ited
Ġciv il
Ġsupplement al
ĠP neum
ĠIS G
Ġp ts
b ul
Ġcommerc ially
Ġwh ilst
Ġstr ugg
âĦ ¢
Ġexha us
Ġfo rest
Ġproxim al
otrop ic
it ated
ub ated
Ã© es
ĠInstit utional
Ġolig onucle
f ung
Ġpres cription
Ġline ages
C oronavirus
Ġ200 2
Ġc ation
ĠÎ¼ m
sion s
sy n
Ġmach in
Ġto uch
Ġlas er
IN G
ore c
B T
Ġf ashion
pec ific
i ant
r ated
un k
ore r
Ġz ones
Ġdesign ing
ĠCent ers
âĢ² -
Ġbi of
Ġn om
Ġdo ub
Ġwor st
y lo
Ġjob s
Ġexplor ation
Ġha pl
Ġdevelop ments
Ġtrans pl
Ġman ually
ran ial
Ġmodel ed
ĠN sp
Ġmul tim
ĠP ort
ores is
Ġcop e
Ġpo inted
Ġdef ining
Ġheavi ly
ĠQ ues
ie tic
Ġgood s
Ġexpl oring
RS A
Ġfront line
it arian
orth y
ĠMean while
Ġc rop
Ġre nd
Ġdevi ations
ĠM ac
end e
ce ption
Ġmon ol
ĠC RIS
Ġlockdown s
Ġactiv ating
sc ore
ĠV R
n es
Ġless ons
Ġtrig gers
ĠQ T
Ġdep ri
ox in
ĠI BD
Ġdef ault
Ġsole ly
Ġbow el
O s
Ġclon ed
Ġiniti ate
Ġun re
ocr ine
Ġ200 7
Ã£ o
Ġen l
Ġmat rices
ĠN ow
Ġreag ent
Ġf if
Ġunem ployment
l ip
Ġ6 00
Ġscaff old
p rene
Ġe ukary
Ġfac ial
Ġfin ite
Ġinser ted
ĠBe fore
Ġinterfe re
val id
Ġglob e
Ġarg ument
H is
Ġpock et
Ġwas h
Ġc os
Ġsub type
Ġpot enti
Ġsal t
Ġcontag ion
in ia
Ġsol vent
Ã¤ n
Ġess entially
Ġobes e
O b
Ġas certain
Ġs ure
H T
Ġprem ature
Ġthous ands
mit t
Ġsa ving
Ġinter active
st atic
Ġquanti ties
Ġchick ens
Ġliter acy
M ost
ĠArab ia
ar ial
ven ue
Ġdem yel
tim ate
Ġlact ate
Ġenc odes
rel ation
od ed
Ġcontinu ing
ĠTest ing
Ġprec ursor
Ġsuppres sed
it em
g rade
force ment
Ġdr inking
Ġrecip ient
Ã «
Ġcentrifug ed
ĠK D
hydro gen
Ġframes h
Ġgener ates
Ġeryth ro
Ġk cal
Ġe igen
Ġal kal
D Cs
Ġco vers
Ġle aves
ĠN i
Ġdirec tions
ĠP sych
Ġster oid
Ġrun s
G R
opo ietic
Ġwar ning
is tics
epti des
Ġg amma
Ġcl ients
Ġtrans genic
or ient
bo tic
Ġradi ograph
Ġapproxim ation
Ġincorpor ation
Ġequ ity
Ġl am
Ġenh ances
H I
le y
Ġ29 3
ĠF I
Ġsub cutaneous
Ġhab its
ĠB angladesh
Ġexacerb ations
ĠF orm
tra um
Ġth in
Ġdri vers
oph age
Ġreson ance
an th
ĠT P
Ġmod ules
Ġlymph oma
Ġin verse
ĠF ive
gl uc
ĠZ h
Ġpharm acy
Am ong
ĠPT SD
Ġin ability
up s
ĠA M
Ġdifferenti ated
n is
Ġbar s
Ġcommit ment
itor ies
ĠN iger
Ġmitochond ria
ĠA bs
Ġ200 5
ath y
ĠCal ifornia
ut ation
plant ation
os mia
ĠI denti
ĠT ri
Ġvolunt ary
Ġr ising
Ġdistr ict
.... ....
com ing
ĠC M
ab it
Ġpert urb
ĠL ow
Ġsyncy tial
th ing
r ine
Ġpan els
Ġr s
TA TG
Ġrobust ness
Ġmo od
Ġmod alities
Ġpip eline
¿ ½
oz yg
th reatening
Ġload ed
Ġattem pted
u il
lear ning
Ġdis per
Ġprop ensity
ĠAustral ian
Ġpol io
Ġn ight
o ll
ĠL ong
Ġmo un
for ward
Ġinteg ral
Ġf inger
Ġfung i
alys es
Ġm Ã©
ir ty
Ġcor ona
ĠÃ °
ass ay
ĠB D
ĠUn like
s a
Ġdos ing
Ġconnec tivity
ore m
ĠSer um
Ġen f
Ġcompr ises
Ġf eline
ĠDise ases
Ġoverex pression
ĠCRIS PR
ĠR IG
Ġprogram ming
il m
Ġactiv ates
Ġq PCR
ear ing
Ġcar bohydr
Ġsusp ended
ĠEn ter
en h
ĠTh ough
ĠTechn ology
Ġprecise ly
went y
ĠY ou
Ġdil utions
Ġdos age
o T
Ġt ension
Ġf rozen
Ġï Ĥ·
ĠS us
Ġdec e
cept or
Ġplot ted
Ġsurvi ve
Ġmicrobi ome
av ig
Ġexhib its
Ġt un
Ġi j
phosph ate
ĠLik ert
infec tions
ĠSwed en
Ġmil itary
S O
ĠCent re
CA TT
ĠL o
Ġsh ip
Ġqu er
Ġanaly se
A p
Ġcarri er
ber g
ĠA IDS
Ġb or
Ġsecre tions
Ġeconom ies
Ġfer ritin
Ġas ym
Ġplaus ible
U V
Ġfib er
Ġexc luding
ĠN ucle
Ġsurge ons
l ist
Ġinc ident
Ġmachin ery
Ġco ated
ĠNS P
ig are
Ġren ew
ĠÎ¼ l
ran ted
ia z
Ġper i
pl an
Ġscar ce
b ar
Ġl opinavir
b rile
c ase
Ġcan ine
ĠA RT
Ġrespon ding
Ġmin ute
ĠR ef
di agn
Ġch ron
Ġar r
Ġobstruc tion
ati v
y o
Ġlandsc ape
Ġret ail
Ġk m
Ġne oplas
t d
Ġguid eline
ce mia
Ġtas te
Ġspe ech
em erg
oc ol
Ġdissem inated
n orm
as tern
Ġcollec ting
Ġconserv ative
Ġden oted
Ġstrict ly
Ġcal ibration
des ign
Ġstar ts
Ġopac ities
Ġa th
Ġar bit
Ġinhal ation
Ġr it
ĠTr is
F R
Ġhom ologous
epti d
Ġimmunomod ulatory
6 14
AC S
Ġmis information
Ġsen ior
Ġper fusion
Ġclus tered
Ġantico agulation
ĠC ancer
Ġop posed
Ġsched uled
Ig G
Ġcle aved
Ġwork flow
ph arm
Ġm akers
er os
SA ID
l ot
Ġun necess
pres ent
ĠBi os
Ġth yroid
am il
mo lec
U sing
res pective
igen ous
ĠP ur
ĠA ND
Ġang le
Ġc is
ĠIn t
Ġauthor ity
Ġsp ot
Ġorganis ations
Ġpor tal
Wh itney
Ġpoly protein
d ec
of t
Ġb ases
Ġt ack
Ġli ved
H L
Ġrib avirin
ĠF ed
Ġcod ed
oid al
id o
Met hods
Ġcare er
Ġconfirm ing
Ġr ated
Ġp age
ab in
e ren
Ġadequ ately
Ġnation wide
Ġre jection
Ġpathogen icity
Ġst om
ĠSt rept
Ġmyel oid
Ġar row
te xt
Ġpro state
pers onal
ĠS chool
Ġsp ik
F S
ĠA re
ear ning
ĠA u
Ġcertain ly
res ponse
Ġb ad
Ġradi o
Ġar t
Ġglo ves
com p
Ġbiom edical
Ġcoun sel
itor ial
Ġhand le
ĠA V
Ġ19 90
ĠEduc ation
ĠF ound
form ing
Ġbelong s
Ġsyn chron
Ġpress ures
Ġflow s
Ġteac her
Ġswit ch
el ess
E L
ĠStud ent
iel ding
ĠDi rect
TA CT
Ġdestr uction
T wo
ti um
r us
ĠP B
w er
Ġds RNA
on ical
st able
Ġt el
im b
Ġpathophysi ology
Ġpre feren
ĠM olecular
Ġsc ler
Ġann ounced
ardi a
it ors
b and
Ġdetrim ental
ĠP andemic
ĠCo uncil
ĠH yp
ox ic
ros p
Ġtr unc
ĠâĢ ¦
Ġk ann
Ġstress ors
ĠV A
Ġphenomen a
Ġpres crib
Ġnec ro
Ġfav our
Ġpos ts
Se q
Ġveter inary
r ig
Ġt ip
Ġthrombo emb
ĠC ardi
Ġtra ve
Over all
Ġcontext ual
Ġtr ypsin
Ġsearc hed
Ġselec ting
Ġlymph oid
Ġfamili ar
Ġaz ithromycin
ĠS ect
ig ital
per g
Ġresid ence
Ġnot ably
Ġequip ped
conjug ated
Ġpos es
ĠTC ID
p H
Ġch apter
h am
i tic
Ġeng aging
ul ing
Ġbi ases
ĠD en
AA AA
Ġther m
Ġdifferent ly
Ġbal anced
c it
Ġe yes
Ġpa ediatric
Ġcon gen
Ġh idden
Ġautom atic
Ġf ire
b ach
Ġat he
Ġrab ies
Ġperman ent
ti tis
ix ed
oscop ic
Ġrem od
ain ed
ĠR R
Ġmod est
ĠN ET
Ġlaw s
Ġcontr acting
ST M
ĠC Q
Ġinfec ting
han ol
Ġlab our
Ġopin ions
Ġdevelopment al
A GA
Ġaltern atives
Ġparad igm
Ġre pos
Ġinform al
Ġsome one
Ġlead er
ĠN MR
Ġabstr act
Ġenroll ment
Ġres emb
ĠI U
Ġregim e
S ome
hen tic
Ġoffer ing
ĠZ ika
Ġresearc her
Ġend s
Ġsm ell
Ġregard s
00 5
Ġproblem atic
Ġless er
Ġser ology
Ġcam era
Ġext rap
ren al
Ġreal istic
ol er
) ).
C or
Ġfibro blasts
Ġk Ã¶n
Ġanesthe sia
Ġcardi omy
Ġdiagn ose
r ache
M any
Ġfreed om
L e
ĠBe ijing
Ġnam es
le vant
Ġthreshold s
ot st
ros ine
Ġencour aging
Ġintegr ate
ĠV i
it ness
ĠD D
Ġs we
Ġaddition ally
Ġan emia
otyp ing
Ġ( +
Ġed iting
Ġstrength s
Ġentre prene
Ġ }
Ġw at
M od
Ġmon ocyte
Ġclar ify
cl onal
Ġconc urrent
Ġincorpor ating
plas ia
p hen
Ġdisc l
Ġgastro enter
Ġa ux
ĠG R
Ġsur fact
Ġtra it
S up
ĠMex ico
Ġdisinfec t
ro ad
C K
ĠD at
ĠPro f
Ġcust omer
yc le
Ġseem ed
Ġr ub
ĠS H
ĠÎ µ
Ġnucle i
s ci
ĠCommon s
Ġlicens ed
Ġubiquit in
ĠIn s
Ġhybrid ization
Ġcry pt
ĠI M
Ġguaran tee
Ġres usc
ĠWe b
Wh at
Ġrough ly
om ain
Ġbul k
ĠCre ative
ĠA RI
Ġunus ual
Ġ( -
Ġsp ir
ĠG raph
ĠA G
met ry
Ġneuro de
d el
ĠP f
Ġexc re
for ced
ac iones
In vitrogen
in n
r ight
Ġech ocardi
ack ing
Ġf eces
Ġwork shop
ogene ic
Ġstig ma
z one
Ġund ers
oph osph
de ficient
ĠIs ra
ĠC ry
io tic
Ġlic ence
Ġemphas ized
Ġcontrover sial
Ġelic it
ĠU pon
ĠFace book
l ung
Ġun ch
Ġmod ify
Ġrel ate
Ġwe alth
ne ys
Ġl ib
ĠR Nase
Ġdispl ays
Ġm er
Ġ200 4
alli ative
Ġ !
Ġinsec urity
Ġco agul
Ġz e
Ġwhe e
O RF
on ly
Ġsenti ment
Ġd rain
otst rap
Ġhemorrh agic
Ġback bone
Ġmicrogl ia
b its
PA GE
Ġfru it
Ġsh ield
Ġacc ession
Ġh r
Ġproduc tive
Ġdiff ers
Ġclass ify
Ġamb ient
Ġpollut ants
ĠD PP
Ġcare gi
Ġbronch i
en ia
tic le
Ġexact ly
ĠH em
u er
Ġrank ing
Ġmon omer
Ġv ig
ĠHS CT
ĠT aken
Ġsugges tive
T s
ĠAc cess
Ġna Ã¯ve
ĠEB OV
Ġavoid ance
Ġconj unc
Ġder ive
Ġappropri ately
Ġinequ alities
Ġretrospective ly
Fig ures
Ġwor ry
ell es
Ġbound aries
usc ular
ĠÃ Ĥ
Ġpolic ym
Ġcr ude
F I
ĠA v
Ġs ing
Ġoc ular
Ġsh ap
empor al
ĠL ys
Ġmethod ological
Ġmyocardi tis
c entr
Ġk ern
ig ibility
Ġar ising
mon ella
Ġj e
Ġun w
Ġrank ed
ld rich
ĠÏ ĩ
Ġmarket ing
ĠE CG
Ġli vest
Ġper mitted
Ġinh aled
k a
Ġrespon sib
dep th
quar tile
ĠSur vey
ol ation
Ġmo ved
Ġcreat es
ĠT S
ĠD L
Ġar ms
ĠL atin
22 9
Ġto t
ĠG r
Ġex ert
Ġfunction ality
ĠW hether
Ġmultiv ariable
Ġexpression s
Ġtraum atic
antit ative
inflamm ation
at ural
Ġthromb ocytopenia
Ġcham ber
Ġs ports
Ġcons cious
ĠC ys
iol itis
Ġb enz
Ġrelax ation
Ġser otypes
ur ning
ĠC ox
op ening
ĠB ank
Ġan t
ĠSw it
B y
ph thal
aus sian
b oth
Ġelic ited
f ield
Ġhe x
ĠNLR P
ause a
ĠE p
Ġcont rad
ĠD em
ritis h
Ġposi tives
p us
Ġwar ranted
l act
Ġhel ic
Ġel abor
Ġconf usion
hydrogen ase
Ġreg ulates
Ġhelp ing
Ġh o
Ġad di
Ġtransl ocation
Ġdiarrh oea
Ġpenet ration
Ġpossib ilities
N G
Ġh ams
Ġprepar ations
ĠH L
Ġtransi tions
Ġprior ities
S h
Ġattrib utable
ef ficacy
Ġw alking
us ter
Ã ł
Ġt ex
Ġsub mission
it Ã¤t
Ġinc enti
Ġmill ions
Ġcampaign s
Ġin ferred
Ġchem okine
Ġter r
Ġlabel ing
ĠHC W
ond on
ĠÏ Ĩ
Ġdece ased
end a
Ġbehaviour al
d ays
ĠT F
al veolar
Ġcal f
eu tic
S tep
l ity
ĠC YP
Ġcommunic ate
ac quired
Ġnotic ed
Ġtri ed
and em
Ġquar ter
Ġg al
Ġ200 6
am a
Ġhom ogen
n i
Ġidentif i
og lyc
Ġbran ch
Ġvirul ent
Ġsp ending
? "
ĠMan agement
Ġde ployed
Ġp iv
Ġcar ing
Ġnarr ative
Ġclos ures
Ġsafe ly
an es
ĠM ass
Ġrepl ace
Ġrest aur
Ġthrombo tic
Ġrational e
Ġf ill
Ġturn ed
g el
Ġsmart phone
tic a
Ġn avig
Ġhem oglobin
Ġbud get
Ġab or
Ġens emble
E B
c ap
Ġtransmis sibility
que ous
Ġantico agul
ĠP AR
Ġtr ying
Ġoxid ation
ament e
ĠMet hod
Ġevid enced
Ġpl acement
U R
Ġe IF
ub e
Ġinv ited
m ann
Ġantiv ir
and o
cl er
Ġsub pop
ĠUn ion
Ġw rote
er ally
Ġoper ate
Ġhorm one
ĠW il
Ġmanifest ation
ĠE T
ĠP earson
Ġepis ode
Ġofficial s
Ġend othe
Ġsatisf ied
ĠP ark
Ġmicroar ray
termin us
c oding
ĠR AS
Ġw ent
Ġreg ulator
ĠAg ain
usp ended
l ight
erm al
Ġr is
ĠP ak
Ġischem ia
Ġel igibility
ĠB C
Ġsp ring
Ġhydro x
Ġhierarch ical
Ġtox in
Ġspecial ist
Ġcoord inated
F irst
Ġshort ness
Ġintro ducing
il ing
et in
Ġbacter i
Ġapop totic
Ġelectroph oresis
Ġcoun ted
on n
Ġacceler ated
Ġb ron
par ts
Ġad ver
velop ed
Cl inical
ens ors
Ġme re
ĠLast ly
Ġinst ability
Ġb a
P er
ĠAmeric ans
Ġan ch
ĠH M
Ġt i
Ġintr ac
Ġventil ated
Ġunnecess ary
k er
Ġse ed
n ucle
ĠB A
Ġimmun ohist
Ġtri ple
Ġpasseng ers
GG TT
ĠServ ice
Ġcorrec ted
ĠSE IR
Ġcough ing
ĠS EM
Ġrequ ested
ĠP art
Ġsecond s
ĠTechn ologies
Ġkey words
through put
in ance
Ġcolon ization
CT TG
f r
Ġemploy ing
am iento
pr ing
ul ose
Ġneon ates
ĠFound ation
ĠR D
ĠN an
Ġver te
ail ed
Ġcl one
p ox
Ġrel atives
iss on
Ġw arm
Ġw et
ĠRe al
Ġper mit
Ġun ivariate
as sion
process ing
ant um
Ġst ret
am ino
Ġsol ved
Ġwork load
aren cy
C as
s ec
Ġhorizon tal
Ġmicro bes
Ġlivest ock
rolog ical
Ġ rain
Ġdex amethasone
zer land
Ġs ar
t rained
ĠU p
Ġin e
Ġoutput s
he nd
c enti
e per
Ġemphas ize
Ġst ore
ĠM ar
Ġresid ential
Ġins pec
Ġla vage
ĠL S
Ġex port
ĠM M
sur vi
Ġchlor ide
Ġoutdo or
Ġclass ic
Ġchem istry
Ġcir rh
ac illus
M an
ĠA ge
Ġt ended
Ġdimin ished
Ġenter pr
Ġform ulations
Ġcongen ital
Ġleuk ocytes
Ġjus tice
Ġmin ing
Ġcomb ine
Ġgluc ocortic
Ġenc ode
oplas ma
n isol
Ġsim ulate
Ġbat ch
Ġcap illary
ĠS NPs
Ġdeterm ines
Ġnan o
Ġcoupl ing
Ġt ach
Ġapproxim ate
Ġtrans duction
Ġimmuno fluorescence
20 18
Ġreg istration
Ġtraffic king
Ġoper ators
Ġpharmac okine
Ġveh icles
v ate
Ġst atic
ost omy
b as
Ġleuk ocyte
ĠIFN s
Ġevery one
Ġfilter ing
ĠE g
le b
Ġcont amin
Ġintro duc
Ġspecial ists
Ġmedi ating
fic e
A nal
ad ed
Ġs ore
Ġc ure
Ġarbit r
infec tious
Ġde hydrogenase
Ġcat al
Ġshe ep
uth ors
Ġb ag
Ġco ol
Ġsm okers
Ġlymph openia
ĠMe as
Ġcons iders
grad uate
Ġpharmac ists
Ġal ert
Ġnecess ity
ha i
on itis
ati vity
Ġsc r
Ġmon onuclear
lic hen
Ġsmo ke
Ġframework s
Ġans wered
F c
ĠB et
Ġsp ill
Ġdes irable
Ġfound ation
rog ate
Ġinflamm asome
Ġmuc us
ich ia
Ġtend s
Ġdepos ited
Ġphys ically
Ġser ocon
Ġa queous
Ġresponsib ilities
ay ers
ex pressing
or ation
ĠB ritish
Ġsuspic ion
ĠF P
op hen
Ġco ating
Ġimp ly
oxid ase
Ġrheum at
Ġcontrib ut
Ġbi j
ĠMal ay
Ġpreced ing
Ġaccum ulated
avail ability
Ġsearc hes
oph y
Ġac quire
ĠâĪ ŀ
Ġw ie
he ast
ĠZ n
sc her
Ġcl ot
erg ies
Ġelec t
o L
Ġcl ade
Ġcl ient
Ġplay ers
Ġsummar ize
Ġlearn ers
ĠG uid
W H
Ġprim e
p G
Ġsil ico
reg n
Ġf et
Ġ18 0
Ġencoun ter
ĠExper im
l en
Ġaggreg ated
Ġcont empor
m ouse
Ġfib ers
spec trum
ĠB ar
ĠB E
ul us
r d
Ġsa w
ac er
Ġint ram
inform atics
Ġp et
ul i
ĠLe vel
00 3
Ġde fect
te es
Ġrepresent ations
ĠAss essment
Ġsuperv ision
ĠE vidence
tail ed
Ġpar ties
Ġs por
Ġ( âī
Ġcon fer
ard ed
ine a
ter y
Ġd ich
Ġm ir
15 0
fig ure
Ġn i
Ġcor tex
Ġform ulated
ri ll
Ġexplain s
Ġfu el
Ġmet all
ili ated
Ġlob e
Ġul cer
Ġindic ative
G M
Ġ( ~
Ġstimul us
ĠPak istan
Ġdem ocr
Ġdiscl ose
Ġam plic
ĠP ot
ĠA st
Ġfluctu ations
Ġfil m
est abl
Ġaut hentic
Ġex osomes
Ġpoly clonal
V ir
t umor
Ġconver gence
ĠHy per
ĠA us
Ġsyndrom es
g reg
Ġsens ory
ĠAltern atively
el d
ĠSwit zerland
Ġreg istry
Ġpol ice
res pon
Ġnot es
ste in
ĠO C
ĠL ife
Ġcounter parts
it t
ĠH b
ig ene
Ġn ausea
Ġsol ving
Ġs s
Ġfu zz
Ġwebs ites
id in
U s
u an
S er
id el
ĠCons istent
ores t
appro priate
Ġacknow ledge
chem ical
Ġminim izing
Ġassemb led
Ġtraine es
Ġcapit a
Ġslow ly
Ġall ocated
ĠM ad
ĠL ondon
os ity
Ġor dered
Ġk b
Ġme ant
ifi ers
Ġelucid ate
Ġal arm
Ġquarant ined
S imilar
Ġ il
Ġp ick
Ġall er
ĠG al
Ġchrom osome
ag o
ro wn
t age
ult ural
GG TG
ĠC u
d em
Ġassign ment
bo ard
Ġdocument ation
Ġiniti ative
Ġconven ience
Ġpo orer
ĠP red
T CAA
ĠC urrent
Ġpre term
Ġexec ution
ful ness
as si
Ġmod ality
/ âĪĴ
Ġgl and
P H
ĠB V
Ġtrans ported
ĠSt aphyl
Ġhe aling
Ġhapp en
ig e
Ġh op
iet nam
ym ph
Ġcapac ities
d if
Ġinvestig ator
Ġrespir ators
Ġantagon ist
nisol one
ne x
Ġshor ten
Ġle ver
Ġcondition ing
Ġhist ological
m ac
Ġfo res
Ġdec ide
Ġaud io
Ġcirc uit
Ġconjug ated
Ġg rap
Ġf olding
Ġgro ss
Ġcolon y
as te
PD B
ĠPE T
Ġt ables
Further more
Ġtr uth
Ġrandom ised
Ġvacc inations
requ ency
Ġshar p
A N
I E
Ġnewbor n
ent y
z t
Ġch art
Ġalong side
roph ic
z o
om onas
Ġbi ased
obacter ium
Ġâ Ĭ
Ġguid ed
Ġl ies
c a
Ġnon linear
Ġpar am
ĠâĢ ²
Ġadsor ption
ĠPub Med
ti r
ĠM IS
Ġsc aling
arg o
ĠSal monella
ins on
ubl ished
TA TT
Ġgo at
ĠPh il
Ġproce ed
pt y
Ġconj unction
Ġexpand ing
ess ential
Ġdrop ped
H uman
Ġl apa
Ġdistr icts
Ġengine ered
Ġversion s
i res
gl ass
In ter
Ġmalign ancy
Ã ª
Ġreper to
ur ated
ĠCV D
and om
ĠG H
Ġadv ised
ĠIn f
Ġs ales
gen erative
Ġlangu ages
Ġw itness
ĠAr g
Ġhomogene ous
ĠMed ic
ĠM g
Ġep ile
Ġsug ar
Ġorig inated
Ġbiop sies
olit an
Ġexerc ises
Ġelim inated
ĠIg E
and a
Ġcal ibr
Ġend ocytosis
ĠCommun ity
ĠR et
CR P
Ġhaz ards
Ġh ub
Ġadju v
ate ll
fl uid
Ġinh abit
CoV s
Ġsem antic
Ġschem es
Ġvirt ually
Ġvisit ors
D H
Ġdisper sion
Ġat om
Ġs per
Ġg on
P ad
ĠSystem s
ma x
MS O
4 00
Ġj u
Ġgo es
Ġpen icillin
Ġannot ated
oplas mic
on c
Ġgl omer
ĠEqu ation
struct ured
Ġins pi
Ġread ers
Ġtrop ism
Ġw alk
op ulation
Ġpath s
hydro xy
i ang
Ġinstruc tion
ij n
ĠCan adian
Ġtrans cribed
ens is
tain ment
aryn x
ĠA ust
hy per
so ft
ĠD I
ĠT ogether
ĠL im
Ġaccording ly
ĠV I
Ġg ir
identi fied
unc hed
Ġsugges tions
ĠP seud
Ġm Ã¡s
Ġfund ed
Ġapparent ly
hol der
Ġg ot
Ġbronch iolitis
Ġmaxim ize
bl ast
Ġmalign ancies
Ġse eded
Ġsh ares
Ġb it
di rected
ĠL M
Ġwhere by
Ġen orm
con n
Ġunch anged
Ġm s
Ġdefin ite
Ġo m
Ġbo otstrap
Ġinfiltr ates
Ġde ployment
ron bach
Ġdri ed
ĠM il
Ġobst ac
Ġimmun ogenic
ut y
Ġcor ro
Ġc ow
ĠV it
Ġappoint ments
scher ichia
N H
od emographic
Ġpo ols
ĠEn viron
c ost
ag ue
Ġâī Ī
ĠIncre ased
ĠThe r
arc in
AA TT
Ġclass room
sy mptom
oz o
Ġtrans por
ĠDM EM
Ġfuzz y
ke ys
Ġinv ari
Ġse a
Ġre mission
Ġtrache al
Ġcalc ulating
Ġposition ing
he rence
T B
re ts
Ġf illed
itor ing
Ġcorticoster oid
Ġdanger ous
ĠM DA
Ġmac aques
Ġper centi
P BS
Ġall ogeneic
Ġtranscript ase
Ġre tain
Ġimp ed
Ġ nd
Ġf oster
Ġne gl
Ġaccess ed
ort em
Ġstri king
ĠNor thern
al so
Ġlys ates
Ġnormal ization
ĠG W
Ġbrief ly
am ic
Ġnot ing
c irc
Ġp alliative
Ġround s
ĠD O
ĠK a
ĠL td
Ġreg ulators
Ġonc ology
Ġaut onomy
Ġsl ope
Ġglyc an
Ġkid neys
Ġ ].
Ġhem agglut
Ġrefr actory
ĠL ab
ĠI A
ul ent
s us
Ġpredic ts
ĠE con
Ġdisrup ted
Ġein em
ĠF und
Ġcomp romised
ĠF ort
Ġco vid
ger ies
c ore
um ps
P articipants
z a
up le
el lec
Ġdeliver ing
LA MP
ĠR E
re activity
od il
ĠR adi
Ġwr ite
Ġlim b
ain fluenza
ĠG aussian
Ġlink age
ment e
ur ch
Ġit erative
ĠB er
Ġresusc itation
Ġfe brile
at um
b ott
Ġtail ored
Ġselec tivity
Ġfall s
ĠM ul
s ided
Ġcon ference
Ġing red
vel ength
a por
o ke
ĠS afety
ĠP CV
Ġimmun otherapy
Ġph il
Ġpolymorph isms
Ġathe ros
ĠS te
Ġshort ages
ĠE PI
Ġgener a
ĠJ AK
Ġto ll
ĠNiger ia
" ).
j e
Ġsocial ly
li e
Ġfarm ers
ew orthy
Ġuncertain ties
ap id
Ġuseful ness
Ġm erg
Ġadv is
Ġra ises
Ġst ory
ĠL eu
Ġstatis tic
ĠCX R
Ġimper ative
ĠQues tion
Ġspectrom etry
Ġprote olytic
fic ac
Ġgener ic
Ġin active
Ġg es
n ed
Ġjus tif
le g
Ġsequ el
Ġcolumn s
re x
Ġout per
Ġb rand
Ġes cal
Ġaver aged
ar v
ĠS W
ĠLD H
f ram
is tically
ĠMS C
Ġty rosine
Ġevol ve
ch lor
Ġpro hib
res olution
ĠC le
Ġread y
om nia
Ġpost pon
ĠStr uct
al and
ore n
roph y
Ã¤ r
s ensitive
tic o
ti te
Î ´
Ġastro cytes
B i
ĠT wenty
Ġult ra
Ġd ip
Ġ( âĪĴ
Ġs ow
Ġautop sy
ĠF ac
Ġexplor atory
Ġno vo
iti m
c oun
orec tal
A I
Ġconf idential
Ġsub mit
ac ute
tit ude
O F
Ġbuilding s
at ous
pr im
Ġneurolog ic
ĠV ol
os i
Ġmut ated
Ġpro st
Ġver ification
Ġtransp arency
ad ap
ĠV ietnam
Ġcommunic ations
Ġres uspended
Ġspec tral
Ġor ally
Ġmut agen
Ġ1 10
Ġuncom mon
Ġnor thern
fe eding
spec ies
act ors
ĠL og
v or
ĠEx pression
air s
sel t
Ġirradi ation
rache al
optim al
T OR
ĠTur key
Ġp it
ar ic
Ġdev ast
m orbid
Ġtrigger ing
U D
Ġc ard
Ġenc aps
acet yl
t able
Ġset up
al gia
ĠR O
Ġexplain ing
Ġantivir als
Ġelectr icity
Ġdo ubl
ti zation
ĠSecond ly
ĠStaphyl ococcus
Ġact in
Ġin struct
Ġthem e
Ġelectr ical
CA TG
f ts
am ycin
Ġthor acic
Ġsur geries
Ġglyc ans
Ġaddress es
Ġsign atures
Ġef f
Ġdist ant
Ġgeneral iz
Ġmotiv ated
Ġre aches
Ġsial ic
ill i
ĠF BS
Ġsk ill
al dehyde
d l
ly tic
Ġint u
Ġnon specific
Ġen j
Ġattrib ute
H M
Ġexpendit ure
Ġagg ra
Ġnan om
Ġdest ro
Ġannot ation
Ġass ets
ĠS oft
Ġpro jected
Ġconstrain t
Ġ \
ĠPrim ary
Ã© r
af fected
ly mph
N ot
Ġreli ef
ĠP artic
avail able
orient ed
ear ly
Ġa qu
ul o
or p
ĠLA MP
h n
omy el
Ġst ations
Ġrandom ization
Ġdeterm inant
ĠH igher
Ġmon o
op recip
CA CT
ĠGu ang
sacchar ide
f our
Ġopi oid
N CT
ĠR B
Ġmetast atic
Ġwid th
pet ent
ti zed
Ġent ropy
Ġimbal ance
ĠRus sia
Ġp ore
Ġun stable
re r
Ġhospital isation
Ġmedi ates
ĠStand ard
Ġp unc
Ġsup pl
Ġsol ub
Ġph yt
i agen
Ġa a
Ġs ie
Ġlog ic
Ġpack aging
ĠÎ º
F C
ĠUn it
Ġresol ve
ĠS ign
ĠA TG
ĠF R
in i
Ġspir it
Ġcomp ression
Ġcirc ular
Ġï ģ
Ġben ign
Ġradi us
ĠBel g
Ġj unction
ĠB T
l ocal
Ġsecret ory
um s
Ġle af
Ġdiscipl ines
Ġret urning
Ġs ont
il es
if ting
ip ar
ĠZe aland
n utrition
Ġalter ation
Ġorth op
Ġend osomal
ellec tual
Ġsurvi ved
ĠL earning
Ġsci ences
Ġmeth ylation
Ġint ens
go ti
S econd
ĠN ur
ĠE le
aterial s
Ġexacerb ated
Ã© m
ĠPl an
Ġloc us
Ġhypox emia
Ġs nee
ĠM MP
Ġpro c
arg es
Ġper ic
Ġan onym
Ġc u
Ġal iqu
ĠE scherichia
let es
Ġneighb our
Ġqu antum
Ġexplan ations
Ġrec ons
at ase
af t
Ġreason ing
ĠÂµ l
Ġb anks
Ġendothe lium
Ġle uc
ĠS elf
ĠPo isson
Ġvo ice
Ġde eper
Ġap plies
ation ally
ch ange
S IG
pro ducing
AA TG
a uc
ĠIm age
A ldrich
h ou
Ġmethod ologies
Ġhe lix
c ar
ol ine
Ġser otype
Ġbl adder
Ã °
Ġpos ed
ĠT E
Ġcoll apse
o om
bl ind
a id
Ġpresum ably
Ġqu i
Ġegg s
plic ates
Ġreflec tion
/ -
. ),
V s
ĠInd ones
ĠM C
Ġsign ed
ĠL ung
k rank
re te
rit onavir
k i
com mun
ĠCF R
s w
Ġde ficient
Ġbeg ins
Ġconven ient
Ġshif ted
um ina
Ġpromis e
Ġd ying
ĠFirst ly
ĠN L
Ġsulf ate
ĠTe le
ĠServ ices
ot er
Ġp ued
Ġpath ologies
Ë ļ
Ġtit le
ĠThe orem
B ecause
function al
yt hem
Ġp od
ne utral
ĠVL Ps
ĠC am
c ardi
Ġdi vision
Ġe ut
end ly
Ġconfir ms
ĠL ip
Ġlect in
Ġresc ue
ron ti
Ġsurfact ant
k B
Ġsh ocks
Ġpl ac
ĠT RA
Ġdis pers
ĠR OC
erv ation
Ġprofil ing
onom ous
Ġdisrup tions
Ġblock ade
ĠkÃ¶n nen
selt amivir
Ġpair wise
ĠE st
Ġleak age
Ġseiz ures
ach t
Ġref ug
Ġr ash
ĠT or
Ġpolicym akers
t ub
Ġdon ation
Ġq RT
ĠSpec ific
Ġh pi
Ġcl oth
athe red
Ġmulti f
ylo id
Ġm ol
Ġcan cell
Ġcont acted
ic her
Ġfrail ty
k es
t te
Ġo roph
Ġmoder ately
ĠIn vestig
rop olitan
Ġtr imer
Ġsummar izes
ĠN R
hip s
Ġmening itis
s ocial
Ġun controlled
Ġinhabit ants
ĠL es
Ġplay ing
ĠBrazil ian
b ox
Ġremote ly
Ġidentif ies
Ġgene tics
ĠS G
ĠM N
Ġbrid ge
Ġs outhern
Ġdes ire
Ġphen otypic
Ġd op
Ġend points
Ġrig orous
ĠC he
ĠPE EP
Ġres ection
Ġcomple ting
r ac
Ġintegr ating
Ã¼ hr
ĠM c
Ġflo or
Ġemerg ent
co ated
Ġmanip ulation
Ġneighbor ing
Ġam el
ĠStatis tics
Ġre ar
Ġreconstr uc
h u
Ġpool ing
Ġpl acent
us sion
ĠS igma
ĠG reen
Ġgastroenter itis
paramet ric
Ġaccomp any
Ġfl avi
Ġamb ig
C ell
lic he
it ability
Ġsuperv ised
In te
cepti ble
ĠA LI
Ġcoord inates
Ġdec ont
__ __
vi a
Ġpiv otal
Ġw t
lud es
h i
ĠVE GF
Ġal beit
P M
ĠPF U
Ġinform ative
ĠQual ity
Ġforec asts
Ġfract ure
Ġagricult ure
ĠI CT
Ġpat ent
Ġperce ive
Ġincor rect
Ġâĸ º
ĠS i
Ġtoler ated
Ġp p
a rose
Ġsp in
Ġanth rop
Ġmut ual
Ġcon gestion
Ġsurvey ed
Ġmanufacturer s
Ġstress ful
Th us
Q u
ĠV is
os an
Ġcirrh osis
co agul
Ġconn ect
Ġg er
Ġ ic
Ġh at
environ ment
Ġrab bits
c hers
ve illance
ĠRes ponse
N ew
Ġexce ed
n ov
Ġla unched
cy te
14 5
ĠHe La
Ġ22 9
Ġwa velength
Ġd ye
Ġj uris
Ġmetast asis
otyp ed
Ġall o
Ġdam aged
Ġear th
ĠKore an
Ġcomprom ise
Ġloop s
Ġrestric tive
reg ular
Ad ditional
bl ue
Ġcorpor ate
More over
Ġad vers
ail and
ĠN CT
ĠAd v
ĠNI H
ex pression
Ġhe ating
ro us
ĠA DA
Ġto wn
Ġï ¿½
ĠED TA
Ġcop per
Ġradi ology
Ġeukary otic
Ġflav on
Ġwa it
Ġman n
Ġk illing
P l
Ġemploy ee
Ï Ħ
Ġlegis lation
Ġcr im
Ġcompet ence
ĠU r
Ġg a
Ġdest ination
Ġdiges tion
ĠC ap
ĠIm pro
he ne
Ġmelan oma
Ġit er
Ġse pt
c ause
Ġdevelop s
Ġinfec tive
cler osis
v ated
ear man
Ġlength s
sc ill
ĠD V
e or
ĠCX CR
vent ory
Ġpar v
Ġcri tic
ĠW ar
ant o
ir ium
I ON
Ġbi od
Ġmechan istic
ĠIndividual s
Ġab ilities
ĠCom put
Ġdys regulation
GA TT
Ġfibrin ogen
Ġf used
ĠP ositive
ĠA lex
Ġrequ ests
ĠB H
Ġselective ly
ri an
Ġpre operative
ĠG re
m ut
Ġg athered
ĠU N
ĠG VHD
ĠV TE
Ġevery day
g reen
Â ´
er ving
Ġhom olog
em per
Ġenf erm
Ġal ve
Ġtransl ational
ozyg ous
ur able
ĠF IP
a virus
Ġtr at
U N
Ġpan ic
c ale
ap sed
Ġflu x
ĠU s
ĠIn hib
ace ae
Ġmedic inal
Ġstrati fication
ĠPE G
Ġpro xy
Ġrot ation
t ogether
Ġsil ver
cri tical
Ġincons istent
Ġsoci odemographic
Ġef ficac
Ġp es
Ġadmin ister
Ġim plicit
Ġas king
Ġbiot in
op oly
Ġb orders
Ġch imeric
Ġpar ainfluenza
stand ard
Ġord inary
Ġperform s
z yme
v ary
Ġhemat opoietic
ĠDet ection
Ġdef ines
Ġmar ine
ang hai
Ġhundred s
ad em
ĠM ain
ĠVari ous
Ġamel ior
P PE
Ġmorph ological
Ġex it
rom atic
Ġm ast
G CAA
p y
ampl ing
Ġreal ized
Ġdri ver
assi um
t w
erm ined
ĠWhere as
Ġoccasion ally
Ġattenu ation
Ġwithdra wal
Ġreview ers
ĠI oT
Ġhar mon
Ġcut aneous
ci ence
Ġrib osomal
Ġs oph
ic ks
ĠEn g
ab etes
Ġdra ft
ĠIniti al
Fig s
Ġpseud o
ĠDec l
u ated
Ġhospital ised
ĠW NV
ĠStrept ococcus
an ia
Ġinvest ments
isol ation
ĠAg ency
ĠMed ian
r ist
anti bodies
Ġknock out
ll en
ic orn
ĠCont in
Ġadop ting
ah r
ti a
Ġinc id
Ġvictim s
Ġelectro static
Ġr up
ang le
Ġgener ations
ĠAr ticle
Ġkern el
j k
Ġcam els
Ġmig rants
Ġst ocks
ĠA tt
Ġscler osis
Ġsp ray
L M
h our
itiz ation
ur ate
Ġstrong est
Ġradi otherapy
f irst
Ġan omal
Ġmo i
Ġint ellectual
Ġsub gen
ĠM RSA
Ġsl ides
Ġlat ency
Ã¶ gl
Ġo t
Ġw anted
lock down
ogram s
ĠM G
Ġfer rets
Ġpro jections
y mpt
erv ised
am ers
ĠMAP K
ce ived
as ks
form ance
ĠM B
ĠL eg
Ġsign ifi
b a
Ġcoagul opathy
Ġsa ve
ĠO H
Ġacid ic
Ġrestr ict
Ġmusc les
ĠIsra el
Ġgam es
mer ase
establ ished
Ġatt ended
Ġdu plicate
Ġcompr ise
Ġtransp arent
Ġover load
Ġpl ane
Ġcontempor ary
u ents
Ġchemical s
Ġp yr
Ġ14 0
ĠB SA
Ġall ergy
row th
Ġdown regulation
Ġf ake
Ġmus ic
Ġlink ing
b ing
w ar
ple ments
Ġl ens
ĠC PE
Ġgrad ual
Ġb all
ul as
ĠStr ateg
ad as
Ã© c
ĠF F
Ġhyp ers
Ġin jections
D ue
Ġabs cess
in hib
Ġtravel ers
Ġaccel erate
Ġske letal
M AP
Ġgain s
ĠG es
Ġsearch ing
Ġupd ates
repres ented
Ġenj oy
fung al
Ġre activation
ĠE F
Ġradi ologists
th ird
Ġlum en
Ġrig id
ĠF L
in di
Ġaim ing
Ġinspec tion
Ġf urin
lo op
Ġmultic enter
Ġc ensus
ĠEpid emi
ĠN AD
bre vi
t ures
Ġske w
Ġins omnia
ing ly
ra ndom
Ġconstant ly
pl ates
Ġair flow
b rain
20 16
Ġdownload ed
ĠC y
Ġkin ases
in y
or ax
s pe
Ġassum es
ĠE in
Ġgovernment al
Ġl nc
ie ren
Ġlet ter
Ġra ising
ĠCo ll
Ġspe aking
A B
Ġser ving
re f
Ġconstit utes
Ġt a
ĠS ymptom
ĠVirus es
Ġthan k
Ġincenti ves
Ġconf ined
Ġmas ter
Ġneed le
20 17
Ġir respective
ĠGen Bank
g est
Ġbronch itis
Ġpolym ers
Ġp ent
Ġacknowled ged
Ġcoord inate
Ġcho osing
Ġpurch ase
app a
il ateral
flu x
in ent
M arch
Ġpepti d
Ġenorm ous
An ti
Ġantic ancer
D G
Ġem pty
ĠA CT
Ġc ef
Ġin appropriate
Ġest ud
ol us
uc cess
r as
n ew
Ġ8 00
og ue
Ġre venue
traum atic
Ġer ythem
Ġne goti
Ġlab elled
ĠPBM Cs
ĠFig s
ĠCF TR
Ġserop ositive
Ġ19 80
Ġ200 1
Ġaspir ation
Ġcys tic
g raph
ĠE xt
ter ious
Ġbe aring
Ġquer ies
ĠStud ents
Ġh ip
ĠH EV
H ow
Ġ12 5
abol ic
Ġwr ong
ĠTh ailand
lies t
ĠH I
an aly
ĠC hest
Ġdiss olved
ĠRCT s
he it
am ed
Ġgather ings
S H
R ad
re port
f en
Ġcathe ps
flu ent
ĠC er
cl os
nai re
it ate
b ral
Ġrecogn ised
ĠC hen
ear s
z u
es cence
Ġan osmia
Ġleg itim
ĠE s
Ġ10 5
âĢ ¬
un ting
Ġlas ting
mat ched
vacc inated
Ġs un
r un
ef ficient
Ġk illed
Ġtw enty
Ġhapp ens
ĠI N
Ġstraight forward
c ox
Ġb on
Ġstim ulating
Ġo w
Ġencoun ters
Ġcaregi ver
Ġvolati lity
Ġexem pl
Ġdeb t
Ġl enti
ra x
D F
RT I
Ġelucid ated
ĠP U
- )
Ġb und
Ġle th
Ġd ensities
Ġre form
ĠF M
Ġtit res
c her
Ġcounsel ing
Ġcharacter ised
Ġsed ation
ĠTa q
Cons ider
Ġa ortic
Ġcon tig
Ġremod eling
E LISA
ĠU C
Ġtrop ical
Ġfo ll
ep id
idel ity
inc ial
ot om
Ġadi pose
Ġtrop onin
Ġam yloid
Ġh oc
her ic
ĠE valuation
Ġam ph
N OS
Ġo scill
Ġin acc
Ġda iry
stim ulated
Ġfraction al
s ample
ul s
Ġoccup ation
Ġr um
Ġdown regulated
00 4
Ġshop ping
ĠP olic
ĠPr ism
uil ding
Ġpersonal ized
ĠCH IKV
ĠD MSO
Ġcorro bor
Ġatmosp here
Ġsoph istic
Ġbio active
Ġexce eds
ĠM ice
Ġar tif
s im
Ġturn over
Ġexce eded
Ġh its
Ġk er
ol ate
fec tiveness
id ium
ĠS NP
Ġperson ality
il t
Ġbio Rxiv
Ġtrave ll
Ġbron cho
Ġann ually
Ġval ve
N ext
Ġphosph olip
ĠH KU
Ġrod ents
ul os
ĠL ine
Ġpres erved
V P
Ġpreca ution
Ġre opening
Ġap ical
um ines
Ġir rit
sh aped
T r
Ġoverwhel ming
Ġhe aring
ĠG reat
ĠK en
Ġneu ros
om orph
Ġpres erve
Ġprot otype
Ġattend ance
Ġal g
Ġgran ts
fek tion
ĠS yn
res id
Ġsynerg istic
IS L
ophage al
Ġrec ycl
Ġ[ ]
Ġarter ies
ĠPr ac
Ġallevi ate
Ġl oci
Ġhypothe size
Ġnot eworthy
Ġregen eration
Ġstrengthen ing
Ġpneum ococcal
Ġinspi red
m ortem
Ġle c
rel and
ĠCom b
Ġana esthe
Ġaddi tive
as i
Ġcod ons
Ġdisturb ances
iz in
ĠG E
MI Cs
ĠCon f
ĠCK D
hal f
Ġcol orectal
ĠO P
A TA
Ġsil encing
Ġurg ently
av or
Ġexten ding
F iO
Ġswit ching
Ġstring ent
Ġp up
Ġslow er
oun ce
Ġvis ited
Ġmod ulating
Ġfat alities
trans ferase
Ġin effective
k y
chy ma
Ġpay ment
Ġdistinc tion
Ġserocon version
Ġprim ing
ink i
ĠAn aly
Î ¸
Ġhel per
Ġdisc om
Ġcan onical
Ġb ic
we ighted
ĠRNA i
Ġmoi ety
Ġst ere
Ġst ores
Ġd ot
Ġpe ers
ati e
Ġ ile
ĠPort ug
Ġnegl igible
V E
Ġvol tage
Ġath letes
Ġmanag er
ĠRe port
ĠD er
b ase
Ġinfer ior
Ġep ic
Ġte lec
Ġpro active
Ġsp ots
Ġdis pens
Ġo ve
Ġperiod ic
Ġrating s
Ġcolon ies
b ec
ĠMO I
Ġspecific ation
ome gal
ut er
ect able
xim ab
Ġdefic its
ĠU TR
Ġventil ators
Ġconvolution al
Ġanat om
ĠâĢ «
ĠGen erally
E U
Ġp and
ĠPa O
ur ations
ĠÎ ½
A IDS
ĠUn ivers
ĠL ou
Ġc es
Ġc oc
ain ing
Ġsur rogate
Ġhot sp
un ch
ĠBAL B
ĠJoh n
h o
Ġemb olism
Ġbu y
Ġgra nd
Ġch ip
Ġwhee zing
Ġsequel ae
ĠP os
Reg arding
ĠReg ion
f at
Ġconsum ed
oc arcin
els inki
re m
Ġinter personal
Ġdistingu ished
Ġspill over
in ase
tr acted
Ġknock down
Ġcoun ting
Ġfract ures
Ġi i
od er
ra is
ĠOn t
Ġc ess
Ġref ined
ment ation
Ġd ia
Ġas ympt
ub in
Ġacet ate
ost atic
re ports
Ġep igene
S R
at uration
l ayer
d ers
Ġparen chyma
ophil ic
ore al
Ġel astic
Ġro ll
t op
fl amm
. '
Ġaccess ing
Ġend oscopy
Ġepidemi ologic
Ġphag ocytosis
Ġgather ing
co vid
Ġst re
ex per
lo vir
Ġsp end
Ġure a
Ġaccommod ate
w a
el ve
A F
ag er
Ġr pm
Ġthick ening
] )
re ceptor
r ical
Ġblot ting
in ucle
prising ly
st en
Ġexpect ation
obacter ia
ĠH elsinki
Ġperm its
onucle ase
yt es
Ġbre eding
S m
Ġin ver
Ġrecogn izing
m ap
Ġel ong
Ġpropos al
ar ith
es pecially
6 00
ĠHis panic
ĠDe ep
ĠHA d
ep it
Ġaugment ed
ĠI reland
Ġdis ulf
u ximab
Ġmicroscop ic
ocom pati
Ġspread s
Ġpre existing
Ġdiscrep ancy
Ġt ac
Ġinter mitt
ĠDes ign
Ġhe sit
Ġrec tal
Ġdom inated
cri ptions
ĠG ly
Ġfl ag
n ature
ac id
Ġthough ts
ear chers
Ġeduc ators
Ġf lood
Ġav ec
Ġag arose
ĠC ong
Ġ Ð
h ow
ore g
Ġst yle
Ġbran ches
m t
Ġt ill
ĠSoft ware
en al
Ġne o
ak i
cri ptive
Ġhaem at
Ġblind ed
T rans
Ġexhaus tion
Ġintran asal
olog ie
od al
Ġsim plicity
Ġsimple x
ĠC andid
Ġfif th
c omes
S TAT
Ġgre y
Ġrespond ers
ĠC ri
inding s
Ġexpect ancy
Ġterm ination
ir m
tic es
Ġagon ist
oc ument
Ġdis abilities
S M
Ġpot assium
th ree
E l
ci ences
Ġshel ter
Ġreperto ire
Ġfair ly
ac ific
ĠHB oV
ĠA LT
Ġk om
Ġrecommend s
Ġv oor
he imer
acr ific
Ġrel ates
Ġfunction ally
Ġcontr ac
b all
n ational
Ġhelic ase
ĠAb out
Ġgra y
Ġapp ar
Ġrecip ro
ĠsiRNA s
ĠH z
Ġdel irium
e le
Ġall oc
ĠCompar ison
Ġcons ul
Ġs g
Ġnot hing
ĠS ignificant
rit ten
ĠDif ferences
Ġpl aques
Ġneut rop
ĠC pG
Ġhol ding
ĠL F
Ġwur de
Ġcarbohydr ate
Ġorgan oids
Ġn ested
ĠS AR
ĠR andom
Ġdiscom fort
ĠEx amples
Ġasth matic
Ġag ar
Ġne bul
Ġdisrup t
/ )
x ia
Ġcry o
Ġdispos able
Ġpat ch
Ġapplic ability
Ġconstrain ed
T LR
Ġred und
Ġsyst olic
Ġim pl
ÃŃ n
Ġpar tition
p ost
ĠDecl aration
ran ged
Ġeut han
Ġmach ines
Ġcomplain ts
Ġein en
Ġthrough put
ĠTr ump
Ġam mon
Ġwhen ever
Ġserious ly
L et
ĠI G
ĠS Y
Ġcat ast
Ġdiver gence
Ġrespond ent
um ental
Ġdevast ating
b urg
ĠB al
h ot
Ġpolymorph ism
Ġc igare
us s
Ġampl itude
Ġrob ots
Ġtrache ostomy
ĠPan el
Ġg li
Ġk et
Ġbios ynthesis
Ã ´
ĠC at
ber t
Ġens ures
Ġprot on
Ġfl ight
Ġm ult
sci entific
Ġdiss ociation
Ġprim ates
AG E
oph ore
g uid
Ġreve aling
Ġneighb ors
Ġo seltamivir
Ġun ter
Ġtrunc ated
Ġinnov ations
Ġextre m
off s
G l
Ġspec ulate
Ġassoci ate
Ġprospective ly
ot omy
ĠA k
gorith m
Ġh am
Ġrepeated ly
Ġown ership
Ġorgan isation
ĠS et
mod ified
Ġappoint ment
Ġadd s
Ġhepat ocytes
in oc
hes us
Ġcontinu ity
ĠL ocal
ĠW omen
F ollowing
Ġrefer ring
re al
Ġl ing
Ġli e
Ġarg uments
Ġrem ind
Ġtop ology
end en
appro ved
Ġclaim ed
oy al
rit ory
rup t
Ġrev ision
Ġmig rant
cox on
prot ective
Ġfac es
Ġarbitr ary
opath ology
pro f
Ġinten tions
Ġs and
a round
s ol
f ac
ĠO T
feren cing
os ted
Ġfail ures
ist ries
ĠS B
) ),
Ġre ward
Ġcess ation
/ ).
ons et
n sp
ĠA ST
olec ules
ĠPD B
Ġelectro de
Ġear liest
Ġt ell
ashing ton
Ġdisproportion ately
med ical
in er
ĠD P
Ġdisclos ure
ec urity
Ġmy algia
A M
he x
Ġins ect
Ġb ile
Ġhar bor
t rop
Ġoper ated
f u
conn ected
Ġt ick
Ġaggreg ates
at osis
Ġprogressive ly
ĠHC C
ĠT arget
Ġconc rete
Ġo phthal
Ġprom pted
Ġt alk
Ġd uc
Ġb an
et ts
Ġampl ify
Ġsimpl ified
ĠCon cer
S F
ĠIL I
Ġchrom atin
Ġwind ows
Ġcyt opathic
ĠA MP
g one
Ġgl ands
Ġt or
ati d
ĠC ronbach
ĠSup er
Ġactiv ator
ogn itive
Ġsatisf actory
2 50
Ġw ish
Ġfa ecal
re ement
Ġlook ed
Ġr RNA
ser ved
Ġpen al
ĠAppro ximately
Conclusion s
ith ub
ĠF EV
Ġmet agen
Ġpoli tics
au x
Ġd ust
Ġass isted
' )
ĠM H
ĠV eter
P a
Ġdescri ptions
Im mun
ĠProt ection
CA GA
ĠPro te
Ġcytos olic
Ġrepur posing
em ale
Ġprescrib ing
Ġanti fungal
ear t
Ġconfl icting
Ġspect roscopy
Ġsatisf y
Ġsophistic ated
Ġsp arse
ï Ĥ·
t ase
Ġsub sc
f ri
There fore
Ġweak er
omyel itis
Ġrheumat oid
a rest
ch ied
Ġde fective
U TR
ke letal
ĠE astern
Ġab norm
Ġat rial
Ġb esides
ĠCh ronic
ure ment
sp ace
ĠI r
lim ited
pir avir
ĠC ross
Ġ16 0
ha ve
ell ar
z heimer
Ġshe ll
Ġphil os
G CG
Ġpercenti le
Ġshe et
oc ys
hyd ration
Ġ13 0
Ġinter im
yl ate
Ġadver tis
yth on
ĠE lectr
%) ;
Ġinter play
ĠF if
ĠAc tiv
w ashing
out s
Ġolig omer
P K
avi piravir
Ġdoub t
Ġprecip itation
tr action
Ġclos ing
ĠOf fice
Ġretrie val
Ġnanopartic le
Ġde line
ĠNT D
ĠB en
Ġsent ence
Ġg all
ĠK ey
pond ents
ĠH el
Ġhapp ened
ĠS ep
n it
Ġes ter
Ġdispl acement
end o
fl ox
ass emb
ĠWith out
Ġd uty
Ġove restim
Ġt ab
Ġvis iting
c ast
Ġrespon sive
Ġrib osome
j un
Ġown ers
Ġtub ular
ib ro
Ġinternal ization
ĠLabor atories
Ġsplic ing
Ġconnec ting
ĠM BL
ĠH O
ĠG D
n ah
ĠW ang
ĠDen mark
Ġsuc cessive
Ġpre mis
Ġaccess ory
yc ardia
Ġencephal opathy
Ġstand s
ĠK now
Ġcor pus
12 5
ful ly
Ġcons pir
Ġdiscour se
Ġs outh
Ġt al
ch ild
op ing
AT P
Ġs acrific
im p
Ġinfec ts
ob last
Ã ģ
ĠUnder standing
Ġexplo ited
ill a
Ġlife time
Ġdepri vation
Ġsw elling
Ġm ist
Ġabor tion
Ġobser ving
f oc
Ġinterfer ing
S tr
an alyses
ĠF T
Ġcomp assion
Ġconfound ers
it ol
w ave
rec tional
Ġdele terious
Ġdepend ency
ĠT en
e ur
f ive
ef fects
ĠPro ject
part um
As s
Ġf un
osystem s
Ġextr ac
b enz
Ġent ers
rophil ic
Ġx en
Ġstabil ization
ĠT I
Ġp ump
Ã¨ s
Pre vious
Ġheight ened
ĠâĪĴ /âĪĴ
Ġcre ative
Ġhard ware
at onin
ock ed
ain e
Ġle pt
50 1
Ġabstr acts
Ġadjuv ants
ord ered
Rec ently
reg ulate
Ġconver ting
feren tial
ogen es
Ġlec ture
Ġaut ologous
Ġdraw back
ynam ics
pr ints
ĠBelg ium
ĠR am
ĠÎ ¾
ĠE EG
SIG N
ĠK O
oster one
A MP
ĠT ok
g ic
r action
ĠMalay sia
ona z
Ġspl en
Ġadjust ments
ĠPh ysical
t z
ti les
Ġincl usive
Ġprogress ed
Ġidenti ties
Ġreal iz
ĠN PIs
Ġheter ologous
Ġnit ric
cer ol
lip id
Ġradi ographic
Ġinterview ed
Ġca ve
Ġa e
omegal ovirus
Ġend ors
com a
Ġoccup ancy
Ġg ets
ĠB etween
ĠG L
Ġst ories
ĠL ymph
Ġblock chain
Ġvisual ize
Ġcont rain
atell ite
ro id
ĠICU s
Ġmor ning
Ġe ll
Ġconform ations
ph ones
ex posed
Ġrepresent atives
ĠT H
Ġopen ed
Ġsup plied
Ġmod elled
fram e
Ġgest ation
Ġwall s
Ġrel ied
os tics
ĠR apid
Ġin her
ĠN ations
f ying
Ġpolar ization
Ġen forcement
ar ting
Ġocc lusion
Ġo vari
O x
tag ged
Ġna ive
ĠM echan
Ġrevers ed
Ġf its
Ġmarg in
Ġher ds
Ġappar atus
Ġpro spec
Ġbiof ilm
Ġco ast
Ġsmall est
Ġbud ding
Ġconstit utive
IT C
L L
S upplemental
vir idae
AS P
Ġan x
20 15
Ġachie vement
ier ung
ep ing
ĠE stim
ĠIndones ia
trans plant
oc amp
Ġanti ser
Ġiter ations
Ġar ises
Ġh MPV
Ġst rom
Ġo zone
ren ces
al pha
oli tical
Ġh ACE
Ġ4 50
Ġdisag ree
Ġmere ly
Ġtrans it
rag matic
Ġnod ules
Ġeosinophil s
n omial
ĠC och
Ġpreferen tially
m ar
Ġstress ed
op ulmonary
Ġco al
ail ing
Ġbe re
ĠCoun ty
Ġwur den
Ġin patients
Ġsc ri
Ġfib r
ĠS upplemental
ant ine
Ġcapt ures
Ġl ose
ĠL act
Ġphysi ology
Ġabsorb ance
Ġt urb
up us
ĠF low
ĠM el
Ġbr ings
Ġremain der
Ġpsych iat
Ġre versible
ia e
ul ins
r ating
Ġconscious ness
ĠSm all
ox ygen
ro vascular
Ġmembers hip
l ational
Ġword en
Ġreproduc ibility
ĠB ur
m p
ĠCT L
tic als
Ġh ind
ĠT T
Ġcost ly
Ġmitig ating
ron tal
Ġclos est
immun ity
S ub
Ġdi oxide
Ġtransl ate
Ġinvest ors
Ġrepos itory
Ġch it
Ġz ijn
cent er
Ġtour ists
ĠM ut
v ents
ĠT CM
Ġb ot
Ġmedi ator
Ġdiffer ing
Ġretic ulum
Ġal ive
Ġmicrobi ological
occ ur
Ġo pt
s ter
ĠG T
b p
ser ies
Ġret inal
a a
Ġhydro lysis
Ġext ends
Ġfix ation
oc t
ĠW ashington
Ġmyel in
Ġstom ach
ir ubin
Ġenferm ed
ial ysis
Ġz um
Ġas c
Ġhas h
Ġdisc arded
erc etin
f il
Ġmet eor
v ic
ĠMet a
the tic
Ġthous and
Ġdemyel ination
it ating
Ġangi ogenesis
Ġreplic ated
ver t
ĠM ich
Ġembry onic
ĠĠĠĠ ĠĠĠĠĠ
Ġdiscus sing
Ġsp her
Ġclar ified
Ġcon dens
res tr
ap op
Ġlack s
ĠQuestion naire
Ġoroph aryngeal
Ġlog arith
Ġc ues
ĠSh anghai
Ġso ll
Ġter ror
ĠR ather
ur c
Ġper mis
Ġrec re
Ġunder gone
Ġsor ting
ĠD F
Ġcor tical
d u
Ġext inc
ĠT im
Ġtr uly
Ġpro jection
rec ogn
Ġindepend ence
w as
HC V
od ynamic
Ġ ?
Ġper for
Ġpartic ulate
bi ased
ig uing
Ġpul mon
Ġir regular
Ġpresum ed
Ġanal ges
v in
Ġadoles cent
tid ine
Ġtox ins
Ġref inement
Ġiniti ating
Ġexhib iting
re w
Ã¨ re
Ġt RNA
a ven
Ġtransmis sible
Ġstruct urally
G L
Ġdiges tive
in el
Ġprote ome
Ġexplan atory
ĠM F
act in
os acchar
ĠSc ore
Ġdiscontin ued
Ġu plo
ĠOn line
Ġbreak down
D ie
Ġexpon entially
Ġreservoir s
AR T
Ġcy ber
ĠLou is
ten ess
E E
ĠW ell
Ġge ometric
Q I
Ġh ipp
Ġtack le
pro p
Ġspecial ty
ĠN IV
Ġelectro ly
Ġaut onomous
Ġelectr ic
ĠSt at
d ig
Ġepigene tic
Ġinc on
onavir idae
ĠR H
Ġpasseng er
aceu ticals
Ġexplo it
ic idal
Ġp pm
mod erate
Ġdemonstr ation
ĠPseud omonas
Ġseg reg
Ġtrache a
Ġlip osomes
Ġobvious ly
Ġag enda
Ġset tle
Ġstabil ized
ĠL os
Ġmob il
Ġnor th
Ġi h
Ġvascul itis
Ġarrang ements
Ġdetermin istic
Ġc argo
as tically
ick ing
Ġaccum ulate
ĠNC BI
em ma
Ġmutagen esis
ĠR S
ĠI l
Ġpost ulated
op y
Ġle verage
ĠS ol
ĠAl zheimer
ĠVacc ine
E th
Ġperform ances
Ġmal nutrition
Ġfac ts
Ġanalog ous
St atis
Ġcont ing
we re
ĠÏ ķ
Ġan onymous
ĠÂ §
Res earch
Ġcaus ality
re porting
Ġg ate
Ġprob abil
Ġcapt uring
m akers
Ġtranscript ome
y les
Ġent ries
K K
orp oreal
or tium
im als
b les
ot o
Ġdiagnos ing
Ġseas ons
cal cit
ĠC AD
Ġal anine
Ġfib rill
Ġthere after
Ġcur ren
Ġcompens ation
Ġmunicip alities
NA R
Ġbreast feeding
al a
ĠS outhern
Ġdrain age
Ġprotec ts
ĠD igital
0 43
Ġdet ector
Ġsup posed
Ġver bal
molec ular
Ġhemod ynamic
ab ase
w age
roph yl
or acic
Ġfree ly
ari ous
Ġy ielding
s ignificant
survi vors
Ġper oxidase
Ġplacent a
Ġmess aging
Ġaccompl ished
ĠM it
Ġel uted
Ġaccept ability
G TAA
Ġa head
ophil a
U B
Ġuniform ly
S ur
Ġ %,
ĠP en
Ġbroncho alveolar
od end
ĠHAd V
16 2
perg illus
Ġbiological ly
20 14
other mal
Ġsan itation
ic on
Q iagen
ĠC RS
Ġdecont amination
f in
Ġcentr ality
00 00
Ġend oscopic
ac ies
red ict
ĠAp art
ĠSpec ial
tr act
Ġkine tic
Ġdestro y
as y
Ġpsych ology
Ġempir ically
Ġmon keys
HC l
ĠL eb
Ġmet ropolitan
Ġt idal
Ġoper ative
ĠA im
anti body
Ġfear s
ĠIniti ally
Ġex on
otrans ferase
Ġf oci
Ġaud ience
Ġanticoagul ant
Ġemp ower
fit ting
Ġvi remia
Ġconjug ate
od on
Ġmet hanol
Ġsc aled
ĠE c
Ġh ur
Ġanalog ues
Ġpr inting
Ġg own
Ã¤ h
t otal
Ġspe ak
out heast
GG AA
Ġdis app
Ġover weight
A UC
Ġmor tal
ĠSup port
Ġmat ches
ĠIV IG
ĠIC D
Ã¼ h
Ġmat ters
Ġmosquito es
Ġc ows
ĠE ight
Ġoff s
ĠM ic
Ġassay ed
eptid ase
Ġp us
j o
pro fit
ĠP CT
Ġex ud
Ġby pass
Ġren in
ish man
Ġul tr
ĠS TA
ĠF unction
Ġscre ens
f used
Ġimp lying
Ġurg ency
b ond
Ġsyn t
Ġthorough ly
Ġly sed
Ġcomp ly
Ġnutri ent
Ġcomp act
otox icity
ĠD T
Ġn u
Ġc ant
d epend
Ġde generation
res ponding
ĠOb jective
ven ues
ĠU b
Ġinsuf ficiency
Ġbio informatics
hythm ias
' re
ir k
Ġwe aning
re ening
Ġdecom position
tiv al
Ġmicro environment
Ġgir ls
Ġmis sion
v ial
Ġdis p
Ġbox es
Ġpow der
ĠG lu
Ġaffec tive
Ġimmob ilized
Ġhesit ancy
Ġcr ime
Ġro ots
duc t
Ġhall mark
Ġat omic
Ġlog istics
Ġphosphory lated
ĠSp earman
is ite
W A
Ġtwe et
Ġcomb ines
O B
um ption
Ġs ides
Ġcon ferences
Ġa romatic
Ġoptim um
Ġsurge on
ati t
ĠO per
c at
Ġefficac ious
ĠR ab
Ġbio availability
Ġtem plates
ti an
Ġrestaur ants
P F
v HD
sour ce
14 7
ic it
ak ed
13 0
Ġinter ven
Ġexce eding
Ġexacerb ate
Ġep ist
Ġdrop s
Ġs ib
ĠH V
oc or
umm ary
Ġpr Ã©
ĠE very
Ġhyp oth
Ġs pite
Ġposition ed
Se vere
Ġframesh ifting
ĠF V
isc her
Ġconsequ ent
Ġsom atic
Ġfell ows
Ġtum ours
Ġacqu iring
ag ent
Ġpix el
Ġdisulf ide
Ġhipp ocamp
od omain
ĠOb jectives
m y
) ]
ĠÃ©t Ã©
Ġhist one
ĠF ram
Ġout patients
Ġapp end
Ġinstr umental
ĠIn tr
the rap
ĠN D
Ġnear by
Ġb rom
Ġbed side
4 50
g overn
Ġan ne
ĠC amp
Ġmicro fluid
ti k
en chymal
Ï ĥ
ĠS ingle
Ġ0 1
Ġsaliv ary
calcit onin
Ġen ergies
Ġint ubated
ad ication
Ġlob es
Ġnic ot
Ġgest ational
Ġ12 8
Ġdisturb ance
Ġdivid e
Ġsol ar
Ġport able
u istic
Ġtra ditionally
Ġrespon siveness
ĠAs p
umer ous
Ġchec ks
ĠA Z
ĠN ormal
Ã¤ uf
Ġplac ental
Ġdraw ing
ĠM ob
inter vention
ĠP ediatric
App endix
in et
ĠD ies
oid es
re tro
id en
Ġch ances
Ġcompartment al
feren ti
âĢ¢âĢ¢ âĢ¢âĢ¢
Ġut er
Ġovari an
ĠÃ ŀ
h aled
Ġpat ches
ĠWil coxon
ic ago
os ylation
le ft
Ġid i
B l
Ġanticip ate
ĠE GFR
ĠV AP
cent ered
bl ing
ĠSh ort
Ġsyn th
ard less
Ġcompet ent
ĠPBM C
Ġrel ie
Ġstim ulates
efin ition
Ġdiscrep ancies
Ġc ock
ic he
Ġre infection
ch a
Ġpass ing
ĠTNF Î±
x x
is ure
infl u
Ġinfectious ness
Ï Ģ
ĠEth iop
Ġrecons tit
Ġb ath
Ġdi pl
Ġingred ients
Ġapp endix
00 6
Ġpres criptions
ĠCF U
Ġco uple
ĠO l
Ġin ex
amin idase
Ġorig ins
L F
ĠPL pro
Ġz w
Ġpoly nomial
ter al
Ġat rophy
Ġspons or
Ġe cho
Ġderm at
ence phal
il ient
Ġdiscontin uation
Ġtre mend
Ġchec king
ag on
ment ed
Ġreview ing
Ġantagon ists
E f
Ġclass ifiers
urs ors
ĠAD P
ococ ci
onaz ole
ic hen
ĠSc ot
pati al
Ġintermitt ent
ession al
Ġh on
Ġspec ify
Ġs ort
tain able
om ed
Ġcomfort able
Ġdra f
Ġjus tified
Ġdecl ines
Ġint ent
ĠV H
Ġcl arity
flox acin
Ġsaving s
Ġnewbor ns
ĠG GO
Ġit eration
Ġter ritory
Ġs end
k l
op ress
Ġer adication
ĠâĢ ł
2 000
ut ch
pred nisolone
ok not
Ġintra vascular
Ġbackground s
z on
m b
MS Cs
a ud
ti p
Ġarrang ement
ĠPot ential
D r
ĠP CA
Ġnon invasive
ĠL I
Ġreplic ase
Ġreli ably
Ġtri plicate
ati zation
ĠFed eral
acy cl
Ġclon ing
m id
lective ly
ĠL ater
w end
ĠSecond ary
Ġs port
isc al
t et
Ġvag inal
Ġv ice
Ġadi p
Ġhyp og
ĠMor tality
A pril
Ġinst ant
Ġsu ited
Ġhypothe tical
Ġphyl ogen
ocarcin oma
Ġprepar ing
Ġentreprene urs
Ġdivid ing
B oth
anti gen
Ġpancre as
K O
Ġlys osomal
Ġim mer
ĠM AR
our se
ĠCD R
Ġrepe ats
ĠB R
Ġkill er
ĠEn v
Ġdele tions
ĠT ex
oth orax
an ed
ĠR M
Ġmicro vascular
Ġphosph atase
C ont
Ġ umb
c le
Ġestim ator
Ã¡ n
ĠP lease
Ġrece iver
Ġremark ably
Ġign ored
y pt
Ġagon ists
Ã© t
io tics
os yl
ï ģ
ad ata
Ġimm ature
ĠHy dro
Ġab ol
M RI
Ġend osomes
c f
**** ****
Ġth ing
Ġst en
ol is
ĠC OV
up lex
ĠCO X
an i
rome ga
ib ly
Ġh i
Ġmay or
Ġendot racheal
c ycl
ak a
Ġsmall pox
Ġge ometry
ĠN DV
Ġmass es
N ote
Ġprec ursors
Ġ( .
Ġdisplay ing
Ġin qu
Ġi od
V SV
ack s
Ġae ti
Ġsel en
m ers
ur ban
Ġher bal
ĠAf f
Ġch at
Ġsup ers
ĠCor ona
Ġaccompany ing
Ġresult ant
ott on
Ġcas os
Ġconvers ation
Ġcamp us
ostr um
p ot
Ġdecl ining
- âĲ
Ġb ub
Ġd ar
u ates
Ã¤ nd
Ġcereb rovascular
Ġcycl ic
Ġpi eces
uc ed
id azole
Ġhistopath ological
fer on
Pati ent
Ġcatheps in
ĠAust ria
Ġdispos al
Ġser ologic
or ical
Ġunder graduate
D if
ĠORF s
ĠH eart
g t
Ġpro pri
ath ione
Ġiso forms
H B
Ġpack ages
ĠCry pt
r als
Ġ19 18
Ġcat ch
Ġsub tle
ĠTok yo
d omen
ce mic
str ong
health y
ĠPro vid
U T
Ġanatom ical
ass isted
Ġimmuno assay
ĠMark ov
Ġ(âī ¥
Ġpi ece
W F
Ġend oplasmic
ugh ter
Ġl upus
20 13
ĠR BC
ĠP PI
Ġj ed
Ġneu rom
Ġphot o
Ġd ors
Ġtex ts
Ġrod ent
Ġpass ages
ĠR I
Ġdevelop ers
c arb
rom b
Ġmind fulness
ex pressed
Ġhol id
ĠT yr
Ġsolub ility
Ġver b
las ting
Ġfal c
ĠPharm ac
Ġacet yl
Ġbe am
ĠA ML
Ġu enza
Ġcheck list
Ġdisadvant ages
Ġpolio virus
ish ment
Ġneutral ize
Ġrest ore
Ġpossess es
h ist
Ġass et
Ġstation ary
Ġmes h
ĠÏ Ī
Ġconfidential ity
Ġr st
pro duction
Ġrecogn izes
Ġhams ters
Ġb if
ĠG Ps
Ġhorm ones
ÃŃ as
ovir idae
Ġm u
ĠA uf
Ġknow ing
Ġhol istic
M HC
P O
CA GG
Ġhar vest
Ġmet ap
b umin
Ġen rol
Ġfac em
âĪ Ĩ
s econd
ĠC ro
ow ing
ic i
xim um
T ime
Ġtop ical
f y
Ġconce ption
os ides
Ġneg lected
ĠTRI M
ĠH ar
ĠR ES
ĠM CP
Ġdistinc tive
Ġamb ulatory
Ġtempor arily
Ġinfec ciÃ³n
Ġaugment ation
Ġgran ular
Ġintra per
Ġ10 1
S ection
Ġcut ting
th is
ap tic
Ġb read
ul sion
az ine
Ġrhin itis
lec tro
Ġcirc le
Ġre ti
Ġrepl acing
m ail
HS CT
symptom atic
H igh
ĠPres ident
Ġsch iz
Ġt am
ĠTherap ie
Ġty ph
Ġconvers ations
ĠPh ys
ĠM as
Ġem path
Ġform ally
ĠT N
Ġprov incial
ĠT V
ĠBi osystems
ronti ers
Ġr hesus
Ġform ats
Ġad renal
Ġlower ing
Ġhom eless
Ġshif ting
Ġprof it
ĠF ran
Ġsuppres sing
Ġstay ing
Ġdisadvant age
Ġminim ized
Ġre lying
Ġc ub
ĠSp O
Ġprior i
Ġex isted
Ġreason ably
s ome
Ġcar ries
Ġelim inating
tes ts
Ġh inder
Ġorigin ating
ĠP G
Ġgly co
Ġpolyp eptide
Ġsubpop ulations
val ently
un it
Ġcol our
20 12
Ġspirit ual
ag og
m ain
ise ase
Ġtherap ists
Ch ina
rais al
Ġmetabol ite
Ġbring ing
Ġspan ning
ist ence
ĠAl gorithm
at ten
ĠC PV
Ġanaly tics
N on
U RE
ed ema
1 10
en en
ĠS till
Ġan eur
Ġtheore tically
Ġs ap
Ġm TOR
us ia
Ġhypox ic
ĠS N
Ġmix tures
ĠL MICs
Ġinoc ulum
Ġvolunte er
Ġr an
Ġs ul
ĠL y
Ġmil der
Ġconfig urations
Ġhyper troph
ĠPD CoV
Ġsnee zing
Ġover lo
ĠV or
Ġcontr action
t un
a o
Ġthrom bin
ĠHS P
Ġdis ap
Ġensure d
ah aran
ĠDiagn osis
spec ial
Ġper itoneal
ol ated
Ġfall ing
f fe
Ġul timate
ĠE HR
Ġp ace
ar on
neum onia
U K
am es
ĠAss ay
Ġfor th
es te
O r
ph il
ipar um
Ġpl ague
Ġconf ocal
TT TG
Ġdi ets
ĠL STM
inc re
Ġpseud oknot
Ġepile psy
Ġad here
Ġne arest
Ġamin otransferase
Ġmanif ested
aff in
Ġrest ing
ĠAuthor ity
Ġnucle oside
Ġsuc rose
Ġdiver gent
bio tic
H y
Ġdeb ris
ĠS LE
Ġconver t
ier ten
Ġpartnership s
Ġalter ing
Ġsow ie
Ġbe ar
u v
ĠCh icago
Ġtit ration
Ġcam el
Ġpancre atitis
Ġhydrox yl
ĠAn xiety
Ġbound ed
ĠP IV
CC CT
ah l
ĠPR O
arr ant
Ġhere in
ĠH op
tis ol
ĠCh anges
Ġare na
Ġqual ified
Ġd uct
ĠP or
Ġphot os
un ya
Ġvis c
Ġdia ph
Ġsurprising ly
Ġaller gen
Â ¢
Ġa k
Ġbig gest
Ġoligonucle otide
Ġlet ters
li ers
Ġtranspl anted
NA c
Ġcentral ized
Ġdep icts
pir ation
Ġhypot ension
ĠHu h
Ġred ox
ĠP al
ĠC G
Ġre w
ĠPol and
Ġutil izes
Ġcomm and
adem y
Ġbreak s
im etric
ĠU L
Ġmin i
ĠH g
it ations
pon ent
Ġsci enti
Ġg els
Ġproduc ers
Ġab lation
C ol
ad min
Ġunp redict
Ġdiscus ses
Ġnutri ents
amy x
ĠA Es
Ġcollective ly
n oea
work ers
ĠEcon omic
D ec
Ġdo x
Ð ¾
ĠChar acter
ĠN V
Ġinterpre ting
are r
l amy
Ġbeg un
f a
In troduction
Ġconspir acy
Ġsh aped
Ġdo ll
iz z
ov a
am ate
Ġse wage
Ġcrow d
valid ation
Ġle isure
F isher
ĠK e
Ġrelax ed
Ġfr ustr
uccess ful
ad ays
Ġquantitative ly
ĠD H
Ġcol itis
ĠST EM
vary ing
d ensity
Ġme al
Ġoligonucle otides
Ġunderestim ated
ĠF ab
at z
Ġimmun ob
Ġde ploy
ĠER K
Ġpa uc
f requency
Ġcompet encies
Ġfail s
am ous
pt or
throm bin
C X
ĠC ore
ess or
Ġinter quartile
ict or
Ġaden osine
Ġco infection
Ġmob ilization
Ġhemat ological
ing e
Ġinter disciplinary
ic ans
ĠGuid elines
ag ger
ĠH PA
form in
aren ts
a verage
re ach
Ġ( '
Ġradiograph s
B MI
Ġdr astically
Ġ19 99
Ġlip oprotein
ĠCoch rane
Ġp ren
Ġw arrant
ĠB BB
Ġsem an
ang ing
Ġenterpr ises
Ġc ros
ĠIFN Î³
Ġblock ers
Ġsuperv is
ĠBios ciences
Ġinflu ential
G ene
Ġequ ality
Ġapt amer
Ġann ounce
Ġveget ables
ĠA SD
Ġpix els
r ab
Ġwor ried
Ġelectro chemical
ĠG B
v s
Ġsched uling
Ġaltern ate
Ġatheros clerosis
G al
Ġterr itories
Ġbiod iversity
" ),
ĠExperim ental
Ġattr acted
fol io
ĠVit amin
Ġpostpon ed
Ġ19 70
Ġwors ened
let on
Ġintrac ranial
Ġan ten
ĠAs pergillus
ad or
ĠH CT
os om
Ġcoun se
tivi tis
ĠÂ «
00 8
Ġaneur ys
- .
ly cer
Ġor ange
ĠF indings
-- --
t b
Ġr uled
ĠImp act
Ġfalc iparum
ĠL US
Ġc ash
ĠIn tensive
ĠAut o
scientific reports
o ub
Ġpur ity
ĠPlas ma
Ġves icular
b uf
omet h
I O
Ġ10 6
Ã© ri
Ġrup ture
Ġphen yl
Ġmet adata
ĠO cc
Ġcertain ty
ĠA PI
Ġmonol ayers
Ġrem ed
vid in
Ġsubgen omic
og s
Ġinflu x
Ġdeep ly
Ġpres ervation
Ġcent ered
ĠMon te
Ġend ocrine
ind ex
Ġstaff ing
Ġspontaneous ly
le ich
Ġ1 12
Ġbios afety
Ġep och
Ġparam ount
osi tivity
Ġbios ensor
Ġbon ding
Ġint ensities
c am
Ġ1 11
+ )
v as
Ġsus pect
Ġout line
M ay
m eth
Ġannot ations
year s
Ġincre ment
F F
Ġpr inted
Ġfragment ation
D et
Ġw i
Se e
apop totic
Ġneurode generative
p rom
ĠP OC
ed ia
ati o
s il
Ġprecaution ary
Ġpeak ed
Ġrear rang
ach ine
ĠIn flamm
Ġmel atonin
ion ic
Ġâ Ĳ
ĠCandid a
iss ue
â ĨĴ
Ġspecific ations
Th ree
ĠEg ypt
ri p
ĠÂ »
clos ure
ĠOp tim
odend ro
ak t
Ġmin eral
N a
Ġmo ves
sequ ent
Ġprioriti zed
ine ering
ress ed
Ġrac ism
ed u
Ġperic ardi
Ġk an
Ġcol ostrum
Ġar ranged
c ancer
oc onstr
Ġexcre tion
Ġâ Ĩ
Ġmid w
pharm aceutical
si e
och rome
Ġcyt omegalovirus
Ġdecl aration
th s
ĠB acter
Ġre volution
Ġdegrad ed
Ġref lex
Co vid
g ithub
Ġab domen
Ġguid ing
Ġubiquit ous
Ġsee ing
mod el
O ut
Ġev ac
u a
Ġsa fer
ce an
Ġrel ational
ry st
ĠIll umina
ent re
Ġpath ologic
o S
Ġpro poses
Ġconsum ing
ĠGre ece
ĠAnti body
ĠCor onaviridae
Ġall erg
Ad ditionally
ard y
ari ans
Ġlink er
Ġtight ly
Ġg ar
ĠIm aging
ĠR ob
ĠRMS D
ef fectiveness
ĠOr th
Ġcogn ition
Ġhemagglut inin
ĠDat abase
ĠL at
Ġgrap hene
ĠDie go
yl ene
Ġexec uted
Ġpathophysi ological
Ġd y
ocompati bility
b eta
Ġanalog ue
Ġlog ical
ĠTher mo
in atal
ĠM ill
Ġcytos ol
Ġsup plements
Ġinfl ation
Ġr ice
Ġbios ensors
Ġdiscrim inate
ĠFI PV
ĠKen ya
Ġcl ub
ĠB S
Ġcl ades
Ġbin omial
Ġtrat amiento
Ġalve oli
ĠC ases
AL T
ĠF CoV
ro oms
Ġoffic ers
Ġopportun istic
Ġg rain
S aharan
Ġb er
vi o
Ġinc idents
ĠD ef
Ġobstac les
Ġsper m
m or
Ġpl acing
ĠReg ional
C a
is en
Ġconst ants
im us
Ġdec entral
om mend
ĠL L
ĠMa jor
ĠN CD
Ġrec t
Ġbab y
est ing
Ġminim ally
ĠMicro soft
ĠSt ress
20 10
ĠÃ ª
Ġnation ally
Ġstop ping
Ġde ficiencies
Ġes te
ĠSV M
Ġmeteor ological
Ġper oxide
Ġdid n
14 0
Ġse in
Ġres ilient
us sis
Ġdist or
Ġair c
Ġresid ency
Ġe ines
Ã¤ l
Ġem it
wh o
it a
ch all
Ġcle ared
ĠC HO
Ġz o
Ġsa ved
Ġer adic
Ġhe ar
l ass
ĠL aw
Ġcomple teness
Ġoccup ied
a eros
all is
F e
ĠP opulation
Ġwors en
U nder
im ate
ĠRec e
ĠF ull
throm botic
Ġro se
Ġd ict
s ign
Ġinstruc ted
oph ren
ards hip
d ef
Ġ10 2
Ġexp iratory
Ġbacter ium
Ġt ons
Ġnorm ality
Ġp sor
Ġam id
und ing
al d
Ġthan ks
Ġarchitect ures
ist ance
ĠRe porting
ĠW BC
Ġmod ifying
Ġmon etary
plement ation
Pro t
Ġdistingu ishing
Ġd ots
Ġse eds
ĠIs land
Ġpers isted
ress ing
Ġa an
Ġinj ured
Ġobst etric
Ġarrow s
ĠL arge
morbid ities
ab ine
Ã³ s
cons uming
plic ating
Ġintervention al
o ot
Ġfl ank
ĠÃ ľ
Ġventil atory
vacc ination
Ġvacc inia
Ġph ones
K T
Ġaff in
Ġinst all
ĠTex as
ĠG TP
ĠS tep
ĠH and
Ġ1 18
m ma
ex posure
Ġnever theless
Ġjudg ment
ĠSequ ence
Ġsor ted
Ġcom mod
ĠL omb
Statis tical
Ġemphas izes
Ġasym metric
Ġalign ments
ĠF amily
E ach
Ġpel let
han a
ĠG ood
Ġgra des
Ġpharmacokine tic
Ġsynth ase
Ġre imb
ĠT aking
Ġequ ine
Ġrout ines
Ġoffs pring
g ra
ĠF S
Ġopac ity
Ġtrans fers
ĠS k
ĠS AS
C N
d ate
Ġ1 15
Ġstake holder
ĠM ental
Ġund es
Ġb ird
ĠEx cel
ĠSw iss
V I
Ġ10 8
Ġmedi ation
B arr
ĠL P
ie ties
Ġconf ident
Ġr in
Ġfe es
Ġseason ality
ĠHC P
Ġsy ring
o ung
ĠÃª tre
er ror
Ġreal ize
Ġaff ili
Ġstabil ize
al c
ĠN ep
CL pro
Ġprioriti ze
Ġlys ate
Ġintu itive
ac o
Ġper taining
Ġunder way
ĠChem ical
Ġundet ectable
Ġbrain s
ĠDep ending
T ables
ef fect
Ġspor adic
ab out
AA S
foc used
rel ess
Ġcardiomy opathy
ĠI QR
ĠG BS
Ġreg ister
10 3
respon sive
W I
ut rophil
Ġnon structural
M ulti
et ing
Ġsh ad
ost at
Ġpro calcitonin
GA CT
ĠB on
16 0
uz z
Ġtra ding
Ġprogen y
ĠH IF
w id
Ġcalibr ated
bor n
Ġfin ancing
ĠST ING
Ġr hythm
Ġinter faces
Ġangi ography
we ise
Ġinterfer ons
Ġstrand s
Ġana er
ĠRes earchers
rup tion
char acter
ted ly
Ġafford able
trans lational
ĠN umber
ĠEV D
Ġtit re
Ġ iv
00 7
otox ic
op last
Ġsub optimal
ci ent
ar ri
ĠP articip
Ð µ
ĠC EA
ĠDisc ussion
ĠBi ological
Ġpoli tic
Ġper it
Ġelectro des
TC CT
us iness
Ġcycl ing
Ġsuc c
Ġoverwhel med
Ġanomal ies
Ġpop ulated
ĠN M
uc l
Ġf idelity
ĠI B
Ġweak ly
os us
Ġarr hythmias
se g
ol Ã³
Ġover t
Ġany thing
og raft
Ġthem atic
Ġport folio
ome g
pl aces
ĠFour th
Ġjo in
Ġcock tail
Ġshort ly
Ġtur ning
ah ren
ĠM us
Ġpropag ated
op l
p a
Ġass er
Ġsched ules
Ġvas odil
Ġ20 1
rit on
Ġthromboemb olism
tic k
Ġintern ationally
Ġvas opress
tif f
ĠHep atitis
Ġhous ed
ĠP at
athe tic
Ġal er
Ġin gestion
Ġt s
yl amide
Ġsyn onymous
angi otensin
Ġabsor bed
Ġdi le
Ġenter ovirus
Ġtot ally
ĠSe ven
R oche
on der
ic ing
Ġperiod on
gly cemia
row ing
guid ed
as on
Ġprobabil istic
AC AA
Ġechocardi ography
Ġtax a
Ġrestric ting
Ġcomp ares
Ġauto antibodies
Inte restingly
ĠNe gative
c s
ĠC PR
Ġd uplex
Ġhierarch y
ĠF actor
Ġfin ance
Ġlect ures
ĠMyc obacterium
Ġhuman itarian
Ġgeneral ization
Ġdead ly
si x
ĠDiagn ostics
Ġcann ula
Ġv erm
ran ging
Ġexam s
entr icular
Ġeconom ically
X X
ĠSur gery
Ġoff set
Ġcol ored
r yp
ab e
tis che
ĠAn gi
gr ated
Ġpost partum
Rec ent
Ġin versely
ĠBe havi
Ġbur dens
S c
Ġjuris dic
b irth
ĠP W
ĠHa em
b il
Ġd educ
Ġori ented
Ġcer tific
Ġl ac
Ġspec ulated
Ġmism atch
Ġsuc ce
Ġadj unc
Ġpre treatment
in tensive
Ġv oc
ĠS IV
Ġsubs id
ut z
ĠP hy
Ġdefic it
Ġcall ing
ĠR oche
Ġsuic idal
Ġh an
Ġtrim ester
ent e
Ġun fold
r il
ĠSur prisingly
G TCT
Ġl l
ĠPneum onia
ĠSystem atic
ent h
Ġadapt ations
ĠV LP
ec tions
Ġme als
Ġout liers
D o
Ġtr aced
ti tions
Ġs atellite
ĠS ample
ĠGraph Pad
Ġrece ives
ĠT it
ĠN GS
Ġche z
Ġcool ing
il umines
Ġreli ance
Ġend ed
od ay
Ġtrans action
ĠKnow ledge
R OC
Ġmic ros
Ġc otton
Ġhand led
Ġfulf ill
Ġfru its
Ġspik es
ĠA H
Ġbil ayer
Ġlib eral
am i
Ġtransmission s
A meric
Ġemb r
Ġrefer rals
Ġairc raft
Ġbeing s
f al
flu or
Ġ) ;
Ġph r
R em
ĠZh ang
G raph
Ġsynthe size
Ã« n
P r
ic ious
Ġ( Â±
Ġneutrop enia
influ enza
em e
Ġidi opathic
Ġnan ot
Ġshap es
Ġolig odendro
Ġnarr atives
K A
Ġcollec tions
Ġpert inent
Ġcor ne
emper ature
Ġread iness
d ong
k ins
ĠM IC
Ġsc aven
Ġembry os
Ġun available
mal arial
ap ses
Ġpseud ovirus
Ġmild ly
ĠTw een
Ġf iscal
Ġch a
Ġreview er
tis m
Ġto ile
ob acillus
ĠPro cess
l ings
Ġw in
Ġimmunohist ochemistry
Ġrecycl ing
Ġhyp o
Ġstand ing
Ġextra ord
lact am
ĠHC Ps
ĠPK R
orb ent
Ġwhere in
ĠRe ference
Ġconstit uents
yn chron
vid ed
Ġun affected
en em
Ġrein for
Ġparad ox
Ġstig m
Ġmechan ically
Ġun ters
Ġch imer
Ġcy an
um a
jec ting
Ġatmosp heric
ĠEthiop ia
Ġphys ic
Ġabnorm ality
target ed
ĠComp ound
f ront
ĠC ateg
ĠAn imals
Ġlapa roscopic
ost rid
read ing
regn ant
i able
ophil us
Ġtremend ous
rel im
Ġcation ic
Consider ing
Ġco valent
Ġimmun ocom
pl astic
Ġqu in
ĠI BM
ial s
Ġar rays
ĠAr ch
Ġcarb oxyl
Ġhistor ically
ĠPers onal
" ;
R L
Ġdiffic ile
ĠD as
Ġch aper
amet ers
Ġair port
Ġ10 4
R C
Ġdele ted
per t
p eptide
Ġas ks
Ġreproduc ible
Ġlat tice
Ï ĩ
Ġdig ested
Ġje jun
Ġeduc ated
u C
Ġt andem
Ġdu ties
retro viral
Ġp ub
Ġ10 3
Ġneg atives
Ġhyd rophilic
Ġof fl
Ġrest oration
Ġen forced
Ġecosystem s
Ġb rad
ĠN ile
Ġqu ercetin
c is
and on
Ġcor tisol
/ .
er ated
Ġlif es
c ateg
Ġto ld
avor able
p ons
ot hesis
oub tedly
ĠP acific
ĠD IC
ĠL ess
F H
ĠF ox
Ġ20 9
Ġlas ted
Ġintroduc es
0 20
ĠRem desivir
10 4
Ġtyp ing
ĠBiot echnology
Ġvis ually
D L
Ġana phyl
restr icted
p ublic
ĠÎ £
ĠG AP
ag raph
Ġeconomic s
Î µ
Ġhot el
st rain
Ġec ology
iltr ation
E m
Ġdiscipl ine
Ġpractition er
CA P
Ġ19 98
Ġtri ang
Ġhar b
ĠIR B
ĠAc ademy
ount ries
Ġgu inea
Ġmethyl prednisolone
Ġco operative
Ġjud ged
Ġex ceptions
TG CT
Ġim plied
Ġglut athione
s al
Ġmain land
ĠZ oom
Ġconv inc
Ġsym metric
yl ogenetic
op rot
Ġoffic es
stud y
Ġfet us
ĠHP LC
Ġbound s
Ġextrac orporeal
ĠF il
u is
Ġvers a
str act
n umber
Ġturn s
Ġmar ital
Ġhaem orrh
Ġf oss
w est
ĠD utch
as ted
Ġlack ed
prot ection
ur red
ĠP rom
ĠOnt ario
ĠG F
Ġso bre
ĠF ew
Ġlymph aden
m iR
ĠT riton
Ġintegr in
Ġg ent
ĠQ ue
Ġl g
Ġgly cerol
ĠNor way
Ġglucocortic oids
le ading
v able
Ġmo ist
ai res
p ower
Ġim plication
ti ge
min ute
Ġnec es
Ġexp ed
man agement
Ġplay er
Ġsym metry
par ameter
trans fected
Ġdr ift
212 5
ot on
ĠL OS
Ġcomm ens
Ġmetast ases
ĠF ra
vi er
ĠP ulmonary
Ġarg ues
Ġpap ill
Ġ ries
ra red
lig and
he id
Ġimmun oprecip
Ġp ush
Ġk nee
Ġsub clinical
Ġcirc les
Ġgain ing
ti zing
Ġ1 13
ĠH ER
ĠDiagn ostic
Ġde hydration
Ġprote omics
Ġrecording s
M y
Z V
Ġcom mitted
Ġerythro cytes
ĠM W
Ġindex es
Ġc abin
Ġmut ational
Ġincons ist
Ġ19 97
ĠT op
ph rine
l ag
ĠA CS
Ġind is
ast olic
Ġrespir ation
Ġuns up
relim inary
Ġel ast
p rec
p here
Ġin ventory
phen yl
one gative
Ĥ ¬
ob i
Ġfer tility
Ġhypers ensitivity
Ġa vi
og raf
Ġal k
' m
ĠBe i
sacchar ides
Ġmet als
Ġfound ations
ophag y
fri endly
ĠS il
pr ac
Ġepid ermal
Ġbe half
Ġab road
ĠTh irty
Ġdich otom
ĠS in
Ġanaly tic
Ġchi ef
Ġend omet
ĠO F
r f
Ġtheore m
ĠDe ath
ver m
ĠE uro
ĠL E
Ġont ology
pl iance
ĠPer haps
ĠT y
re me
Ġcor ner
Ġany one
Ġdri ves
Pro of
Ġhyper plasia
Ġprob iotics
Ġrecru iting
Ġcas ual
N B
O E
Ġirre versible
ad ine
ĠEnviron mental
put ation
200 9
Ġappro ached
ĠSur veillance
ĠIncre asing
Ð ¸
ĠP PV
Ġgran ules
trans cription
g rim
rag m
Ġgeneraliz ability
Ġp icorn
Ã± os
Ġcomp iled
Ġro botic
ĠH o
cri pts
Ġori ent
Ġgre w
Stud ies
och rom
Ġradi ography
a edic
Ġsugges tion
Ġide ally
Ġjustif y
g ration
ult ation
Ġextinc tion
ĠF ile
Ġcred ibility
16 3
Ġoptim izing
Ġco at
Ġdeple ted
) (
t oxic
P romega
ĠR ever
Ġev asion
Ġregim es
Similar ly
atid yl
Ġspher ical
Ġinst alled
AP I
el a
Ġno tification
n y
ak in
Ġsan it
re p
Ġmoun ted
Ġcon vey
mit ting
Ġherpes virus
Ġ( %)
en tive
b u
Ġ5 000
rel ations
ĠR a
or ig
Ġbr ight
Ġtri ps
ĠUS P
Ġair ports
Ġbil irubin
ĠB ox
ĠP rec
Ġpubl ish
ĠR ad
c DNA
Ġunex pl
n an
ib li
op rop
ly s
Ġmod ulated
Ġ20 30
Ġcorrespond ed
Ġs tir
Ġinser t
ĠG hana
Ġhand washing
Ġpractic ing
Ġanalog s
tiv a
as aki
s ulf
ĠL emma
ib co
Ġlow ered
Ġrisk y
Ġformal in
C urrently
spec ially
Ġarg inine
Ġdial ogue
sm all
rus kal
ĠU g
Ġse ll
enari o
ur istic
ĠCP AP
Ġcrow ded
ĠA AV
Ġconcentr ate
Ġmicrofluid ic
8 00
ĠF re
Ġte ach
Ġenfermed ad
Ġflavon oids
ibr ary
ĠCri tical
ĠOx ford
n m
Ġv ent
ĠN atural
ĠP ython
meas ures
ĠAl ong
ĠIn formed
Ġsl ices
Ġimpact ing
idi rectional
Ġan ger
Ġcit ations
z w
over ning
Ġsafe gu
ĠRus sian
Ġstep wise
az ione
Ġneur aminidase
Ġca u
Ġincorpor ates
Ġcon ve
Ġind igenous
Ġtim eline
Ġplate au
Ġrein force
n atal
Ġo mitted
ĠB inding
Ġp yl
ic an
ĠA ma
w hen
ĠN ach
Ġcompar atively
Ġgraph ical
Ġnew sp
Ġprogen itor
Ġh in
Ġtim ep
Ġf ur
ro b
Ġaber rant
Ġp ill
ĠL TC
Ġp in
Ġunder pin
Ġapt amers
Ġect odomain
as ia
ĠT raining
s u
Ġ1 17
Ġrel uct
Ġdynam ical
ĠG AD
ord ant
U P
Ġmac rol
ĠSup porting
Ġcau tious
be an
Ġaud it
omb inant
Ġch arges
Ġy es
Ġfil ms
Ġs ph
ĠF r
Ġundet ected
Ġsten osis
Ġam en
es tim
Ġprolong ation
ĠAl most
Ġgeograph ically
Ġflat ten
ĠP he
part ate
Ġdest abil
Ġveter in
atit ude
mac roph
psy ch
Ġneuros ur
Ġput ting
Ġ10 7
AS S
Ġrest ored
Ġtour ist
Ġminim ise
d c
h Ã¶
s k
Ġamb ul
Com par
Ġcitiz en
Ġaccount ability
Ġimp ose
ĠCor poration
ĠPf izer
Ã§ Ã£o
Ġpo ison
GG CT
Ġadverse ly
Ġoffic ially
is ations
ac i
Ġsurvi ving
d emographic
Ġt ang
Ġneed ing
Ġed itorial
Ġser ially
fall s
Ġparas itic
ĠL iver
Ġchem o
ĠGene tic
Ġprogress es
Ġsed im
Ġseiz ure
10 5
pt ors
z i
Ġantimicrobial s
Ġhapl otype
ĠS outheast
c arbon
E CMO
l usive
Ġproced ural
Ġf illing
ĠL R
Ġmon key
k it
Ġf ighting
Ġdef ence
Ġped agog
Ġneur on
Ġhabit at
de ath
see king
d isc
Ġ1 16
in ite
Ġtrans duc
W here
Ġt ap
Ġo s
ens ing
Ġs ÃŃ
ab etic
Ġspati ally
ra ine
Ġsqu ares
ĠEth ical
D is
ip ro
Ġfe et
ĠS ummary
Ġderm atitis
ĠUS D
Ġgrad uate
ĠPAR P
v itable
ĠF actors
D D
u its
Ġpr ison
Ġaden ocarcinoma
ĠTo ll
Ġd entists
d on
Ġ1 19
TA CA
ĠRes pondents
Ġwe igh
Ġbat tery
ĠI E
Ġaffin ities
g ar
Ġinter section
ĠO AS
ĠInd igenous
ĠOther s
Ġlig ation
Ġsubsc ales
spec ified
Ġimmunoglob ulins
Ġen ding
ĠUn til
Ġp ang
Ġsh r
Ġcl onal
ĠW ales
Ġdisclos ed
ĠPolic y
in iti
ent ary
Ġsc hematic
Ġhyper coagul
Ġdetec ts
Ġfind s
he its
ong ue
Ġcred ible
Ġschiz ophren
Ġ1 14
Ġper inatal
ail ure
Ġacc ident
ang ers
Ġjoint ly
Ġd umm
Ġtransform ing
Ġl arv
lob ulin
Ġex haled
ore xia
Ġparen chymal
T ri
Ġscat tering
Ġfarm ing
Ġc ass
int ensity
Ġamplic on
Ġunique ly
Ġneurop sych
Ġpharmac ies
Ġlect ins
Ġearth qu
Ï ģ
ĠK S
Ġwe aken
il er
Ġden om
Ġex ecutive
Ġcovari ance
Ġnit ro
Ġevery thing
Ġassign ments
ĠIS Gs
oscop e
Ġp un
Ġmin us
Ġorder ing
r acycl
Ġpopular ity
Ġvacu um
Ġbro ken
Ġlos ing
Ġrem ember
Ġorgan izing
inc ip
Ġk lin
Ġachie ves
pons es
ram er
Ġcontr acts
di i
ĠBL AST
Ġconc ordance
n ers
Ġqu asi
ĠTe am
Ġcontrain dic
Ġmom ents
ht ml
Ġthromboemb olic
ĠKa plan
hyth mia
am ents
Ġanalys ing
ĠImmun e
Ġmism at
mer ce
Ġalb icans
ig hed
TA CAA
Ġinfiltr ate
ĠME T
ocument ed
Ġophthal m
Ġradical s
g ress
m as
os ion
Ġglomer ular
r atic
ĠColl abor
Ġca ro
P ri
Ġdis ordered
T n
Ġbro wn
Ġanti tumor
Ġaccel eration
Ġcontr acted
ĠTLR s
Ġdiscrim in
Ġinequ ities
Ġhyper tensive
Ġord inal
W orld
Ġmicrobi ology
Ġf asting
Ġregression s
Ġincre mental
ut o
ĠIC P
pen sive
Ġequ itable
Ġta ught
S o
Ġcontamin ants
in os
Ġprior itization
m ig
ron i
n icity
indi vidual
Ġgro cer
heres is
h ort
Ġadapt ing
Ġill um
Ġf asc
ĠV O
ĠDi abetes
ĠSub sequent
E ven
Ġchem ot
Ġpacient e
Ġdys regulated
Ġ3 000
ĠMod els
ĠH ouse
Ġ- -
ater nal
Ġsound s
buf fered
Ġnor ovirus
with out
Ġcontrad ict
g ree
Ġcharacter izing
ĠÏ Ń
n g
ĠIn nov
ef it
Ġbiom ass
Ġhor se
Ġim plant
Ġwear able
on ate
Ġadvantage ous
........ ........
ĠNep al
ĠIn tra
ĠH aving
Ġ3 50
Ġpri vi
Ġre organ
ĠAs n
Ġcommunic able
Ġres in
Ġinfluenza e
Ġdies e
oler ance
Ġst ack
ronch ial
Ġine vitable
Ġartif acts
fl ows
Ġdr astic
Ġrecipro cal
Ġadvance ment
Ġchit osan
Ġsub scale
ocy an
ĠA uthors
Ġfirst ly
Ġubiquit ination
Ġprote omic
Ġfulf illed
Ġimmunos orbent
ot helial
Ġab andon
Ġ erg
P ar
Ġdis till
Ġwe ighting
Ġchild care
Ġagre ements
lectr ic
op or
ion ine
Ġrenew able
ĠBAL F
ĠS ensitivity
iz able
co upl
Ġover s
Ġsent ences
ch t
Ġunders c
0 12
Ġ( #
Ġrec ession
z hou
Ġear ning
Ġsp ine
Ġcontin ent
ĠRes Net
Ġt one
yp e
Ġt on
Ġre jected
ĠT rial
F our
ĠG i
P B
Ġshut down
ĠNET s
Ġad vent
vel i
Ġg iant
Ġ- /
Ġback ward
Ġintravenous ly
Ġdisapp ear
Ġcontinu um
Ġ @
ul ence
h ar
ĠP LA
H u
Ġfl ora
group s
Ġtranspor ter
pt osis
ĠM pro
anc omycin
Ġalkal ine
ĠClin ic
Ġbund le
ĠF FP
Ġstrengthen ed
Ġfibrill ation
Ġappe tite
c aus
a viruses
ĠAd j
ĠCar lo
ĠE arth
ĠSec urity
ist ribution
enter ic
neum ovirus
Ġconfirm atory
ĠTrans mission
W allis
Ġcrop s
aw a
os idase
ĠM i
ĠPar is
th ood
a R
Ġf avipiravir
Ġnan of
cont in
Ġis land
Ġage ing
Ġspecial ties
Ġbott len
en a
ĠC ur
Ġsl a
ĠS K
Ġad ul
Ġ7 00
cer al
Ġstrugg le
Ġexc itation
ut in
rane an
ĠFram ework
Ġpay ments
rophyl axis
ĠDe pression
Ġun se
artic les
Ġsequ entially
Ġpromot ers
verm ectin
Ġcl ock
Ġauthor ized
ow ed
orbid ity
enc oded
enh anced
Ġde pressed
h om
as m
Ġbirth s
Ġanat omy
ĠPrac tice
t raining
Ġam m
ie k
Ġb are
Ġsit ting
ĠWh ilst
Ġcommunic ating
ĠTr ust
poly merase
Ġmac rom
Ġpil grim
Ġcrim inal
rogen ic
ato cellular
av a
Ġn och
Ġexer ts
v enti
Ġper iv
Ġthreat ening
ain t
Ġdoubl ing
ĠR ib
Ġserop ositivity
gener ating
ĠMon itoring
b rate
Ġexam ines
Ġvulner abilities
veli hood
R el
Ġwitness ed
l uc
pl er
gener ated
Ġembry o
Ġj et
Ġmonol ayer
Ġun biased
Ġhel ical
os itis
Ġcharacter s
Ġlymph ocytic
r ite
fer roni
ĠNo vel
i agn
20 11
Ġ10 9
Ġins piratory
Ġnorm ative
ĠLD L
ĠS l
Ġembedding s
ian a
O A
m RNA
Ġdu od
iv a
AG TG
ec d
Ġhab en
ĠCle arly
v an
Ġprote asome
ĠA PC
Ġsuc tion
Ġidentifi able
Ġmunicip al
eli jk
are an
ĠBi om
Ġfa ith
m ade
Ġn erves
ĠH i
bl ack
ĠCl us
Ġlys osomes
Ġpar agraph
Ġrheum atic
ĠGI SAID
Ġand ere
Ġ17 0
CL C
Ġ2 20
ef ul
ord an
Ġcow ork
Ġneighborhood s
er as
Ġtermin us
ĠPartic ularly
Ġdel ta
he lix
G VHD
Ġd ocked
ĠL B
Be fore
Ġlys ine
Ġchol era
Anal ysis
Ġsatisf ies
ĠCol lectively
Ġmar ried
Ġperi operative
las tic
. -
on to
Ġpert ussis
cyt okine
rom ed
ĠPhil ipp
Ġsuppres ses
Ġprogram med
ĠÎ ĵ
R OS
Ġs Ã©
Ġscaffold s
ĠA verage
ĠB CoV
Ġrefug ees
Ġrepro duce
GTG TT
Ġsubstit uted
b etween
Ġcom mission
Ġsecre te
Ġbal ancing
ĠGuang dong
Ï ī
Ġinter connected
C GA
Ġs tiff
Ġprevent ative
wid th
Ġwi reless
Ġthe at
10 9
Ġth i
Ġmaintain s
og rap
ĠSO FA
d ue
s l
ĠP et
Ġadd iction
Ġtr acts
iz ers
Ġp yro
brevi ations
arc ity
Ġpar alysis
P ath
ie u
ik ation
Ġautom ation
Ġhyper glycemia
ĠTreg s
ĠC yp
ĠC N
Ġphys ics
Ġpat chy
o yl
ĠB ig
Ġphosph or
Ã¶gl ich
Ġpued e
in duc
SA R
Ġinf requ
Ġprolif erative
Ġs ad
neutral izing
F LD
ock down
th irds
Ġhe ated
ti que
Ġund erm
ĠT u
Ġstress es
D B
lamy di
u vant
H s
Ġg overning
Ġgener ator
de veloped
R B
Ġcompens ate
z ero
Ġsil ica
M icro
ow ered
om atous
ann el
Ġlo ved
Ġfund ament
coun try
Ġwe ap
Ġj unctions
g p
V al
Ġd enti
Ġanti inflammatory
18 0
Ġbre ed
Ġimmig rants
ĠF er
opath ies
ac ity
Ġsur pr
Ġresid ing
Ġrecover ing
Ġpneum othorax
C y
Ġries go
ĠK om
ĠP y
Q T
ĠO E
ass ays
Ġpre requ
ethyl ene
Ġfibro blast
Ġpurs ue
resid ues
Ġger iatric
Ġv apor
ĠPark inson
00 9
Ġw ir
Ġreconstruc ted
Ġker atin
ess ed
ĠO N
Ġt alking
he p
ĠE AE
Ġpal m
ĠT ext
id ental
Ġins ignificant
ĠBM J
ef t
H KU
S im
Ġstream s
Ġstrom al
u ples
Ġshap ing
ĠAlex a
Ġunpredict able
Ġbl ank
Ã¼hr t
ĠContin uous
te il
Ġinactiv ate
Ġdur ante
or r
Ġacid osis
Ġauto immunity
Ġclean ed
ed e
Ġmuc in
Ġimmunob lot
ulos keletal
ĠF IV
ĠM id
Ġbi oph
Ġcovari ate
Ġaspir in
ĠCer tain
AT AA
Ġmes enchymal
Ġinc entive
ĠE specially
Ġsmart phones
im a
Ġperme abil
O nce
Ġaver ages
b is
Ġgenomic s
C t
j ournal
ĠSc reening
o ul
con dition
Ġglycos ylated
st ay
ĠR est
Ġboost ing
Ġtach ycardia
ine phrine
Ġdel ib
Ġstre et
Ġpo inting
Ġli velihood
Ġanx ious
ĠA z
Ġqualitative ly
Ġrow s
gen ome
iter ranean
Ġexception al
Ġundergo es
rosp inal
ĠH ol
ĠC our
1111 11
Ġframesh ift
Ġp ec
ĠY oung
or f
Ġcigare tte
Ġcomprehensive ly
ĠBas eline
L ife
Ġcomput ers
appro ximately
Ġfl ights
wh ite
48 4
Ġtherap ist
ĠD on
Ġtri p
ĠF C
ĠMod ern
Ġdies er
Ġcol ocal
ĠL Y
Ġelectron ically
1111 111111
Ġempath y
ĠK on
Ġexp ense
ch arge
ĠTherap y
Ġw ake
C GG
Ġelong ation
Ġret in
ĠInstit utes
lim iting
Ġmulti plicity
Ġpneum onitis
Ġparen teral
Ġab rupt
link ing
ĠSt age
Ġcardi opulmonary
ens ch
ĠK aw
ier te
M on
Ġver tices
Ġchem ically
admin istered
Ġam end
Ġ12 3
tt es
Ġsk illed
Mod el
il ia
Ġco he
fl av
ĠT er
Ġlab s
as ions
ĠE E
ĠB rain
ĠEd itor
Ġf um
ĠS hen
ĠTh r
Ġhy al
Ġtravell ers
Ġ24 0
Ġsee ks
ab sor
H LA
ĠB cl
Ġinex pensive
Ġcr u
Ġel ution
Ġsed entary
F E
ID s
ĠG ag
ĠMyc oplasma
Ġth al
Ġef ficiencies
ĠK ar
old s
ect asis
+ ,
P e
Ġtable ts
geb ra
c ity
Ġprompt ly
ĠAv ail
om atic
Ġnotice able
pop ulation
ĠS ES
Ġmusc ular
Ġdors al
ag le
Ġbet acoronavirus
Ġscat tered
Q L
Ġbi ologic
Ġdam ages
M o
Ġmoment um
K B
ĠSur vi
T ra
Ġinc oming
raft ment
es ium
ĠR iver
atin ib
Ġmut ually
An g
13 3
Ġlip opoly
ĠProt ocol
Ġt ies
Ġacc idents
Ġschizophren ia
ĠĠĠĠĠĠĠĠ ĠĠ
ĠB a
U L
j ud
Ġminim ization
Ġprov isions
Ġperipher y
Ġaer obic
Ġneurop ath
ĠF ACS
Ġchar ts
Ġaver aging
Ġcorne al
Ġmeas urable
Ġple ase
Ġdisinfect ants
ĠL as
Ġj un
His panic
Ġsc arcity
ĠG ST
Ġstandard ised
H SV
ĠS AP
Ġmet formin
Ġrest rain
ĠW a
Ġsub m
r at
C ap
F DA
Ġdet erg
Ġfavour able
Ġpren atal
o is
ric t
Ġrec on
Ġunf avorable
Ġamplic ons
Ġst ays
Ġsqu amous
Ġsan itiz
Ġves icle
ĠQT c
S ch
Ġnecro tic
Ð °
E q
i pt
ul sive
Ġpres erving
ĠGen ome
ĠPortug al
Me ier
Ġevent ual
Ġtax onomic
p athetic
Ġco ex
Ġorgan elles
b earing
in activated
ĠC s
Ġform ulate
olip id
Ġper cutaneous
hydro x
b ad
ĠH om
Ġrele asing
Ġgl ial
Ġ12 9
y er
ĠE vent
cop e
ĠMicro bi
h oc
ob ank
IS T
Ġolig osacchar
ĠRem ark
cept ual
Ġphysi ologic
Ġconstit uted
ĠHR P
Ġre acted
ĠBH K
Ġh us
Ġes pec
ĠB re
ĠAre a
ĠSub jects
n l
Ġcur ative
c row
un a
ĠM DS
Ã ¾
ĠHM GB
ĠW A
Ġpand emia
t ested
ĠH HV
ĠO A
opath ological
ĠE A
Ġgra vity
Ġconjunc tivitis
G CCT
Ġdise ased
ĠH al
omet ers
Ġpure ly
Ġinvari ant
om inant
Ġvig il
Ġsuppl iers
Ġs ac
ĠIP F
Ġimmun od
F v
Ġdispar ity
Ġindis pens
Ġf om
Ġprotein ase
Ġanne aling
ĠK ruskal
Ġ12 1
G roup
cont act
ĠJ EV
rol imus
ĠMin i
ĠOut comes
ĠN et
br ates
' ve
ĠK ol
adap ted
Ġmod ular
Ġprot ozo
test ing
ĠClass ification
Ġacc red
ĠO s
Ġattr act
G TCA
ĠHC MV
organ ic
Ġhypertroph y
mod ium
ĠF ever
Ġsubstit ute
Ig M
ĠN ov
Ġsat urated
ycl ine
squ ared
ro x
V A
Ġdig it
ic able
ĠL ower
vit ably
ĠPrevious ly
pe red
Ġunsup ervised
Ġent rance
Ġeas tern
Bs Ag
Ġp ragmatic
factor ial
she et
se as
as p
ĠCol omb
ĠRP MI
vol ume
Ġtry pt
we g
Ġhard ly
vio let
res pond
ĠM ax
b est
c ulture
Ġdisadvant aged
E urope
Ġsummar ised
Ġvill age
ĠG y
PE C
li ved
Ġfibr ino
Ġinter p
design ed
Ġcatast rophic
Ġconjug ation
Ġdiss ection
Ġexer ted
Ġleth ality
Ġenrol ment
Ġnan os
rap ie
a ise
ĠCon tr
Ġintellig ent
ĠIn fected
Ġunc over
Ġf re
Ġre nder
ĠN umerous
Ġread mission
Ġst ent
Ġspec ifi
me tic
Ġdiarr he
Ġpotenti als
r one
ĠPro ble
Ġrepe titive
Ġoverlo oked
aly tic
Ġcompet e
Ġvas oconstr
Ġrelig ion
Ġphylogen y
ĠDet ails
ĠCh ile
GA CA
Ġcollabor ations
ĠV ers
cl osed
Ġsu ite
ĠW ater
Ġmultif ocal
Ġinstruct ors
pl us
ĠF ast
vious ly
ĠEn ergy
ĠSch w
Ġther mod
Ġpseud otyped
Ġgr ass
ig keit
Ġtrans actions
ip ped
Ġharm s
Ġis othermal
pro te
Ġi ii
Ġanti sense
ĠQu antitative
Ġworkshop s
Ġste el
Ġwork places
P rotein
w ich
ĠPers on
Ġbig ger
Ġk il
uc as
Ġword t
ĠHb A
Ġimmig ration
Ġconce ived
Ġpropos als
omeg aly
ell er
Ġp ad
Ġsolid arity
Ġmed ically
ok es
Ġadvoc ate
merc ial
Ġcryst als
Ġs our
Ġend e
ĠTB I
Ġcontin ents
Ġappear ing
Ġprim ate
brid ge
Ġtit les
ĠCR C
ris is
Ġch or
ap it
u j
EV s
reg ulating
Ġcre ativity
Ġresidual s
Ġf ly
ĠJ ordan
Ġstandardi zation
Ġestud io
aff inity
ĠInter view
ĠLeg ion
d isease
Ġt ut
Ġr id
ĠNeu ro
n ine
Ġseem ingly
Ġattenu ate
ĠFin land
Ġminor ities
Ġparamet ric
Ġsurround ed
Ġsuppres sor
a vidin
as ic
Ġinterrup tion
Ġan orexia
Ġvers ati
Ġout reach
Vir us
O pen
Ġ ille
c ultural
Ġlnc RNAs
in ic
ĠMed iterranean
Ġdisc ern
the re
Ġemploy ers
Ġgu an
e ight
ĠB at
20 2
Ġwor ries
CO PD
Ġdiscre tion
Stud y
Ġpubl ishing
Ġtransfusion s
ot emporal
am ines
hem e
Ġor g
ĠE N
Ġsl ide
tiv iral
Ġancest ral
ĠB NT
ur on
ĠUg anda
o ured
is ik
c ult
Ġmulti organ
Ġsal ient
phosph ory
Ġe at
Ġgrow s
Ġheter od
it z
Ġf rontal
ĠBV DV
en es
Ġcur v
Ġd yst
ĠR oyal
ĠH ome
Ġhotsp ots
Ġc ada
at ur
ar ter
Ġrib onucle
Ġmon otherapy
ĠEx pl
ĠMedic are
Ġp s
Ġplas min
Ġrev is
h yp
m ice
angu age
Ġhep atocellular
Ġinherent ly
PE S
Ġpar affin
ĠAg ricult
ĠT ask
ĠRe ports
Ġorganis ational
Ġmig rate
Ġlarv ae
f ast
em at
Ġpop ul
Ġang les
Ġgroup ing
Ġtag s
Ġirre levant
Ġimmunocom petent
e ither
Ġhash tag
Ġhemod ialysis
Ġpred efined
Ġenl arged
Ġwat ers
P G
Ġth read
L US
Ġw ood
Ġpregn ancies
avir idae
ĠS ignific
Ġres emble
Ġfin anc
Ġan cient
Ġtr imeric
Ġdispers ed
Ġextraord inary
Ġv ar
Ġmann ose
B G
Ġrit uximab
Ġspecific ities
Ġsh am
Ġ0 9
Ġfem oral
Ġkn ew
Ġmechan ics
Ġpyl ori
Ġlymph atic
Ġdev oted
Ġbeh and
Ġ19 60
Ġsymb ol
ĠBon ferroni
Ġm olar
ind ic
og roup
ĠM u
o viral
Ġa ward
Ġinf inite
c ode
Ġso ap
o ic
and er
yr rh
Ġentreprene ur
st ation
Ġoblig ations
otherap eutic
Ġammon ium
m ale
p lying
ĠD u
ĠL OD
Ġmain stream
os ylated
at ar
Ġg angl
A CC
b lood
Ġbe ad
Ġhair pin
10 2
ox icity
Ġshort est
Ġco herence
Ġhe mis
la uf
Ġ. .
Ġtouch ing
Ġbo ys
Ġsent inel
ph ag
ospor idium
ĠIdenti fication
Ġnicot ine
Ġun con
ĠO ral
Ġsu itability
Ġmo tility
10 6
Ġcompet ency
Ġrele ases
pd m
ĠT issue
Ġmel ting
Ġest rogen
Ġindividual ized
Ġoccup ations
ĠC irc
Ġbab ies
Ġanti retroviral
h olic
is er
Ġph aryngeal
Ġunder take
ĠCor p
.. .
plo ys
ĠMD CK
Ġspl enic
Ġun ilateral
Ġeuthan ized
ĠAd d
Ġcontinu ation
Ġhapl otypes
ĠCl uster
Ġtransmit ting
ate ver
ar ma
Ġo v
ĠBl ue
Ar g
Ġfacilit ators
Ġim pression
Ġn iet
Ġse vent
10 7
ĠSymptom s
Ġver tex
gr und
Ġu it
Ġmathematic s
Ġb ibli
ĠAR Bs
Ġk appa
Ġcur c
Ġtravel ing
Ġev a
ĠCl ostrid
LA G
ign ment
ĠMD R
Ġtranspl ants
aw ed
Ġappreci ated
Ġex agger
Ġsp here
ĠSA M
Ġset t
Ġis otype
rop athy
ĠGS H
iter ia
ĠEr krank
ĠFM DV
Ġc i
o o
ĠLomb ardy
Ġenc ryp
AT CC
ĠP ICU
Ġp ages
in ten
Ġsitu ated
Ġinduc ible
Ġn ut
Ġrece ipt
B esides
Ġnucle oprotein
Ġf le
ĠC e
Ġdur ations
Ġde fer
Ġphysic ochemical
C ase
ĠW ind
Ġge gen
Ġmanufact ured
Ġimpair ments
Ġcontroll er
Ġambig uous
Ġsc ene
an us
tive ly
ĠWork ing
Ġon der
Ġ13 5
Ap plied
ĠA MR
Ġpolyp hen
Ġparv ovirus
is y
im ab
Ġbac ul
it ates
Ġstabil izing
ap ing
Ġcontribut or
aric ella
op eptidase
Ġgrad ed
Ġgradi ents
eb en
Ġul cers
Ġperturb ation
ĠGAP DH
ĠN ICU
Ġcounter act
Ġhemat ologic
Ġto oth
Ġbac te
Ġintermedi ates
Ġindispens able
ĠPur pose
is ters
am ins
ĠD engue
Ġinte ger
Ã¤ ch
Ġdelay ing
Ġsimpl er
Ġres erve
ĠV ery
l ang
Ġgon dii
tic ular
ĠRe present
ÃŃ s
ĠSwed ish
Ġmuc ous
tic as
Ġencompass es
Ġresearc hes
Ġcontribut ors
L PS
Q oL
n ity
res piratory
Ġmedi ast
Ġ19 95
Ġconstruc ting
path ogen
p olar
Ġke ine
Ġswit ched
Ġsn aps
ĠGW AS
Ġnetwork ing
ec ting
ex c
Ġtransform ations
Ġconc lusive
Ġer fol
ĠA BC
Ġpl ain
I BV
cell ulose
Ġfa eces
Ġmult in
pl ot
entr ic
Ġbelong ed
Ġincid ences
C r
Ġmig r
Ġeva poration
ĠR oman
Ġreimb urs
eng er
Ġendot oxin
ĠBe ing
Ġpauc ity
Ġneighbour hood
end ar
ung unya
re a
ĠAd en
Ġanti malarial
âĪ ŀ
Ġmetap neumovirus
Ġspik ed
or ic
ĠP i
Ġstrept omycin
Ġbread th
w ick
ip ore
cl us
Ġdas hed
ĠR en
Ġpurch asing
Ġapp raisal
z ol
S ocial
Ġst ably
ĠF lor
Ġtr usted
TT AA
Ġaden oviruses
Ġread ings
Ġd ash
partic ularly
Ġf ate
ĠK inder
Ġhous es
ĠS ource
ĠN B
0 25
en ergy
Ġch im
ot ri
yn ec
ES S
Ġlegis l
en veloped
Ġus ability
ant Ã©
Ġmicroorgan ism
ĠLact obacillus
Ġb lo
Ġmanufact ure
Ġass urance
ĠÎ ¦
con tr
Ġinterpret ations
se y
ik ungunya
Ġsuspic ious
13 2
ĠRel ative
ĠDa ily
Ġcyt ochrome
ĠScot land
Ġcloth ing
Ġal ters
ĠV T
Ġquantif ying
Ġadvoc acy
an yl
Ġmerg ed
Ġg ases
ĠM IP
hed ral
Ġassist ants
Ġpneum on
ĠAB O
Ġfer ret
ĠB W
Ġhist ology
Ġ28 0
Ġden aturation
us ers
us amm
ĠRe ad
Ġparen ting
se x
ĠMin ister
ĠS CI
K D
ex cept
oplas tic
it en
il ent
Ġemerg es
ĠUl timately
Ġdi astolic
hel ia
Ġdimension al
S pec
in en
ĠPH Q
Ġexpres ses
Ġattempt ing
Ġobserv able
om yc
ĠF all
int ended
ĠÂ £
12 3
vari ate
Ġelectroly te
ĠS u
te ed
orm s
ĠCh apter
Ġmark s
Ġsegment ed
Ġr RT
Ġpl ated
Ġat opic
osa ic
Ġpow ers
CAA CT
Ġto l
ari at
Ġcirc ulatory
ĠL AS
Ġas ynchron
Ġpe ace
Ġv end
ĠAma zon
at ation
Ġnew er
Ġcle ave
Ġmicroar rays
ĠE CM
Ġdisproportion ate
ĠI de
Ġext ubation
ĠQ oL
ĠM aster
M olecular
Ġa te
Ġvascul ature
Ġmonomer ic
ĠU m
isting u
Ġcit rate
ĠExper iment
n etwork
ous tic
ib t
Ġto d
pro b
Ġsub di
Ġcurc umin
Ġunp ublished
ĠImmun o
Ġdisinfect ant
l aw
sib ly
Ġline arly
am n
Ġoccasion al
ĠFlu or
g ender
ĠF ree
Ġhist ories
an im
Ġsen escence
Ġdifferenti ating
ĠCompar ing
Ġg em
mon s
tig ens
Ġf ol
ac cept
Ġacute ly
Ġnec rop
Ġnanom aterials
Ġres ide
Ġdr ink
Ġcultiv ation
oc at
iz aciÃ³n
ĠOther wise
Ġextract ing
Ġpel vic
Ġtet ra
ĠDem ocr
ul se
eth nicity
et en
ig an
Ġr anks
ME s
Ġjurisdic tions
meas ured
Ġpractic ed
Ġpollut ant
mun g
ĠC RF
ĠS PR
Ġsuper ficial
Ġdemand ing
yn thetic
t emporal
tiv o
es ity
yp an
Ġadministr ators
Ġzw ischen
b el
Ġwas hes
T OF
Ġl ane
Ġover dose
Ġpharmacokine tics
15 5
Ġgen otyping
equ al
ph i
ĠUn ters
ĠAnti bodies
ĠKaw asaki
C B
Ġpredom inance
Ġvi rological
Ġneurom uscular
op rophylaxis
U U
Ġund oubtedly
Ġim plantation
Ġshe ets
el en
Ġblood stream
ĠGl n
per iod
bio tics
ed ge
ĠS NA
Ġlo ose
C NN
ĠC ulture
Y es
Ġinvestig ational
ĠQu anti
Ġcowork ers
14 4
load ed
v ille
Ġl iber
ant adine
ĠLi u
Ġrein forced
Ġisol ating
Ġnic he
Ġreflec tive
Ġenl arg
Ġine vitably
ĠM en
Ġcondition ed
Ġmusc uloskeletal
acr ylamide
Ġdon ations
Ġmention ing
N one
op t
duc ts
Ġarri ved
Ġsuspension s
Ġbes ch
Ġnovel ty
i val
ro st
am ili
te ll
Ġ12 2
ĠY es
Ġiso form
Ob jective
ĠE t
ĠN GO
Ġlear ner
Ġwor n
Ġintram uscular
Ġte a
pe ared
ĠL ic
Ġfold s
F unding
oma virus
Ġsuper im
Ġcomputation ally
ĠC ode
E xt
partic ip
Ġbronchi ectasis
Ġvis ibility
ĠIm ages
ĠN SAID
C hem
Ġte eth
Ġstat ins
Ġcounter part
Ġdraw s
Ġrend ering
ĠAl pha
Ġcle aves
Ġbu ying
ig t
Ã¶r per
Ð ½
Ġ12 6
ĠReg ardless
om m
ap ers
N ational
Ġ %.
Ġbiotin ylated
S cript
Ġorthop aedic
Ġv ancomycin
ĠP reliminary
R MS
ag land
ĠADA M
ĠW S
Ġfav ored
Ġlink ages
Ġoffl ine
Americ an
Ġexp ose
Ġgam bling
ĠInfec tions
Ġ _
otox in
Ġion ic
Gen Bank
at ri
ĠT O
Ġval ued
Ġgal act
b ild
Ġpow ered
ĠC Y
Ġag glut
ĠG old
Ġorig inate
Ġlif ted
Ġmo ieties
Ġdemyel inating
w elling
Ġcontrac ep
Ġpor tions
ĠVer sion
ĠTor onto
ic ations
ĠRep e
vere ign
Ġtop ological
Ġinher ited
an al
H yp
Ġfabric ation
L ike
os c
16 6
de gree
ab d
Ġaliqu ots
ĠF IG
ĠBl ock
F lu
str y
ĠCS R
ĠVal ues
PE G
or ial
ce in
Ġcys ts
ĠOn c
Ġbronch oscopy
w s
ab is
Ġam p
Ġresemb les
ĠT iO
ĠDet ailed
Ġarr hythmia
li qu
Ġexp enses
Ġweakness es
Ġdemocr atic
ĠS anta
is tical
Ġtermin ology
V L
Ġcommunic ated
ĠPl us
oplas m
Ġarri ve
hyper tensive
il ical
ĠEf fect
k ind
Ġcyc lo
ĠG ran
)- (
ĠN AT
ĠK n
Ġour selves
Ġcontain er
omp ens
Ġmis leading
Ġ13 1
ĠE ine
Ġâ ģ
Ġthym us
ĠVeter inary
V iral
ĠS em
ĠIn str
Ġintr iguing
Ġoxid ase
ge f
l ate
am id
Ġhel ices
sp ike
ĠIniti ative
ach us
ĠSur gical
ĠT EM
Ġvi rology
CA R
Ġnan oc
Ġemphas izing
Ġhams ter
Ġglucocortic oid
Ġas partate
adap tive
ĠVis ual
ĠG PS
Ġbreak ing
L uc
ĠF ollow
ph y
Ġunp aired
Ġvolati le
ĠPer u
Ġat tained
Ġt ran
Ġh Ã¤uf
Ġcl ÃŃn
Ġunem ployed
oc us
rab bit
ĠN ature
ic tive
ari b
Ġpsych o
T otal
pro lif
Ġser onegative
Ġmas king
Ġbi ogenesis
ĠBe yond
ec a
he ld
Ġ14 5
ur gent
B AL
az ol
low er
Ġquestion ed
Ġguaran teed
ĠN ano
Ġskew ed
ers on
Ġchem ilumines
P rim
ĠâĦ ¦
Ġcoast al
Ġjed och
ĠRever se
ĠD op
o ol
Ġradi ologist
Ġmicrogl ial
:: ::
Ġa ort
ic tions
entr ifug
ric k
Ġjo ined
Ġow ner
Ġpersist ently
present ing
og g
Ġling uistic
V acc
st one
ĠTRA F
Ġadul thood
ĠT ax
CA T
Ġreplic ating
Ġmim ics
po ol
Ġbran ching
Ġinterrup ted
EB OV
D T
j iang
12 2
Ġcasc ades
target ing
Ġsqu ared
Ġexplo itation
e ven
ĠS lo
Ġt ongue
ĠM AV
Ġem ploys
Ġmulti plied
Ġanaer obic
ĠIn fektion
Ġglobal ization
Ġes ophageal
Ġmon omers
Ġpat ents
ĠOl der
Ġile um
ĠHD L
i ences
ĠV en
Ġsl ice
Ġtele vision
Ġcon ferred
ree k
ĠK E
CG TG
ĠTyp ically
Ġmas ked
c id
ĠH MPV
ign ed
Ġun vaccinated
ĠL ight
Ġconf ron
1 19
Ġmand ate
Ġvisc osity
E arly
as et
Ġimmun ologic
Ġal ph
Ġtrans gene
pre t
strong ly
in um
Ġsubpop ulation
com ings
ĠPP AR
co ll
Ġdysp noea
Ġperfect ly
ĠL ibrary
ĠFort y
as hes
Ġa rose
Ġco herent
ack ie
Ġtransi ently
ĠH U
Ġinterview ees
Ġassist ant
The n
Ġauthor ization
ĠPlas modium
ĠVacc ination
ĠPh ylogenetic
Ġform ulas
Ġequ als
Ġfail ing
ĠB K
N eu
Ã¤ ren
Ġcereb rospinal
V er
ĠAss uming
Ġallerg ens
Ġsw all
AS H
Ġestim ations
G CCA
j ury
Ġph ages
Ġmulti factorial
Ġvi rolog
0 15
ĠY ang
ina e
ĠI PV
ĠR isik
Ġap o
Ġ19 96
Ġhuman ity
Ġdep art
Ġprob iotic
Ġhazard ous
Ġsuper oxide
Ġbur st
ĠPhilipp ines
MO I
Ġdefinite ly
Ġpost natal
ant es
P ur
ĠN AC
pres sure
ĠRB Cs
Ġtr aces
aj j
Ġhom ozygous
Ġthromb us
Ġ %),
lec ting
Ġlig ase
k Da
ĠE X
Ġfree ze
Ġster ilization
MV s
Ġvis ceral
Ġillustr ation
Ġcaps ule
ĠMed ica
ĠCal c
n ame
serv ice
ĠStruct ural
ĠF E
Ġeti ological
Ġfair ness
Ġcounse lling
Ġacademic s
c ycle
it udes
ĠStat ement
Ġal umin
Ġepid erm
Ġfil ament
f s
Ġsc oping
Ġmulti drug
ab el
form aldehyde
Ġfoss il
Ġcap ill
Ġtrack ed
ac ia
i rom
Ġd romed
Ġnot ation
ĠL ead
Ġenterpr ise
Ġ( (
ĠG lyc
Ġcell ulose
ĠT erm
ĠL CMV
Ġpers ists
Ġcarri age
GA S
Ġappreci ate
ĠM ix
Ġocc asions
ath rin
S EM
b red
Ġnom inal
Ġpermis sive
ĠAngi otensin
Ġperit onitis
ke eping
Ġint ensi
Ġtax onomy
Ġnucle ase
dist ance
achus etts
Ġtw elve
ĠCh all
Ġev ade
Ġhe ard
ostr uct
ir a
ro le
ĠL iter
Ġmic rop
Ig A
Ġhe d
Ġnon human
ĠCa ucas
Ġlong est
Ġstead ily
fl ict
Ġimmunosup pressed
y an
Ġprac tically
paramet ers
Ġaccompl ish
Ġsensi tization
ĠD emographic
ure au
s chool
ti gen
Ġgen ital
Ġvacc inate
character ized
ĠProtein s
Ġde ut
Ġmic ron
Ġcommit tees
Ġpres sing
Ġc ens
Ġinter acted
ĠC d
Ġex tern
oun ted
Ġansw ering
Ġtable t
Ġsynchron ous
ores cent
CM C
A GG
t reat
quar antine
ĠIt ems
Ġeosinophil ic
nis one
p air
AC HE
Ġ13 8
ĠF orest
Ġg ang
Ac ute
ys ema
RIS MA
Ġmay be
ĠG er
Ġj a
Ġbreath s
ĠC ycl
per fusion
Ġclim atic
gal act
M H
Ġw age
Ġpre f
b ic
Ġdimer ization
Ġra il
Ġsensi tivities
Ġrepur posed
Ġto ken
tic os
Ġinstit ute
G H
Ġsp ores
Ġspons ored
Ġ12 4
reg ulates
produc tive
Ġju ven
Ġe ing
Ġeng raftment
Ġ: =
Ġsem ester
Ġflavi viruses
Ġ12 7
se ven
Ġdr ying
oxid ation
Ġdepos its
l amp
ish able
R CT
lect in
ĠEmerg ing
ĠAc tivity
ĠAr gent
Ġo xim
ati va
PS C
Ġfluct uation
olog ÃŃa
Ġshort comings
Ġlook s
Ġac ted
Ġevid ences
Ġadv ocated
Ġneurop athy
Ġs ist
u itary
ĠS un
Ġaut ocor
re action
Ġcon ges
Ġnas oph
Ġdumm y
AL Y
Ġglyc ine
CT AA
Ġme hr
Ġaerosol ized
ĠD B
hes ised
Ġplastic ity
ĠN rf
ru it
Ġadapt or
am ond
Ġadminister ing
alth ough
ĠNe ither
ĠAS C
Ġoptim istic
Ġelabor ate
Ġser vers
ĠC ountries
Ġ2 10
flu ence
ag ram
Ġref ine
Ġinform ing
Ã¤ re
ĠNi V
Ġendors ed
X A
is te
ĠN J
Ġencaps ulated
s ue
oqu inol
Ġglut amate
Ġex ported
umb ar
im aging
Ġhistopath ology
w orth
Ġg ew
ĠI PC
ap es
induc ible
ĠI GF
Ġmunicip ality
Ġpoly meric
ĠF ailure
Ġob sc
Ġcult urally
AG TT
k ary
ĠS CT
ib eral
ĠEq s
st ained
Ġrig or
Ġun ified
ĠBl ut
struct ure
acet ed
id ney
Ġpharmac ist
Ã¤h rend
0 45
Ġatt ach
âĪ Ī
Ġfer til
ĠBer lin
Ġpsor iasis
ĠV ide
Ġb ill
ĠT rend
ero tic
Ġsymb ols
Ġperiv ascular
Ġgovern ed
ĠF iO
ĠHop kins
on it
Ġdrawback s
Ġwild type
b et
ĠP AP
ĠDE Gs
lipid emia
b ur
he im
Ġs es
ĠS pe
Ġlong term
ĠTo ol
Ġme g
Ġscal able
m ulti
Ġscat ter
Ġpurs ued
Ġsub cellular
ĠAT CC
T ube
h ma
al one
ĠM AT
uc ing
ĠN PC
Ġc ad
s ackie
er ating
vacc ine
Ġpost infection
Ġpol arity
p ic
ure tic
Ġbo oster
Ġmitig ated
ĠSm art
Ġop tic
Ġpr int
ĠEx posure
with in
15 7
akin ra
t em
il k
ĠW I
G u
reg ion
Ġsil ent
Ġgra ve
Ġanch or
J une
Ġr ings
Ã¤ m
Ġpar k
Ġupd ating
Ġimmun isation
Ġelec tion
Ġmagn esium
et z
Ġhydro ly
Ġreimburs ement
ĠS n
ĠP hen
art an
com plete
B NP
Ġprefer able
ĠInhib ition
Ġshe ar
syn onymous
ucl ide
N M
Ġbe have
ĠAR B
Ġun healthy
Ġbif urc
Ġadv ancing
m ob
Ġun ob
on ing
Ġlog istical
yst emic
Ġmotiv ations
ĠActiv ation
ĠCrypt osporidium
ĠWh ats
Ġtrig lycer
ĠH ospitals
Ġtranspor ters
F i
artic le
Ġat tain
0 14
Ġnumer ically
Ġdest inations
ĠEp stein
Ġpo x
nex in
Ġdimin ish
U I
pan ze
Ġcontradict ory
Ġreg istries
Ġaux iliary
h us
Ġpoll en
Ġlymphaden opathy
Ġ ents
ĠD ul
Ġst ems
Ġwound s
Ġhard er
Ġcarbohydr ates
ĠH ung
ĠE agle
troph ot
N ET
ĠFe LV
Ġwe ighed
Ġno tified
Ġradi al
s um
bl ock
Ġsatisf ying
Ġdu plicates
Ġ3 60
plate let
Ġmyel oma
Ġcol ors
Ġdam aging
atisf action
ĠAnti gen
Ġmore over
tr ig
at able
10 8
ĠCont act
Ġbios ecurity
Ġm i
Ġcons ume
Ġrit onavir
op les
ocardi tis
uz umab
ig u
ĠB acillus
Ġerythro cyte
Ġhist ologic
bal anced
Ġ13 2
Ġpain ful
Ġb iliary
Ġmes enteric
Ġpr Ã©s
Ġlim bs
Ġfamil ial
Ġcas o
t urn
op s
Ġim aged
Ġmicro tub
xim al
ĠTur k
Pri or
Ġnas cent
perg ill
Ġc ranial
om aly
aryng itis
Ġcorrespond ence
E GFP
ĠÃ ¨
Ġpeptid ase
Ġpec uli
ich i
Ġphen olic
part y
Ġin efficient
at urated
ĠAn alyses
Ġt ent
less ness
Ġpredis pose
ĠSY BR
ĠH H
av oid
Ġview ing
Ġshar ply
ĠR AAS
Ġpar amyx
e z
Ġri ver
Ġs ending
ur k
Ġrandom isation
ĠF as
Ġdec iding
rit ing
ĠBiot ech
ĠP rol
Ġmand ated
Ġhypoth al
Ġjus tification
Ġappend ic
M a
cept ors
Ġolig o
ed es
us al
Ġcal endar
Ġincub ator
ul ary
Ġchron ically
Ġstret ch
Ġconc ludes
Ġdoll ars
er ung
us hing
Ġdescri ptors
ĠCal u
as ally
ph ysical
Ġencompass ing
ĠPhy si
g rowth
Ġp ending
Ġscri pt
Ġhe uristic
AG AA
ĠCol lection
Ġw enn
Ġmod ulates
li ve
Ġbuf fered
Ġarter i
ĠReg istry
u til
ophosph amide
v ector
al t
Ġin ferences
ĠM achine
velop ment
ĠM BP
eth nic
Ġimm ense
d am
ĠM uch
Ġimp utation
Ġp DCs
Ġspec trophot
Ġunf olding
ĠH K
Ġphag ocytic
Ġmul titude
feren ced
Ġaw a
ato ire
Ġdense ly
M HV
ĠIntern al
Ġdown ward
Ġoblig ation
Ġe q
im iento
Ġantigen icity
Ġreass ort
ĠI CAM
am us
Ġdiagn Ã³s
Ġlifes pan
M ac
Ġis ot
Ġdi v
Ġclass ifying
ĠS en
ES T
oxyl in
Ġcontig s
bec co
Ġincon clusive
Ġax onal
at uring
Ġoccur rences
Ġs old
Ġpoly saccharides
f ed
Ġ14 4
Ġce phal
ra ge
f ly
Ã© l
Ġneutral ized
Ġneg lect
Ġmic rom
ĠSequ encing
di abetic
ĠM em
Ġslow ing
Ġpoly saccharide
ĠDirect or
Ġpreferen tial
ra des
Ġexpl ores
Ġo edema
ĠB acterial
ĠB SL
ĠCC P
Ġconjug ates
Ġac uity
ĠD ys
Ġscan ner
ĠAc tion
ĠMedica id
Ġcon g
Ġ25 6
Ġprev ailing
Ġcru ise
Ġbi olog
Ġdef i
amin ase
on line
Ġstay ed
ĠL LC
Ġimmun ore
a fe
ĠN PS
Ġdistrib ute
Ã¤ hr
Ã± o
ĠL in
Ġmulti plication
Ġfibro tic
lo ud
Ġaeti ology
uc tive
id ades
Ġdec is
Ġh s
ĠÎ Ľ
ru z
Ġpolitic ians
Ġhus band
ĠC AT
Th ird
Ġmal aise
Ġtranscript omic
Ġrib osomes
Ġtown s
s ensitivity
Ġpneum ocytes
um ed
Ġcomp elling
35 1
Ġmis class
ĠNe utral
Ġinqu iry
ĠDet erm
ain s
Ġprofession s
l it
Ġapproach ing
Ã¼ nd
ĠP LP
ym es
ĠDes criptive
Ġcatal yst
Ġsyring e
Ġes ophag
Ġbi variate
Ġc ette
ĠT oday
tis chen
Ġsal ud
Ġyear ly
ĠIF R
Ġpunc ture
Ġpict ures
it Ãł
Ġbreak through
Ġsick ness
Ġss RNA
On ly
Ġhomogene ity
k et
ĠV an
in is
Ġunivers ally
ĠMass achusetts
Ġdop amine
Ġ) )
me ga
12 8
Ġutil ised
Ġfat her
Ġns P
J an
Ġb old
ĠM ember
enz yme
Ġasympt otic
Ġdisrup ting
domain s
ri um
ĠM AL
Ġun ion
Ġso vereign
Ġdisap peared
T MPRSS
Ġf os
Ġpr icing
uls ory
Ġunderestim ate
Ġs arc
Ġg ing
Ġun intended
ĠFac ulty
ommend ations
Ġprerequ isite
ĠB MD
ke leton
Ġinter ior
Ġwar rants
Gen eral
Ġgrocer y
st ell
F eb
ĠIF NAR
ĠPa ulo
ch oline
Ġgra ding
Ġpay ing
Ġinf ancy
Ġent ails
ĠFran cis
M K
s aving
Ġc ive
Ġsub cl
Ġt rib
Ġencephal omyelitis
Ġinacc urate
Ġinver ted
Ġeti ologies
Ġlipopoly saccharide
U LT
ur acy
Ġme ets
Ġmulti dimensional
ĠOrgan isation
Ġrec apit
alth am
Ġh ole
ĠE ss
ĠAn n
ĠP ower
Ġbank ing
Ġde lla
Ġup ward
ĠMed ium
obacter ial
D PP
ĠG vHD
ser ver
ĠJ ust
re b
Ġfragment ed
ĠMAV S
vers y
phil is
el n
Ġorgan ize
Ġchlor ine
Ã©m ie
Ġapplic ants
Ãº n
Th rough
ĠDe v
R dRp
res olved
p u
Ġconsul ted
orr hea
Ġm osaic
Ġcon duction
Ġadvertis ing
ĠM tb
form ations
ĠJ NK
Ġdom inance
process ed
ĠA AA
uman n
ĠB ro
R K
ĠJ o
uf fer
ann ers
Ġf ing
Ġexpendit ures
Ġf ist
Ġelectro cardi
Ġsn ow
Ġanaly te
ap sing
Ġhapp ening
Ġbook s
ĠCh Ad
Ġaccommod ation
Ġseman tics
Ġoverex pressed
u ine
er d
ĠDe ut
ĠOb serv
ĠLim ited
ĠMul tiv
oc ilizumab
Ġfinanc ially
ĠR EC
Ġsyn aptic
Ġconc urrently
trans fer
D O
Ġover crow
In fec
TG TG
ob ia
Ġplas mon
Ġsymptom atology
Ġpara formaldehyde
ch icine
Ġfrag ile
ĠNe ural
f unctions
ĠMV A
ĠE MS
Ġfabric ated
ĠF ITC
ast om
Ġste ep
Ġo sm
ĠARI MA
Ġenter ocytes
r c
Ġex ports
t echn
Ġsub class
Ġrain fall
Ġaccept ing
Ġn Ã©
Ġimmunohist ochemical
âĢ¦ âĢ¦
Ġvill ages
Ġmand ates
ĠW i
ch i
Ġcheck point
ĠM emb
Ġop ens
a el
Ġign ore
F L
Ġcur b
Ġax ial
bi osis
oph an
Ġple th
ĠT BS
og onal
ĠAb bott
ĠI KK
ĠP RF
vers us
12 1
ĠEng ineering
Ġdiaph ragm
P BM
Ġe jection
Ġgerm line
Ġhippocamp us
Ġdirect or
ĠReview s
H CoV
Ġst ew
id as
am ol
ra w
Ġbacte remia
ze it
Ġcounter measures
P LA
Ġdissem inate
Ġuter ine
Ġumb ilical
e in
Ġr ises
Ġal gebra
Ġbo ards
Ġjo ints
Ġr d
Ġ19 0
ophy ll
Ġsedim entation
Ġre ver
Ġpurs uing
C NS
Ã¤t z
ifi able
Ġturn around
Ġground s
Ġcar til
7 00
ĠA kt
ai ent
ĠBe hand
il ation
Ġclot ting
Ġoutper forms
ond ere
epid emic
Ġc ured
Ġfram ing
Ġun bound
ĠM er
ĠH BsAg
Ġcare rs
Ġpilgrim s
e lectr
ever ity
me ans
Ġbene fici
Ġretro viruses
ĠCh ange
Ġc hel
prof essional
ĠV S
nucle otide
Ġsacrific ed
G ibco
Ġma is
Ġmarg ins
ĠC ensus
Ġcancell ed
al anine
In iti
Ġphyt ochemical
Ġun fortunately
re levant
b acterial
ĠL ag
Ġeth yl
ĠHL H
ĠLine ar
Ġhuman ized
in ar
Ġf ut
ĠI H
ĠAD E
Ġnavig ation
ĠPro b
Ġp ione
Ġwithdra w
or ption
Ġstock p
Ġflavi virus
Ġbro th
Ġemph ysema
With in
ĠLegion ella
ĠInte llig
Ġno isy
we et
Ġshorten ed
ast atin
Ġexpos ing
ĠHere in
p yr
recogn ized
Ġst a
hal ten
I BM
ĠB RD
ipher al
p age
ab a
medi ate
Ġconnected ness
Ġproc urement
cent age
urg ence
Ġlist ening
Ġexch anges
ĠInte rest
Ġpel lets
Ġimmun ost
Ġthreat ened
ĠD Nase
C al
Ġb zw
ĠS OD
Ġly tic
ĠEr ror
ĠE I
Ġinv ading
Ġtun ing
ne h
Ġcer tification
Ġpack ed
Ġc itation
Ġassess es
ĠAc tive
Ġaqu atic
Ġle x
Ġvide ocon
c iones
Ġover coming
ĠFor ce
Ġcross ing
ĠDD X
u w
ic lovir
Ġfri end
ab an
Ġre forms
Ġco uples
Ġventr icle
ĠGS K
ĠB es
ĠCoronavirus es
Ġ26 0
ĠW B
Ġun met
12 7
Ġepit helia
P red
ĠH ajj
Ġmulti l
Ġsing ular
c king
p and
ur ren
ĠM n
Ġtr ab
ĠJ H
b ank
50 8
l ining
Î¼ L
ĠCardi ac
G ly
uc iÃ³n
ĠIR ES
Ġc yl
Ġest a
Ġenlarg ement
et ting
ĠP rop
11 6
ĠCol umb
ben efit
ol aryng
ĠNew s
Ġultra violet
ĠWhats App
Ġg ait
ĠEf fective
Ñ Ĥ
te f
Ġed ited
Ġi vermectin
Ġstom atitis
Ġcol onic
ĠBE RT
Ġintra operative
ĠCD V
Ġimmob ilization
Ġreplic on
Ġc antly
Ġrecogn ise
Ġdynam ically
sc an
Ġintran asally
p ol
as ant
Ġl ining
ĠS cop
Ġge ography
Ġinsec ts
Ġan ecd
ĠM AS
ut ory
st an
Ġexc iting
ĠT re
Ġsul ph
ĠFlor ida
ĠT i
ĠI HC
Ġdis position
ĠG astro
Ġcat ech
ĠPr EP
ud an
Âµ L
Ġcl athrin
vid e
Ġinfusion s
Ġinstruct or
p one
Ġan omaly
Ġco oking
Ġpolyprotein s
ĠDul becco
G o
SA S
assemb ly
ĠM ont
Ġdoes n
ĠCour t
Ġdis k
ĠN PI
ĠPl ate
rect omy
Ġa ids
ĠIC S
Ġorth olog
ĠAL L
erc k
prot ected
ni h
omorph ic
ĠAc ross
Ġdiss imilar
Ġempir ic
Ġbuild s
Ġparticip atory
Ġcomb ating
Ġvoc ab
Ġâģ Ħ
Ġphosph atidyl
Ġvig orous
ge vity
Ġpolyp eptides
od erm
Ġat tainment
cl erotic
ĠS AA
racycl ine
CA CA
ĠStr ong
ĠAt l
P oly
OC K
for der
inter quartile
ĠT om
Ġoper ates
NC LUS
Ġheter ozygous
ĠCor relation
z hen
us er
Ġen acted
Ġcoord inating
ĠE Cs
Ġ13 7
Ġtoile t
ĠS PE
all s
Di agn
Ġâ ľ
Ġcam eras
Ġultras on
Ġtes tis
Ġpredis position
Ġover seas
Ġhypog ly
ĠT c
Ġg one
R AS
U SA
por ter
tern ational
ĠSt ata
Ġprotein uria
Ġbas ically
Ġepic enter
Ġl anes
er ic
Ġrestaur ant
rom y
commun icable
ĠClostrid ium
Ġden ied
Ġs ows
j i
Ġvit amins
sur face
ĠN ine
Ġst aging
Ġen force
Ġcan ce
Ġinter cept
Ġstiff ness
Ġout we
n atural
Ã¼ ber
ĠA po
ud a
Ġgra fts
M in
ĠD ros
ĠAl together
Ġmultim odal
coupl ed
Ġth iol
amil ton
ĠN AA
20 1
ĠT D
adj uvant
Ġformal dehyde
Ġl n
af ood
ĠQ IA
au er
arbon ate
Ġco arse
ins tit
Ġaccept or
Ġpredis posing
Ġbat tle
ĠD N
Ġped est
Ġuplo aded
V S
k ens
at om
id ation
Ġst ark
Ġsu it
Ġhead s
Ġepoch s
Ġpenet rate
Ã ¿
eto oth
C an
c ourse
ĠM art
Ġch ills
Ġpsych ometric
Ġ13 3
Ġla id
Ġdistill ed
ild en
Ġdisrup tive
Ġfundament ally
ĠL u
12 9
ec ed
Ġlab elling
M G
ĠS earch
ograph s
Ġ17 5
ĠExperim ents
Ġsur pass
ĠC TA
Ġdisc onn
ĠEn h
Ġalternative ly
Europe an
Ġb ull
Ġass emble
ond e
ok al
IC S
act am
vi e
Ġintraper itoneal
am o
Ġre de
Ġall ograft
Ġfurther more
w ind
Ġer hÃ¶
Ġc ards
Ġdec ompens
ĠFunction al
Ġsph ing
c n
k le
14 6
so ver
ĠSe vent
Ġdepri ved
ĠD U
Ġr he
ĠPer formance
ocys ts
ĠColomb ia
0 11
S PSS
we is
Ġcathe ters
ĠIn clusion
GAA AA
ine arity
Ġpar ks
bott om
Ġdesc ent
ĠBl u
H ub
press ant
Ġef flux
enc l
Ġbl ast
pre hen
on ine
Ġre ovirus
Ġspati otemporal
d b
Ġv aricella
Ġprogress ing
Ġcarb ap
A u
icro bial
und en
Ġmet ers
Ġdiag onal
Ġcontro versy
crib e
ĠRec ogn
Ġjour ney
an tigens
ĠF GF
tif y
Ġchim panze
ĠU PR
Ġpre treated
ap ine
ĠVir tual
B H
ĠâĪ Ĥ
ĠED s
ĠB or
Ġdeg rade
bi Ã©n
Ġband width
Ġredund ant
yroid ism
Ġentrepreneur ial
ĠPro ced
nah men
Ġpro drug
Ġ(+ )
ĠW altham
Ġneutral ising
ĠPrim e
Ġds DNA
Ġstrand ed
em p
yc ycline
Ġ15 5
ĠÏ ª
Ġg ast
ĠV ZV
rec tion
Ġancest or
ĠOut break
ol ization
ĠE L
a emic
Ġwe ite
ĠG mb
abor atory
Ġmed ial
Ġobstac le
Ġst ating
Ġpreced ed
pec ting
ĠP CI
eng es
0 16
ĠE LI
ĠC ost
Ex per
m iddle
ĠB I
eli very
Ġconve x
Ġc uff
Ġb ip
Ġmil ieu
ĠS ie
ĠPh osph
j a
ĠTaq Man
ied er
ost on
Ġterm inated
0 13
H ist
ĠUn ter
Ġalarm ing
R NP
Ġmagn ification
Ġprost agland
g amma
Ġvor tex
lymph ocyte
Ġrecre ational
Ġaspir ate
per formance
Ġinf rared
Ġsc anned
ĠRes ource
ag ers
Ġassoci ates
Ġharbor ing
Ġdi ary
ti ter
Ġs onic
Ġaut oreg
ĠHT LV
L o
Ġv oting
ĠH AV
Ġlenti viral
si ella
ĠM ag
Ġli ability
Ġbio aeros
Ġgen uine
Ġout lets
Ġpre processing
ĠH ier
Ġstri p
] ).
diagn osis
Ġinfrastruct ures
ĠUr ban
Ġco valently
Tri als
ĠR ich
work ing
Ġb olus
AG CT
ĠCons ent
Ġment ors
Ġoptim ism
et erm
Ġpul l
Ġrub ella
K G
erm ark
b uilding
ĠE O
Ġsh aking
ac ial
Ġmyocardi um
ĠHE PES
Ġend osome
s ector
Ġcolor imetric
Ġbacul ovirus
ĠTra ditional
ol ateral
Ġconsult ant
ĠH N
Ġhapp iness
ĠI PA
Ġevalu ates
ĠCol or
ĠHP IV
unc ture
igh ter
ĠCom plete
P lease
ĠRes ponses
Ġsimpl ify
ox ia
Ġabol ished
Me an
Ġhop eful
Ġimmuno assays
Ġrend ered
p at
ati zed
Ġdi re
AS E
hal ation
Ġham pered
Ġguaran tees
Ġundes irable
Ġnan ostruct
Ġdysfunction al
ĠDel hi
Ġemit ted
Ġla unch
/ (
ĠD TT
ĠReg ulation
Ġvic inity
b on
Ġpresent ly
Ġeti ologic
ĠYou Tube
o form
Ġcycl ospor
occ up
Ġsar coma
ĠH en
hol ding
Ġunw anted
Ġ9 00
Ġexperiment ation
Ġsplen ocytes
Ñ Ģ
ur ium
Ġenter itis
Ġdraf ted
Ġt ips
Ġover fitting
rop od
ĠTrans port
ĠDist rict
Ġveterin arians
ibr ated
u vent
Ã¤ ÃŁ
Ġaff iliated
Ġin ject
Ġapproxim ated
Ġcm H
Ġdecentral ized
Ġpe ut
Ġgo ats
Ġrein forcement
ĠGmb H
Ï Ĩ
molec ule
Ġche ap
Ġcurv ature
Ġmonit ors
Ġwithdra wn
efin ite
ĠB ody
Ġg rup
Ġhabit ats
Ġcomp ulsory
Ġnecro tizing
Ġconce iv
In cre
Ġdim ers
Ġneoplas tic
Ġinstant aneous
ic ate
Ġjun ior
T e
ĠTri als
Ġgranul ocyte
Ġmo unt
S CT
com plex
Ġovers ight
ot r
iven ess
oprot ective
ĠB ureau
Ġimport ation
ĠNO D
o tically
Ġbiot error
Ġantiser a
op rote
Ġautocor relation
Ġcann abis
Ġshield s
P ublic
E Cs
Ġ14 7
Ġextension s
Ġanaly zer
H BV
Ġst yles
ri er
pe ak
Ġ2 30
Ġless on
Ġaspir ates
iment in
abol ism
Ġp ep
st atis
Ġpo res
Ġrefug ee
S chem
fact ors
Ġcolle ges
ĠR EV
Ġconjunc tival
unk tion
Ġup coming
11 5
ĠGu inea
I denti
im ental
ĠN ip
Ġexempl ified
u i
Ġend ocytic
Ġarg u
Ġclass ifications
Ġground ed
ĠP N
Ġse aled
ĠR out
c NAc
os up
ub icin
Ġeffect ors
Ġcomment ed
Ġcapill aries
Ġo h
Ġg ard
kin in
M N
Ġanaesthe sia
Ġcaro tid
o ints
Ġdu plication
Ġcultiv ated
Ġso y
g ression
Ġar ts
Ġsegreg ation
Ġresemb ling
Ġm t
ĠD anish
Ġwell ness
pergill osis
m ix
aus al
lamydi a
Ġpred nisone
spe ed
Ġconting ency
Ġprospec ts
ĠO d
IR B
ed er
Ġac oustic
ĠL ack
Ġer up
Ġune ven
ĠRel ated
Ġfl ies
Ġprim ed
des cribed
Ġtechn icians
op rol
Ġgu ardi
Ġf rec
Ġnan ob
Ġhar ness
rous al
ĠL U
Ġqu it
ok er
nis se
l ocation
Ġp ra
amil ies
E CT
Ġ3 20
Ġ16 5
W D
ĠHer pes
ari um
Ġ13 6
Ġcirc adian
with standing
G olgi
ord s
Ġappreci ation
ĠAdv anced
im od
Ġ15 00
un s
Ġmeta ph
Ġquad ratic
it Ã¤
ĠN EC
ĠTu key
E nd
ĠEpidemi ology
arch ing
Ġselen ium
Ġlept in
ĠW ritten
12 6
Ġwa ived
Ġsuperior ity
ic ial
14 3
ĠAt g
leb siella
Ġnasoph arynx
f und
f ood
et t
ĠAm pl
Ġacceler ating
w t
ĠS upplement
ĠM iss
Ob jectives
T F
k o
Ġconf ers
Ġderiv ation
ĠA NN
el es
ib ers
Ġout standing
Ġcom me
ha z
onit rile
ĠV ictor
ode grad
Ġconc aten
Ġc AMP
ec lamp
ĠT ub
if en
od g
oc ular
K ey
Ġpost mortem
Ã¤ nder
Ġlegitim ate
Ġfrustr ation
et tes
Ġconver gent
Ġcon str
ĠI MV
Ġn al
t ech
ĠU nd
11 1
ĠCI s
Ġinternal ized
ĠR os
ĠB rit
W C
ug s
Ġdep ict
par ation
Ġo val
Ġplan et
Ġsym pathetic
Ġsc RNA
oun ting
Ġbr ack
in nen
Ġpro thrombin
Ġsepar ating
le ad
Ġgly cemic
â ĸ
tim icrobial
Ġl amin
Ġ13 4
Ġperturb ations
trans fection
ĠLe e
Ġk onn
Ġpeculi ar
Ġs ays
ier ra
ak ter
i osis
ies is
Ġsimpl est
ĠZe it
) "
ĠI HR
ay ed
ĠM x
ĠE pit
ge w
ĠHep G
ĠL O
Ġsex ually
Ġdeduc ed
Ġearthqu ake
ater n
Ġtag ged
Ġsplic e
cal c
Ġprecip itated
Ġcomprom ising
repres ent
ir teen
ĠD iv
trans formed
Ġp u
qu are
Ġp ets
Ġour s
ĠCom plex
Ġful min
Ġsleep ing
Ġfold ed
ĠHF NC
re ference
Ġcircum vent
Ġpredict able
Ġspectrom eter
Ġexagger ated
trans lated
Ġfoot print
op res
ĠCT D
hep atic
Ġopi oids
Ġpass es
Ġcurric ula
al og
Ġcirc uits
Ġassign ing
Ġaccum ulating
Ġpap ain
fat ality
e ks
Ġ16 8
Ġaler ts
ec an
ĠD ar
Ġenter oviruses
Ġper ox
ple ural
ĠCh ris
ĠCB T
b ital
ass en
Ġwarm ing
ĠSt ock
Ġ13 9
r ically
T a
ĠB eta
Ap pro
Ġind istingu
ri ad
Ġphilos ophy
Ġinc ar
oid osis
Ġimpair s
Ġpr ud
Ġor f
ic ol
Ġbes te
andem ie
ĠNA FLD
Ġescal ation
ĠN early
PE DV
Ġencod er
re ment
ad emia
ĠC op
ĠO B
ten si
ĠEnter obacter
Ġre bound
20 24
Ġdemocr acy
Ġs ake
Ġro lling
Ġput s
Ġverte brate
ĠT umor
ĠM Y
Ġmetagen omic
Ġamen able
qu in
Ġsp irom
im um
Ġsept al
P AR
Ġo ok
Ġbi ore
Ġhydro xy
Ġadvis ory
Ġpremis es
Ġkey word
Ġnm ol
Ġga uge
Ġannounce ment
Ġintensi v
Ġins piration
Ġdisag reement
Ġlever aging
ĠFif ty
ĠSTEM I
Ġsuppl ier
ĠPhys icians
Ġin timate
Ġk on
ur nal
Ġis lands
ĠL ig
Ġidentif ier
Ġevol ves
Ġappendic itis
al bumin
Ġon wards
Ġod or
Ġlever aged
i ors
oc in
Ġair line
he t
ĠG reek
ĠCh o
ĠÃ ¤
ĠHe ad
v ac
ĠInter vention
Ġpolar ized
R ed
Ġt icks
Ġ19 94
Ġper f
ĠDV T
Ġsc Fv
Ġconstit uent
Ġp cDNA
ĠN orm
ĠV V
L ast
Ġhe pt
0 17
Ġintegr ates
Ġfree zing
Ġr amp
Ġev apor
Ġcompati bility
Ġs igm
ĠG SE
CT CT
Ġj ump
ad ministration
ox icillin
us tice
Ġcl ick
ĠS everity
Ġarri ving
phag ia
ĠT f
Ġtransfer ring
e valu
ust rial
Ġdestroy ed
en tion
Ġimper fect
Ġexhaus tive
Ġille gal
c g
ĠA EC
ĠThe ory
id os
yp tic
Ġ.. .,
us tion
Ġmotiv ate
Ġcour t
Ġconver ge
sur gical
main ly
press ants
C yt
Ġant eced
ĠT ox
Ġsudden ly
Ġrepos itories
Ġnavig ate
20 9
ĠJ ew
Ġhe s
Ġfoll icular
ĠDop pler
c ases
Ġform a
ace tic
or se
Ġw ages
Ġst ro
ĠD omain
Ġgeneral ize
v oc
ĠCo hen
Ġhomogen ized
Ġl ith
od ia
ĠV GG
ĠRepresent ative
ĠK im
ol ig
rib uted
C are
g ood
Ġdis hes
Ġim pressive
Ġglut amine
- /
Ġs antÃ©
Ġc iliated
Ġmin k
Ġab rog
Ġdeb ates
ĠB CR
Ġv ocal
Ġins till
emerg ing
in formed
ĠPer ceived
chall enge
Ġpers u
Ġp fu
ĠT ab
Ġanaphyl axis
Ġher bs
ocardi al
ĠPro position
ĠNur sing
Ġmaxim izing
Ġcontin ually
Ġbro w
ĠFl avi
Ġsucc umb
p c
Ġfin ished
âĪ ¼
ĠW ik
Ġunc overed
ĠVacc ines
11 7
L Y
Ġmim icking
Ġcommens al
Ġin tim
0 19
Ġse hr
ĠE GFP
ĠSt aff
Ġinter cellular
ardi zed
16 5
ĠEl se
Ġpoison ing
Ġlogarith mic
N ow
fe ed
ĠTC Z
Ġstrept avidin
ĠMed ia
c oded
Ġlif ting
chlor ide
14 2
ĠRe v
m M
reat ing
Ġiniti ates
ĠME D
oxygen ase
Ġwhe at
Ġsub family
Ġcardiomy ocytes
Ġsoll te
ĠA Q
ple ted
Ġstrugg ling
Ġpock ets
it tle
ĠR C
Ġtri vial
Ġlon gevity
ĠÏ ©
ocys tis
ferenti ated
Ġpe oples
Ġhot els
us ually
ĠPh D
Ġsuper family
Ġfer mentation
ĠGroup s
ĠBlu etooth
d at
ĠM K
ĠN OS
Ã¼ n
Ġsal ary
ophil ia
Ġautophag ic
Ġfores ts
Ġo cean
Ġpro kary
Ġb oy
ot onin
ĠF CS
li ament
Ġlum inal
ĠBas ic
Ġconsul ting
Ġh rs
z if
si p
Ġurban ization
Ġsay ing
Ġ14 2
Ġmidw ives
Ġthe or
ĠK i
Ġsm ear
Ġguid es
ĠS ex
ĠPsych ological
ĠS um
ĠAl a
este em
000 2
ĠIC H
Ġcompan ion
occur rence
Ġcon vention
Ġpair ing
h ous
Ġtime frame
Ġess ence
Ġpenal ty
Ġdile mma
ĠR BM
Ġantiser um
Ġdecis ive
be fore
ĠA Y
Ġres ume
Ġsubs ection
0 18
ĠĠĠĠĠĠĠĠ ĠĠĠ
Ġdef enses
Ġreported ly
Ġanticoagul ants
Ġa ument
Ġw al
is p
Ġreal ization
Ġsw ift
Ġrevers al
ĠA TT
Ġstr ata
ĠEpid emic
at eness
Ġro oted
Ġtext ure
Ġtoler ability
ĠUl tra
Ġgeneraliz able
Ġaort a
G CC
or adi
ĠOr ig
ĠRemark ably
Ġa vid
ĠA RF
og a
ĠRes id
Ġeduc ate
Ġop position
ĠSep sis
Ġhist ogram
Ġemploy er
Ġimmun opathology
T CG
c urrent
own ed
Ġphen ol
Ġsh ielding
centr ic
ĠI MP
ĠWe ek
Ġe ast
ur t
Ġmedian s
Ġc ient
Ġel usive
Ġ14 1
Ġglyc ol
Ġris que
ad ren
Ġprob ed
omb re
Ġsplit ting
Ġtransduc er
Ġextr insic
c ur
ĠA Î²
her ry
Ġdirect ors
Ġbat ches
as opharyngeal
Ġsub t
ĠÎ ¶
Ġele ven
Ġperson ally
ocy cl
Ñ ģ
ĠEnviron ment
Ġstew ardship
ĠD efinition
Ġhist amine
Ġam ide
Ġcreat ine
ĠAp plied
Ġbre eds
c ross
ĠF CV
ĠIs l
Ġw en
Ġcons ortium
Ġconsolid ations
Ġmarginal ized
ar coma
Ġde als
ass a
U b
is ti
ĠM uc
Ġun adjusted
PE T
Ġchrom osomes
Ġss DNA
ces sion
Ġcompe tit
Ġviol ent
Ġamelior ate
Ġin organic
13 5
NT R
uclide an
Ġwork flows
e volution
Ġd an
um ping
Ġdel iber
Ġhom ogenous
Ġcrow ding
Ġspe akers
ĠEf fects
glyc osylation
ul itis
ĠIF A
Ġimag ine
Ġs anc
Ġg ift
Ġmal ad
Ġoligomer ization
Ã ħ
se lective
Ġau tism
ĠFin ancial
Ġquar tile
Ġfra ud
Ġas oci
enc iÃ³n
Ġsem en
____ ____
ne ur
hal b
i ph
g ated
ĠÃ ģ
Ġphosph o
oster ic
ĠS CD
enc ial
Ġbe ef
ĠThere after
ĠAg NPs
LD H
Ġhorm onal
ĠUs ually
" :
ex tr
che str
Ġm ag
Ġpro line
ĠArgent ina
4 17
ĠH amilton
Ġ15 2
Ġimped ance
ic us
her in
ĠG od
Ġgood ness
Ġafford ed
ĠCommun ication
Ġcartil age
ĠI NF
Ġlay out
dim ethyl
Ġprohib ited
Ġh ay
Ġ( )
} .
Ġoverl aps
Ġh osted
vi ties
PS Cs
Ġir rig
in ators
Ġimmun ology
Ġpsych ologists
Ġunre li
u elle
pati ble
Ġlo ans
lob acter
ĠAp plication
Ġal ike
Ġz ip
Ġquestion able
2 20
Ġd orm
HC Q
Ġgown s
Ġfung us
Ġanesthe si
Ġ OVA
Ġd ens
rup pe
Ġsib lings
Ġn aked
Ġint rap
tr id
Ġut most
Multi ple
Ġearning s
Ġde xt
ĠCor responding
Ġide ation
Ġsulf ur
am en
ĠAP ACHE
ge ons
ĠY ear
Ġsl ip
Ġsan itary
Ġmoun ting
ĠC HD
Ġambig uity
Ġread out
Ġf ellow
Ġag itation
Ġcarcin omas
Ġexplo iting
Ġ14 8
TAA AA
ns ic
t in
Ġo titis
be havi
Ġbul b
ĠD own
Ġ4 000
Ġsol vents
ĠIs olation
AN OVA
Ġb ored
11 4
Ġestabl ishes
ĠO h
ack son
Ġrap port
g re
ĠGe org
ĠWe ib
ĠK lebsiella
ch ip
Ġref used
Ġbrain stem
Ġopen ness
Ġfu els
ĠS PI
w in
ĠS J
of ovir
Ġentit led
ĠJohn son
Ġalloc ate
ĠS ha
uch t
Ġcustom ized
Ġcass ette
ĠR L
Ġcompos itions
Ġequi valence
Ġmir ror
} ,
met rical
ter isk
ĠA h
Ġwh atever
ĠJ ac
E d
Ġargu ably
Ġt au
Ġcon fluent
ĠP HE
E pid
Ġabsolute ly
Ġambul ance
L ys
P res
Ġcur ated
Ġsix th
sus ceptible
Ġidentif iers
ĠAMP K
Ġto kens
ĠMob ile
om men
Ġdil ated
Ġmamm ary
Ġsmooth ing
c ia
d pi
Ġa venues
Ġretrie ve
om ide
Ġuncom plicated
Ġrelie ve
Ġcub ic
Q A
ac a
um ine
ĠFIG URE
ogene ity
ĠP ID
tim ulatory
Ġneph ropathy
hy brid
fact ual
ogg les
ĠA x
Ġvolunt arily
iagn osed
sh aring
Ġgrad uates
Ġg rief
ĠM ouse
Ġoste opor
r um
Ġoil s
amb ig
ĠAtt ribution
ĠsÃŃ nt
" -
j u
Ġdispl aced
ĠElectr onic
ĠCEA CAM
ati veness
ĠColumb ia
Ġl umbar
Ã© qu
tiv en
ĠL and
Ġredund ancy
Ġpro position
ari os
Ġ14 3
ĠLeu k
ĠWind ows
Ġinc omes
p al
tim ulation
ĠGen es
Ġpolymer ases
DM EM
Ġnon etheless
Ġsyn ergy
Ġbiom olecules
Ġh ij
om mun
ĠC z
Ġr t
Ġax es
Ġi NOS
ĠMy D
ĠCh ap
Ġconnec tive
Ġasym metry
an ch
um ulative
Ġ) :
Ġ15 1
Ġundert aking
ter a
Ġun equal
int ro
Ġradi ologic
G N
Ġcollabor ate
Ġrh abd
g in
an imal
ĠS Ã£o
Ġde formation
Ġdi ameters
MS C
ser vation
Ġpack ing
= .
lab elled
Ġhub s
ĠSD Gs
CR T
. (
rex ate
Ġbo osted
Ġcompens atory
Ġanth rax
or ically
Ġas pergillosis
pro ced
Ġdepend encies
ĠIm plementation
Ġsl iding
Ġeffusion s
Ġeigen values
ĠMad rid
Ġm uest
Ġbi odegrad
Ġcar s
u itive
Ġ15 3
Ġzoon oses
C omp
ĠS ierra
Ġtrans duced
ĠMg Cl
ĠF OR
Ġadequ acy
ĠD API
ĠACE I
z y
er ad
Ġtest osterone
Ġorth ogonal
Ġdenom inator
v entricular
at rol
Ġ2 25
Ġsim ulating
Ġhem olytic
CAA TT
Ġpossess ed
ĠEle vated
di rect
Ġlock ed
omer ase
Ġauthors hip
ĠRec ombinant
y lobacter
Ġle an
Ġmac aque
ĠNe utrophil
Ġth ri
tain s
p f
ec om
ĠSus tainable
ĠAst hma
Ġparad ig
d y
Ġar bo
Ġcontain ers
B SA
ls bad
ĠOf ten
Ġholid ay
ĠC ov
u el
ĠM TT
omer ic
Ġp ays
po or
Ġnecrop sy
Ġweaken ed
ĠR i
Ġwat ching
Ġintens ified
ul er
ĠH AP
ĠG a
pon ents
Ġ14 6
Ġmus s
ac il
ĠP ap
Ġinv ade
ĠThrough out
co in
ding s
Ġanti hypertensive
es ophageal
Ġ15 6
Schem e
Ġtoxic ities
ri z
Ġcomprehen sion
ĠP GE
Ġim posing
Ġneuro trans
Ġlam ina
l iter
ĠT RS
ver atrol
ĠB ern
Ġcycl ophosphamide
trop ic
ra it
ĠPE D
Ġtit rated
b ot
Ġtwo fold
Ġintegr ative
Ġasynchron ous
Ġanten atal
Ġinfiltr ating
ich tig
Ġur tic
Ġrestr uct
our ism
Ġmy riad
Ġve ins
ĠMich igan
b our
b acter
ĠS ter
Ġcomm uting
Ġsim ulator
Ġatheros clerotic
ov ine
cast le
ĠF DR
ĠB uilding
Ġsumm aries
random ized
as ure
ĠC aco
se lectin
Ġantioxid ants
Ġrhino viruses
ĠCo hort
m ixed
Ã ¢
Ġfor get
In fluenza
Ġcytos keleton
Ġcompens ated
Ġorgan ised
ryst all
d rop
Ġsh RNA
Ġpur ple
Ġtol erate
or tal
Ã¤n g
ĠOnc ology
p regnant
w estern
Ġw aren
produc t
R H
Ġt een
Ġl M
eu x
Ġtrap ped
+ /
DS S
ME D
Ġrich ness
st V
VE GF
Ð¾ Ð
Ġgrid s
ĠH aw
ort heast
ĠAP Cs
Ġfacem ask
R M
ran ch
Ġbiof il
ĠNip ah
ĠO CT
Ġprefer ably
K S
Ġ15 4
Ã¤ s
AD E
ot in
Ġhal t
Ġindistingu ishable
Ġfor t
Ġdiscontin uous
Ġf unc
ĠProgram me
Ġevac uation
Ġenter tainment
ĠRel ations
P ost
z el
od ds
Ġfunctional ized
Ġresc ued
Coronavirus es
Ġand eren
Ġanti de
. :
Ġstat utory
Ġ16 2
Ġunexpl ained
Ġout lines
ĠRes ources
Ġbacteri ophage
Ġus o
Ġint olerance
Ġoxid ized
Ġviol ations
Ġmoist ure
Ġpolymer ization
ĠAg reement
Ġshel ters
Ġint end
ins ically
pharm ac
ĠÃľ ber
umann ii
Ġinc ision
Ġcl ues
Ġre flux
ew e
Ġpi per
b st
Ġsymb olic
R isk
r ons
Ġelement ary
Ġbag s
Ġdeterg ent
0 21
R a
Ġass ure
ĠIF I
ĠAd verse
ens ory
Ġanonym ized
Ġbic arbonate
Ġw rap
der n
raph y
Ġanaly zes
ĠAP N
Ġw atch
ef ficiency
NT D
Ġsper mat
ĠEx tr
Ġdep ended
Ġfamili arity
ĠB rown
ĠO SA
Ġtri phosphate
L eu
E qu
Ġas ide
ĠG rad
Ġloc ate
Ġcomplex ities
Ġsg RNA
Ġperiodon tal
Ġconf ront
AR B
Ġcomb inator
Ġdeb ated
Ġconstitutive ly
ti ques
ax ia
200 4
eu tics
Ġstat in
it in
Ġidenti fic
Ġra fts
alle y
c igare
ĠM r
Ġnon parametric
Ġhyper inflammatory
Ġd d
encl ature
re onine
ĠL PV
Ġth irty
Ġinstit uted
Ġsh ot
Ġencour ages
auc oma
ĠShen zhen
h ard
yp ti
Ġsem inal
ĠStand ards
sc ores
NV s
Ġmetall oprotein
ĠâĬ Ĩ
ĠV D
Ġmarg inally
Ġb idirectional
Ġh anta
ur ious
et us
Ġle ur
ĠSus ceptible
i ation
Ġchrom osomal
ĠCV B
ac ion
ĠT L
ĠP arents
Ġre taining
ysi ological
Ġdivers ification
Ġn c
Ġge omet
ĠAb stract
diagn osed
ĠE PA
Ġmater nity
Ġdispers al
Ġin ad
Ġco res
Ġcommit ments
Ġavi ation
arib bean
ĠB oston
Ġsal ts
Ġn CoV
d RP
Ġneuro inflammation
ĠS ER
Ġobser ver
yl ase
we i
Ġpor ts
og e
bid ol
Ġsens ation
Ġreper fusion
Ġan astom
ĠC BD
ĠChe ck
Ġv ibr
Ġshorten ing
200 3
Ġalkal oids
Ġ( *
pro duced
c old
Ġanthrop ogenic
ĠIg Y
Ġsex es
epit helial
t Ãŀ
Ġsup pose
Ġdrop out
Ġadvance ments
Ġerythem a
ĠAT F
Ġa ce
im idine
lie ÃŁ
W ork
m outh
Ġd izz
ch annel
ĠÃ º
C itation
n at
ĠR un
ĠCons ortium
ĠGreat er
S w
el ong
AC V
ĠCa rol
Ġtach yp
Ġincar cer
ĠK al
ĠOut come
Ġunfold ed
ĠDros ophila
prim ary
reg ional
Ġent hus
Ġdat os
ĠStrateg y
h ACE
Ġres erves
HR P
o ylation
Ġhotsp ot
Ġtext ual
ĠB F
Ġrepro gram
lo x
in st
Ġmanip ulate
B ox
Ġpor ous
Ġlist en
Ġadsor bed
Ġjuven ile
ĠF OX
ĠE MR
ip e
Ġcol ds
ĠReg ression
Ġtrave lling
Ġ16 6
Ġbrom ide
Ġplasmin ogen
a ro
Com pared
Ġentrepreneurs hip
Ġpremis e
erad ish
isol ate
ĠHu ang
1 12
te ur
eclamp sia
Ġhyd ration
Ġ15 8
Ġcompl iant
Ġlegitim acy
od ic
ap arin
Ġ14 9
Ġutil isation
Ġpick ed
v ec
ĠCh rom
Ġown ed
ĠChAd Ox
ĠTr p
Ġba umannii
Ġco iled
ĠD un
Ġbi oc
Ġb od
Ġ19 50
ĠPR V
ĠIS O
U M
Ġutil iz
pre pared
ĠJ er
ĠInte grated
Ġdo ff
ĠAd vis
Ġcoll ateral
N evertheless
Ġwe aned
ĠE ch
ĠB u
ĠAn tiviral
Ġperiod ically
Ġeven ing
Ġ48 8
vis iae
Ġglyco lysis
Ġacc idental
ĠJ iang
us ts
Ġclass rooms
Ġasympt otically
Ġextrem ities
Ġsurpr ise
prolif erative
Ġro y
Ġher b
bo ost
N GS
w ij
GA GA
ti er
Ġre putation
Ġco il
ÃŃ fic
h arm
ĠH ost
Ġlike wise
Ġsinus itis
Ġam ine
ĠK ont
Ġhyper inflammation
Ġhem olysis
ĠLM WH
Ġcre w
i us
pt in
Ġdev ised
ĠA min
Ġk V
Ġa Ã±os
IF IT
ir t
Ġfl our
Ġterr itorial
U A
ĠC ruz
ĠLevel s
ĠPr incip
Ġun co
Ġsum med
ĠT CA
Ġpro tr
m ild
ĠFour ier
Feb ruary
Ġbrid ges
Ġextrem ity
Ġl aryng
ra id
Ġinstruc tional
et hanol
ues e
Ġparticip ates
NT s
Ġpal mit
Ġdoubl ed
Ġre ject
ĠV erb
ĠDec re
ĠFort unately
ĠNur ses
ĠB usiness
Ġtr as
ograph ical
Ġcarbon yl
gluc ose
y V
d il
Ġafter wards
Ġsuc k
Ġin mun
Ġbe ha
Ġbi en
Ġtub ules
Ġdos ages
yr in
Ġlog s
activ ating
ee ism
ĠInflamm atory
at tract
til is
ĠHaem ophilus
Ġ ],
erc ise
Ġim idazole
ĠF O
Ġaut onomic
ĠÎ ĺ
Ġprote olysis
ĠAmeric as
Ġanal ytes
ĠM UC
Ġman eu
ĠV OC
of ten
yc lovir
Ġvasoconstr iction
0 24
Ġre venues
Ġor chestr
Ġfo als
ĠC LI
ĠW ild
ĠRam an
it ance
Ġexc ision
Ġold est
olip ids
Ġcong ru
Ġassemb lies
ac on
Ġen erge
13 8
Ġim ports
Ġprivi le
j ust
ĠG el
ĠL H
200 8
book s
Eth ical
al co
Ġcollabor ators
O p
m ass
I RF
ĠT rop
ers onal
Ġse al
ĠU AV
in ducing
ĠC CT
Ġf fi
hen yl
och lor
Ġpericardi al
Ġbrad y
ĠM Ab
Ġjudg ement
ent es
Ġimp uted
ĠMAL DI
T CC
ĠB art
Ġlag s
psy cho
AP N
ĠDo es
et e
Ġret ina
Ã¨ res
Ġrin sed
le v
ĠEx cept
Ġrecur sive
Ġing res
CG TT
Ġstri ps
i D
ass essment
Ġdec on
Ġrecru its
immun ized
Ġhon est
ĠR ate
B o
W E
ĠS pring
an in
Ġfo x
Ġneoplas ms
prehen sive
Ġa eg
Ġz eb
ishman ia
Ġcritic ism
ĠA CC
Ġobser vers
vol ved
Ġ15 7
elf are
r ists
tis ch
ime tic
Ġbiofil ms
Ġmultif aceted
b ow
Ġpro d
tific ations
Ġeven ly
Ġtransl oc
ĠSh ig
ĠNCD s
Ġinfl amed
ĠNetwork s
Ġres urgence
Ġvocab ulary
Ġap nea
ĠNY C
it ch
in ters
H ep
Ġde ferred
Ġr Ã©s
Ġpsychiat ry
ĠL RTI
iction ary
od ec
Ġund iagnosed
Ġtra dition
Ġcan al
Ġbacter icidal
ĠSc heme
5 12
Ġcol chicine
Ġincub ating
si vity
ĠQual itative
ï ¿½
ĠM ale
ĠHealth y
ĠMil an
m ond
Ġcontr asts
Ġpass aged
Ġreplic ative
ĠD PI
ĠLe one
Ġaccount able
X R
ĠF H
f ixed
Ġch air
Ġverte brates
Ġreconstit ution
F BS
at osus
Ġac ademia
d t
s ampling
ut aneous
ĠL ew
Ġintest ines
Ġalumin um
c ognitive
ĠE ID
Ġtes ticular
26 4
Ġcogn ate
Ġsuperim posed
pl anned
Ġrepro duced
Ġqual ities
ĠPer iod
Ġdox ycycline
Ġtrypt ophan
Ã«n ten
ch aft
sp read
um en
Ġ19 93
ĠP AS
Ġtra v
Ġfor cing
ĠA SA
ampl ed
yl ic
Ġcros sover
Ġl ove
Ġcur ation
ru vate
ĠO ly
Ġchar itable
vari ant
Ġ %).
ĠS SA
A nd
Ġpres ymptomatic
Ġinstit utes
Ġshop s
Ġascertain ed
Ġcorrobor ated
ĠC ellular
Ġin version
Ġpre jud
ĠP aste
Ġhealth ier
Ġrem inder
ĠCon ference
iat ry
Ġk ur
Ġachie vable
Ġpued en
z in
ĠE ins
S G
Ġdiscover ies
Ġuns uccessful
Ġc yn
ord ed
Ġonc ological
Ġdeterior ated
Ġrearrang ement
ĠS EC
Ġpres ident
Ġprevent able
Met hod
Ġphospholip id
ĠWh y
Ġadop ts
Ġk a
Ġvo ices
ĠL N
Ġ18 5
Ġsuppres sive
ĠConcer ning
ĠR DV
ĠB O
ĠP age
Ġjo ining
Ġleuc ine
Ġstro kes
Ġb oc
Ġtet ramer
H ence
ĠR ah
we ets
ibro tic
ĠR ights
V i
pl atin
Ġhe me
Ġ22 4
HC Ws
Ġtempor ally
ĠModern a
Ġint ron
ĠMich ael
Ġtrans c
sec re
ariat ric
Ġpleth ora
Ġspec ially
Ġster ic
ĠM es
Ġprioriti zing
ĠS IS
Ġr am
Ġdur able
Ġinterfe res
i ens
p seud
ĠSt ation
ĠTB K
lob ally
Ġ î
Ġd well
Ġco x
Ġaut umn
iv il
Ġact or
Ġhapp y
Ġelic iting
Ġ16 9
ĠCar lsbad
F l
en eca
Ġillustr ating
C at
Ġcor ruption
ĠV C
Ġmis use
, '
an ning
Ġbl ended
Ġcomm enced
Q C
ĠU T
Ġmulti pl
C ontin
a Ã±
ac entrifug
ĠS ig
ĠTit le
Ġsy philis
ast y
Ġhis tidine
raf ish
S i
ĠB ere
Ġstring ency
mon itoring
produc ts
ULT S
a is
ĠB it
Ġveget ation
g ets
Ġf uc
ĠT U
ĠP ress
Ġaud itory
Ġjud ge
re ements
Ġh ung
Ġelev ations
ÃŃ nic
Ġassist ing
el o
Ġsynthe si
pd f
f emale
Ġf is
Ġen vision
Ġinser tions
Ġpal p
ĠB CV
Ġstar s
Ġlogarith m
IS H
Ġca red
h ab
Ġp lex
Ġan ion
Ġair lines
ĠQ atar
in ants
ĠE ar
Ġadvoc ates
A uthor
Ġf ue
Ġv entral
Ġadv ise
aj o
arth ritis
am inated
graph s
Ġunder lined
Ã¼ c
arb urg
Ġc age
TG AA
Ġconduc ive
oprop yl
TA C
her ing
pro be
Ġhour ly
Ġwe bin
ĠNan op
sc he
Ġd ÃŃas
ĠEn t
ĠLog istic
E r
Ġpro ving
st off
ĠE mo
Ġdeal t
Ġ20 8
t aking
ro c
Ġhistor ic
ĠFc Î³
ĠT et
ĠA LS
ĠP ack
** *
Ġmacro economic
zo ek
ag ine
Ã¼ ss
Ġhin dered
d f
Ġ16 3
ipro floxacin
ĠM ah
Ġcomplement ed
Ġmy self
Ġmuc oc
che id
ol arly
Ġs ized
Ġconduc tivity
Ġindex ed
ĠDec ision
Ġ20 2
Ġmulti functional
Ġcontr asting
Ġempower ment
Ġdelib erate
pl ane
Ġconvinc ing
C ys
ĠDies e
ĠTrend s
Ġmanus cripts
uter ine
ĠWh ole
Ġcompound ed
ĠPos sible
Ġperfor ation
] -
Ġ2 15
Ġpred nisolone
LA B
ME T
Ġunreli able
ĠS MEs
Ġse p
depend ence
ĠM ary
Ġappe al
Ġfulmin ant
ol uble
arg ing
Ġinduc tive
traum a
Ġw est
ĠS anger
Ġinclusion s
ul ae
Ġvi ro
Ġcere visiae
acr ine
ĠÃ ¿
Ġro ads
Ġsup ine
Ġtheat re
ĠF ield
inform atic
ĠB ac
bor der
ĠC AA
Ġexec ute
ĠJoh ns
Ġsar cop
ĠSA RI
ĠTim es
Ġhashtag s
ĠUn i
Ġinc ap
Ġhe ro
Ġsub acute
Ġmal icious
A ge
ĠN LP
Ġachieve ments
Ġoligodendro cytes
anc et
ĠComb ined
m ath
om otor
ers ed
odg kin
stim ulating
ĠScop us
Ġt ar
Ġtechn ically
Ġtravel ed
Ġsubcutaneous ly
Ġdizz iness
Ġ ib
ĠOE CD
Ġsla ughter
Ġin valid
Ġf us
19 0
Ġunder lie
ĠAd ap
Ġsal mon
ĠMa ximum
GG TAA
Ġtend er
Ġscal ability
ĠH sp
Ġall ergies
Ġcancell ation
Ġc in
ĠG rowth
ĠAd ult
olÃ³ g
ĠCz ech
le te
200 5
Ġsch ist
Ġthor ax
Ġl actic
ÃŁ nahmen
lo ok
Af ric
ĠSU MO
ĠUnivers al
ĠIde ally
Ġun structured
M ill
Ġby stand
fe ver
f ish
Ġm ur
ĠT MD
Ġdis abled
anc ia
Ġbur ning
Ġoutwe igh
ĠT at
ĠT HP
Ġneighbour ing
Ġbioph ysical
Ġv imentin
Ġfav oring
ĠCP U
tic ides
Ġshould er
Ġmis con
Ġanonym ity
Ġhemis phere
H z
Ġde be
Ġop posing
Ġphospholip ids
ĠB B
ĠSc hematic
Ġbus y
GTT TT
ĠS LC
Ġirradi ated
Ġfing ers
N TA
si ll
ibri ll
H b
Ġfum ig
ĠNSAID s
qu al
Ġmod ulators
ĠW nt
Ġproduc er
Ġcurren cy
Ã¼ ck
NT ech
Ġcry opres
Ġbifurc ation
Ġoverl apped
Ġout lier
Ġresol ving
or ge
Ġt roph
ĠI RE
S IR
ut en
erm an
li kelihood
ĠAr c
Ã¡ l
ĠComp any
Ġjudg ments
A LI
ĠdiagnÃ³s tico
on i
ĠCateg orical
ĠEx ample
ĠsÃŃnt omas
Ġmulti system
Res piratory
m and
Ġpossess ing
w earing
ĠD G
Ġsw im
ĠComput er
Ġfe e
ry ing
blind ed
nah me
iaz ep
ATP ase
] ),
Ġg oggles
kin ase
ĠVi ew
Ġaneurys m
U se
Ġto uc
Ġsub special
ĠNew castle
Ġarrival s
e vent
S equ
Ġpos ter
Ġuna ware
L O
Ġover arching
ĠSt arting
Ġship ping
en f
Ġm umps
Ġcoll ision
Ġviol ation
pret ation
Ġn uest
Ġme ist
ob lasts
Ġvirt ue
ĠMus lim
ĠF al
Ġal together
ĠN oV
ĠSup pose
oc o
Ġintr insically
Ġamm atory
Ġan akinra
ĠN N
Ġmicro be
Ġtransl ates
Ġtension s
ĠS CA
17 0
CAA TG
Ġport ray
Ġco oper
ĠD aten
Ġ16 7
t emperature
Ġremo ves
BE RT
ĠBrit ain
Ġinf used
Ġmy of
Ġdepart ure
re bral
ll i
S ix
IC D
Ġregen erative
Ġo le
Ġrel apsed
Ġdesc ending
ĠPortug uese
ul sions
ĠCol umn
ĠA PP
11 8
Ġtw in
Jan uary
ac ency
ab ei
Ġsustain ing
it age
Ġpro ves
uf fl
Ġappropri ateness
Ġmediast inal
R N
Ġcur fe
s ingle
Ġmanif ests
ĠMicrobi ology
ec ological
as th
0 23
K E
3 50
Î ·
ĠSec tions
Ġdiagram s
Ġende av
D isc
ess ors
Ġcategor ised
ĠATP ase
ĠK r
Ġsug ars
Ġw Ã¤hrend
Ġd ed
Ġed ition
ĠhÃ¤uf ig
Ġo ct
em ptive
Ġk un
Ġno tions
Ġ16 1
Ġleth arg
I tal
o N
Ġ16 4
eli ef
Ġcomment ary
Ġretro viral
Ġp m
Ġd yes
ut s
ad ium
ĠVol ume
Ġt ens
ra q
Ġaerosol ization
Ġball oon
amili ar
com merce
Ġholid ays
er als
vit ro
Ġd f
ĠG rade
Ġpropag ate
Ġharvest ing
Ġrec onc
L ong
Ġed itor
ĠOcc up
ĠM CF
Ġco ales
ĠIn ventory
w orm
ne g
Ġoptim ally
ĠHCoV s
us able
Ch ild
Ġunderestim ation
ph the
Ext ended
Ġn ombre
Ġdis h
Ġcategor ization
govern mental
Ġm ail
ud ine
Ġpri ors
ol ia
ĠS it
Ġbottlen eck
Ġpul ses
Ġple i
Ġs lud
G MP
ĠJ ah
2 10
f Ã¼
Ġmicro plate
Ġest os
Ġextrap olated
ĠStrateg ies
ĠW W
ĠU I
Ã¼h ren
12 4
LI NE
lic her
ĠSurvi val
m iRNA
ĠPT X
Ġdimer ic
fr action
a uthors
f o
Ġ22 2
arg er
Ġop ted
cl one
Ġana emia
Ġproce eds
um bers
Ġser otonin
ĠJ oint
ĠCon vention
vari able
Ġfacem asks
t ur
ĠC atal
rib ose
Ġâ Ĥ¬
Ġbenchmark s
ĠAss oci
ĠTherap eutic
M IC
Ġ19 91
Ġcirc ulate
Ġt ied
ĠA IV
Ġsh o
Ġc GAS
ick etts
plas ma
p end
ĠBi ology
bes ondere
Ġtrim ers
Ġ18 8
Ġderm al
ĠKE GG
op erate
Ġelabor ated
am ing
reg ulatory
Ġrespond s
o tional
y i
Ġpolymorph ic
IE W
Graph Pad
Vir uses
c aten
ĠVide o
Ġcom plicate
ĠE pi
Ġimped e
ach n
ĠV ector
or ib
Ġavoid s
Ġ19 92
Ġerythem atosus
Ġbe ats
ĠR IP
ĠBet acoronavirus
Ġa esthe
row s
Ġmess enger
ĠS udan
Ġaf raid
Ġleg ally
re habilitation
os amine
emb ly
d iction
or ubicin
Ġe ther
Ġl ots
Ġfri endly
path ogenic
Ġult raf
absor ption
ĠR PA
Ġany where
Ġmismat ches
Ġd ent
inc t
im urium
ĠL RT
Ġsc rap
ĠNS CLC
Ġtrack s
eck man
ĠB uffer
Ġmid st
ĠNAD PH
ĠIntellig ence
ĠE uclidean
resist ance
Ġfund ers
det erm
ĠmÃ© d
Ġex ons
Ġne um
ĠL ist
ĠR RT
ĠG amma
Ġexc it
Ġequi v
ĠL ockdown
a qu
ĠRBD s
regn ancy
im ens
Ġvari ances
ĠQ OL
Ġh os
Ġca vities
oph ores
om ated
Ġtrans fused
Ġlnc RNA
Ġcut s
Ch ar
Ġinstall ation
tic les
ble t
L im
º C
Ġv ote
Ġbut ton
Ġimmun izations
ĠIFN Î±
Ġimplement ations
ĠAb b
m orph
o encephal
Ġhospital ity
Ġexha ust
Ġcertific ate
Ġcombinator ial
Ġin ges
Ġinten tional
Ġsub tilis
Ġdot ted
Ġproce eded
Ġaeg ypti
Ġre wards
ĠGl uc
ĠCaucas ian
Ġbod ily
qu antitative
Ġ15 9
Ġmat urity
Ġcompassion ate
Ġcontact ing
oh l
Ġprogen itors
ĠLic ense
ĠElse vier
Ġw ants
Ġequi val
E X
si ans
ĠN ative
pr inted
ound s
E vidence
at ers
Ġinv itation
Ġcross ed
Ġarch ae
Ġparas it
inoc ulation
Ġcon d
Ġprecip itate
Ġ( $
ĠClin icians
Ġversati le
ĠG V
Ġwork up
13 1
ĠEr geb
Ġdim ethyl
ic ed
wo od
AP C
Ġreflec tions
ĠDS M
ĠS ystemic
Ġ17 7
can onical
Ġcatal og
Ġbere its
Ġscienti f
am os
ĠE co
Ġarth ropod
ĠD ic
ĠD BS
Ġvalid ating
Ġnitro cellulose
Ġup regulate
Ġmultic entre
Ġar c
Ġdys phagia
CAA AA
in ety
16 9
p ublished
Ġfever s
Ġimpro per
tis ts
Ġland mark
Ġultr acentrifug
D ock
Ġhim self
W B
Ġkeep s
Un iversity
Ġbiot echnology
. %
con cept
Ġstorm s
Ġt ion
ĠC AS
ĠB est
pro gram
ong ed
Ġestim ators
oglob ulin
hydr ated
Ġsupers pread
Ġchaper one
Ġmean ings
ĠME GA
ĠC aribbean
c yst
Ġdeliver ies
Ġcomplain t
A re
T w
b ra
t ens
Ġqu enc
Ġprospec t
en riched
Ġor bital
ĠF emale
Ġun ity
ĠK L
Ġpharm aceuticals
Ġdimension ality
H ER
st at
Ġunderstand able
Ġoptim isation
g rained
Ġin ception
Ġcar c
centr ation
Ġchemo attract
Ġfresh ly
18 9
Ġr if
ox ins
Ġschool ing
los s
ĠGuang zhou
ophosph ate
Ġd ann
Ġph aryngitis
Ġar res
Ġure th
ol g
Ġst ance
therap y
Ġview point
Ġco infections
ĠF rank
hel ical
ĠMat hematic
l ay
Ġin er
Ġun identified
emb ed
ĠSec ret
repres entation
ĠMut ations
Ġcohe sion
L ab
ef f
ub les
ock et
Ġr umin
ses sion
CA CCT
Ġfram ed
Ġmac roscopic
Ġspe aker
Ġdash board
D er
ĠÏ ®
CC L
Ġdichotom ous
0 10
Ġl ar
Ġv ox
ĠCh ain
Ġadhe rent
Ġinfrequ ent
Ġreduc tase
Ġser o
ĠT anz
Ġrelated ness
nc bi
L og
Ġd inucle
Ġtrans m
Ġout let
Ġliquid ity
Ġsyndrom ic
Ġnewsp apers
Ġbe e
ĠAn s
Ġintern ally
ĠSD G
Ġneon ate
ĠSI RT
Ġeradic ate
Ġun i
18 1
ĠOb viously
ĠLeb an
H PV
ĠSe a
Ġenter al
Ġin vent
Ġam oxicillin
Ġpoly ethylene
Ġoh ne
V is
ĠA edes
ĠID s
Ġtam biÃ©n
Q OL
ĠA NC
Ġ19 9
z ial
ell um
Ġred istribution
ĠHydro xychloroquine
osom iasis
Ġb ite
Ġadhe red
+ +
Ġsand wich
inoc ulated
Ġpang olin
Ġfav ors
ter ase
11 3
ĠAc id
ĠAc ademic
Ġiod ine
ĠS ac
Ġsp iral
Ġ17 1
Ġmigr atory
A kt
ur ities
Ġsh unt
Ġgl aucoma
Ġell ip
F M
HO DS
ĠStud ien
Ġhead aches
ĠInter feron
ĠA ch
ĠW elfare
Ġminim izes
Ġ17 2
Ġm erc
Ġgreen house
Ġeigen value
Ġpit uitary
f oli
Ġvacc in
Ġadapt ability
Ġneuropsych iatric
Ġimplicit ly
Ġfores ee
Ġbi ochemistry
Ġbrid ging
Ġdam p
Ġv iel
Ġfood borne
Ġwas tes
Ġpack aged
Ġaden oviral
ĠS ite
Ġ20 5
Ġinteres tingly
ĠOx ygen
ot rexate
Ġac yl
Ġch ir
Ġ18 6
Ġolig omers
Ġspeed s
ĠNGO s
Ġh unting
enc ias
Ġmen tions
Ġca ud
Ġdom inate
sm okers
ĠInst agram
ĠEpidemi ological
ĠInter ventions
Ġfulf il
Ġm V
ri tion
est ration
ĠT TT
ĠAu NPs
ĠM ol
J uly
Ġand rogen
ĠRec ommendations
ĠExt ended
Ġelastic ity
T reatment
m yc
ĠL ink
Ġtax es
Ã ¹
TA R
ĠCam bridge
Ġimpl anted
Ġw on
Ġexha usted
Ġoligosacchar ides
a ver
Ġenh ancer
child ren
Ġstir red
Ġc ast
Ġtemper ate
ut iny
Ġ2 14
hospital ized
n iv
Ġst aphyl
Ġcham bers
z ie
Ä ±
LD L
Ġherpes viruses
Ġprofound ly
es ters
gan s
NS P
Ġtimep oints
ec u
res ident
15 1
f ound
s imilar
Ġ18 1
omb ination
Ġanat omic
ful l
ĠCD K
Ġosteopor osis
Ġt rough
Ġdon ning
Ġeukary otes
Ġunderm ine
or iz
Ġlag ged
t az
ĠHyp othesis
GTT AA
Ġin let
Ġw ine
Ġg ag
ĠSP F
inte gration
Ġ2 16
Ġdil ation
Med ical
ĠC U
ĠA BI
Ġre ferenced
Ġz iek
ĠAp ple
in tr
Ġaut osomal
io let
Ġconstit utional
ĠAgricult ure
Ġn ond
Ġemb od
Ġthere of
ĠInd ependent
Ġadvers ity
ĠCro hn
tiv ation
Ġsch olarly
re ich
ati a
Ġgener ative
Ġprem ium
Ġcondens ation
ĠT K
Ġlearn t
Ġammon ia
Ġshr ink
V R
ph ys
ĠAr tificial
Al so
Ġmon ocyt
nl m
i Ã³
Ġnow adays
oly s
Ġregular ization
Ġadvis able
Ġreconstr uct
Ġsubdi vided
if lu
N HS
Ġcolon ized
13 7
Ġcounter factual
Ġinvestig ates
ĠN utrition
Ġmacrol ide
A v
ol iberal
Ġlo an
g s
ro fen
con ditions
Ġstress or
Ġphysi otherapy
ĠPl ates
M EM
Ġp M
ĠSim ultaneous
ĠPol ish
Ġ3 10
Ġpo bl
ĠTechn ical
Ġtr acer
Ġadjunc t
Ġhist ocompatibility
Ġrecomm ending
Ġ17 8
Ġrend ers
Ġmotiv ational
ĠCong ress
Ġsp heres
Ġsecre ting
cript ase
ÃŃ an
oter icin
ack er
Ġdys functions
cont roll
h s
pri or
Ġcorrec tions
Ġalk yl
ens chen
Ġvis itor
Ġattend ees
Ġincl us
] ;
ĠT un
ĠC CoV
cl uster
Ġ18 4
Ġstream ing
ĠGes und
Ġli vers
Ġham per
Ġcho lec
ĠSch olar
Ġhydroph ob
system s
Ġ ://
Ġse afood
a OR
ĠO M
Ġbored om
Ġc ran
ĠD ES
Ġtrans verse
Ġprof its
Ġepidemi ologists
Ġen vis
ax one
Ġconceiv able
Ġafter math
valu able
ĠPA I
ĠR Q
Ġcl er
Ġ27 0
Ġconges tive
R ep
U p
enc oding
vol ving
Ġsec ured
Ġu ve
com pared
es sible
Ġex osome
ĠCyt okine
Ġc ite
ĠEn s
H ospital
m us
ĠS el
Ġun accept
Ġly ophil
ĠHA I
en ch
Ġsup ermark
AC h
Ġcurren ts
d ynamic
ist ently
Ġall osteric
valu ed
ĠFrancis co
G lobal
ĠT AA
Ġastro virus
ĠMeas ures
Ġcephal ospor
ĠR enal
ĠG ra
Ġgra f
Ġoverl ay
Ġadvers arial
Ġreti rement
Ġint ub
k Ã¶rper
15 2
ĠPA H
il ty
Ġfollow up
In stit
Ġultras onic
Ġimmunoprecip itation
k b
ly l
Ġinv as
Ġhe n
Ġop tional
ĠB ul
Ġpres chool
Ġref usal
Ġmen str
Ġscr utiny
Ġslud ge
ĠS pect
Ġcoinc ided
i aceae
ĠDiv ision
Ġ26 4
Ġfore nsic
ĠE sp
ĠV alley
Ġ38 4
Ġd ream
con st
Ġspons ors
Ġintu ition
fac ial
Ġdis infected
AC CA
Ġgranul omatous
Ġ*** *
Ġmer it
a uthor
t um
ĠI raq
ĠP SA
mark able
o fect
â Ĩ
anc ers
Ġanalog y
ĠS TR
Ġse lling
TA TA
Ġblock er
Ġstret ching
Ġasc ites
ar roll
Ġem ails
Ġconf used
TG EV
ĠEn tw
Ġconver ts
Ġappe aling
Ġreinfor cing
ch r
ĠG n
iss en
Ġfactor ies
ĠEx amination
Ġmeth ionine
y ellow
Ġcyclospor ine
ĠIL C
ĠCo ord
Ġamp icillin
CT GTT
ĠHR CT
det ection
Ġestud ios
Ġerr one
Ġdiff raction
oblast oma
Ġtri ad
Ġpedagog ical
o ors
Ġmed ull
Ġconceptual ization
Ġoutdo ors
Ġones elf
glyc ans
Ġingred ient
Ġdil atation
Ġdisturb ed
caten in
m ask
or o
lect asis
Ġbiolog ics
Infec tious
Ġse eding
Ġfeature d
12 73
W u
p owered
Ġp ess
Em erg
ĠA CA
ch ronic
LR s
Ġtumor igen
ir ation
Ġfluor oquinol
L ow
ĠStruct ure
Z eneca
Ġint ric
Ġmicro wave
Ġbin s
Ġreluct ant
Ġg Ã©n
ple tion
Ġtail s
ar abine
ĠK y
Ġfl ocks
ĠSt reng
GAA TT
Ġavid ity
Ġdoff ing
E NT
Ġ25 4
Ġtrap ping
Ġadip ocytes
Ġg ynec
Ġsto ols
ĠK rank
RI s
Ġcar trid
Ġ19 2
Ġinv is
Ġbor ne
Ġrearrang ements
ig il
Ġrenew ed
ĠMH z
otherap ies
Ġrot ations
Di rect
ĠS OC
ĠPath ology
sour cing
Ġpro posing
ĠOb esity
ĠSa fe
gener ational
âĢ¢âĢ¢âĢ¢âĢ¢ âĢ¢âĢ¢âĢ¢âĢ¢
und e
ĠL oss
Ġhaemat ological
Ġqu atern
Ġ17 6
Com mun
Ġanesthe tized
ĠThird ly
ĠGen omics
GB T
Ġcommod ity
C ar
Ġres umption
ature d
Ġconf i
Ġhol es
ĠSix ty
ĠMeas ure
Ġpar ti
Ġelectr ons
Ġveloc ities
ĠDisc overy
oglyc an
Ġweigh ing
ĠWa als
Ġsk ip
sup ervised
Ġweap ons
ier ce
Ġprincip ally
N Y
ĠF ar
Ġ5 12
tis one
Ġ18 7
ĠTurk ish
ĠE Q
Ġam n
Ġm ort
ĠPro per
Ġ18 3
Ġsuf fers
ĠPR Rs
Ġsil icon
Ġdromed ary
ol f
Ġster il
Ġïģ Ń
ti sed
vi vo
Ġuns afe
oc hen
GA GG
ĠRed uction
ĠF D
ĠV enti
Ġterror ist
Ġduod en
P articip
aus es
mon k
Ġquanti le
Ġpre fusion
Ġrepres sion
the y
Ġsubmission s
Ġparadig ms
Ġt ether
Ġass im
Ġbub ble
Ġthermod ynamic
Ġcomput ations
B lood
Ġdeline ate
Ġdraf ting
ĠAd V
ol ed
ĠTh romb
Ġqu otes
Ġkind ly
Ġautop sies
Ġces arean
Ġbind ers
Ġfom ites
Ġsnaps hot
Ġultrason ography
' ).
Ġe ld
st rept
13 9
ĠTrans fer
Ġaward ed
c ies
ruit ment
Ġc up
Ġunder represented
qui valent
B ut
Ġrap amycin
ĠPl atform
L STM
Ġs oc
ĠAn t
Ġcycl in
res earch
Ġworth y
Ġunre markable
Ġcle arer
Ġhome ostatic
ĠO m
Ġmanip ulated
ĠAdvis ory
g lobal
ĠCh rist
Ġlocal ize
Ġperman ently
ĠM ild
Ġdeg ran
ĠSim ulation
ang s
Ġnat ri
Ġlit ter
ĠNo tice
Ġchemot axis
ĠF AS
IS S
Ġbe l
ĠF DG
commun ity
Ġzeb rafish
ĠâĪ ļ
stit uted
ĠT AC
ĠI O
ĠH et
Ġcomputer ized
ativ ecom
C urrent
Ġwhe el
ĠJ ose
Ġmoder ating
ic os
Ġ17 4
u ve
ri j
Ġch ap
ip ot
to ok
rest rial
sh own
W R
op us
Ġflank ing
ĠK ap
Ġconnec ts
Ġst acking
ĠB PD
form er
B etween
Ġro bo
ace ous
Ġmulti level
5 000
v ice
Ġo ocysts
Ġdenti stry
Ġgra vit
RI C
t oler
Ġgly cop
ĠSh ould
Ġcul min
Ġgam ing
ĠE AV
[...]
