#version: 0.2
Ġ t
i n
Ġ a
r e
h e
o n
t i
e n
Ġt he
Ġ s
Ġ o
e r
Ġ c
e d
Ġ p
a l
e s
Ġ in
o r
a t
Ġ w
n d
i s
Ġo f
Ġ d
i t
ti on
Ġ f
Ġa nd
Ġ m
r o
a n
Ġ b
in g
i c
a s
a r
Ġ re
Ġt o
en t
l e
Ġ e
u s
e c
a tion
v e
Ġ h
Ġt h
l y
a c
Ġ (
o m
Ġ n
u l
o s
u r
Ġ l
i d
Ġ T
i m
l l
e t
i r
it h
Ġ v
i g
Ġw ith
Ġf or
c e
o l
Ġs t
Ġc on
Ġ is
u t
Ġw e
Ġp ro
Ġ g
Ġ C
Ġa s
u n
Ġa n
Ġb e
o t
o w
a ti
t er
re s
Ġ I
Ġ A
i l
Ġ S
u c
e m
a m
Ġ on
Ġth at
i f
a b
it y
o d
Ġ 1
t s
v er
s t
Ġ .
t ed
u m
Ġe x
o c
Ġ 2
at e
Ġre s
at ed
ĠT he
u d
ti c
r a
r i
s i
Ġw as
q u
o p
he r
ent s
Ġc om
s e
a y
f ec
Ġb y
Ġd e
a g
Ġwe re
Ġa re
Ġo r
Ġa c
ro m
a d
o g
t h
u re
Ġd is
Ġ r
Ġ us
p l
a in
Ġ P
Ġw h
m ent
Ġ im
u p
e l
o re
ic al
es s
t e
Ġ F
Ġa l
Ġ M
er s
re n
Ġ Ġ
Ġf rom
p or
Ġs e
re d
Ġ H
as e
u nd
Ġin c
an t
in e
Ġa t
i es
ti ve
p ec
Ġc o
u g
Ġp ati
d i
Ġ R
Ġs h
Ġc h
Ġa d
Ġst ud
Ġh a
i z
u b
Ġ he
ig h
e ll
Ġcom p
Ġ en
Ġn e
Ġth is
c h
) .
r an
Ġcon t
ab le
si on
Ġn ot
a nd
ation s
Ġ 3
or m
Ġ le
ĠI n
1 9
o us
t her
ve l
ic h
es t
Ġ E
Ġp er
Ġ D
Ġ N
tion s
en ce
i al
Ġp re
I D
g e
Ġ it
Ġpati ents
Ġ B
d uc
Ġha ve
O V
Ġv ir
Ġin fec
ig n
Ġc ell
ac t
Ġc l
v id
OV ID
p er
i on
en ti
Ġp ar
v i
Ġc an
Ġs y
Ġ W
if ic
Ġas s
f e
0 0
ĠC OVID
) ,
Ġwh ich
os t
p t
Ġf o
i ll
ar y
Ġa p
p h
i p
f orm
Ġg en
k e
i a
or y
p ro
Ġc a
is t
Ġd i
y s
d ing
v ed
or s
ti v
Ġm od
Ġe f
p le
Ġh as
Ġin ter
al ly
Ġ 4
e ar
om e
an ce
ul d
ol og
as ed
Ġd if
le c
fe ren
Ġd at
Ġ un
Ġ 5
s o
Ġ O
Ġ G
u e
ati ve
por t
on g
Ġre c
Ġa b
Ġin t
Ġres p
v en
ran s
i ti
al th
et w
Ġstud y
Ġa ll
Ġ 0
m un
Ġ ,
Ġcon s
ac h
ar i
Ġ L
en c
R S
ag e
Ġal so
p res
as es
ug h
l ud
ĠT h
Ġp l
al l
Ġw he
Ġp os
re at
Ġbe en
i b
Ġs c
f ic
Ġ2 0
Ġt rans
en d
Ġo b
uc h
Ġsh ow
y p
id e
Ġs ign
Ġm e
Ġdat a
os e
Ġg ro
or k
Ġo ut
at h
t ing
Ġdif feren
Ġ y
v ir
t r
Ġo ther
o V
Ġp res
Ġthe ir
Ġd et
Ġ k
at es
Ġvir us
a k
f l
Ġan ti
Ġres ul
Ġre g
Ġa f
ri b
ul ar
Ġan al
e en
Ġ qu
Ġdis e
v al
Ġm ore
Ġhe alth
Ġm ay
Ġ U
te in
il ity
Ġcell s
etw een
u al
Ġt im
T he
Ġthe se
Ġef fec
C oV
i ed
Ġb etween
o ut
Ġinc lud
e p
e w
Ġre l
Ġm ed
at ory
Ġs ub
Ġinc re
Ġs am
A RS
Ġ und
Ġmod el
N A
Ġst r
o ur
em ic
b er
Ġa g
Ġus ed
a p
Ġin d
igh t
Ġs pec
Ġm an
ti m
2 0
oc i
p it
ur ing
Ġm et
Ġc or
e ver
Ġus ing
a il
Ġd es
Ġs p
Ġh igh
Ġth an
as t
en s
ĠS ARS
Ġpro tein
Ġresp on
Ġs ur
st r
Ġp h
Ġac c
Ġ ro
Ġs uch
Ġpar tic
Ġa m
ul ation
Ġinfec tion
Ġp r
o uld
ĠTh is
Ġs er
er m
as s
u res
Ġ 6
ar d
Ġ =
Ġv ari
vel op
Ġn um
Ġgro up
Ġn o
Ġtim e
t ain
Ġs up
Ġe m
st em
ec h
l o
Ġdise ase
Ġp o
ay s
Ġund er
p os
v es
Ġl i
d er
t al
Ġb ut
Ġsign ific
b le
Ġle vel
w o
di tion
at ing
ra p
Ġanal ys
n e
Ġim mun
Ġd ec
pl ic
Ġde velop
re e
Ġo ver
an g
i le
t en
an c
Ġo ur
Ġw ill
' s
Ġd uring
Ġ â
is k
Ġus e
Ġ V
ot h
u tion
Ġsy stem
iz ed
Ġsignific ant
Ġcl in
un c
ac e
Ġon e
ĠF ig
Ġap pro
Ġ "
Ġv al
Ġthe re
Ġwh o
Ġre por
ll ow
ra in
l es
Ġin fl
ro l
Ġt wo
Ġw ork
ac c
Ġl ow
c ess
ow ever
ec t
s er
a re
ac k
Ġt reat
Ġstud ies
ation al
on e
Ġpro vid
ĠW e
a red
Ġs im
Ġ id
Ġc ol
ro s
Ġnum ber
Ġm o
un g
an ts
in es
ul t
u es
Ġr isk
Ġa r
um an
Ġfo llow
Ġass oci
Ġ 7
on d
Ġc ases
Ġf act
Ġresul ts
Ġh ad
tiv ity
ar g
Ġcon c
Ġf in
ow n
Ġdifferen t
Ġco un
vir us
ec tion
re c
al s
Ġaf ter
l i
Ġm ost
in t
ac ter
Ġdis t
Ġid enti
Ġ1 0
us e
f er
Ġ 9
Ġgen er
y t
ir st
iti es
m is
Ġme as
il d
Ġclin ical
Ġon ly
f ore
i tive
Ġa ut
ic e
Ġper form
Ġt est
Ġ es
Ġint o
m pt
Ġpres ent
Ġe ach
Ġv acc
Ġex per
h od
ati c
Ġthe y
Ġanalys is
Ġo p
Ġp e
he d
Ġwe ll
and emic
Ġvir al
Ġfor m
ub l
olog ical
Ġin di
Ġb oth
os pit
Ġb i
ro ugh
Ġp ath
Ġrepor ted
ent r
Ġn on
uc t
iz ation
ut e
o ver
m ents
v ing
Ġh uman
enti al
tic al
Ġp op
mpt om
Ġh ig
m on
Ġm on
at er
Ġd o
in ed
Ġco uld
Ġ q
is m
Ġob ser
Ġa v
c es
Ġp andemic
1 0
ab ility
ter n
Ġex pres
Ġit s
Ġl oc
Ġt r
g en
ur ther
r am
qu i
Ġm a
us t
Ġcomp le
Ġ up
Ġca re
Ġtreat ment
vid ual
e f
o ugh
og en
c c
Ġ K
er g
duc ed
in ation
Ġ 8
Ġv er
Ġne ed
Ġex am
Ġfo und
Ġin form
Ġp ot
Ġs ome
Ġre m
Ġwhe n
Ġim port
Ġf irst
v ol
Ġindi vidual
or d
he n
ag n
h ib
enc y
i an
Ġmet hod
olog y
unc tion
Ġ J
Ġth rough
at ure
Ġs ec
duc tion
res s
Ġp ubl
C T
Ġ ra
m ed
ren t
Ġcont rol
ĠI t
Ġre ce
Ġanti b
o k
vi ew
ĠH owever
ti t
os is
Ġidenti f
Ġt yp
Ġres ear
Ġ Î
p r
Ġd em
Ġind ic
Ġb ec
ug g
ospit al
mis sion
or t
y l
it ed
Ġm in
Ġ -
Ġsh ould
Ġc ar
Ġy ear
Ġassoci ated
Ġpati ent
Ġne w
Ġim p
Ġp red
Ġm ul
Ġhig her
r ic
A A
Ġcon f
am m
g an
Ġk n
il ar
Ġdis c
I n
Ġs et
d e
Ġs ugg
Ġpartic ip
on s
pec tive
Ġc ur
Ġpro t
Ġpro cess
Ġwhe re
ent ly
Ġinclud ing
ve re
Ġf l
re l
it e
ac tion
Ġs o
an ge
Ġad dition
is e
ar t
ir atory
Ġsy mptom
ate g
e x
ti es
Ġ j
ol d
n ing
si ve
us ion
Ġth ose
i tion
em ent
Ġ ).
oc ial
ar k
fic i
Ġp ers
i v
Ġen d
Ġpos itive
it s
pl es
o x
i ve
Ġre qui
Ġav ail
em b
Ġse qu
ĠF or
Ġc r
Ġs m
a f
iz e
Ġlevel s
Ġf e
ĠC h
om es
ĠFig ure
ĠĠ ĠĠ
he s
ech n
Ġd ue
vi ous
Ġdes c
si ble
i e
on a
Ġpro g
ag es
Ġpop ulation
Ġl im
Ġcomp ared
Ġ20 20
Ġin s
u f
Ġdi agn
c on
k s
Ġse ver
Ġm ain
re ad
Ġd r
C R
ur al
Ġshow n
Ġincre ased
Ġli ke
Ġc ase
Ġinfl u
Ġb ased
Ġab out
ĠA s
ple ment
Ġap p
Ġinform ation
Ġrespon se
Ġ Â
Ġresear ch
Ġr ate
Ġf unction
Ġspec ific
Ġresp iratory
i ly
Ġo cc
r on
n ess
Ġh y
val u
Ġimport ant
tic s
Ġstr uct
l d
Ġh ospital
Ġantib od
Ġmul ti
. ,
et y
Ġd ays
Ġin hib
he m
Ġm or
T T
arg et
Ġass ess
Ġe p
ar ge
Ġwith in
Ġs ocial
rec t
Ġse vere
F ig
in al
Ġpred ic
Ġthe rap
ra ph
Ġpubl ic
Ġt ra
Ġag ain
Ġp a
Ġam ong
Ġan y
Ġa ge
% )
al ity
f ul
op le
Ġth ree
Ġ i
Ġe t
Ġavail able
al e
ĠA n
Ã ©
Ġeffec t
ĠR NA
Ġ if
Ġe valu
Ġcoun t
Ġobser ved
Ġin te
Ġw ould
ĠThe se
Ġ +
ĠThe re
Ġcom mun
ĠT able
ti g
Ġde f
Ġt echn
Ġdet erm
i x
j ec
i od
ro p
a use
Ġim pro
ion s
o un
o und
Ġaut h
p tion
oc k
ri es
ar ly
Ġt arget
ĠS t
Ġexpres sion
Ġgen e
o id
Ġsim ilar
Ġme an
it er
ros s
ver s
Ġshow ed
Ġpot ential
Ġpe ople
c l
Ġle ad
Ġpre vious
Ġac tivity
Ġyear s
en g
c er
Ġpr im
ona virus
Ġt es
Ġdesc rib
Ġch ar
Ġper iod
Ġwh ile
ic ro
Ġcol lec
is s
Ġcl ass
ad e
Ġe l
s es
ul ated
ati s
Ġb in
Ġch ild
C A
Ġperform ed
g ative
Ġinfec ted
Ġes tim
ĠĠ Ġ
Ġde p
Ġagain st
ent al
Ġman y
enc es
Ġre view
Ġre pres
o ve
i ved
Ġeffec ts
en se
ech an
Ġout c
Ġchar acter
Ġt e
Ġ )
Ġp ol
Ġfact ors
Ġsymptom s
Ġthe m
p ar
Ġf urther
h a
v ent
u ce
Ġdr ug
Ġsam e
m in
Ġsam ples
Ġt ri
Ġincre ase
Ġmeas ure
o b
Ġca us
Ġch ang
Ġex pl
Ġgroup s
Ġl ong
Ġin vol
ĠA l
on str
in ce
id er
Ġor gan
Ġin iti
lo b
Ġm echan
Ġc yt
ĠC D
in c
Ġc al
Ġob tain
Ġs ol
en z
lo od
th ough
o od
ac y
Ġs us
Ġâ Ī
Ġthe n
ical ly
om ic
00 0
uc le
Ġde ath
ven tion
Ġto tal
Ġocc ur
Ġaf fec
x im
i qu
Ġsec ond
am et
p s
Ġprotein s
Ġcur rent
ves tig
m a
Ġimmun e
Ġl arge
Ġ z
m er
Ġres pective
m e
1 2
Ġfin ding
Ġp ri
Ġdevelop ment
Ġ Ã
Ġfollow ing
Ġdec re
h ip
Ġsup port
re ak
m it
Ġro le
Ġl ess
Ġw or
l ine
Ġindividual s
Ġep id
Ġc le
i ven
Ġcom mon
ate ly
Ġvirus es
Ġlow er
ti l
Ġl ung
Ġe vid
b ased
pos ed
Ġin vestig
Ġbe ing
Ġcont ain
R NA
Ġse lec
l ed
Ġcount ries
Ġl ab
Ġrel ated
Ġwith out
Ġinfec tions
ĠH e
Ġm emb
Ġsm all
Ġf ac
Ġmodel s
ro ph
Ġ ed
Ġne gative
ĠU n
Ġparticip ants
Ġsignificant ly
Ġstr ateg
S A
j or
Ġ u
Ġdem onstr
Ġb lood
Ġd er
s y
og raph
if ied
Ġrec om
Ġinclud ed
Ġb l
r y
se qu
Ġ '
Ġ <
Ġt erm
orm al
Ġre le
Ġ1 2
Ġd id
Ġbec ause
Ġdes ign
Ġl a
Ġe qu
pr int
s ed
is h
in a
Ġconf ir
re qu
Ġidentif ied
plic ation
tal ity
C E
ec ted
Ġexper i
or ding
ic es
Ġb as
Ġpr ac
Ġp ost
Ġall ow
u id
op h
Ġcor onavirus
Ġma jor
Ġad d
Ġs it
i o
in k
Ġst and
1 1
Ġrespective ly
c ri
Ġconc entr
Ġis ol
Ġpos sible
o res
Ġv is
er n
Ġac id
enz a
ide red
Ġh ow
Ġsever al
Ġpre print
t o
ar m
Ġcons idered
Ġpartic ular
T G
Ġvacc ine
Ġmor tality
ot her
Ġqu es
Ġ1 9
Ġac tiv
Ġimp act
Ġmed ical
ĠT o
Ġat t
ĠI L
Ġem erg
Ġex t
Ģ ¢
Ġrem ain
he l
Ġinfl amm
en si
Ġtrans mission
is hed
Ġeffec tive
Ġdist rib
t y
i um
Ġt re
Ġcom b
etw ork
vir on
o f
ro und
at or
Ġm icro
i el
Ġchild ren
Ġmo lec
x t
Ġwe e
re g
Ġhe l
Ġcons ider
Ġsam ple
o v
end ent
v ant
b reak
Ġchang es
Ġ1 5
Ġpro b
Ġ ill
Ġappro ach
Ġcomple x
Ġm ut
Ġac ute
ic s
d uce
st and
o y
Ġval ues
c ed
Ġprovid e
Ġres id
Ġpro duc
r ation
Ġ ke
in d
Ġval ue
Ġlike ly
Ġrepres ent
Ġanal y
Ġbe fore
Ġexper im
Ġinhib it
Ġph ys
z ed
Ġm ark
ab les
Ġf requ
Ġt em
on al
Ġdescrib ed
Ġresul t
a ke
Ġsur ve
Ġdi rect
Ġpro f
Ġexam ple
Ġa ir
ha vi
Ġdise ases
Ġtyp e
Ġcomp ar
di tions
Ġevid ence
Ġman ag
ar ch
1 5
og n
Ġout break
is ed
f t
Ġd ay
Ġcont in
Ġpo ly
y n
en ing
Ġm at
1 4
T A
Ġsp read
Ġrece pt
Ġf am
Ġtest ing
Ġ3 0
Ġle ar
Ġg reat
a v
Ġ ly
Ġe arly
Ġmeas ures
u ally
ver age
Ġcont rib
Ġgener al
y c
ing le
w ard
Ġcon ditions
ne um
c ent
Ġsugg es
ver y
Ġser v
Ġbe havi
ut ed
Ġmechan ism
Ġ5 0
Ġn etwork
ce pt
Ġm ight
Ġen viron
Ġm ade
Ġca p
ver se
Ġgro w
Ġpar t
I V
c are
Ġpar amet
Ġe ven
if e
b ility
rel ated
Ġfinding s
ĠA f
Ġan im
ĠA ll
Ġobtain ed
Ġkn ow
Ġre t
Ġg iven
ti s
Ġin f
Ġf oc
n al
Ġsy n
Ġre f
1 8
Ġcon duc
Ġver y
Ġsugg est
iel d
Ġl o
is ts
Ġcal c
ce p
Ġb en
ti ous
m s
p on
Ġg lob
Ġc ult
Ġ est
Ġs ingle
Ġd om
Ġbin ding
Ġm ice
an ti
1 6
Ġh yp
Ġmon th
Ġn ucle
Ġch all
ent er
ol s
w ay
as ing
Ġt rain
Ġmulti ple
Ġp ur
Ġt iss
Ġdevelop ed
1 3
r al
Ġl ic
Ġor der
ĠR es
ĠC on
Ġn ec
f ace
Ġinflu enza
ul ations
Ġpro ble
end ed
Ġl ine
Ġloc al
Ġre port
Ġc op
Ġh ost
Ġc ri
ĠR e
Ġreg ion
in s
is ion
fici ent
Ġmethod s
s pec
f or
Ġ1 4
ac tions
Ġpri or
Ġst rain
Ġimpro ve
Ġfoc us
Ġb et
ific ation
5 0
Ġdiagn os
pl oy
Ġc er
Ġv i
ial ly
t he
Ġrel ative
Ġstand ard
Ġy o
u tions
Ġp at
a i
Ġdet ection
Ġauth or
ul ts
Ġ [
over n
Ġex tr
s ure
om en
1 7
our ces
Ġim plement
it her
Ġp neum
ic k
Ġprog ram
pec ted
ab l
Ġe lec
Ġkn own
as c
ĠF urther
Ġb acter
in fec
Ġl os
Ġunder stand
Ġstruct ure
ous e
Ġrel ations
Ġ er
Ġinclud e
c op
Ġch ange
Ġrespon ses
Ġh ist
Ġst atis
Ġdis pl
ĠC om
Ġpol ic
Ġenviron ment
Ġwor ld
Ġst ate
Ġac ross
ĠI F
ĠO n
Ġoutc omes
ot yp
Ġwhe ther
n er
Ġtherap y
tr y
et s
Ġ Z
Ġantibod y
oc yt
ak ing
Ġdifferen ces
Ġs ize
ĠA d
Ġsystem s
Ġha nd
Ġpres ence
plic ations
Ġinte res
Ġpl as
ep ti
Ġfo ur
e u
Ġlim it
el f
oun t
Ġs ensi
Ġfact or
Ġ rap
ĠI g
ep endent
Ġr ates
Ġhel p
Ġvari ous
es sion
Ġantibod ies
Ġcont r
Ġf ul
Ġ Q
Ġepid emic
Ġrecom m
ter s
ut ure
sy ch
tic ally
W e
Ġn ormal
Ġrequi red
Ġpro duction
y m
led ge
Ġst at
Ġidentif y
Ġen c
Ġcan cer
ĠâĪ Ĵ
i vers
w e
id ence
r u
s ing
j ect
0 5
Ġinfec tious
ti ll
ĠP ro
Ġconfir med
Ġ2 4
Ġv ol
an s
Ġe con
Ġne ut
ur n
Ġdisc us
Ġab s
ĠI nd
rom e
ore d
Ġc at
Ġlic ense
med i
ĠM ore
on ia
Ġ Y
l ation
at ors
Ġrap id
Ġstr ong
Ġcont act
Ġrelations hip
Ġst ress
Ġ2 00
h old
Ġr ange
Ġe le
ĠCh ina
a x
Ġdiagn osis
Ġre duced
d own
Ġv it
p ut
res sion
% ,
Ġre al
Ġ1 3
Ġ1 8
c i
Ġprim ary
Ġgen es
ran e
t t
Ġed uc
Ġ1 00
Ġv ia
ul es
he st
ĠD NA
ĠThere fore
Ġcharacter is
g er
Ġdom ain
se l
Ġab ove
Ġcommun ity
it or
Ġex pos
Ġe v
Ġdet ected
ab ly
Ġstud ents
ĠA CE
l ow
2 1
ĠI C
Ġrec ent
Ġqu ality
ac ts
ro ll
G A
ĠW h
C s
Ġo x
Ġmanag ement
Ġad min
an n
Ġpro ced
Ġdispl ay
Ġcons ist
Ġof ten
Ġg overn
Ġsc re
Ġre ve
Ġdistrib ution
Ġs uc
Ġglob al
Ġs ince
ot e
Ġ1 6
Ġacc ess
nd om
Ġcollec ted
Ġvari ables
Ġsequ ence
ir c
at a
Ġis s
te red
Ġprovid ed
Ġpresent ed
Ġs elf
ch o
Ġin j
Ġle ast
Ġ X
Ġlim ited
Ġpro m
Ġhealth care
Ġknow ledge
d es
iti s
Ġl ife
Ġe ither
at ures
Ġtes ted
Ġlab or
yn am
ater ial
Ġp sych
Ġlear ning
m ph
iz ing
ti ce
ĠHe alth
Ġbet ter
Ġf uture
Ġg ra
Ġacc ording
Ġm as
Ġdemonstr ated
Ġl ack
af f
Ġo l
Ġa verage
ter m
Ġconduc ted
str uc
Ġs till
Ġop tim
nd rome
Ġpath ogen
Ġf ail
ir d
Ġe pit
x iv
Ġ1 1
Ġcor rel
Ġver sion
Ġcar di
Ġra ndom
b e
pres sion
R xiv
Ġpat tern
Ġh owever
Ġd a
Ġ ur
anc es
Ġm y
Ġ2 5
Ġprevious ly
Ġspec ies
Ġo per
Ġre ad
Ġsh ort
Ġpneum onia
ag ing
Ġcon te
Ġincre asing
Ġiniti al
Ġke y
an e
Ġrecept or
Ġsign al
Ġde g
Ġtes ts
Ġcyt ok
Ġen h
Ġth us
feren ce
Ġhy per
c om
Ġmonth s
ti vi
Ġques tion
in o
P CR
Ġde l
pec t
Ġpro per
al ed
Ġin st
Ġr at
ur ation
c o
pec ially
m ore
ar di
Ġhigh ly
Ġg o
y r
ir al
Ġâ Ģ¢
Ġest abl
Ġg ran
Ġcri tical
Ġg uid
Ġtim es
Ġrequi re
ce ll
M P
ti f
Ġac h
Ġshow s
spec ific
Ġca use
iqu e
i er
Ġfac il
ib le
od e
Ġare as
Ġset ting
T h
Ġparamet ers
Ġass um
p ri
Ġach ie
Ġpre vent
Ġtrain ing
Ġass ay
w ays
Ġrec ogn
er v
Ġpre val
Ġdo es
li ke
am e
2 5
Ġexpos ure
s et
Ġf ew
Ġs um
Ġp ul
Ġmed Rxiv
Ġly mph
g l
Ġnec ess
Ġ Ï
Ġde li
ron ic
Ġsur face
Ġmin im
Ġac tive
Ġin v
n ot
Ġgrow th
our ce
Ġfam ily
ing s
pl ied
Ġad v
/ /
Ġst ep
Ġperform ance
Ġar tic
Ġre as
Ġm g
ĠIF N
Ġs w
Ġc irc
Ã ¤
ĠAl though
A P
Ġdifferen ce
tivi ties
ic t
Ġmed ic
Ġad j
d en
w h
Ġes pecially
od y
Ġinvol ved
Ġre duce
Ġr ati
Ġg l
: //
ĠI I
Ġsc ore
Ġem ploy
d ro
Ġconc ern
jec ts
Ġc hem
Ġdef ined
Ġh ome
i ous
ens ity
Ġacc ur
Ġaddition al
Ġm ust
Ġpro posed
Ġex p
Ġcontin u
igh ts
ĠTh us
Ġfollow ed
p ati
Ġne u
Ġauth ors
Ġac t
asc ular
Ġs a
Ġsur vi
Ġserv ices
Ã ³
ĠH C
ic ity
mit ted
Ġactiv ation
Ġsy ndrome
Ġcor res
Ġa im
Ġtiss ue
b o
Ġl iter
Ġp epti
Ġtem per
ĠC T
Ġsc i
ul ate
Ġ20 19
Ġsit u
Ġdif fic
9 5
Ġphys ical
Ġra di
3 0
l as
Ġm al
b id
an y
Ġpo int
p e
Ġre duction
Ġstrateg ies
Ġor ig
ic ian
el ine
g o
ar ding
ĠC o
h y
Ġd oc
R I
hes is
Ġben ef
Ġf ram
Ġex ist
Ġser um
Ġcomple te
Ġcaus ed
Ġterm s
is tic
Ġval id
Ġinte g
ĠE n
in ant
s c
Ġinter action
Ġsurve y
Ġapp ear
id es
Ġm ac
Ġto p
Ġfo od
Ġtyp es
ak en
Ġ1 7
Ġchall eng
Ġen g
Ġco ur
ect or
ĠP CR
Ġac tivities
Ġrespon d
Ġre plication
Ġobser v
Ġu til
Ġcharacteris tics
Ġgreat er
Ġcomp on
w n
Ġ >
A S
Ġloc k
om y
Ġw omen
Ġtrans cri
Ġare a
Ġc re
Ġthere fore
Ġre str
Ġstat us
Ġev ents
Ġs ite
os ph
u le
Ġconte xt
Ġdrug s
Ġph ase
af ety
Ġsever ity
ĠH IV
Ġab le
Ġreg ions
in ated
Ġse e
ab il
Ġconcentr ation
Ġch ronic
Ġf il
r it
Ġm en
Ġno vel
Ġrec ord
ur y
Ġmemb rane
Ġcult ure
Ġs oci
i ke
Ġcl us
g i
anc ed
C C
Ġg ly
Ġd own
he re
Ġinflamm atory
Ġon line
Ġover all
Ġtre ated
ĠO ur
Ġfe atures
ĠS e
mon ary
Ġc ateg
Ġs k
Ġcomp ound
i or
Ġv enti
Ġsequ ences
Ġadd ress
ĠM E
por tion
Ġsuc cess
our s
P s
Ġd ynam
Ġdet ail
Ġwee ks
D S
ocyt es
em s
ĠMore over
ĠFurther more
s p
fici ency
en e
Ġw ater
Ġdeath s
Ġm uch
Ġvacc ines
ĠA t
Ġ ess
um ent
Ġcr iter
Ġan tiv
Ġat ten
B D
ĠI m
Ġpers on
en sion
ti al
is on
A R
Ġs uf
ot he
Ġanti gen
ly ing
Ġdeterm ined
Ġprot oc
Ġexperi ence
ĠE x
Ġen z
Ġse en
Ġda ily
om et
Ġanalys es
Ġd ose
Ġl og
ogen e
fic ation
em ber
z e
in ts
Ġm aterial
Ġpre c
Ġg ood
et her
Ġaffec ted
P E
enc ed
Ġb ro
Ġt um
pit e
cep ti
ĠR T
g or
Ġdat as
ut es
% ),
Ġhe m
erg y
Ġneed ed
Ġab ility
Ġvacc ination
Ġl es
i ent
Ġco h
Ġc ross
Ġe vol
Ġm ental
Ġdeterm ine
Ġl ink
w are
gor ith
Ġlock down
T able
2 9
Ġoutc ome
ĠC C
an k
el s
Ġper cent
Ġ her
ĠIn tern
Ġwh at
Ġb ack
Ġan other
Ġpreval ence
er ation
Ġrestr ic
ap s
er c
Ġre duc
Ġint ro
ac tive
Ġdi e
4 0
Ġinter actions
Ġst aff
Ġ ;
Ġh ol
Ġpl ay
P S
Ġto ward
ow er
Ġanaly zed
p re
Ġad mission
Ġ9 5
Ġgen ome
Ġappro pri
Ġliter ature
Ġinter vention
Ġl arg
Ġf ib
Ġins tit
Ġf ield
Ġmeasure d
Ġrece ived
ĠAf ter
Ġlos s
em i
in ally
p et
Ġw ide
Ġcl ose
Ġecon omic
Ġmolec ular
Ġex c
hel ial
ac ted
G G
l usion
Ġc entr
Ġpa per
Ġde v
Ġtherap eu
Ġap plied
Ġcle ar
her s
ivers ity
Ġn at
od es
Ġcon dition
ac hes
Ġinc ub
Ġres ist
Ġg e
Ġreve aled
in fl
a ir
Ġtemper ature
Ġa round
ab ol
eng th
Ġs l
Ġd on
Ġp hen
Ġb u
Ġindic ated
Ġc ent
R F
Ġv s
Ġexpres sed
oc h
Ġbehavi or
Ġcap ac
por ted
Ġanim als
M S
p o
e ed
se e
Ġantiv iral
Ġma ke
Ġrati o
2 4
Ġb est
Ġlabor atory
Ġres ources
anc ing
Ġrele vant
p ose
Ġsensi tivity
enti ally
R T
Ġinter n
Ġ4 0
und er
Ġw ay
Ġselec ted
Ġal though
Ġe very
Ġex pected
tt ps
a e
ĠÂ ±
Ġparticular ly
fic acy
Ġs cho
Ġpro te
ĠI f
b or
Ġprac tice
u k
Ġ x
Ġproble m
B S
Ġdecre ased
Ġill ness
Ġal gorith
Ġm ix
a ve
Ġd ys
Ġn ur
Ġe th
Ġsus cepti
Ġc all
Ġs afety
Ġmechanism s
Ġpl ace
Ġâ ī
fer red
Ġs tim
Ġcoun try
Ġmed ia
ĠM ed
Ġestim ated
Ġstrateg y
ograph ic
enc ing
u rop
x i
ĠC I
k n
Ġinc idence
Ġmon itor
Ġwee k
si bility
oc y
8 0
it al
Ġwork ers
Ġse par
ĠC l
Ġd am
Ġexpl ain
Ġpro portion
A s
over y
Ġref lec
T o
Ġeduc ation
I C
o virus
Ġ *
Ġcommun ic
if y
Ġmain tain
or g
Ġf r
us tr
t ro
Ġcon n
in ing
and s
Ġfl ow
Ġcalc ulated
Ġassoci ation
Ġb ody
Ġgovern ment
ĠA c
s tit
A C
ĠIC U
Ġcon st
Ġpolic y
Ġf ive
Ġdecre ase
Ġpredic t
Ġsub sequ
ist ration
Ġevalu ated
is ing
r ing
2 3
um e
Ġcontr ast
ĠThe y
Ġcar ri
Ġpul monary
Ġper ce
Ġst ar
S V
Ġcriter ia
Ġc ost
Ġgran ted
ĠO ne
i at
ĠM arch
Ġresul ting
Ġdiffic ult
ro up
Ġassess ment
Ġdirect ly
Ġprof ession
Ġprot ec
Ġappro xim
e b
Ġstrain s
ĠWh ile
Ġmed i
er ate
Ġsugges ted
Ġnecess ary
r up
Ġess ential
urop e
ab or
ven tions
Ġplas ma
ĠÂ µ
Ġtri als
Ġreg arding
Ġpres sure
Ġma xim
Ġsit es
Ġinteres t
Ġcour se
Ġother s
ve ment
Ġcer tain
6 0
Ġco ll
in ary
Ġneed s
ĠC O
u ity
Ġsub st
Ġrecomm end
Ġtri al
r id
Ġneut ral
L I
Ġfl u
ill ion
Ġappropri ate
b ers
Ġcell ular
Ġth ough
t le
H O
f under
Ġd en
yr ight
Ġsc ale
Ġrepor ts
Ġunderstand ing
Ġsum m
Ġsecond ary
Ġf em
Th is
Ġs u
Ġha ving
Ġfail ure
Ġn ational
Ġscre ening
Ġ2 8
l ong
infl amm
xi ety
00 1
roll ed
y gen
ar tic
al es
C D
Ġinflamm ation
Ġcons um
ro w
Ġcop yright
ra d
og ens
Ġte am
ac es
Ġwhere as
e qu
Ġcapac ity
ul ating
Ġmemb ers
Ġdet ect
ĠIg G
Ġav oid
r im
Ġb ar
i k
Ġli ver
us c
Ġn ow
Ġpop ulations
ĠS im
Ġcon sequ
y mptom
Ġbec ome
Ġmet abol
2 7
out h
Ġ3 7
0 1
in ess
ĠE urope
ol ar
Ġcontain ing
ĠP ati
ĠU S
Ġpubl ished
Ġch ain
Ġyo u
Ġef ficacy
l or
Ġin n
Ġ2 3
Â °
Ġful l
op ath
pon ding
Ġpo or
on t
ĠA r
Ġinter ventions
it ation
Ġimport ance
Ġ2 1
up plement
k ing
L A
ar r
Ġad ults
Ġper pet
f usion
Ġbl ock
Ġ6 0
tim e
b i
ane ous
p ared
el ines
Ġt as
Ġd im
Ġinj ury
Ġevalu ation
Ġcorrel ation
Ġtherapeu tic
p p
w ide
Ġgener ated
Ġn an
d ay
ĠU SA
Ġdiagnos tic
p ir
or ies
Ġsol ution
Ġre action
Ġlo ad
ys is
I I
w w
ĠP E
Ġl ater
om a
Ġinflu ence
Ã ¼
Ġhist ory
Ġprovid es
it ing
Ġemerg ency
Ġen ergy
2 6
Ġd ig
t yp
Ġhigh l
ĠIntern ational
2 8
Ġpe ak
Ġmean s
Ġe vent
Ġappro aches
fic ial
en ari
Ġcoh ort
Ġ ent
ap p
h an
Ġassess ed
Ġd ri
Ġlead ing
ĠS p
at form
d o
Ġanim al
Ġf ace
Ġf und
Ġyo ung
Ġhy dro
olog ies
Ġfin al
Ġl at
Ġl ip
Ġf ever
Ġhuman s
Ã³ n
il i
Ġrat her
A T
Ġf at
ĠN o
ĠÎ ¼
Ġm it
Ġ enter
Ġpers onal
Ġag ents
Ġh om
Ġad op
Ġimmun ity
Ġhol der
Ġdi ab
Ġbro ad
â Ģ¢
Ġt aken
Ġbacter ial
Ġfrequ ency
Ġm ild
Ġnat ural
e re
unc tions
Ġcr is
Ġan xiety
le t
Ġsc ores
Ġm RNA
C OVID
Ġques tions
ra g
N F
Ġvit ro
Ġol der
Ġprocess es
form ation
ren ce
Ġcomb ination
L R
anc y
Ġcompar ison
enc ies
Ġconcentr ations
Ġdec ision
Ġon set
Ġpath ogens
Ġb rain
Ġtechn ology
pl ant
p ly
Ġp ower
dition al
Ġconsist ent
Ġproduc ts
Ġvi ew
Ġal tern
am in
Ġind ex
Ġindic ate
read y
Ġmed ian
Ġaffec t
Ġcorres ponding
is c
Ġreas on
Ġph arm
Ġhealth y
9 0
Ġwe ight
Ġfunction al
b s
Ġperpet uity
ician s
Ġs al
Ġse x
Î ±
en ess
Ġpl an
Ġox ygen
Ġinteg r
Ġe as
Ġvari able
Ġsub jects
Ġt ake
Ġch o
Ġcomp ut
P A
Ġro om
em ia
Ġnum bers
in duced
Ġreg ression
Ġinter val
Ġf ree
Ġal ong
E M
Ġind ependent
Ġpl atform
mer ic
G F
inflamm atory
Ġl ay
Ġhig hest
otyp e
Ġcl os
Ġl ast
ac tiv
ĠW ith
Ġevalu ate
iat ric
Ġprob ability
Ġst age
es is
tion al
Ġuse ful
Ġfacil it
os ts
Ġh ours
ymptom atic
Ġelec tr
Ġte le
Ġaf f
Ġin duced
Ġal ready
Ġint r
h ing
Ġrelative ly
Ġn as
et es
if ically
Ġrec ently
Ġisol ated
) ;
Ġproble ms
Ġp or
Ġpos ted
Ġincre ases
Ġs ource
wh ich
Ġrem o
Ġdep end
Ġfin d
ra y
Ġadd ed
Ġgene tic
ĠP re
Ġc yc
e ad
Ġexperim ents
Ġsc enari
Ġb o
Ġsugges ts
Ġprot ection
art ment
er ative
Ġ2 9
ĠÎ ²
Ġex ten
an tit
Ġdat ab
Ġspec ial
Ġf it
enti fic
I S
Ġph osph
Ġisol ation
ud e
Ġso ft
h ood
Ġiss ues
Î ²
Ġh ttps
o ti
4 3
Ġpo ints
Ġint en
ĠW hen
Ġam ino
y me
Ġ ve
Fig ure
b y
ex t
Ġcollec tion
Ġc he
Ġbe low
7 0
Ġ2 6
ak es
Ġpath way
en ding
N C
S ARS
ĠM et
Ġd uration
ul atory
4 5
Ġr ang
Ġqu ar
Ġpe er
Ġdeli very
ospit als
Ġproper ties
ar ing
op e
ari ly
Ġsurvi val
Ġsuccess ful
ew ork
m ost
Ġl ength
Ġser ies
Ġpot entially
Ġresear c
Ġto g
Ġbe li
Ġpos ition
N D
Ġim ages
Ġbi ological
cer tain
Ġpartic les
cl usion
on ic
Ġcompound s
Ġun til
entr y
Ġst ates
Ġstruct ures
ot s
Ġhe ter
ag ed
s ide
Ġs ection
Ġform ation
Ġreg ard
ĠME RS
on es
B V
pr il
Ġtog ether
Ġcan not
Ġap plication
Ġmajor ity
Ġproced ures
Ġe ar
â Ī
Ġacc ount
P D
Ġimpro ved
Ġm ass
f ort
Ġrel i
ger y
Ġvol ume
3 5
ĠR ec
Ġop en
ati ves
port un
Ġestabl ished
ran si
Ġchalleng es
Ġs ix
Ġprotec tive
Ġth rom
Ġex hib
Ġf unctions
2 2
Ġhe re
is ted
Ġre st
er o
infec ted
Ġre qu
Ġwork ing
ĠP h
Ġremain s
Ġguid elines
Ġstruct ural
Ġcomp os
Ġm illion
Ġtre nd
n ai
l ess
Ġmolec ules
Ġt it
ĠA R
N S
ne y
ĠÎ ±
lud ed
le x
y st
Ġh ouse
at s
ĠSim ilar
Ġventi lation
iqu es
Ġer r
Ġo wn
Ġartic le
3 8
or bid
ĠA m
Ġup on
Ġantib io
Ġen ti
Ġbas eline
Ġsuggest ing
jec tive
O S
dition ally
am p
Ġele v
Ġinter pre
Ġpro duced
Ġqu anti
Ġresist ance
Ġprotoc ol
Ġ ),
Ġt ub
Ġtrans port
Ġsam pl
Ġpa ren
d s
en ge
Ġof f
ure d
Ġs ens
Ġh ospitals
Ġ entry
g n
Ġstud ied
Ġcurrent ly
er ved
Ġto x
Ġem b
Ġepid emi
ĠM S
Ġpro v
% ).
g ical
Ġop portun
Ġ2 7
Ġprom ot
Ġmain ly
H C
ĠAf ric
ĠUn ited
Ġmonitor ing
Ġdevelop ing
et h
Ġpsych ological
l er
Ġen sure
Ġsitu ation
Ġd os
is ation
Ġ :
Ġto ol
ĠÃ Ĺ
Ġinvestig ated
rol og
Ġ ir
Ġse arch
E S
ograph y
Ġass ays
go ing
Ġdam age
i i
Ġd ate
k ed
Ġas ymptomatic
Ġam pl
Ġp ass
y si
Ġcon struc
Ġdifferen ti
Ã Ń
is tered
Ġ2 2
Ġfram ework
ĠA meric
Ġpattern s
Ġdesign ed
Ġstatis tical
g round
Ġmut ations
Ġdef in
Ġt ransi
Ġcontrol s
Ġdec l
Ġadmin istration
Ġb ur
Ġintern ational
Ġcompon ents
op las
w ise
Ġmac roph
Ġcris is
C M
Ġg u
Ġn ature
a z
Ġh al
Ġlarg er
C G
Ġm ic
ĠC or
4 8
Ġprac tic
Ġpre vention
Ġtranscri ption
iz es
Ġ ide
ac ed
Ġre pe
P I
ĠA pril
Ġint ra
ĠUn iversity
Ġtra vel
Ġr ight
Ġpredic ted
Ġcont ent
Ġexperim ental
Ġus ually
upplement ary
e red
ill ance
Ġsec re
Ġre pro
Ġ ul
D A
Ġwho le
cc ording
3 3
Ġac tion
Ġf ore
Ġdeg ree
i ving
ĠO f
Ġhe art
Ġdatas et
ĠSt ud
Ġa er
% .
ĠF inally
Ġcytok ines
Ġ4 8
olog ic
Ġinhib ition
P R
Ġd il
Ġse g
Ġdiab etes
kn own
20 20
Ġm id
ĠD ata
ros cop
Ġro b
Ġv ers
Ġmark et
tion ed
Ġresid ues
Ġabs ence
g es
Ġenvironment al
Ġserv ice
Ġevol ution
Ġcaus es
in ical
fl u
a pt
Ġun ique
Ġrecom b
Ġre ference
Ġhyp ot
ove red
P V
and id
ĠD e
1 00
Ġapproxim ately
Ġcentr al
o ly
anc ial
4 9
Ġcarri ed
Ġcom plications
Ġselec tion
Ġth ird
Ġy et
t hesis
ra nd
Ġdis s
Ġrec ru
Ġimplement ation
I R
Ġqu antit
Ġam ount
tif ied
Ġne xt
Ġexam ined
Ġbe g
Ġ /
Ġdi rec
Ġdoc ument
Ġpre gn
as is
ell ular
Ġag g
Ġrele ase
ro tein
Ġalgorith m
Ġclus ter
Ġaccur acy
Ġp ain
ur rent
tiv es
Ġem o
Ġp an
Ġsignal ing
f old
6 5
ed ing
Ġad verse
Ġdist ancing
A n
ri al
atis f
ur ity
roph il
t rans
Ġun it
Ġchall enge
7 5
Ġres ol
ar c
ren g
a h
Ġbacter ia
Ġim aging
ĠS ince
Ġtum or
ub le
Ġsp ace
othe rap
Ġb ound
re am
Ġm m
Ġtechn iques
Ġme et
Ġmed ium
Ġscho ol
Ġsur gery
Ġinhibit ors
ol es
m L
Ġproced ure
Ġpl ate
Ġsp ike
Ġpath ways
Ġestim ate
oid s
Ġl ed
Ġv iv
Ġdist ance
ocy te
Ġs ide
ĠI tal
Ġtoward s
Ġcommunic ation
if est
Ġs ources
ron ch
Ġr un
Ġnot ed
tiv eness
Ġsy st
Ġsoft ware
Ġpr inc
Ġcytok ine
est inal
t re
Ġh is
Ġresul ted
Ġ3 5
ord ers
Ġd one
m an
Ġquestion nai
Ġatten tion
9 9
w here
Ġvis ual
b ial
ĠO r
Ġlong er
Ġexist ing
. .
it es
Ġtr act
m l
Ġsubst anti
Ġpepti de
ĠB e
Ġw ord
Ġf ar
C AA
Ġconfir m
Ġcontrib ute
Ġrecomm ended
Ġsw ab
or ld
d ependent
O R
Ġs he
Ġca pt
ĠJ an
Ġt urn
ĠB i
Ġdist inc
Ġdynam ics
Ġl ig
Ġ %
Ġdel ay
E V
Ġsup plement
Ġp ast
Ġcontinu ous
Ġrecept ors
ib ility
Ġrec overy
Ġm M
Ġrequi res
b l
Ġpercent age
Ġoccur red
ary n
ri x
Ġinclud es
c ence
Ġk id
Ġc od
Ġrespond ents
A L
A D
Ġl ight
Ġcomb ined
Ġviv o
Ġallow ed
Ġm uc
ac ellular
Ġre d
Ġaltern ative
str uct
Ġgener ally
i Ã³n
Ġenz yme
Ġspec im
3 7
C S
â Ģ
Ġatt rib
im er
ĠM ay
Ġun certain
Ġrespon sible
Ġfollow s
Ġinc or
Ġg et
Ġbas is
f unction
Ġsurve illance
ĠU K
or der
om p
c al
d om
Ġinter view
Ġp ig
ĠS ome
Ġmod erate
uf act
typ e
Ġcon ver
Ġunder lying
Ġprovid ing
Ġsetting s
C L
m od
Ġfin ancial
Ġrepres ents
Ġlimit ations
Ġhouse hold
Ġus ers
A G
Ġidenti fication
3 6
ul in
un e
Ġst reng
Ġdiscus sed
Ġad ap
Ġestim ates
n ormal
Ġv ul
res hold
Ġin put
Ġd ensity
Ġex posed
Ġef ficiency
ĠS ec
ap e
M I
ĠF irst
ib r
Ġcharacter ized
Ġro ut
Ġpri v
for ts
Ġ8 0
Ġm ouse
ĠS c
Ġde pression
Ġresearc hers
ĠD ec
Ġequ ip
ac he
Ġimplement ed
Ġder ived
Ġquar ant
B Y
D V
Ġbu il
3 4
Ġsur gical
ĠSt ates
Ġto ols
Ġrapid ly
qu e
Ġtiss ues
Ġsus tain
Ġappro ved
u ary
b in
Ġindic ating
Ġmaxim um
Ġpolic ies
a ren
Ġw ild
Ġc andid
Ġspecific ity
Ġm aking
Ġf ix
al ysis
Ġpractic es
el i
Ġsubsequ ent
) -
os ter
Ġad vant
ĠAd ditionally
b an
ĠP R
Ã ¶
Ġbar ri
s h
Ġfl uid
Ġpre pared
Ġag re
Ġv ector
Ġproduc t
si a
Ġnetwork s
Ġle ft
Ġbi om
ĠC F
Ġbenef it
Ġbi as
Ġcardi ac
Ġf usion
Ġsa fe
Ġallow s
Ġpro duce
ach ing
er al
medi ated
Ġs atisf
por ts
Ġcon cept
Ġst ay
I T
Ġqu e
ĠPati ents
Ġreduc ing
Ġman ufact
ĠRes ults
al y
Ġd ra
o le
Ġth reat
Ġpredic tion
Ġsign s
Ġe in
ar ies
Ġar g
oci ated
Ġth reshold
pec ts
Ġtr ig
Ġform s
Ġdis ch
ĠS y
ĠP D
le vel
e g
Ġrisk s
Ġsyn the
Ġcom orbid
ĠN ew
Ġim medi
ros is
Ġvul ner
Ġ9 0
iz ations
ĠR BD
Ġef forts
Ġoutbreak s
Ġenh ance
er t
Ġm usc
Ġsh if
M E
Ġindic ates
infec tion
Ġ3 1
Ġac cept
ut ri
ĠB y
Ġrecord ed
Ġsuscepti ble
Ġtrans plant
Ġor al
si b
ĠCo vid
Ġpol i
Ġfrequ ently
Ġstatis tically
ĠD es
Ġst ain
Ġgly c
Ġl ines
en ed
do i
F or
Ġb us
u ed
Ġj ust
l and
Ġoptim al
Ġcommon ly
Ġb re
Ġperce ived
ĠIn te
Ġgen der
Ġle g
Ġline ar
ĠJan uary
Ġc hest
ear ch
ĠA ccording
Ġexperim ent
Ġsup er
Ġpers ist
ism s
Ġimprove ment
Ġc ut
Ġsim ple
Ġworld wide
Ġtarget s
Ġal one
4 7
S D
Ġdatab ase
6 8
of f
Ġret urn
ol ic
Ġsyst emic
Ġre pl
Ġl it
âĪ Ĵ
Ġsyn thesis
Ġim age
Ġche c
Ġag ent
Ġy ield
Ġtrans fer
Ġbenef its
o tic
I F
d le
Ġhe ad
Ġhal f
Ġconcern s
Ġwide ly
Ġdist ress
ĠĠĠĠ Ġ
ĠC R
us ted
ĠG en
Ġfe ature
Ġpoly mer
ĠA g
y cl
ĠO ther
Ġbas ic
Ġmat rix
Ġpa ir
Ġinvestig ate
Ġb uf
Ġenti re
Ġco ugh
Ġad apt
Ġ4 5
Ġestabl ish
Ġf rag
cri pt
oc ardi
Ġext re
Ġli ving
Ġas th
ic ine
it able
Ġreport ing
Ġlead s
ac hed
Ġfocus ed
Ġnum er
Ġachie ved
Ġass ign
ad es
igh ted
Ġm ale
Ġinter nal
Ġb ronch
Ġend ot
g roup
Ġcons ent
Ġparamet er
Ġal most
Ġar ter
Ġan tic
Ġdis orders
" ,
y ear
Ġm ig
ĠD uring
Ġsystem atic
Ġincor por
Ġoccur s
10 1
ines e
hel ess
Ġconc lusion
Ġcer tified
S T
Ġst able
Ġmacroph ages
9 8
Ġit ems
Ġas pects
s is
ass ociated
t a
E R
Ġdig ital
Ġ3 6
Ġap plications
Ġinstit ution
is ions
Ġe c
Ġclass ification
mer c
Ġill ustr
Ġelev ated
Ġrelationship s
Ġles ions
Ġt end
Ġeffec tiveness
Ġv ary
otherap y
sel f
t ual
m et
is es
ed iatric
Ġepit helial
Ġbi o
D NA
N T
Ġthrough out
Ġind uce
Ġpos i
iti g
Ġp H
. "
Ġacid s
ĠRe g
M V
Ġneut rophil
Ġun known
Ġrout ine
ang u
Ġsampl ing
Ġpharm ac
p ond
ov ascular
im mun
Ġse as
id s
Ġdi vid
m ic
Ġprogram s
Ġspec ifically
Ġmas k
I P
in ity
p ed
M A
O C
Ġdiscus sion
Ġdem and
Ġra re
Ġex erc
E C
Ġneu ro
Ġfr action
in ate
Ġsci entific
l ing
ĠCh inese
ĠD i
Ġvers us
as tr
fe red
Ġco ef
Ġful ly
4 6
A l
Ġv es
Ġext ent
Ġkid ney
ag ement
con t
or ing
Ġo ld
Ġvari ants
al ing
ok ing
Ġad ult
Ġcyc le
hod s
Ġad he
Ġsumm ar
Ġin duc
Ġdiagnos ed
Ġloc ation
Ġm il
ip her
ac ing
Ġm is
Ġt er
ĠA T
Ġdis rup
Ġlear n
ĠS ci
as ive
Ġl as
Ġinhibit or
Ġsp ati
i RNA
li er
Ġfe ed
Ġun its
ist ry
re en
Ġpos sibility
ĠW HO
t ure
ect ors
ĠW u
ĠAs s
Ġqu al
Ġincub ated
Ġgener ation
Ġdes pite
Ġre plic
l if
Ġexperi enced
Ġup per
Ġan s
Ġser ious
Ġaut om
as ter
Ġc osts
te e
Ġsequ encing
om er
Ġvari ation
Ġcommun ities
z ing
Ġm ach
Ġfam il
Ġfem ale
pos itive
A V
Ġinst ance
ĠG erm
y ing
Ġbeg in
Ġy our
Ġg ain
ĠN S
Ġp ut
3 9
Ġbeli e
Ġcor related
Ġhospital ized
pati ent
Ġsk in
Ġus er
Ġex ce
Ġprog ression
Ġorig inal
Ġtreat ments
p i
Ġcr uc
Ġl ist
otyp es
Ġcont acts
Ġout side
Ġrob ust
Ġ7 0
Ġw a
r h
Ġcom pl
Ġprocess ing
Ġmut ation
Ġv ide
p ers
Ġâī ¥
Ġsup ply
g ed
Ġad equ
Ġ3 8
o int
Ġg raph
Ġcoll abor
ri ef
h ol
Ġrecommend ations
ros pective
or gan
6 7
Ġhospital ization
b ack
ĠC ons
Ġw rit
Ġet c
Ġc ogn
Ġvari ety
ĠEurope an
Ġef ficient
Ġmechan ical
Ġcontain s
Ġres pect
Ġinten sive
Ġ20 21
* *
ĠAm ong
The re
ĠT NF
Ġpepti des
Ġm iss
Ġ3 2
Ġad mitted
Ġdistinc t
Ġgl uc
Ġconst ant
ill s
ting ly
Ġcall ed
Ġlink ed
Ã ¡
Ġt w
Ġsignific ance
jec ted
Ġexten sive
Ġan n
ph yl
ir ing
Ġflu ores
Ġfacil ities
er b
Ġpro mis
Ġwe ak
Ġgener ate
4 4
6 3
Ġachie ve
Ġdesc ri
ĠM ost
be ing
Ġiss ue
ĠN ational
Ġemerg ing
Ġd og
Ġtem por
Ġcruc ial
Ġartic les
Ġp ack
om al
Ġfe el
Ġcol on
Ġn or
5 7
Ġcomple ment
Ġbur den
as h
Ġnot e
Ġn orm
ogen ic
ĠWu han
ever al
Ġenh anced
B M
Ġf ig
ĠIn c
Ġdemonstr ate
Ġtechn ique
ĠS outh
Ġacc um
Ġde ep
op erative
ot ox
Ġdescrib e
Ġconf idence
Ġdi arr
Ġ3 3
ten sion
C I
Ġl ate
Ġquestionnai re
ti tion
Ġm itig
pos ition
Ġmas ks
C l
in ter
Ġsim ulation
Ġlit tle
Ġconsum ption
Ġextr acted
ĠCon t
Ġb al
at in
Ġaer os
Ġasth ma
Ġpre par
oc hem
lud ing
se ud
ec ause
ĠA D
Ġdo i
Ġreg ular
Ġne ur
Ġur ban
o qu
Ġinterpre t
Ġpro p
Ġre nal
m ia
Ġal le
Ġal ter
2 00
8 8
i re
Ġdep endent
Ġquarant ine
Ġex pect
le ar
Ġph ysi
r ich
oti de
Ġem ph
Ġtra ditional
Ġtrans l
at al
ĠIn stit
ĠF eb
Ġf av
Ġab normal
Ġexc luded
Ġatt em
Ġst ages
Ġal ign
Ġappear s
Ġdomain s
ard s
a w
f act
Ġn odes
Ġcomp re
ĠL e
Ġquantit ative
Ġequip ment
si zed
Ġinter act
T R
Ġprog n
Ġheter ogene
Ġbuf fer
ĠH R
Ġse ems
Ġsup ported
k g
Ġm ar
Ġprog ress
Ġcomp are
Ġun c
H V
ag en
Ġcompon ent
g ens
Ġst er
Ġinvol vement
Ġb at
po int
9 7
Ġexam ination
ĠC oV
Ġn ame
Ġsub ject
ast ro
ru ary
1 101
Ġc ore
Ġcont rolled
Ġst ability
Ġh ar
Ġman ifest
Ġstrong ly
Ġn m
Ġdys function
ĠA b
ĠO RF
oph il
ĠS D
Ġsus pected
Ġstep s
in ations
Ġcom merc
Ġpro ject
yc in
Ġout put
Ġdetail ed
Ġon going
ĠS h
Ġm em
ĠH ospital
Ġfamil ies
Ġdim ension
Ġchem ical
res tingly
Ġenz ym
Ġap op
Ġst art
Ġdi vers
LI SA
Ġcol le
Ġprom ote
Ġsuf ficient
Ġloc ated
Ġpo ll
ĠSimilar ly
Ġavail ability
Ġl angu
Ġmet a
Ġd u
P C
Ġreas ons
Ġtarget ing
ch ing
Ġfix ed
Ġpur pose
Ġper ipher
Ġob es
W h
Ġinvestig ation
Ġhypot hesis
ĠHe re
Ġaut o
Ġsensi tive
Ġextre me
Ġcar b
Ġtechn ologies
ĠO ver
ĠM e
oc oc
ĠP A
Ġd ro
ap an
y ond
Ġc reat
Ġch ann
Ġbus iness
Ġreg ulation
Ġemploy ed
3 2
Ġf al
Ġon ce
Ġpro lif
m o
Ġrecomb inant
Â ·
Ġrece iving
Ġcur ve
Ġrecogn ition
5 5
Ġmen tioned
Ġt aking
Ġpo ol
Ġb ed
Ġresid ents
Ġconsequ ences
ĠE R
o u
Ġsl ight
c rib
Ġw ar
c y
s or
Ġintro duced
Ġlung s
ĠSec ond
H S
Ġcardi ovascular
Ġmo b
Ġcons tit
ad a
x y
Ġli ve
Ġadmin istered
ens us
Ġsymptom atic
ĠH A
H R
le ep
ĠO R
Ġele ments
Ġear lier
Ġcompre hen
Ġshow ing
Ġcor rect
I t
feren ces
ĠB l
Ġco ord
ĠW orld
N P
tre ated
Ġal ways
ĠD ise
ph al
ĠB oth
Ġlay er
yl ation
Ġexperi ences
us ive
Ġsh are
vention al
Ġspecim ens
Ġmedic ine
Ġtr ue
ĠC S
Ġf ear
Ġconsider ing
a us
res sive
ĠâĪ Ī
ĠItal y
tern al
Ġret rospective
fec t
Ġtas k
Ġerr or
Ġt ext
Ġrece ive
Ġnas al
a rent
4 1
p ts
virus es
ĠC A
Ġr ights
Ġelec tro
Ġcateg ories
Ġthrom b
b rid
ell ing
ĠFeb ruary
ĠN or
Ġlab el
Ġinn ate
Ġhe p
Ġs il
O ur
Ġcontin ue
Ġag ed
Ġocc up
Ġde vi
Ġs low
ĠE D
Ġman us
Ġpresent ation
Ġcont am
res t
Ġass ist
Ġpers ons
Ġobserv ations
c hed
ĠRes earch
Ġcoronavirus es
Ġw ays
ĠE ach
Ġmaterial s
ep end
Ġcomp r
Ġprovid ers
I L
ĠT wo
Ġb reat
d is
I G
Ġprofession als
Ġdev ices
ĠAl so
abil ities
ĠJ une
ĠS pec
Ġas ked
Ġcre ated
Ġm L
op es
Ġan gi
Ġsus p
Ġmod ified
Ġtarget ed
ĠC ol
Ġscenari o
Ġincub ation
Ġvis its
Ġsub str
ĠAn other
7 7
st ream
l im
Ġof fer
S t
r in
our nal
val ent
ĠJ apan
ĠS uch
u ly
N V
Ġinc lusion
um n
Ġrestric tions
Ġacc oun
Ġpos sib
Ġob jective
ve olar
Ġinform ed
Ġfrequ ent
es tern
Ġsol utions
Ġagg reg
Ġsh ared
Ġobserv ation
m icro
M D
em ents
on omic
Ġc ity
Ġanti gens
Ġsmall er
Ġh um
Ġdos es
Ġprote ase
Ġinc ome
Ġmic roscop
ĠS ub
er ing
9 6
Ġk in
Ġcomple ted
ĠT r
ge al
Ġrec ip
3 1
Ġmix ed
h al
Ġdro ple
us try
Ġepidemi ological
Ġpoli tical
i ents
ve red
Ġw ave
ir th
oc al
g ent
Ġre actions
ĠOr gan
Ġcoun ter
Ġv on
ar ia
Ġair way
Ġox id
aryn geal
ĠB ased
Ġquanti f
ĠS ection
ra z
ac iÃ³n
oph ag
Ġad en
Ġinter fer
Ġcon j
at her
cop rotein
ul f
Ġplas m
Ġs ense
Ġvis it
Ġel im
t ra
qui red
Ġre fer
v ari
Ġimmun os
it ative
Ġthe ory
ĠN ot
Ġmark ers
Ġexpl ore
ĠAR DS
e e
Ġexam ine
Ġhyper tension
ĠInd ia
8 5
ad emic
Ġreg im
Ġcon fl
ubl ic
a u
il tr
Ġb ase
Ġinn ov
Ġle uk
Ġqu ick
Ġapp e
Ġin duction
r isk
Ġcomp et
Ġtyp ically
Ġspati al
Ġprinc ip
Ġre verse
m en
Ġf er
ĠU sing
ĠS ur
B P
ut h
ĠInte restingly
Ġnur ses
M R
Ġ |
ĠI V
Ġcomorbid ities
Ġneu rolog
ĠF rom
Ġint ensity
Ġst em
Ġ3 4
artic ip
ĠAfric a
Ġpro s
ĠInd eed
Ġreview ed
G TT
os a
Ġmanus cript
Ġse em
Ġn utri
ĠM od
or n
Ġendot helial
e k
ers hip
ro gen
Ġcle arly
Ġbe long
A CE
Ġfacilit ate
Ġv ascular
Ġenc od
Ġinstit utions
Ġdi et
plic ated
ul a
Ġset s
Ġpro long
A ll
Ġre p
ĠP M
et al
tr um
Ġremain ing
Ġperipher al
sel ves
ĠMet hods
6 6
Ġne ar
Ġorig in
um ents
Ġaff inity
ĠT LR
Ġgen omic
Ġinv est
Ġequ al
Ġperiod s
ĠP BS
Ġcorres pond
Ġtra um
ogen ous
Ġcomprehen sive
Ġdec isions
Ġmeasure ment
Ġmeasure ments
Ġcons ult
Ġman ner
oqu ine
ĠDec ember
0 4
os omes
Ġass emb
Ġs ession
t osis
Ġdetail s
Ġm l
Ġg ive
f ree
ĠI s
Ġc enter
Ġin oc
Ġmem ory
Ġphys icians
fec ted
ĠA p
mit tee
Ġimp acts
Ġremo ved
Ġs leep
Ġmusc le
Ġprof ile
Ġ rib
Ġreg ulatory
Ġin struc
Ġsub stit
Ġse ven
Ġ3 9
H D
Ġremain ed
Ġben e
C V
Ġans w
e es
Ġcre ate
Ġenc our
Ġactiv ated
Ġ5 5
Ġbehavi ors
ĠC an
m al
Ġcogn itive
Ġne igh
Ġin str
Ġeffective ly
Ġw ind
am ine
iti z
Ġwh ose
w ith
Ġup d
pl ies
Ġventi l
Ġstar ted
Ġhy d
Ġel der
Ġde b
ĠThe n
Ġexerc ise
op en
reg ulated
Ġuncertain ty
C O
he a
or al
N N
E T
ac erb
Ġregion al
Ġdatas ets
Ġpred om
Ġclass ified
Ġg astro
i ance
ot t
al le
Ġim m
Ġmo bility
Ġa w
as ion
Ġch rom
ig en
Ġneutral izing
Ġmicro bi
Ġco verage
Ġsup pres
Ġparticip ant
Ġover l
Ġaccur ate
eli hood
Ġit self
p ing
Ġbe yond
n el
um ab
Ġdynam ic
t heless
Ġind ustry
Ġdif f
0 2
st e
Ġrel ation
ĠG iven
Ġpan el
Ġdi verse
Ġc as
lor oquine
Ġseg ment
Ġsubstanti al
Ġprim arily
Ġlip id
C h
Ġmor bid
pro tein
Ġbin d
Ġsuscepti bility
Ġgra d
P P
ph a
ĠS T
app ing
Î ³
Ġback ground
Ġpolymer ase
Ġpathogen esis
Ġsec urity
Ġinvol ving
Ġparen ts
Ġto o
ĠP er
ĠP l
Ġlat ter
Ġstreng th
Ġm agn
ĠM D
Ġke ep
ĠR SV
o llow
ĠS upplementary
Ġm ess
Ġrem ote
ater al
Ġus es
Ġvir tual
c hem
Ġm akes
Ġdivid ed
Ġj ob
Ġp ap
lo ad
Ġd est
Ġex ternal
ul ative
oc ation
Ġex acerb
Ġact ual
Ġrec overed
ĠE LISA
ĠGerm any
ĠH ence
Ġbehavi our
Ġdeg rad
or ph
os cop
Ġmet h
" .
is sion
i red
7 8
Ġconst rain
le ts
vir al
Ġminim um
Ġgly coprotein
Ġdivers ity
Ġth ink
Ġcl im
Ġbuil ding
Ġgo al
o h
reat ment
Ġprofession al
Ġv an
Ġar ch
U S
T C
ĠB ecause
Ġre ach
reg ulation
k elihood
ax is
Ġres ource
Ġsoci o
Ġin activ
ĠEn gl
t ag
er y
Ġf lex
ĠDes pite
Ġmean ing
Ġen s
Ġexplain ed
Ġrecogn ized
Ġclus ters
Ġcon ventional
Ġexp and
si an
Ġfal se
ul l
Ġd rop
Ġol ig
Ġcho ice
as tic
og lob
Ġ4 2
ur b
Ġmost ly
ens in
Ġeas ily
Ġp en
Ġdev ice
A b
Ġde le
term inal
ic o
T AA
Ġro les
Ġindi rect
Ġcaus ing
opath y
on ucle
Ġdi ed
us ed
Ġbegin ning
Ġreflec t
Ġac ademic
Ġaim ed
ut ing
Ġrepresent ed
5 3
Ġr h
Ġm amm
Ġmin or
0 3
Ġc ities
Ġrequ iring
Ġelder ly
Ġlangu age
Ġsci ence
Ġinst ead
Ġisol ates
arg ed
b it
Ġadequ ate
ow s
Ġtr ack
ĠV ir
Ġprot ect
Ġt en
Ġf arm
Ġrepe ated
Ġprob ably
Ġex act
Ġtransi tion
ĠT rans
5 9
6 9
micro bial
Ġcult ures
ĠT B
R es
ps is
Ġcateg or
av age
um in
ol a
Ġdistrib uted
ĠN e
6 4
bin ding
ure r
Ġextr action
Ġrequire ments
Ġf all
Ġdog s
u tive
Ġrecru it
Ġtit ers
Ġprotoc ols
Ġdif fer
Ġac tions
Ġs ector
w ent
nd er
ĠM in
Ġdo uble
Ġst op
Ġgro und
m ark
Ġwas te
Ġvol un
t ake
Ġsk ills
Ġatt ack
d r
he alth
Ġthem selves
oc ks
Ġthe ore
ĠC ell
i vir
ell a
Ġn ode
Ġsoci ety
Ġon es
c hes
ult aneous
Ġsc an
Ġvulner able
Ġmark ed
Ġr ank
i j
Ġsub s
Ġex cept
A d
es ted
Ġantibio tics
Ġpromis ing
Ġpers pective
Ġc ere
y e
Ġadop ted
Ġapop tosis
Ġfil ter
Ġca pit
Ġcat s
p tions
Ġen velop
Ġ7 5
och ond
Ġb il
Ġsu itable
Ġb irth
B C
ĠI S
Ġab und
Ġmo tiv
Ġat tit
Ġâī ¤
Ġtherap ies
p iratory
olog ists
Ġconn ec
Ġprof il
Ġh ard
ĠN O
ĠAmeric an
Ġdep ending
Ġp ay
ĠE V
Ġclass es
Ġcoun ts
ĠÂ ¼
Ġthough t
ist ing
Ġmy ocardi
em a
G AA
Ġpl aced
Ġdisch arge
a im
w ell
ant ly
Ġse psis
Ġmorbid ity
Ġtrans form
Ġphen omen
od ies
ustr al
Ġp seud
Ġlarge ly
en di
l u
ĠP r
Ġpl ant
Ġclinical ly
Ġcommerc ial
Ġtyp ical
end s
Ġen ough
Ġ6 5
ĠS everal
Ġemo tional
id ent
hem atic
Ġs ch
Ġassum ed
Ġiniti ally
Ġresol ution
Ġepit opes
fici ently
Ġc um
Ġthere by
Ġ20 18
ĠM any
I s
Ġantibio tic
T CT
Ġli kelihood
ĠE m
Ġfe as
os en
R A
pati tis
c he
c or
i ves
ĠI D
Ġla w
Ġcons erved
t est
o on
ac tivity
Ġp ediatric
4 2
Ġmin utes
Ġbre ast
Ġs ent
Ġco ver
Ġscenari os
Ġplan ning
Ġdem ographic
Ġdefin ition
ĠHC V
a vi
Ġe qui
Ġdifferen tial
Ġadvant age
Ġnucle ic
Ġagre ement
Ġqual itative
Ġadv anced
Ġword s
ic ular
ot ensin
Ġmodel ing
ĠIn ter
Ġsepar ate
Ġpriv ate
ac ement
ox id
ar s
Ġa x
n ce
Ġem pir
Ġder iv
ic a
o z
Ġgen omes
fec tion
Ġinf iltr
Ġf ir
Ġsubsequ ently
Ġparticip ation
Ġobes ity
ron t
Ġintr acellular
Ġs em
C P
ĠII I
Ġrang ing
Ġanti microbial
al ities
f aces
Ġbiom ark
Ġstar ting
Ġprolif eration
Ġeduc ational
Ġscho ols
Ġrecord s
Ġmo ve
Ġinf ants
Ġimp air
Ġin ser
Ġtrain ed
Ġcomplete ly
Ġt able
Ġl and
v ity
Ġb ond
Ġsuccessful ly
ĠA S
Ġk ind
ro ke
Ġcle an
eth yl
sequ ently
ĠD E
Ġre ached
Ġ4 1
Ġthe r
Ġmo vement
it ude
ww w
Ġind epend
ĠCon clusion
os omal
Ġmetabol ic
ever theless
oc l
Ġâ Ģ
W s
Ġdef ine
7 1
' t
Ġsub un
ĠMed ical
Ġrandom ized
Ġvide o
6 2
ĠC H
Ġph ot
Ġcent ers
Ġmolec ule
der ived
Ġb one
ĠS er
Ġstud ent
ĠDise ase
pos es
. )
ĠA I
b al
sc ale
Ġbi os
Ġim plications
Ġem ission
Ġhe patitis
ĠS w
Ġc ust
Ġs hed
Ġl ibr
ĠA ustral
Ġcol umn
lud e
Ġgluc ose
ĠJ uly
ĠSy stem
Ġnan op
Ġexpl an
Ġidentify ing
Ġext ended
Ġpregn ancy
Ġcompar ing
ec onomic
Ġex ch
Ġclose ly
Ġpar ts
Ġ4 4
Ġcri tically
Ġb reak
Ġap plic
ĠĠĠĠ ĠĠĠĠ
Ġpredic tive
articip ants
Ġcompar able
endi x
L P
Ġdoc t
Ġcontinu ed
Ġbene ficial
Ġpros pective
os ome
Ġsim ultaneous
Ġdocument ed
Ġcol i
Ġ4 7
aren ess
ĠP PE
Ġmod e
Ġsign als
C on
Ġchec k
Ġanaly ze
Ġc m
Ġ ï
pres sive
Ġpl ays
Ġcle avage
P ro
Ġcomp an
Ġpres ents
ĠP T
p en
Ġmedi ated
Ġabs or
Ġp le
Ġslight ly
Ġtrans lation
Ġvari ant
for ce
omes tic
Ġ4 3
Ġadap tive
u pl
Ġmemb ran
Ġadj usted
Ġcar ry
Ġz u
Ġalgorith ms
est he
M T
Ġd ur
Ġdiarr hea
ul ates
Ġly s
astr uct
5 8
Ġopportun ity
Ġte ac
Ġpur ified
Ġser ve
ĠS E
Ġmanufact urer
ĠC V
Ġaeros ol
Ġnur sing
ĠC X
Ġpartic le
ochem ical
Ġcapt ure
Ġvalid ation
ĠD r
Ġint estinal
Ġdisc re
Ġe ight
Ġsh ock
Ġcons ists
0 8
ur s
Ġfore c
Ġparticip ate
Ġbec ame
ai red
Ġmit ochond
p an
Ġpar as
ri tis
ag ulation
B L
Ġopportun ities
Ġacc es
ting u
Ġc am
Ġassoci ations
Ġpossib ly
Ġenzym es
el t
Ġlymph ocytes
Ġextr act
Ġwh y
Ġph yl
Ġal co
Ġn sp
id ed
o e
Ġam b
Ġlarg est
Ġte aching
r ant
Ġre v
Ġsp eed
G CT
Ġsim ulations
Ġsitu ations
i ver
ent ed
Ġadj ust
Ġun p
Ġinteres ting
Ġgrow ing
Ġcateg ory
Ġdepend s
Ġallow ing
Ġcirc um
0 7
ĠS up
ar b
Ġidenti ty
Ġal veolar
ran ce
ĠH S
Ġre ferred
bor ne
Ġdegrad ation
Ġmach ine
ter ior
ĠN F
Ġhy brid
ĠC P
Ġdis tingu
Ġinj ection
Ġdec line
ĠCl inical
H A
hy dro
Ġexhib ited
Ġampl ification
Ġpar tial
Ġcum ulative
ud es
Ġ #
Ġshif t
Ġimmunos up
Ġ5 6
Ġtr ust
Ġbec omes
Ġs pl
Ġpublic ation
Ġhyp ox
ific ations
Ġchang ed
Ġnucle ar
ot al
Ġatten u
ĠA P
Ġdon or
Ġe ine
Ġsumm ary
Ġr ise
Ġorgan izations
ĠIm mun
Ġfeed back
ne gative
Ġcontrib uted
Ġpl us
ĠAn ti
Ġsuf fer
Ġcont roll
Ġind ust
Ġeng agement
im e
ĠS A
Ġcontain ed
Ġcomp e
m ing
Ġplatform s
Ġimmedi ately
Ġmor ph
Ġdis order
Ġch osen
c t
Ġsy m
or rh
tain ing
Ġnew s
es ides
an alysis
ari ate
plic it
ist r
Ġc ode
Ġnucle otide
Ġform ed
Ġpl ot
Ġassign ed
Ġto ur
Ġ7 2
art ments
s on
Ġconn ected
alle l
Ġ4 6
Ġh ab
O D
Ġsc hed
Ġguid ance
Ġintegr ated
ung en
ich t
Ġsp e
ĠN evertheless
tim es
Ġcompos ition
Ġchalleng ing
L S
Ġclin ic
Ġnumer ous
Ġrepresent ative
E D
Ġimpro ving
F A
, "
Ġ5 8
Ġcontrib ution
Ġmo tif
Ġutil ized
Ġreli able
Ġcolle ag
Ġcr yst
Ġcomplex es
Ġha pp
ub ation
Ġmiss ing
Ġr ural
ollow ing
Ġst ored
ĠK ore
Ġwh ite
er ve
c ome
ĠO b
Ġm other
if i
Ġn it
Ġassum e
ĠÃ ł
Ġprepar ation
Ġpredom inant
Ġmid dle
âĢ ²
if ug
Ġunc lear
Ġhyp othe
Ġeth n
ri e
Ġstr ict
Ġcoef ficient
ĠS ch
Ġapp arent
Ġnanop artic
Ġvit amin
Ġbi op
Ġexpl ored
S S
Ġh arm
Ġvi ol
Ġinterval s
Ġm ember
ĠÃ Ģ
d ed
Ġeng ine
ĠD ep
Ġpig s
Ġconsider ation
Ġ5 7
0 9
E P
Ġ4 9
Ġmedic ation
t on
Ġg reen
Ġmob ile
Ġprolong ed
G TG
Ġcons ensus
ti ally
Ġemph as
Ġdon ors
immun e
ĠH LA
Ġoccur rence
0 6
Ġfem ales
Ġcl aim
p read
Ġphosph ory
Ġpathogen ic
ĠN a
Ġmaintain ed
Ġvalid ated
Ġn am
Ġbal ance
uc tion
Ġstatis tics
Ġ5 2
Ġdep artment
Ġrepro duc
tr as
Ġ Ã©
Ġecon omy
Ġaw areness
Ġo d
r astruct
Ġup take
5 6
f fic
I K
ace u
Ġcompl iance
s ection
Ġcomp uted
Ġor d
Ġne ver
f f
Ġpro phyl
Ġloc ations
Ġstim ulation
ĠN K
Ġd omestic
Ġsol id
Ġanal og
Ġmembran es
Ġmal es
Ġcandid ate
atic ally
ĠC a
is her
Ġclim ate
Ġhighl ighted
Ġsimilar ity
G E
Ġn g
ol ute
Ġto ler
Ġst roke
Ġform al
ĠM A
ern at
Ġtechn ical
Ġbarri ers
ĠD ue
Ġinterpret ation
Ġrele ased
Ġquick ly
ock ing
ĠOrgan ization
Ġ5 9
Ġdiscus s
amet er
Ġmet ric
ĠN P
ran ge
li um
Ġac quired
Ġef fort
Ġcyt oplas
Ġcere b
Ġappe ared
Ġcyt otox
Ġcom e
pl ate
p tive
if orm
d im
8 7
c yt
Ġindic ators
Ġen able
Ġne on
Ġdiss em
ly c
Ġtas ks
Ġcolleag ues
Ġk it
Ġtox icity
ol id
Ġclin icians
it ect
Ġyoung er
Ġhe at
ill ed
Ġr ab
fec tive
ĠÂ ·
L C
8 9
Ġsubstr ate
int estinal
ce phal
Ġlo op
Ġhem at
ord ance
Ġspec trum
Ġrat s
Ġdisc rim
Ã¼ r
l ife
ĠAfric an
Ġv en
Ġg as
am ent
Ġt ax
Ġinter medi
Ġdifferenti ation
I N
Ġ9 6
Ġminim al
Ġop tions
Ġinvol ves
L D
Ġof fic
Ġf ung
ig ible
ul ti
Ġ $
Ġpositive ly
Ġequ ation
F P
ven ous
Ġprim ers
ed ic
Al though
Ġalco hol
ok ine
Ġcor rec
Ġ5 1
ĠPati ent
ph one
Ġpot ent
Ġswab s
h uman
Ġ5 00
Ġtrend s
Ġperson nel
ob ic
raz il
Ġmul tiv
ven tive
ĠOn ly
Ġle t
is ons
Ġlo ok
inc luding
Ġresp ir
Ġmy el
fl ow
h r
ify ing
Ġhe nce
b ola
Ġexam ples
l ic
Ġmut ant
ic ts
Ġinterfer on
Ġrecruit ment
Ġcompan ies
Ġcap able
crib ed
Ġf ast
ĠG roup
Ġsc hem
Ġt ree
Ġstandard s
Ġsupport ing
Ġdet ec
ub iqu
Ġa ud
Ġc ycl
RS V
ar ity
Ġperce ption
Ġselec tive
ĠIg M
Ġtra de
Ġfor ce
Ġvacc inated
Ġfluores cence
Ġus age
o or
omet ry
ak ers
U C
Ġemerg ed
ĠA nd
Ġinf rastruct
Ġemerg ence
ib ri
Ġ5 4
Ġsub group
Ġprim er
c in
ĠOver all
Ġanalys ed
Ġm ater
ĠS o
Ġphysi ological
Ġsh aring
Ġtransplant ation
ic les
Ġpregn ant
Ġun like
Ġheterogene ity
7 3
ĠP ar
Ġtranscri pt
ĠH E
Ġc amp
Ġprac tical
ur ance
Ġsur faces
il ities
Ġlig and
8 6
Ġestim ation
al k
ili ence
Ġbarri er
Ġapp ly
7 9
ĠÎ ³
ĠE r
Ġvari ance
ĠR V
ĠB ut
Ġwas hed
Ġne arly
Ġpresent ing
Ġcarb on
Ġmal ign
Ġmanifest ations
Ġsh or
Ġpart n
ec utive
Ġprevent ing
Ġexpres sing
Ġorgan ization
Ġtop ic
Ġtraum a
ĠA pp
Ġbelie ve
Ġdra w
Ġac qu
S e
o lec
Ġ5 3
a vir
Ġfund ing
Ġvari ability
S upplementary
C CT
Ġv ectors
Ġins uf
Ġkin ase
c us
Ġsm o
Ġtra ffic
ĠN on
Ġstain ing
a res
g et
) )
Ġm es
ĠInstit ute
Ġtr acing
Ġdevi ation
Ġcor tic
Ġw er
Ġz ero
Ġsup ernat
Ġdisplay ed
g ing
Ġad oles
Ġb r
Ġcon form
os tic
Ġprogn osis
Ġsm art
I A
R E
ĠB razil
Ġac ce
Ġaffec ting
Ġvit al
Ġis t
Ġeth ical
Ġ20 17
Ġaut ophag
Ã© s
N Ps
Ġneurolog ical
Ġfig ure
ac tic
Ġep is
Ġinv asive
Ġst ake
oph aryngeal
re t
Ġsec tions
L T
os in
Ġvir ul
Ġlog istic
Ġh old
Ġfib rosis
l ink
cep tions
Ġindepend ently
Ġaddress ed
Ġcharacteris tic
Ġat tr
Ġa uf
Ġtrig ger
ch ar
a ving
open ia
th al
Ġj us
Ġpoly m
om b
Ġaffec ts
anc er
Ġname ly
Ġop tion
Ã ¨
is ter
Ġappro val
Ġlow est
ogene tic
Ġarch itect
Ġw all
ĠVir us
ĠH uman
ator ies
ver sion
Ġenc oun
i tions
Ġbu ild
Ġfrag ment
Ġimmun ization
i R
ur ally
Ġcirc ulating
Ġother wise
Ġpar a
Ġ &
Ġemb ed
r ate
Ġreduc es
ĠE U
ann ed
Ġser a
omet ric
Ġelectr onic
Ġpar allel
Ġinhibit ory
Ġt ail
ces sive
ĠH is
Ġattrib uted
ocyt osis
M O
Ġf u
Ġs qu
Ġprec ise
Ġcomplex ity
l ab
Ġneutrophil s
G s
Ġcon struct
ĠCor onavirus
Ġspread ing
on in
Ġdeli ver
ti le
ides pread
Ġg el
Ġsatisf action
ob acter
Ġmedic ations
IC U
Ġinfec t
ocl onal
Ġunder st
Ġabs olute
Ġconduc t
Ġpro xim
Ġtempor al
ag ul
Ġli qu
vol ution
Ġorgan s
Ġaccum ulation
qu es
h ospital
jec tives
t hen
' '
Ġexpres s
ec al
O n
ĠD if
Ġdisc overy
Ġin equ
E s
v it
Ġinflu enced
Ġrepro duction
Ġmetabol ism
Ġco upl
Ġl isted
val ue
ĠE th
erc ul
Ġinstitution al
M s
ĠE ven
Ġmat ter
Ġpre ventive
Ġm arg
Ġb le
n s
Ġphen otype
Ġ ion
med icine
Ġhy gi
oun ts
oc om
v ors
Ġrestric ted
om ing
id ae
Â ±
Ġs at
y le
7 2
ubiqu it
Ġw ors
Ġcom m
Ġacc omp
Ġex pon
Ġnew ly
9 4
Ġclear ance
Ġfor ward
Ġobser ve
Ġclos ed
Ġext ra
Ġf a
Ġne ural
7 6
Ġp as
Ġro ute
Ġcons erv
Ġsur ge
Ġinhib ited
ol i
ĠC al
Ġm ap
ĠCont rol
Ġcapit al
Ġst abil
ĠM an
ĠC NS
en tical
Ġsecre tion
Ġoccur ring
Ġeas y
Ġth or
Ġgu ide
9 3
) :
Ġfew er
erg ic
5 2
TA T
Ġinterview s
Ġexper ts
Ġauthor ities
Ġdecre ases
Ġw idespread
Ġmethod ology
Ġstand ardi
Ġunder went
pers on
Ġdrople ts
E x
Ġsub mitted
Ġm om
Ġre n
ot a
Ġca ps
Ġgastro intestinal
Ġwrit ten
Ġop in
Ġval u
Ġprofil es
Ġextreme ly
oc r
Ġt akes
t roph
s ts
act ing
N et
Ġsur round
Ġtrans ferred
Ġhist or
Ġmark er
Ġdelay ed
Ġs izes
Ġepidemic s
ĠS P
s ess
Ġconc er
Ġtw ice
Ġpl ates
ex isting
st rand
5 4
Ġmon it
Ġto ok
Ġenviron ments
Ġb rief
D P
Ġst ated
Ġen cephal
kn ow
ĠE bola
Ġins ights
A CT
Ġincreasing ly
Ġh ot
Ġpl ants
Ġequ il
Ġcentr ifug
Ġqu ite
ack ground
ish ing
Ġmig ration
ad o
Ġres ilience
ĠC enter
Ġth ick
pt ember
Ġelectr on
Ġlimit ation
k en
Ġplace bo
Ġexch ange
h aps
Ġfav or
A TT
Ġpur ch
Ġ' '
ĠG u
Ġcop ies
yl ated
Ġcomput er
Ġf ed
g ram
8 3
ĠH CoV
ĠU V
Ġm and
ĠG P
Ġpro pose
in ating
Ġnegative ly
Ġconstruc ted
Ġpap ers
Ġpredic tions
Ġt rop
Ġexp an
Ġscre en
flu enza
ati g
Ġsub set
Ġinteg ration
Ġintro duction
Ġpersist ent
9 2
tt p
Ġun s
Ġoper ating
Ġr ules
Ġn one
Ġiniti ation
Ġbehavior al
ri a
T P
Ġplate let
Ġc itiz
Ġsm oking
Ġcult ural
cl usive
Ġmix ture
Ġerr ors
ĠĠĠĠ ĠĠ
Ġdirec tion
Ġ20 15
C F
Ġst ock
Ġcandid ates
ĠE q
Ġwe b
Ġro und
ot ed
Ġadhe rence
Ġe ti
I g
Ġres erved
um b
u x
ĠP articipants
Ġimmedi ate
Ġtr ache
Ġvari ations
ĠQ u
u ous
ic le
Ġele ment
Ġrandom ly
cl inical
Ġdeterm in
Ġcare ful
Ġ20 16
Ġst orm
ĠT e
Ġdis tr
Ġcortic oster
Ġchang ing
Ġh ous
R s
Ġconsider able
on ym
ul um
Ġtheore tical
Ġvari ed
iz umab
Ġper mission
Ġprog ressive
Ġrepresent ation
Ġm el
Ġfac ility
es e
ĠT echn
Ġempir ical
Ġun a
Ġsummar ized
v ance
ĠW estern
Ġemploy ees
Ġexhib it
ar an
Ġcontam ination
Ġf ront
Ġcont ag
Ġangi otensin
IK V
Ġunderst ood
ic ted
Ġtreat ing
ne a
entr al
ogen esis
Ġof ficial
igh ting
ĠSt atis
ĠA ug
ĠB o
Ġacc om
olog ous
' ,
i en
Ġel ic
ĠM O
ten ance
Ġli ves
Ġremo val
Ġo il
Ġal pha
Ġgovern ments
Ġh osts
7 4
ĠHC Ws
ĠV ero
8 1
urrent ly
or age
Ġar ri
Ġsal iv
Ġchann el
] .
Ġser op
ĠC are
Ġal tered
Ġves sel
m aking
ĠD M
Ġinfrastruct ure
Ġb ig
Ġha em
w ork
Ġs iRNA
ent ation
Ġwer den
Ġassemb ly
e i
Ġhydro gen
Ġbe i
od ium
B I
enti sts
Ġmil k
ĠE ast
Ġmon oclonal
ĠAn g
Ġaim s
ĠG o
Ġob vious
Ġhighl ight
Ġwork s
om s
Ġam ounts
Ġmagn itude
Ġcat aly
Ġpath ology
Ġcol or
re pt
9 1
Ġbeli ef
tim ately
Ġmat hematic
Ġpur poses
Ġsynthe tic
ĠPE DV
Ġequi valent
Ġo ri
Ġintra venous
ercul osis
ĠV er
Ġposi tions
Ġinter face
Ġmal aria
RS S
Ġp ort
Ġen rolled
y ro
T S
Ġg ut
j ection
os al
ont in
Ġn ation
Ġexpan sion
atig ue
og ram
Ġn a
ap pro
n o
Ġan not
ĠCom mittee
Ġnanopartic les
p art
L E
Ġprob e
ĠL D
Ġwe bs
ag ne
Ġst ri
Ġwh om
Ġf ile
ative ly
Ġorgan isms
v o
Ġprop ag
Ġsh ape
Ġtra ject
p es
i as
Ġd ram
A TG
l os
i ples
Ġadj u
Ġpair s
Ġcontroll ing
y stem
ic tion
Ĩ Ĵ
Ġadvant ages
Ġcircum st
ĠSe ptember
ĠStud ies
B s
w ater
vi an
Ġp il
er a
Ġoper ation
t es
Ġassess ing
Ġminim ize
8 4
Ġimmun o
Ġstim ul
Ġman age
ension al
if t
ign ific
Ġc red
Ġrecip ients
Ġresid ue
Ġ ~
anc re
Ġcompos ed
ĠT M
Ġnas opharyngeal
Ġphys ician
ĠÂµ g
ro g
Ġj ud
Ġhygi ene
Ġpos sess
ul ties
ĠNor th
Ġb ox
Ġide a
Ġha z
Ġinduc es
oci ation
ovirus es
ĠÎ¼ g
ĠS O
Ġid entical
s uch
Ġve h
ot es
Ġcompar isons
f ied
Ġperform ing
Ġabnormal ities
Ġul tras
Ġch lor
ple te
ĠC ent
Ġplasm id
Ġex ists
ĠÎ »
ĠP I
Ġresist ant
Ġconsequ ence
Ġinfec tivity
aceu tical
Ġlay ers
Ġun e
ad s
Ġbl ue
om as
am ental
a que
Ġpro ven
G S
Ġf i
Ġur gent
Ġmin d
ĠF ollowing
T CA
ac ent
ĠN ote
6 1
in ks
Ġassum ption
emb rane
Ġun able
Ġacc ordance
Ġcur ves
Ġsome times
Ġmater nal
Ġcar cin
ĠM on
Ġge ograph
ke y
Ġins ulin
at o
Ġmaintain ing
5 1
ric ult
8 2
d a
Ġneigh bor
Ġphenomen on
Ġreview s
Ġd as
ur ine
Ġrepresent ing
Ġdecl ared
Ġun ivers
Ġconcer ning
Ġb ov
D M
Ġd ental
id al
ch loroquine
Ġsens or
L V
ĠS tr
st ate
ĠP S
it ary
Ġtrans mitted
Ġvary ing
Ġliqu id
pr ising
n a
ment al
Ġr ule
ĠF rance
Ġrati os
Ġepit ope
Ġcr y
as ting
ĠL PS
Ġextr acellular
ĠT w
am ples
Ġdistrib utions
C H
Ġsimultaneous ly
Ġdecre asing
ĠA sia
Ġseas on
l ig
ĠP a
Ġgo als
Ġtox ic
all ed
ococ cus
ĠKore a
am ide
Ġvalu able
Ġteac hers
Ġimp aired
Ġf old
OV A
Ġde ficiency
ĠN A
Ġcal ves
Ġre ag
Ġ1 000
ap se
Ġmyocardi al
Ġadmin istr
Ġst orage
ĠSpec ifically
Ġvolun te
Ġ200 9
Ġmain tenance
Ġcat he
Ġcomput ational
ĠH igh
E A
ist ent
C om
s ur
Ġ9 9
eng ue
Ġb ats
Q R
ploy ment
Ġ3 00
ĠÂ °
s s
m ber
Ġevid ent
MP RSS
Ġcollabor ation
Ġsup erv
ĠAmeric a
Ġmon ocytes
Ġins ide
ed ed
Ġt we
Ġne g
os p
ĠL a
Ġp ac
Ġun iversity
% ;
Ġglob ally
Ġinvol ve
ĠI BV
hold ers
Ġinvestig ations
Ġbiomark ers
Ġencod ing
Ġj oint
Ġh or
Ġpar tially
ot or
Ġan g
Ġevalu ating
Ġreli ability
o unc
Ġprot ected
Ġsubun it
Ġseas onal
Ġac et
C CA
Ġbin ds
Ġor th
Ġmonit ored
Ġob struc
ph osph
Ġg ap
y th
Ġneutral ization
Ġc DNA
Ġf atigue
Ġprinc iples
Ġf ri
Ġcol d
Ġal b
Ġpoll ution
Ġintermedi ate
an ted
Ġobserv ational
Ġtele medicine
Ġthrom bo
Ġtum ors
Ġsup ports
Ġculture d
Ġret rie
des ivir
dom inal
.. ..
Ġansw er
Ġrele vance
val ence
ang er
Ġin h
Ã Ł
h ttps
Ġconj ug
Ġex plicit
ĠCan ada
ĠP L
or onavirus
O ne
Ġdec ades
Ġchain s
Ġover come
cep ts
om ers
ill ing
Ġoptim ization
g al
Ġrecru ited
ĠD et
Ġdeli vered
ĠS a
ove mber
Ġout patient
Ġinter s
res h
ĠB AL
we ek
Ġd ocking
xy chloroquine
Ġdi ameter
al ian
ĠH y
Ġdil ution
000 1
Ġexce ption
Ġdet er
ĠD ie
R e
re ported
or ts
Ġsynthe sized
it ud
Ġwor se
Ġch ick
Ġattem pt
Ġsession s
Ġd ial
Ġfund amental
Ġod ds
ĠA N
r s
h abil
Ġadap ted
ĠAug ust
Ġpr ice
d ose
Ġcod ing
v is
Ġoper ations
Ġsw it
Ġfram e
r is
Ġfib ro
ĠL abor
Ġ20 14
fec ts
Ġprocess ed
Ġsurve ys
Ġinstruc tions
Ġon to
es cent
p tic
ibri um
Ġstr ati
is ol
Ġ {
ĠSp ain
et er
oti des
ĠTh ree
Ġtop ics
Ġsim pl
Ġantic ip
R P
ĠMe an
Ġgra di
Ġco vari
ĠH F
Ġm iRNA
Ġcyc les
Ġconf ound
Ġwill ing
Ġmicro bial
Ġn ine
Ġpriv acy
Ġread s
on ary
c to
Ġex cess
Ġein er
Ġph ases
Î º
Ġreve al
Ġdiffic ulties
tag on
Ġneur ons
ĠAustral ia
ird s
Ġl ost
Ġs ed
Ġmicroscop y
Ġreason able
ĠR A
ĠV P
Ġenvelop e
Ġstreng then
ac et
ĠW T
Ġp ancre
Ġcalc ulate
Ġas pect
cto ber
Ġprov ision
Ġmitochond rial
cri ption
d ata
Ġpop ular
port ing
ĠDep artment
Ġtub e
Ġspec t
Ġresid ual
Ġdescri ption
Ġhousehold s
ci pl
Ġrang ed
ĠP e
n en
v asive
A c
Ġform at
ed s
Ġa id
Ġradi ation
m es
Ġdimension s
Ġbe h
agne tic
Ġpredict ors
Ġcollec t
Ġt iter
Ġcircumst ances
ĠF our
Ġtrans fusion
Ġa way
ĠIn formation
dim ensional
Ġcl ar
Ġteam s
s in
z en
un ately
Ġvalid ity
Ġrestric tion
ounc ed
Ġbuil t
Ã Ĺ
Ġbreat h
ĠU nder
ra de
ell ed
Ġdown stream
Ġ ubiquit
c ents
ĠD is
Ġhem orrh
Ġr ac
pl ace
ĠO ut
Ġfield s
Ġpre lim
ll ig
ĠIg A
id dle
Ġphosphory lation
Ġs in
Ġdatab ases
Ġauto immune
Ġl act
Ġdil uted
Ġper me
Ġapplic able
Ġz oon
Ġprior ity
ĠM HV
in ted
Ġb ran
section al
ro se
res ist
Ġas pir
Ġdeterm ining
Ġs odium
ten sive
d f
Ġwor th
ac char
le uk
Ġan tagon
Ġmod ification
M C
Ġde al
Ġweek ly
e tic
Ġoxid ative
Ġindic ator
Ġmet ast
Ġdirec ted
l in
Ġcluster ing
Ġsubstanti ally
ĠT G
T E
v ascular
ill in
d b
Ġfail ed
Ġs an
Ġbe gan
dis cipl
A t
Ġmom ent
ĠP ublic
ĠCO PD
w ing
Ġe en
ĠI R
ĠE S
omic s
Ġpromot ing
as k
Ġc e
Ġemploy ment
H E
ĠB io
Ġlymph ocyte
Ġlim its
ĠCD C
re active
re view
b ody
he rent
Ġscre ened
Ġlibr ary
Ġr ational
Ġattit udes
Ġepit he
D a
Ġres erv
ra di
cep ted
ĠIm port
ĠCons ider
Ġconfl ict
ĠCR P
Ġra ised
ĠI P
- ,
Ġrequire ment
m ol
Ġnec rosis
Ġcop ing
Ġiniti ated
c a
ĠRe view
D R
ati tis
Ġtub erculosis
Ġleg al
ĠB esides
O N
Ġis chem
ĠN ovember
Ġint ake
Ġexten sion
Ġsim ply
Ġac know
Ġf elt
Ġcomp artment
ĠPre vious
- -
o ir
ĠMed icine
Ġon c
ach ment
R ec
ĠS oci
Ġprec a
c ut
Ġshed ding
Ġph one
in ine
Ġef ficiently
Ġcitiz ens
fici ents
Ġhyd roph
Ġs en
Ġro t
Ġatt end
Ġglyc os
ĠP F
Ġselec t
Ġhe ight
lob al
Ġconc luded
u ation
Ġre in
Ġpandemic s
M L
ur g
Ġmeet ing
Ġprac tition
habil itation
b ound
cl ass
Ġf Ã¼r
rom ised
duc ing
ĠM RI
Ġcons ecutive
Ġrecogn ize
Ġconstruc tion
ĠE l
B A
Ġar th
Ġadv ance
Ġadapt ation
Ġfore ign
ĠRes piratory
Ġpublic ations
is ition
CM O
Ġdr y
Ġm iR
ec es
K I
me an
i et
ĠEngl ish
Ġb urn
ĠRec ently
Ġexpl o
W ith
l ich
Ġchem otherapy
Ġmod ifications
. ;
ĠS S
Ġa ver
Ġno ise
Ġex ec
Ġdetec ting
Ġpl aces
ĠM HC
Ġp i
Ġdif fusion
Ġregard less
Ġrem ark
Ġstake holders
Ġun iform
i ence
Ġdoct ors
Ġb ud
Ġpl ans
ĠM aterial
Ġwind ow
Ġbov ine
Ġg ives
anc ies
Ġof fered
Ġprelim inary
Ġre use
pos ing
Ġarter ial
Ġint ubation
Ġpreval ent
Ġwe l
gl ut
S ince
l ands
Ġconstrain ts
Ġpro jects
ĠT yp
Ġcorrel ations
RNA s
ĠWh at
Ġinteres ts
k t
Ġimpair ment
Ġrec onstr
A f
uc id
Ġ6 4
Ġst e
k in
Ġunder go
Ġlabor atories
Ġfat ality
ran g
inc ome
um p
ox ide
Ġt et
Ġwrit ing
d ef
Ġhelp ful
ĠStud y
Ġcoef ficients
Ġsa id
Ġexpl or
Ġarchitect ure
oles ter
Ġfram es
Ġpath ological
Ġfrequ encies
Ġa us
Ġ15 0
itud inal
v est
ĠG ene
ĠO ctober
in ding
ÃŃ a
Ġh our
Ġsub jected
Ġde ple
Ġcor onary
pro t
ay er
w ord
Ġhum id
Ġan a
ĠM R
os ystem
Ġs ich
Ġappear ance
Ġoff ers
m embrane
Ġex cell
ug e
Ġtim ing
Ġbl ot
F V
ĠT est
or tic
Ġfrag ments
b a
Ġprincip le
Ġgreat ly
Ġg old
Ġb ring
Ġl ob
ĠÏ ĥ
Ġgra de
Ġmark ets
Ġapp lying
20 19
Ġper t
Ġdetect able
Ġur ine
p id
ig ma
Ġcon val
at ch
Ġread ing
ĠP C
Ġutil ity
Ġst rand
em por
Ġpack age
ĠS he
Ġepithe lium
Ġautophag y
Ġun ex
Ġdifficult y
Ġes c
Ġbet a
Ġdeter ior
O H
Ġb ott
ĠM al
Ġs ulf
Ġmuc osal
Ġbil ateral
Ġpro min
op rotein
ion e
hy th
Ġassess ments
Ġcontrib uting
am ple
Ġisol ate
Ġcons olid
Ġco agulation
Ġinhib its
ĠThe ir
ĠApp endix
] ,
Ġdri ven
Ġphyl ogenetic
ĠM ulti
Ġmeas uring
discipl inary
Ġtime ly
Ġinf usion
Ġarter y
Ġfeas ible
Ġb and
Ġrec over
Ġann ual
Ġchann els
Ġsuper ior
Ġar m
c f
Ġact ually
Ġpac ient
Ġab str
ĠAn alysis
Ġdisc overed
ĠT C
Ġequil ibrium
Ġdisrup tion
Ġr ig
Ġinstr ument
ĠItal ian
stand ing
Ġdi ver
Ġbreat hing
Ġassum ptions
Ġ( "
pres sed
Ġrel ax
Ġconsist ing
Ġcons isted
Ġsurvi vors
ad j
ĠY ork
Ġr ace
Ġsex ual
Ġel se
ĠS I
Ġf etal
Ġke pt
' .
aps id
Ġconclusion s
mon th
Ġpre ferred
ĠTh at
Ġfat al
Ġtransport ation
ĠR ep
Ġlig ands
Ġstandardi zed
ona vir
Ġv as
z er
Ġtem plate
Ġend ogenous
tain ed
verse ly
ĠM icro
Ġadoles cents
Ġgo ing
ran k
ĠT MPRSS
Ġus ual
Ġcreat ing
ĠL A
Ġh ier
Ġ8 5
Ġsepar ated
ough t
ell ow
te x
I m
H P
z ation
Ġlabel ed
Ġpredic ting
ti ficial
Ġexist ence
Ġs ectors
Ġexplan ation
d ri
olec ular
pon se
ill ary
Ġal s
Ġcollec tive
am s
Ġv o
Ġpneumonia e
a ign
n t
Ġsevere ly
Ġmod ern
id ad
id ine
Ġsu ic
Ġacqu isition
Ġantic o
Ġbl ack
Ġb ul
Ġcon cepts
Ġ20 10
ig er
Ġe ye
ĠEx per
Ġk ine
ĠMod el
Ġcon ven
it ter
Ġinsuf ficient
A bs
ic ation
Ġag encies
Ġa ug
ĠAr ab
Ġf resh
Ġcoh orts
ĠBl ack
Ġto m
âĢ ¦
Ġmamm alian
Ġcontrib utions
Ġrem ove
Ġc yst
Ġcontrib utes
ten tion
oly tic
Ġref ers
ĠM a
Ġequ ations
Ġdisch arged
y el
Ġpredominant ly
acter ial
ian s
ĠRNA s
Ġsc ope
m atic
Ġeng age
Ġreg istered
isc hen
Ġshor ter
res tim
Ġalign ment
ynam ic
G O
c ing
GF P
ĠH D
Ġconf ig
Ġh omes
Ġun f
ĠD C
D es
g r
ĠF isher
Ġpool ed
b re
Ġm urine
Ġrang es
Ġsepar ately
ĠPro tein
Ġp ict
W HO
Ġbed s
G TA
s tim
ĠL ike
Ġcomp any
Ġdis aster
Ġdescrib es
Ġwe aring
Ġinc om
Ġch arge
Wh ile
Ġm im
Ġper haps
p ath
form ed
Ġtour ism
Ġclass ical
Ġco vered
Ġit em
ID S
Ġdis par
b ed
Ġmitig ate
Ġa vian
Ġw r
Ġad ding
r or
Îº B
u ate
S E
link ed
Ġv entr
ĠE f
Ġex cessive
oscop y
Ġins ight
Ġint ended
Ġ20 12
Ġpro ved
ĠA sian
ĠF DA
Ġel ucid
Ġâ ĨĴ
c ers
Ġdemonstr ates
i os
if er
Ġab dominal
Ġinvest ment
Ġnam ed
Ġbelie ved
Ġk g
w an
Ġindust rial
Ġhep atic
epti de
Ġper ceptions
Ġa ware
in ement
Ġecon om
D ata
Ġrec ur
Ġpredict or
Ġaccomp an
ĠK ong
Ġconte x
Ġre active
Ġcl on
Ġlack ing
Ġform er
Ġul timately
Ġlimit ing
Ġtrans fected
ĠS ocial
Ġde ad
RI S
um es
Ġsurround ing
at he
ĠÏ Ħ
he um
Ġconn ection
Ġex clusive
av y
U n
ult y
H owever
Ġpolym orph
Ġunlike ly
d imer
Ġmicro organ
Ġtrans formation
f rom
Ġex clusion
Ġdys p
Ġag ricult
ul ator
Ġcom mit
Ġbec oming
Ġ20 13
ĠG I
Ġend emic
Ġstrong er
ĠCon sequently
Ġinnov ation
Ġpa rent
ip s
rain ed
pati ents
Ġacces sible
ĠH ong
ung s
Ġexcell ent
oc on
ĠS al
ĠN T
Ġthromb osis
op er
Ġrespon sibility
Ġs ick
ro at
Ġp ip
Ġsup pression
Ġsens ors
Ġser ological
R D
em ble
Ġnormal ized
Ġge ographic
t ail
Ġhighl ights
Ġwe ights
v a
ĠCell s
resist ant
Ġag ree
in der
Ġsustain able
om ycin
Ġunivers al
Ġpro of
Ġactiv ate
og le
Ġpromot er
ab led
Ġmut ants
ar row
Ġmar row
Ġsocio economic
Ġsim ulated
Ġin fer
Ġdisc ontin
Ġmathematic al
olester ol
vere x
t reatment
Ġcod on
it o
ĠB MI
Ġillustr ated
Ġs ke
Ġan esthe
th rough
Ġproduc ing
Ġsat uration
Ġra w
Ġadop tion
Ġ2 000
Ġmanag ed
l ined
bo ok
ĠA B
Ġse arc
Ġsaliv a
Ġvirul ence
Ġblock ing
Ġunder going
Ġw ant
Ġinhibit ing
Ġevolution ary
rough t
u z
Ġemission s
ous ly
- (
ra ft
ĠV iral
Ġexper t
Ġd edic
Ġac cepted
im al
ĠR ed
und red
Ġpre m
ple x
lec t
Ġhydro xychloroquine
Ġproper ty
g g
Ġles ion
Ġmetric s
II I
Ġble eding
Ġdom inant
Ġd end
Ġemb ry
ur ies
Ġe osin
am b
Ġcamp aign
ĠAd ditional
Ġhydroph obic
gen ic
ĠG A
Ġevent ually
Ġsp aces
ocy tic
Ġcom plicated
Ġs ay
p ted
Ġimprove ments
Ġim plies
R BD
ins ic
ĠRec ent
Ġepidemi ology
d c
ĠP V
ĠDi agn
Ġp al
lab el
Ġfir ms
g ivers
a a
Ġsuffer ing
d R
Ġgen otype
men tioned
Ġel igible
Ġsp ont
Ġsc ales
Ġa z
Ġgradi ent
Ġm apping
Ġreserv oir
plic ate
Ġn erv
Ġg ather
ti tive
b b
Ġcirc ulation
Ġinten tion
ĠP P
un ic
Ġma x
Ġb odies
ĠH P
ĠNot ably
Ġbi ology
i ol
ric hed
ĠW est
ul monary
Ġen rich
Ġind eed
Ġimmun oglob
Ġf aster
ch ain
es ter
ogen icity
k al
Ġ200 3
Ġparticip ating
Ġdistingu ish
Ġaug ment
ĠImport antly
fort unately
Ġv ic
y es
Ġkn ock
Ġlong itudinal
i pl
Ġall ocation
Ġsustain ed
ic illin
Ġgeograph ical
Ġrecomb ination
Ġc odes
M et
Ġreg ulate
ran ts
Ġrep air
Ġabund ance
ignific ant
Ġd engue
Ġpro inflammatory
ĠG overn
Ġpos terior
Ġcaus al
Ġread ily
el le
Ġf air
ĠB ay
ĠÂ ®
uth or
Ġra d
Ġlat ent
M ed
f it
Ġconval escent
ĠSci ence
20 21
u ing
es ts
em ographic
Ġide al
Ġs n
Ġanaly tical
Ġpre v
Ġd ies
Ġschem e
Ġgener ating
Ġstain ed
Ġquantif ied
re es
n ight
N o
ĠIn iti
Ġcorrespond s
Ġso on
N s
Ġprov ince
Ġsee k
Ġh orm
ade qu
Ġhel ps
ĠH SV
Ġdim in
Ġs ought
an ks
Ġclin ics
ĠCh ild
in vasive
v ision
Ġintern et
Ġmat ched
Ġspecim en
Ġob jectives
v ation
Ġmitig ation
Ġmod elling
Ġcall s
Ġseg ments
ĠH BV
W hen
Ġnerv ous
Ġn ative
H e
Ġcom es
Ġsci entists
Ġconsist ently
Ġreg ulated
feren t
Ġaccept able
Ġconc lude
ve y
Ġ vel
ad os
Ġnecess arily
Ġreg ulations
Ġtele health
Ġrel ig
ĠAc ute
Ġsol uble
Ġincorpor ated
Ġc ul
Ġl if
Ġderiv atives
Ġsimilar ly
il s
qu ar
ĠSt ate
ĠS V
ĠÎ ¸
The se
Ġhand s
ure us
Ġd Ã©
Ġser ial
gen eration
Ġhep at
Ġagre ed
an ol
ĠP rim
act ory
af ter
Ġalter ations
Ġn icht
Ġac ts
ĠSci entific
Ġbiop sy
ĠP o
Ġspont aneous
C o
ge red
oph ysi
P ati
5 00
con f
hy dr
N E
Ġexperi encing
Ġ6 3
or th
Ġ6 2
Ġst ream
Ġcomb inations
leuk in
_ _
Ġhypothe sized
as al
Ġrequ est
ĠE C
Ġinters ti
Ġanti oxid
Ġcapt ured
Ġaccompan ied
Ġdist urb
Ġenti ties
Ġcharacter ization
Ġprote ases
an o
Ġmas sive
ĠÎ ´
Ġpoor ly
Ġupd ated
ĠC MV
Ġneon atal
Ġent re
Ġcyt os
cho ol
Ġultras ound
Ġg r
G en
Ġfin ally
Ġcontin ues
er ge
Ġautom ated
Ġsusp ension
Ġunder t
Ġpartn ers
A CA
Ġfocus ing
n ec
Ġth roat
Ġpar ad
cyt es
Ġins urance
Ġre ly
Ġcontex ts
PS S
Ġinterpre ted
Ġpol ar
os itive
Ġatt achment
ol ip
Ġcoupl ed
g rad
isc he
us h
Ġs ple
Ġtranscri pts
Ġa uch
i O
rom ycin
oc apsid
Ġen ables
Ġhistor ical
ul ed
Ġrepl aced
p m
Ġle ct
op eration
Ġd erm
Ġprob es
Ġutil ization
Ġconcept ual
A g
Ġbin ary
t arget
Ġadmission s
D s
Ġpl anned
Ġviol ence
ĠTh ird
ok ines
olog ist
Ġadhe sion
Ġprogn ostic
ari an
ĠN C
s m
ĠCom pared
Ġcomp ens
Ġh undred
ĠSoci ety
Ġcho ose
ĠAT P
ĠDe velop
Ġprophyl axis
Ġcon formation
app ed
wh ile
am ily
Ġpre p
A m
con taining
Ġa ureus
Ġzoon otic
c ine
ĠS erv
Ġdetermin ants
11 11
Ġaccept ance
G T
Ġax is
Ġtrans mis
v acc
Ġmanufact uring
Ġlead ership
ĠHC Q
ĠÂµ M
Ġins ec
Ġd ual
review ed
b es
a j
ĠM V
Ġdemonstr ating
ro t
Ġrepl acement
ad en
Ġg ave
en n
ĠC ity
u it
ĠP K
ĠM T
ĠM iddle
Ġimmun ological
Ġbeh ind
Ġconcern ed
n c
Ġmultiv ariate
uc k
Ġvel oc
Ġconsult ation
Ġpre ced
Ġg est
G B
Ġexpon ential
Ġreproduc tive
O L
Ġsmo oth
Ġassist ance
Ġflex ibility
Ġen tit
Ġ( >
Ġcalc ulation
Ġph ag
og ether
Ġmul tic
im ent
Ġexpand ed
ĠÃ ħ
ĠOn ce
Ġprec ision
D uring
Ġreflec ted
Ġl ag
Ġdeterm ination
Ġpromin ent
Ġman ip
a ves
om od
d ra
ost asis
strand ed
ol ding
Ġgl ut
typ es
Ġl inks
Ġwas hing
Ġsupernat ant
Ġreflec ts
Ġbroad er
ĠEngl and
ĠIntern et
Af ter
Ġrare ly
ĠA E
ĠEm erg
re ed
Ġir on
Ġsup por
Ġv ac
Ġt ag
Ġcharacter ize
til ity
Ġsp ut
Ġ1 20
Ġne ither
s ub
g ence
s qu
Ġcataly tic
Ġaccur ately
Ġinoc ulated
Ġprior iti
ing er
S P
ĠT ai
Ġhe ld
ther n
Ġhe par
Ġ 000
Ġemo tions
M B
Ġint est
Ġop ac
ill us
Ġmod er
et ry
Ġpen et
Ġwe ar
dR p
Ġtechn ological
ĠS C
Ġdo ing
m at
wh at
lec tr
all ing
si ties
Ġfr act
Ġhe avy
Ġampl ified
om an
Ġspec ified
Ġopin ion
CS F
Ġdur ch
Ġthem es
pl as
Ġmod ule
cont rolled
p op
amm a
Ġ6 1
Ġg am
Ġdoc uments
Ġcare givers
Ġsepar ation
" )
O P
line ar
ĠN I
Ġj our
ĠS m
ĠSc ale
A E
Ġher pes
Ġintro duce
tro duction
Ġin g
Ġdedic ated
Ġrem desivir
Ġ9 8
Ġdesign ated
Ġed ema
Ġdep artments
Ġcorticoster oids
ploy ed
Ġcalc ium
Ġheterogene ous
Ġintegr ity
ĠB rief
Ġpsych iatric
os ide
% -
Ġsupplement ed
Ġequ ally
ĠE qu
Ġmo ving
Ġplas tic
Res ults
Ġther mal
ĠIF IT
av ail
ĠA ut
Ġimplement ing
Ġsampl ed
Ġair borne
Ġacce ler
Ġfl uct
Ġlocal ization
he ad
at us
cell s
Ġord ers
Ġattenu ated
Ġorgan iz
oc ated
Ġventil ator
Ġn M
Ġmeaning ful
Ġgrad ually
Ġpr one
Ġin adequ
F inally
en sive
Ġpres um
ĠV E
M e
Ġinte llig
c ol
Ġconsider ations
h and
if ier
ĠV ari
ti se
ĠR OS
Ġo verex
Ġre habilitation
hes es
A r
Ġvir ions
Ġinfiltr ation
Ġb irds
b en
ĠH ub
Ġar ray
Ġ4 00
Ġm otor
it us
Ġve ter
Ġrec urrent
Ġvulner ability
as ts
Ġmac ro
Ġim plicated
an ish
Ġth ous
Ġflex ible
Ĥ ·
Ġf ecal
Ġform ula
Ġantigen ic
Ġch olesterol
Ġpractition ers
Ġimp acted
fact ory
ion es
Ġprovid er
ĠGo ogle
rec ed
Ġdep th
Ġlead ers
y g
Ġmeth yl
st ep
Ġ6 8
Ġtrans p
Ġclos ure
Ġv aries
ly sis
ĠN ext
si ze
N O
Ġv or
ĠIn st
ĠE CMO
ĠH u
s up
Ġfri ends
ab ric
I QR
Ġmanag ing
Ġquantif y
ution al
Ġrepe at
Ġch ance
Ġl ifest
Ġsub jective
Ġs ind
Ġgrow n
Ġgu aran
Ġpr on
Ġc asc
Ġpath ophysi
Ġdele tion
ĠG l
ĠK ing
Ġr ich
L a
E n
Ġz one
Ġvi ability
ĠM L
Ġneigh b
ud den
Ġsput um
Ġepis odes
Ġm aps
Ġregim en
Ġdef ense
Ġtele phone
Ġcon ce
B ased
Ġm agnetic
Ġeffect or
Ġb es
Ġpower ful
ra f
Ġdiff use
ward s
ĠF e
Ġy e
Â ®
ĠG lobal
ec e
Ġcytotox ic
Ġquestionnai res
Ġw ard
Ġar tificial
y a
Ġconsist ency
Ġj o
ud i
Ġpres s
ĠW ork
Ġe ver
reced ented
Ġaden ovirus
il st
ĠN eu
Ġgreat est
Ġex ha
Ġmacroph age
Ġstat ement
ll ing
Ġt ur
Ġaff ord
d d
ri tic
A K
ĠP H
l ength
Ġeth ics
ti ary
b io
ĠG S
Ġven ous
ch ron
od ing
Ġdes ired
an tic
Ġaddress ing
Ġconstruc ts
Ġfluores cent
po ints
cut aneous
c ons
Ġw ww
Ġtrans membrane
ĠCS F
ĠCom mon
ĠT reatment
Ġadju vant
ĠThe rap
ĠPro t
Ġro ot
Ġb illion
an te
ĠCom par
ot rop
Ã¤ t
Ġpromot es
Ġabs ent
Ġpil ot
Ġfil tr
Ġm ill
Ġgovern ance
op o
Ġnutri tion
Ġdrople t
jec tions
Ġnorm ally
Ġl ot
Ġv ast
ol in
Ġsal ine
et ric
oe a
Ġso le
Ġhor iz
Ġb rought
Ġcour ses
Ġo ste
Ġaccoun ts
Ġbond s
ĠR em
Ġcontam inated
yro id
Ġvol umes
Ġpor tion
Ġgen us
p in
Ġas tro
Ġ6 6
Ġs on
Ġoverl ap
el iness
Ġdra wn
Ġcryst al
Ġprepared ness
oglob in
Ġst o
Ġo der
ĠD S
ac r
Ġsp p
Ġf ine
activ ation
Ġunp recedented
ĠTai wan
Ġm ening
Ġm ature
Ġanaly zing
us es
dri ven
Ġcontain ment
Ġmess ages
Ġenhance ment
Ġfunction ing
ĠG C
ves ted
ef fective
it ant
Ġnucle us
rec i
her n
ĠE nd
Ġposi tivity
e ties
Ġfir m
ĠL et
An other
Ġc ame
ĠInc re
Ġdi ag
Ġpro ve
Ġnumer ical
Ġhier arch
ĠT R
Ġroom s
Ġdiet ary
ren e
IF N
Ġl on
2 12
Ġre ality
activ ated
ĠH er
Ġpacient es
o ud
Ġprincip al
ĠC B
Ġmat ching
Ġover night
Ġ9 4
1 20
cell ular
d ic
Ġdem ands
a ques
Ġresol ved
Ġvessel s
ad vant
Ġm os
ĠH B
ĠPre vention
Ġin herent
Ġform ulation
on omy
Ġa di
Ġ6 7
gen e
ĠStatis tical
Ġbi ot
Ġbl ocks
im ilar
Ġcarcin oma
Ġob ject
unic ip
Ġvis ible
Ġcap ability
iz er
Ġoper ational
ĠN H
Ġmother s
Ġhous ing
Ġag es
Ġtwe ets
Ġadjust ment
ĠS IR
Ġsple en
ĠHR V
Ġhumid ity
Ġfo ot
Ġinst ances
Ġcent ury
Ġinactiv ation
b ut
pec tives
Ġde pos
Ġen riched
Ġextr acts
ĠP res
och astic
ĠIn fec
Ġpro ce
Ã ¯
G CA
Ġcereb ral
Ġag ing
ograph ics
Ġwebs ite
ĠP ri
f a
Ġabsor ption
Ġover view
O ver
Ġeosin ophil
Ġs emi
Ġlearn ed
Ġcytoplas m
us ing
Ġ 00
Ġspl it
Ġstim ulated
Ġinj uries
Ġrecommend ation
Ġso und
Ġpl aque
Ġadv ice
Ġvolunte ers
Ġol factory
Ġtemper atures
ang l
Ġcur ric
Ġintersti tial
q PCR
Ġs el
D C
Ġinduc ing
astr ic
ina vir
Ġgl ass
N K
Ġst ead
Ġdescri ptive
Ġproxim ity
ĠS ing
Ġnur se
ĠS TAT
ĠF c
Ġd ans
Ġquantit y
ĠZ IKV
Ġs udden
Ġhe t
ys ical
Ġa u
Ġens uring
Ġprogram me
Ġhum oral
h as
Ġdri ve
Ġpharm aceutical
se vere
Ġwell being
g a
Ġg iving
Ġlos ses
ĠC urrently
Ġoptim ized
Ġbelong ing
b r
Ġcap abilities
GF R
Ġthreat s
D E
Ġinf arc
Ġj ournal
oc c
lec tion
ec ond
Ġsur prising
ĠCom mun
Ġtoler ance
Ġpl ots
ĠM y
Ġc y
ores cence
ĠG e
ad i
m m
I f
Ġt y
Ġbi ochemical
onym ous
de hy
ĠSe vere
Ġro utes
Ġf ra
Ġ20 11
Ġob jects
ĠR el
ĠH ow
te p
Ġdiscussion s
te en
Ġman ual
in formation
P h
Ġfung al
Ġn arr
pos ite
Ġhead ache
ĠBay es
le ge
Ġd s
ox y
Ġdecl are
Ġpost operative
Ġcompar ative
pro of
Ġsuppor tive
Ġcount y
Ġ( <
Ġmicroorgan isms
Ġdeg rees
Ġtr y
Ġr Ã©
I M
ĠF uture
ĠÏ ģ
ap ter
Ġpro por
ĠE B
ib ration
ĠFig ures
ĠÂµ L
Ġter tiary
Ġquanti fication
Ġprec ip
ĠH ep
Ġpeak s
Ġcat tle
et te
Ġg aps
ĠN etwork
Ġt ight
Ġadop t
asc ul
Ġesc ape
Ġbelief s
las ts
Ġillness es
l ines
un t
Ġle ave
ĠBrief ly
Ġinoc ulation
Ġw ound
Ġful f
ir med
ĠN LR
Ġsp ent
Ġr heum
Ġon t
Ġinactiv ated
Ġnat urally
ensi tivity
Ġh ope
ra ys
Ġcent re
ĠĠĠĠ ĠĠĠ
Ġnucle ocapsid
or ous
ar a
Ġed ge
il izumab
ĠDr ug
Ġchrom at
ĠC E
Ġk Da
o tion
ĠM or
ion al
F s
Ġf ru
Ġhaz ard
Ġapp oint
Ġle ak
Ġtransi ent
ag ic
Ġdiagnos es
Ġinv asion
Ġdis advant
ink ing
Ġpro mpt
opath ic
it one
Ġcor d
Ġcomple tion
Ġwe ighted
Ġphosph ate
Ġmotiv ation
Ġethn ic
Ġfeas ibility
Ġcan cers
ĠâĪ ¼
Ġre aching
Ġse ptic
Ġp el
ail s
ĠIn fluenza
pro cess
Ġsubs ets
Ã ±
Ġpass eng
Ġcont ro
Ġcom mittee
G P
Ġstructure d
Ġ ign
ĠÎ¼ M
Ġpict ure
Ġext end
Ġtrack ing
Ġconsum ers
el ing
Ġs or
os ine
ĠP ers
ĠGen eral
in ates
i vidual
Ġsw ine
ĠZ e
al king
il ization
Ġcom ing
form s
et heless
ul ators
uc ifer
se q
Ġstudy ing
Ġmet al
Ġro ugh
l s
Ġdig es
Ġexam ining
Ġcomplement ary
l ast
Ġmat ch
Ġp ow
p ase
Ġ9 7
re nd
Ġtrans mit
Ġvi able
Ġl um
Ġdis ag
Ġn erve
Ã© e
Ġcorrel ate
Ġgeneral ized
Ġfib rin
Ġorgan ism
Ġv om
ap ed
p ass
Ġextensive ly
Ġmedi ators
Ġwith dra
Ġcop y
Ġun less
ĠAss ociation
ri ed
Ġsubstit ution
Ġw ider
as ome
ĠA L
Ġamong st
cont rol
Ġenrich ment
Ġhypox ia
Ġfe eding
ven ess
ĠW here
Ġall ergic
ii i
ĠC ar
ĠHub ei
os por
ĠC AP
Ġinflu ences
Ġelec tive
Ġsc oring
Ġin patient
Ġn ach
Ġcaps id
Ġdissem ination
Ġpublic ly
Ġorgan is
Ġd anger
Ġpr ices
Ġin ner
ĠA F
Ġchild hood
ĠP BM
Ġdisc ipl
om ial
Ġmultiple x
ĠL C
Ġpa id
Ġconform ational
gen er
um or
Ġsc ans
Ġob st
abl ing
Ġdec ided
Ġpers pectives
C OV
Ġcareful ly
Ġexper tise
Ġmuc osa
Ġver ified
Ġview s
Ġwork ed
enti a
j ug
Ġresid ent
Ġfac ed
Ġmod es
rain ing
at en
Ġelse where
Ġmicrobi ota
th rom
Ġc row
Ġpo ver
omet er
ro om
Ġan th
ri le
Ġimmun omod
Ġro ta
Ġim per
Ġpover ty
ig m
one y
ĠConsider ing
in ces
Ġcytoplas mic
Ġpur ification
Ġengine ering
Ġactive ly
dr ug
Ġline age
Ġn os
Ġattem pts
re valence
Ġsee king
Ġro d
w orld
Ġinvestig ators
Ġmeet ings
min istration
ti d
Ġtrig gered
Ġorgan ic
ĠS an
to tic
g u
in ting
lec ted
an ine
N ase
ib er
ar se
Ġrh ino
ĠF l
Ġcriter ion
Ġf abric
Ġm outh
Ġr ating
Ġtr im
c hen
Ġcompr ised
Ġbroad ly
qu ito
ĠV acc
Ġfiltr ation
ap ore
ĠE M
Ġlic ens
Ġcom plication
ĠTh ose
N I
CT TT
Ġenh ancing
Ġn arrow
Ġpur s
Ġpersist ence
ĠSy ndrome
h ouse
ĠDE NV
Ġveloc ity
Ġp ure
we ight
am pl
il le
Ġput ative
qu ality
Ġ7 1
ad ing
Ġer a
Ġalb umin
a ult
H IV
a ut
Ġst ochastic
Ġocc asion
b c
Ġorganiz ational
Ġdescrib ing
Ġth ings
Ġpas sive
Ġreduc tions
Ġnucle otides
ĠK it
Ġo c
Ġprob able
Ġveh icle
ĠAc t
ĠV al
Ġaeros ols
Ġcomp ati
Ġadv ances
Ġye ast
Ġaggreg ation
Ġsc ar
yp sin
ucifer ase
Ġwors ening
Ġget ting
um m
Ġfocus es
ĠTw itter
Ġdeple tion
Ġe gg
n on
Ġdis pos
Ġform ing
Ġincom plete
Ġg rid
Ġattrib utes
Ġser ver
Ġencephal itis
Ġimmun ode
Ġdisc los
Ġorgan ized
ococ cal
Ġpoly p
ĠMin istry
Ġun em
g ov
ac ic
Ġiss ued
Ġs tig
Ġis o
ĠO S
Ġrun ning
ĠM P
ĠC K
Ġdysp nea
ĠS R
Ġreturn ed
Ġg re
enc ia
Ġundert aken
o vir
Ġbas al
Ġmarg inal
out hern
Ġcom ment
Ġim posed
Ġcent res
Ġn od
Ġreve als
Ġinstr uments
ĠI RF
Ġhelp ed
Ġterm inal
Ġc it
Ġconnec tions
ĠSw ed
ti fication
Ġinadequ ate
am ination
Ġimmun ized
n CoV
Ġpreca utions
Ġpre ference
ĠI ts
Ġto day
F urther
Ġn et
h ome
Ġcoun ties
Ġpropor tions
Ġtranscription al
F T
ĠB r
al ys
Ġin hal
Ġm us
Ġsequ enced
Ġembed ded
Ġyield ed
Â µ
iver sities
ok ed
pl o
Ġr ing
Ġsyn cy
Ġnew bor
Ġproduc es
Ġh ors
Ġinvestig ating
ĠAccording ly
Ġan at
E G
Ġret ro
Ġer yth
Ġinteract ing
Ġhab it
l ated
ol gi
t ri
nd rom
Ġencod ed
h t
Ġattit ude
ĠSp ike
ĠAp pro
TG TT
c k
â Ħ
Ġindi vid
Ġ2 50
Ġinter leukin
Ġindic ation
Ġcorrect ly
ang i
Ġori entation
Ġre per
Ġneu rop
a ved
as hing
atic s
Ġdepend ence
Ġintest ine
Ġves icles
Ġcarri ers
Ġb ac
Ġiniti atives
ps y
Ġsub types
ci Ã³n
Ġwaste water
Ġcom fort
Ġm Ab
Ġhepar in
ĠGovern ment
G C
ĠI AV
ĠLabor atory
Ġconver sion
Ġlifest yle
ĠP ol
Ġcyt ometry
ĠEth ics
ĠPR RSV
Ġ ure
ĠM AP
Ġpart ner
Ġinf ant
Ġintr insic
ĠPro gram
Ġm unicip
it ory
Ġp y
Ġproportion al
Ġencour age
Ġaccoun ted
ĠT ur
Ġsegment ation
b f
ol ution
Ġfat ty
d ep
ĠP an
Ġca vity
dehy de
Ġabund ant
d et
Ġben ch
Ġtherapeu tics
Ġ7 6
Ġthink ing
ĠP O
Ġcarry ing
Ġc iv
Ġoccup ational
ur a
de red
Ġhand ling
g lyc
ĠPh ase
Ġover w
ĠY et
Ġdec ade
e ine
Ġconsider ably
Ġinteres ted
Ġadj acent
Ġar ise
Ġventr icular
Ġin jected
ĠO pen
ĠS DS
Ġ200 8
Ġdim er
Ġdri ving
H g
Ġgran ul
Ġfac ing
Ġur g
Ġdefin itions
Ġsol ve
Ġcomb ining
Ġad sor
si es
Ġch i
Ġaccom mod
Ġobtain ing
Ġprov inces
ĠR us
ĠM I
29 3
Ġpre fer
ĠT ra
Ġde pressive
Ġtom ography
Ġ8 8
Ġfit ness
ver ting
in form
ĠInd ian
end er
Ġrec all
S I
ĠSing apore
ĠWith in
Ġmm ol
Ġm yc
Ġcre ation
Ġb ank
em ed
ĠB M
Ġup regulated
Ġcategor ized
Ġreplic ate
F rom
Ġindic es
Ġantioxid ant
ens or
s ite
os ed
it Ã©
Ġrec ording
Ġun com
Ġbl ind
Ġh uge
B ackground
Ġmove ments
Ġapp reci
ĠF ood
Ġmos quito
Ġfig ures
Ġn s
Ġf lo
Ġan c
AS T
Ġmat uration
B io
Ġansw ers
Ġload s
Ġide as
B E
Ġimmun ogenicity
ĠC NN
ĠTh rough
ĠÎ Ķ
Ġkeep ing
Ġclean ing
ĠB lood
ĠC re
P re
Ġbehavi ours
lec tive
Ġcontinuous ly
Ġsupplement ation
or a
ĠSe qu
Ġinnov ative
âĢ¢ âĢ¢
Ġdend ritic
ne e
s ch
n ia
Ġref r
Ġ6 9
Ġpred is
id enti
Ġbott om
Ġres on
f are
us ting
le tal
Ġpercent ages
ren ch
Ġg erm
Ġvolun t
Ġrad ical
ensi tive
Ġfac ulty
Ġp our
Ġop tical
Ġperme ability
a emia
Ġen roll
Ġelec troph
Ġfeel ing
Ġcompe tition
Ġact ors
ĠÏ Ģ
ĠF lu
ro te
ari able
ĠU se
Ġcytotox icity
Ġz inc
Ġyield s
Ġdis ability
ĠH T
st age
d enti
Ġg ame
ĠR CT
CA M
Ġp ock
ĠM o
re pres
Ġflu or
Ġen abled
Ġle thal
Ġund e
Ġco operation
Ġwork place
Ġconserv ation
Ġimmunoglob ulin
Ġb rid
Ã Ģ
Ġ ri
Ġrepor ter
Ġstr ing
Ġbo ok
Ġexpect ations
Ġevol ved
h igh
ĠR dRp
Ġminor ity
ect in
Ġconc om
ith romycin
Ġrac ial
Ġ ut
Ġhoriz on
M ore
Ġag on
Ġplay ed
Ġarri val
in ol
Ġ7 8
f ol
Ġkine tics
Ġcoord ination
Ġpharmac ological
Ġlocal ized
Ġper m
Ġplate lets
ĠA KI
oc omp
Ġcorrec tion
ser v
rec ted
B e
on om
n als
Ġres c
Ġfor ced
acc o
Ġdiscre p
ip p
at t
ĠB el
Ġachie ving
f i
Ġfavor able
ĠR P
Ġcl ones
Ġillustr ate
Ġpor cine
Ġden ote
Ġmo tion
ut ral
Ġoverw hel
ĠG DP
T her
ci ous
Ġvalid ate
Ġprob abilities
Ġavoid ing
Ġs hel
ĠP ath
Ġbo ard
Ġ9 2
Ġaccoun ting
Ġfour th
Ġfor ces
Ġelim ination
ĠD o
M M
ĠL i
Ġpoll ut
Ġb order
ĠCom p
Ġ7 9
Ġunex pected
Ġburn out
Ġconcentr ated
Ġair ways
f ig
Ġparticip ated
ili ary
Ġpres cribed
Ġblock ed
op inavir
Ġvir ion
ar in
en ic
ĠI ran
Ġloc ally
Ġ9 3
Ġcompl ain
Ġs ug
R O
Ġsustain ability
Ġentit y
Ġtrans fection
Ġstim ulate
Ġun treated
ĠÃ ¾
Ġmetabol ites
â ī
ic in
ĠP oly
word s
Ġ7 3
ĠÎ¼ L
** **
ter ing
am y
Ġimmunosup pressive
Ġgen otypes
Ġroutine ly
be it
Ġalle le
c alled
Ġfeel ings
act or
Ġas k
Ġinter fe
ĠUn fortunately
Ġthor ough
i asis
Ġro w
Ġtri age
Ġe ch
Ġconver ted
f all
Ġe ating
ĠCX CL
Ġs ial
in in
Ġtraject ory
ĠD Cs
Ġalign ed
Ġdiscrim ination
ĠPro v
Ġwork force
pro portion
ĠE arly
otyp ic
Ġst ation
ĠKing dom
imer ic
H F
n am
Ġcom ments
il ed
Ġarg ue
Ġhem od
Ġsh ar
ĠSt and
Ġoverl apping
Ġher d
def ined
omet hing
ĠS U
Ġdis infection
ĠJ ournal
Ġfit ting
ĠDevelop ment
ĠSub sequently
Ġmess age
Ġadministr ative
Ġde position
Des pite
Ġmicro gl
ĠCl ass
S p
ĠD R
vid ence
ĠSp anish
Ġmonth ly
Ġterm in
T I
Ġhar vested
Ġcho ices
ĠSa udi
ĠmRNA s
h ttp
Ġlater al
Ġn ic
ĠP las
B B
ĠTyp e
Ġdem entia
ĠChild ren
Ġprep are
Ġw id
Y P
Ġdiagnos tics
ĠQ ual
ĠCC L
med ian
Ġmorph ology
Ġpropag ation
Ġre tention
ĠR o
Ġparen tal
Ġcathe ter
H ere
ĠD el
um er
ĠIn fection
ĠE d
z z
Ġs i
Ġnutri tional
D I
Ġtum our
Ġsusp ic
Ġreg ulating
Ġent ered
ĠM ark
Ġob lig
Ġeti ology
Ġunde restim
Ġprevent ed
Ġdem ographics
Ġac ting
S everal
Ġk its
Ġacces sibility
ient o
g ers
Ġ8 4
ĠPe ople
Ġproper ly
Ġ7 7
Ġfam ili
Ġver ify
por ation
Ġconsequ ently
ed ical
Ġphen otypes
Ġdep icted
ĠH ist
os s
Ġcompet ing
ĠHealth care
ĠH PV
at ology
Ġalle vi
Ġmarked ly
Ġst ra
uf f
Ġtre es
Ġper man
a per
ar ation
Ġsubgroup s
St ud
fer ase
Ġur inary
ol ism
Ġpro pos
Ġmicro ar
Ġmeas les
Ġim pos
ĠAN OVA
Ġinter rup
Ġsp an
Ġmen tion
Ġarth ritis
Ġutil izing
ai re
Ġdram atically
ĠC t
upplement al
li x
ĠConclusion s
ĠBo ard
Ġ8 2
am er
Ġsome what
Ġmand atory
Ġvisual ization
olar s
Ġinflu encing
Ġimpro ves
ant a
Ġdiab etic
Ġmedic ines
Ġcan n
Ġh ttp
m osp
Ġsubst ance
Ġrespond ed
Ġop ening
Ġpos e
as ters
t or
Ġw ur
ec tive
Ġw estern
op ic
Ġautom atically
Ġconfirm ation
Ġhome ostasis
Ġsp inal
Ġexclusive ly
ll a
Ġen abling
Ġwa iting
Ġassum ing
A ccording
He alth
Ġhom ogene
Ġs enti
p ens
ensi ties
s acchar
os es
Ġsuppres s
Ġhom ology
ir y
Ġacknow led
Ġethn icity
Ġemo tion
l og
val ues
id ents
Ġsup plies
Ġcategor ical
id ase
E N
Ġec osystem
Ġweak ness
Ġ8 3
Ġop posite
um ing
Ġcomp artments
Ġemph asis
Ġdifferenti ate
MP s
ĠPh arm
Ġch loroquine
Ġcontag ious
Ġevol ving
Ġconduc ting
Ġfl av
Ġdist ances
p andemic
Ġtend ency
Ġ7 4
AR DS
Ġbo ost
ter min
Ġsuf ficiently
ost r
ges tion
Ġvis ion
Ġcover ing
ĠT GF
Ġy outh
po ly
Ġdiscre te
ĠB as
ME RS
m end
Ġdest r
ur is
Ġb p
dom ain
b odies
Ġtransform ed
yp ical
Ġsubstr ates
Ġcomp ute
Ġun iversities
Ġpre ferences
Ġpurch ased
Ġec ological
he ther
ect omy
Ġatten ding
Ġconsolid ation
fe k
Ġser ved
Ġdeterior ation
B ank
os ocial
ĠD ist
Ġne ph
Ġsens ing
Ġnot able
ec k
Ġgra ft
Ġeng aged
S C
Ġcalc ulations
id i
ĠC L
Ġcl oud
ĠÃ ¼
ĠB ackground
Ġv ill
Ġregard ed
Ġprogram mes
ĠN Ps
Ġsoci eties
Ġo u
Ġexplicit ly
ĠAl tern
Ġsqu are
f ord
Ġserop revalence
ether lands
ĠInd ividual
Ġw ird
R R
MP V
Ġconsum er
rit in
ĠU l
Ġtransl ated
Ġsecre t
ch ym
pres s
ĠD a
Ġser ine
Ġz ur
3 00
g ia
Ġchem okines
ĠInst ead
Ġser ves
Ġattack s
Ġreag ents
Ġinc ons
Ġpa ired
ĠE duc
ĠT A
Ġno tion
Ġstat ements
adj usted
is hes
Ġvir t
Ġspec tra
Ġlon eliness
ĠInd ex
Ġem p
ĠN one
ĠC ase
s ense
ĠCom mission
Ġsc at
ul try
Ġsupplement ary
pres sing
Ġillustr ates
Ġmanag ers
Ġwa ves
S L
Ġf ell
Î ¼
ĠR MS
met ric
O T
Ġregular ly
Ġspecial ized
Ġcut off
Ġrespir ator
Ġstimul i
Ã© n
Ġnit rogen
Ã ŀ
Ġ ]
I nd
Ġclaim s
Ġfood s
ug in
Ġs omething
ir able
Ġindirect ly
Ġretrie ved
Ġstrateg ic
Ġag ency
cor onavirus
Ġshif ts
Ġcovari ates
Ġwork er
Ġsec ure
l a
Ġg p
if ies
ad ian
Ġ8 1
Ġre activity
d ist
m g
ĠC entral
Ġoffic e
Ġ um
T M
Ġpro gen
avir in
Ġneur onal
an a
Ġind oor
Ġout er
rib ution
Ġve get
Ġglycoprotein s
R V
Ġconfl icts
Ġy ellow
Ġto b
ĠN etherlands
echn ology
Ġsh op
ĠM ann
' -
Ġreturn s
ad ic
Ġde emed
Ġed ges
Ġre ass
le ase
Ġmix ing
Ġcompos ite
rolog y
p red
Ther mo
Ġden otes
Ġdispar ities
Ġdel ays
Ġelim inate
Ġencour aged
ĠE P
Ġimportant ly
ĠT a
Ġischem ic
Ġchalleng ed
an ing
pan ic
l ies
Ġcomp rom
V HD
fact or
Ġpl aus
Ġproduc tivity
Ġse iz
Ġinser tion
ĠM ex
Ġprof ound
Ġindust ries
ur ia
Ġd ark
K U
Ġsimilar ities
ĠL ast
Ġsc ored
Ġox ide
Ġcon vers
Ġch am
c d
Ġfil es
ox yl
Ġex em
ocyt openia
Ġvic tim
ĠA uthor
Ġver tical
ĠD isc
Ġ ions
us p
ĠG ram
Ġc ys
Ġst rept
conf irmed
Ġhypot heses
d ens
Ġmm Hg
Ġsuic ide
Ġpass ed
par tic
ĠC yt
Ġlo oking
Ġrab bit
Ġembed ding
Ġim ported
Ġe ase
ess ment
Ġconsult ations
Con clusion
Ġdisc our
Ġthe ories
ĠH a
Ġm Abs
L U
ĠP ost
Ġmedi ate
struct ural
ang ed
) /
Ġclos er
e y
id ing
Ã º
N R
ĠA A
Ġcompe titive
Ġ8 6
ult ure
Ġreplic ates
Ġwel fare
G GA
in ib
Ġexc lude
Ġfluct u
ell itus
Ġcomput ation
ĠF rench
Ġv ascul
Ġcomput ing
ĠS F
ĠC hem
ocomp romised
Ġradi ological
ĠD A
Ġload ing
Ġsubst ances
Ġadv oc
hyth m
i ers
Ġ8 7
ular ly
ĠBayes ian
ell en
Ġincorpor ate
ĠÃ© t
Ġspect rom
Ġsp ons
: :
ĠC AR
Ġcentrifug ation
Ġin ference
Ġint act
omp ass
Ġd ass
et a
Ġland sc
Ġoxygen ation
Ġir radi
Ġfr actions
Ġcollabor ative
Ġat mosp
Ġgain ed
ocom ial
Ġm ent
ur in
ĠNa Cl
Pati ents
D e
Ġsecre ted
Ã¡ s
ĠâĪ Ĩ
Ġindic ations
N L
ĠEmerg ency
oh ist
ce l
Ġeth anol
Ġb ow
Ġbench mark
Ġf ight
ĠMaterial s
Ġcris es
Ġestablish ing
Ġapp s
Ġagg ressive
Ġch ose
Ġinter acts
Ġatt ached
Ġ8 9
ĠCh ar
Ġrelig ious
Ġexp ensive
ĠA UC
xim ately
Ġutil ize
Ġfil ters
Ġw inter
Ġaf ore
Ġbronch ial
Ġs om
ĠTG EV
ĠG FP
Ġco inc
R eg
Ġfarm s
ier t
Ġprophyl actic
re mia
PI s
ĠT ables
ĠReg arding
valu ation
00 2
CM V
Ġop i
Ġwell s
Ġsh ut
Ġup regulation
Ġn t
Ġmod ulate
Ġout lined
ag glut
Ġdown load
Ġimmunosup pression
ĠR h
vit rogen
ĠL T
sy stem
Ġcontr act
Ġrota virus
Ġqu ery
Ġfoc al
Ġforec ast
Ġjour nals
Ġanticip ated
Ġimmunode ficiency
Ġimm ob
ĠO p
Ġ9 1
Ġfed eral
Ġar rest
on y
Ġint ense
Ġvom iting
ĠC r
l ock
ĠIm p
Ġdesign s
id a
Ġv ag
ĠS M
Ġprom otion
Ġto c
Ã¯ ve
Ġmel an
ĠS PSS
con verting
c an
Ġm ism
h ost
ik a
Ġmicroscop e
Ġwilling ness
ch y
Ġpo ultry
roscop ic
ĠF in
Ġmor al
Ġthick ness
ĠCol lege
Ġestablish ment
Ġex er
if f
Ġcom o
b d
ĠF ace
Ġafore mentioned
Ġtempor ary
Ġreg en
E F
Ġple ural
Ġchromat ography
Ġfluid s
Ġg astric
iv ariate
Ġrel ies
ĠCon versely
os ing
Ġcontr ary
Ġcas pase
P T
ĠV SV
ro zen
Ġmotif s
Ġm ellitus
ĠM at
me as
Ġexam inations
Ġab use
ĠmiRNA s
TT TT
Ġintellig ence
Ġun us
ph ase
f ers
ĠV L
Ġrh in
Ġdis proportion
Ġsc aff
Ġâ ĸ
Ġsyn erg
a phyl
Ġplasm ids
Ġexpos ures
Ġdiag ram
Ġpron ounced
Ġnec k
Ġle aving
ĠN Y
ĠÂµ m
Ġhist opath
z es
Î »
Ġfund s
Ġvol ati
il ized
ok ers
Ġre tic
ĠD ay
flu orescence
ochem istry
id ential
az ole
Ġca ution
ang es
Ġhe avi
ĠE BV
Ġex ogenous
s en
ac oronavirus
Ġacce l
Ġre vers
ĠS ix
Ġde fic
Ġupd ate
Ġdoct or
aryn g
Ġderiv ative
Ġbiomark er
ke it
Ġforec asting
um ber
u ro
Ġcor por
ĠB L
Ġ* **
b lasts
Ġreflec ting
ĠPatient en
Ġqu ad
Ġjud g
ol ved
Ġam in
Ġf ish
Ġa pt
Ġneighbor hood
O f
ĠL V
Ġantib acterial
m ethyl
Ġstrati fied
ĠT otal
end it
Ġlab els
Ġg lo
Ġgroup ed
a ur
Ġenc ompass
Ġn ose
ot ing
Ġconf inement
Ġl uciferase
C ons
ĠS L
Ġde fects
Ġch ol
Ġth ym
Ġar rang
Ġcaus ative
Ġ* *
Ġrefer ral
Ġcust om
Ġhors es
O M
Ġha ir
Ġmod ulation
if orn
Ġconfound ing
Ġcryst all
Ġtoc ilizumab
par amet
op tim
ist an
Ġk ill
Ġch arged
Ġbusiness es
ĠLike wise
Ġap art
ĠS amples
ge b
Ġpart ly
g ly
ad der
Ġab er
ĠO D
Ġim bal
C ov
ĠG M
Ġl ists
Ġsign alling
. ).
Ġp g
5 49
plic ity
Ġdial ysis
ĠIFIT M
Ġcompr ising
CC AA
ĠIn troduction
A pp
ĠL ik
in te
Ġg ram
Ġaut op
Ġpul se
Ġcont ents
Ġenzym atic
Ġsy ndrom
Ġeas ier
Ġleg is
Ġfit ted
ĠI T
Ġoptim ize
ac in
Ġpass age
so ur
reat ening
Ġcomb at
label ed
th at
ĠRep ublic
Ġve in
Ġclass ifier
ar th
ĠN HS
Ġconstit ute
v age
ti e
Ġsh all
Ġindivid ually
Ġdis infec
Ġmaxim al
n et
ĠCoV s
Ġagricult ural
ugh t
O X
Ġly sis
Ġconcom itant
Ġend point
ĠM yc
oc he
Ġâ Ħ
Ġemerg encies
ĠJapan ese
Ġcasc ade
f amily
B R
Ġsum mer
Ġchick en
Ġ ult
Ġparas ite
ĠÃ¼ ber
Ġinput s
d L
ĠSci ences
Ġcon volution
Ġde aling
Ġcer v
Ġdec om
Ġshort age
P L
Ġt rap
Ġout do
Ġw ards
Ġno tice
Ġster ile
ab s
n ic
ver sible
Ġdis asters
Ġlibr aries
Ġaccom pl
Ġrev ised
ĠCl in
Ġimmun ocompromised
ĠP ub
Ġfil tered
Ġem ail
Ġtraject ories
Ġag o
G D
ĠAn y
ari o
1 000
Ġd ense
ĠA ir
Ġentire ly
ti fic
Ġcurric ulum
Ġenvelop ed
ĠT reg
Ġcoll agen
Ġir re
Ġhighl ighting
Ġpartn ership
Ġdec ay
Ġexp endit
hy d
Ġbound ary
Ġt ro
Ġstead y
Ġremo ving
ak er
Ġb ands
Ġrep ur
Ġsupernat ants
Ġsubun its
ĠÎ ·
he res
ĠMS Cs
sh op
w al
ol it
Ġrel ating
Ġcreat inine
ĠN E
Ġalle les
ĠDif ferent
Ġpresent ations
