#version: 0.2
Ġ t
i n
Ġ a
r e
h e
o n
t i
e n
Ġt he
Ġ s
Ġ o
e r
Ġ c
e d
Ġ p
a l
e s
Ġ in
o r
a t
Ġ w
n d
i s
Ġo f
Ġ d
i t
ti on
Ġ f
Ġa nd
Ġ m
r o
a n
Ġ b
in g
i c
a s
a r
Ġ re
Ġt o
en t
l e
Ġ e
u s
e c
a tion
v e
Ġ h
Ġt h
l y
a c
Ġ (
o m
Ġ n
u l
o s
u r
Ġ l
i d
Ġ T
i m
l l
e t
i r
it h
Ġ v
i g
Ġw ith
Ġf or
c e
o l
Ġs t
Ġc on
Ġ is
u t
Ġw e
Ġp ro
Ġ g
Ġ C
Ġa s
u n
Ġa n
Ġb e
o t
o w
a ti
t er
re s
Ġ I
Ġ A
i l
Ġ S
u c
e m
a m
Ġ on
Ġth at
i f
a b
it y
o d
Ġ 1
t s
v er
s t
Ġ .
t ed
u m
Ġe x
o c
Ġ 2
at e
Ġre s
at ed
ĠT he
u d
ti c
r a
r i
s i
Ġw as
q u
o p
he r
ent s
Ġc om
s e
a y
f ec
Ġb y
Ġd e
a g
Ġwe re
Ġa re
Ġo r
Ġa c
ro m
a d
o g
t h
u re
Ġd is
Ġ r
Ġ us
p l
a in
Ġ P
Ġw h
m ent
Ġ im
u p
e l
o re
ic al
es s
t e
Ġ F
Ġa l
Ġ M
er s
re n
Ġ Ġ
Ġf rom
p or
Ġs e
re d
Ġ H
as e
u nd
Ġin c
an t
in e
Ġa t
i es
ti ve
p ec
Ġc o
u g
Ġp ati
d i
Ġ R
Ġs h
Ġc h
Ġa d
Ġst ud
Ġh a
i z
u b
Ġ he
ig h
e ll
Ġcom p
Ġ en
Ġn e
Ġth is
c h
) .
r an
Ġcon t
ab le
si on
Ġn ot
a nd
ation s
Ġ 3
or m
Ġ le
ĠI n
1 9
o us
t her
ve l
ic h
es t
Ġ E
Ġp er
Ġ D
Ġ N
tion s
en ce
i al
Ġp re
I D
g e
Ġ it
Ġpati ents
Ġ B
d uc
Ġha ve
O V
Ġv ir
Ġin fec
ig n
Ġc ell
ac t
Ġc l
v id
OV ID
p er
i on
en ti
Ġp ar
v i
Ġc an
Ġs y
Ġ W
if ic
Ġas s
f e
0 0
ĠC OVID
) ,
Ġwh ich
os t
p t
Ġf o
i ll
ar y
Ġa p
p h
i p
f orm
Ġg en
k e
i a
or y
p ro
Ġc a
is t
Ġd i
y s
d ing
v ed
or s
ti v
Ġm od
Ġe f
p le
Ġh as
Ġin ter
al ly
Ġ 4
e ar
om e
an ce
ul d
ol og
as ed
Ġd if
le c
fe ren
Ġd at
Ġ un
Ġ 5
s o
Ġ O
Ġ G
u e
ati ve
por t
on g
Ġre c
Ġa b
Ġin t
Ġres p
v en
ran s
i ti
al th
et w
Ġstud y
Ġa ll
Ġ 0
m un
Ġ ,
Ġcon s
ac h
ar i
Ġ L
en c
R S
ag e
Ġal so
p res
as es
ug h
l ud
ĠT h
Ġp l
al l
Ġw he
Ġp os
re at
Ġbe en
i b
Ġs c
f ic
Ġ2 0
Ġt rans
en d
Ġo b
uc h
Ġsh ow
y p
id e
Ġs ign
Ġm e
Ġdat a
os e
Ġg ro
or k
Ġo ut
at h
t ing
Ġdif feren
Ġ y
v ir
t r
Ġo ther
o V
Ġp res
Ġthe ir
Ġd et
Ġ k
at es
Ġvir us
a k
f l
Ġan ti
Ġres ul
Ġre g
Ġa f
ri b
ul ar
Ġan al
e en
Ġ qu
Ġdis e
v al
Ġm ore
Ġhe alth
Ġm ay
Ġ U
te in
il ity
Ġcell s
etw een
u al
Ġt im
T he
Ġthe se
Ġef fec
C oV
i ed
Ġb etween
o ut
Ġinc lud
e p
e w
Ġre l
Ġm ed
at ory
Ġs ub
Ġinc re
Ġs am
A RS
Ġ und
Ġmod el
N A
Ġst r
o ur
em ic
b er
Ġa g
Ġus ed
a p
Ġin d
igh t
Ġs pec
Ġm an
ti m
2 0
oc i
p it
ur ing
Ġm et
Ġc or
e ver
Ġus ing
a il
Ġd es
Ġs p
Ġh igh
Ġth an
as t
en s
ĠS ARS
Ġpro tein
Ġresp on
Ġs ur
st r
Ġp h
Ġac c
Ġ ro
Ġs uch
Ġpar tic
Ġa m
ul ation
Ġinfec tion
Ġp r
o uld
ĠTh is
Ġs er
er m
as s
u res
Ġ 6
ar d
Ġ =
Ġv ari
vel op
Ġn um
Ġgro up
Ġn o
Ġtim e
t ain
Ġs up
Ġe m
st em
ec h
l o
Ġdise ase
Ġp o
ay s
Ġund er
p os
v es
Ġl i
d er
t al
Ġb ut
Ġsign ific
b le
Ġle vel
w o
di tion
at ing
ra p
Ġanal ys
n e
Ġim mun
Ġd ec
pl ic
Ġde velop
re e
Ġo ver
an g
i le
t en
an c
Ġo ur
Ġw ill
' s
Ġd uring
Ġ â
is k
Ġus e
Ġ V
ot h
u tion
Ġsy stem
iz ed
Ġsignific ant
Ġcl in
un c
ac e
Ġon e
ĠF ig
Ġap pro
Ġ "
Ġv al
Ġthe re
Ġwh o
Ġre por
ll ow
ra in
l es
Ġin fl
ro l
Ġt wo
Ġw ork
ac c
Ġl ow
c ess
ow ever
ec t
s er
a re
ac k
Ġt reat
Ġstud ies
ation al
on e
Ġpro vid
ĠW e
a red
Ġs im
Ġ id
Ġc ol
ro s
Ġnum ber
Ġm o
un g
an ts
in es
ul t
u es
Ġr isk
Ġa r
um an
Ġfo llow
Ġass oci
Ġ 7
on d
Ġc ases
Ġf act
Ġresul ts
Ġh ad
tiv ity
ar g
Ġcon c
Ġf in
ow n
Ġdifferen t
Ġco un
vir us
ec tion
re c
al s
Ġaf ter
l i
Ġm ost
in t
ac ter
Ġdis t
Ġid enti
Ġ1 0
us e
f er
Ġ 9
Ġgen er
y t
ir st
iti es
m is
Ġme as
il d
Ġclin ical
Ġon ly
f ore
i tive
Ġa ut
ic e
Ġper form
Ġt est
Ġ es
Ġint o
m pt
Ġpres ent
Ġe ach
Ġv acc
Ġex per
h od
ati c
Ġthe y
Ġanalys is
Ġo p
Ġp e
he d
Ġwe ll
and emic
Ġvir al
Ġfor m
ub l
olog ical
Ġin di
Ġb oth
os pit
Ġb i
ro ugh
Ġp ath
Ġrepor ted
ent r
Ġn on
uc t
iz ation
ut e
o ver
m ents
v ing
Ġh uman
enti al
tic al
Ġp op
mpt om
Ġh ig
m on
Ġm on
at er
Ġd o
in ed
Ġco uld
Ġ q
is m
Ġob ser
Ġa v
c es
Ġp andemic
1 0
ab ility
ter n
Ġex pres
Ġit s
Ġl oc
Ġt r
g en
ur ther
r am
qu i
Ġm a
us t
Ġcomp le
Ġ up
Ġca re
Ġtreat ment
vid ual
e f
o ugh
og en
c c
Ġ K
er g
duc ed
in ation
Ġ 8
Ġv er
Ġne ed
Ġex am
Ġfo und
Ġin form
Ġp ot
Ġs ome
Ġre m
Ġwhe n
Ġim port
Ġf irst
v ol
Ġindi vidual
or d
he n
ag n
h ib
enc y
i an
Ġmet hod
olog y
unc tion
Ġ J
Ġth rough
at ure
Ġs ec
duc tion
res s
Ġp ubl
C T
Ġ ra
m ed
ren t
Ġcont rol
ĠI t
Ġre ce
Ġanti b
o k
vi ew
ĠH owever
ti t
os is
Ġidenti f
Ġt yp
Ġres ear
Ġ Î
p r
Ġd em
Ġind ic
Ġb ec
ug g
ospit al
mis sion
or t
y l
it ed
Ġm in
Ġ -
Ġsh ould
Ġc ar
Ġy ear
Ġassoci ated
Ġpati ent
Ġne w
Ġim p
Ġp red
Ġm ul
Ġhig her
r ic
A A
Ġcon f
am m
g an
Ġk n
il ar
Ġdis c
I n
Ġs et
d e
Ġs ugg
Ġpartic ip
on s
pec tive
Ġc ur
Ġpro t
Ġpro cess
Ġwhe re
ent ly
Ġinclud ing
ve re
Ġf l
re l
it e
ac tion
Ġs o
an ge
Ġad dition
is e
ar t
ir atory
Ġsy mptom
ate g
e x
ti es
Ġ j
ol d
n ing
si ve
us ion
Ġth ose
i tion
em ent
Ġ ).
oc ial
ar k
fic i
Ġp ers
i v
Ġen d
Ġpos itive
it s
pl es
o x
i ve
Ġre qui
Ġav ail
em b
Ġse qu
ĠF or
Ġc r
Ġs m
a f
iz e
Ġlevel s
Ġf e
ĠC h
om es
ĠFig ure
ĠĠ ĠĠ
he s
ech n
Ġd ue
vi ous
Ġdes c
si ble
i e
on a
Ġpro g
ag es
Ġpop ulation
Ġl im
Ġcomp ared
Ġ20 20
Ġin s
u f
Ġdi agn
c on
k s
Ġse ver
Ġm ain
re ad
Ġd r
C R
ur al
Ġshow n
Ġincre ased
Ġli ke
Ġc ase
Ġinfl u
Ġb ased
Ġab out
ĠA s
ple ment
Ġap p
Ġinform ation
Ġrespon se
Ġ Â
Ġresear ch
Ġr ate
Ġf unction
Ġspec ific
Ġresp iratory
i ly
Ġo cc
r on
n ess
Ġh y
val u
Ġimport ant
tic s
Ġstr uct
l d
Ġh ospital
Ġantib od
Ġmul ti
. ,
et y
Ġd ays
Ġin hib
he m
Ġm or
T T
arg et
Ġass ess
Ġe p
ar ge
Ġwith in
Ġs ocial
rec t
Ġse vere
F ig
in al
Ġpred ic
Ġthe rap
ra ph
Ġpubl ic
Ġt ra
Ġag ain
Ġp a
Ġam ong
Ġan y
Ġa ge
% )
al ity
f ul
op le
Ġth ree
Ġ i
Ġe t
Ġavail able
al e
ĠA n
Ã ©
Ġeffec t
ĠR NA
Ġ if
Ġe valu
Ġcoun t
Ġobser ved
Ġin te
Ġw ould
ĠThe se
Ġ +
ĠThe re
Ġcom mun
ĠT able
ti g
Ġde f
Ġt echn
Ġdet erm
i x
j ec
i od
ro p
a use
Ġim pro
ion s
o un
o und
Ġaut h
p tion
oc k
ri es
ar ly
Ġt arget
ĠS t
Ġexpres sion
Ġgen e
o id
Ġsim ilar
Ġme an
it er
ros s
ver s
Ġshow ed
Ġpot ential
Ġpe ople
c l
Ġle ad
Ġpre vious
Ġac tivity
Ġyear s
en g
c er
Ġpr im
ona virus
Ġt es
Ġdesc rib
Ġch ar
Ġper iod
Ġwh ile
ic ro
Ġcol lec
is s
Ġcl ass
ad e
Ġe l
s es
ul ated
ati s
Ġb in
Ġch ild
C A
Ġperform ed
g ative
Ġinfec ted
Ġes tim
ĠĠ Ġ
Ġde p
Ġagain st
ent al
Ġman y
enc es
Ġre view
Ġre pres
o ve
i ved
Ġeffec ts
en se
ech an
Ġout c
Ġchar acter
Ġt e
Ġ )
Ġp ol
Ġfact ors
Ġsymptom s
Ġthe m
p ar
Ġf urther
h a
v ent
u ce
Ġdr ug
Ġsam e
m in
Ġsam ples
Ġt ri
Ġincre ase
Ġmeas ure
o b
Ġca us
Ġch ang
Ġex pl
Ġgroup s
Ġl ong
Ġin vol
ĠA l
on str
in ce
id er
Ġor gan
Ġin iti
lo b
Ġm echan
Ġc yt
ĠC D
in c
Ġc al
Ġob tain
Ġs ol
en z
lo od
th ough
o od
ac y
Ġs us
Ġâ Ī
Ġthe n
ical ly
om ic
00 0
uc le
Ġde ath
ven tion
Ġto tal
Ġocc ur
Ġaf fec
x im
i qu
Ġsec ond
am et
p s
Ġprotein s
Ġcur rent
ves tig
m a
Ġimmun e
Ġl arge
Ġ z
m er
Ġres pective
m e
1 2
Ġfin ding
Ġp ri
Ġdevelop ment
Ġ Ã
Ġfollow ing
Ġdec re
h ip
Ġsup port
re ak
m it
Ġro le
Ġl ess
Ġw or
l ine
Ġindividual s
Ġep id
Ġc le
i ven
Ġcom mon
ate ly
Ġvirus es
Ġlow er
ti l
Ġl ung
Ġe vid
b ased
pos ed
Ġin vestig
Ġbe ing
Ġcont ain
R NA
Ġse lec
l ed
Ġcount ries
Ġl ab
Ġrel ated
Ġwith out
Ġinfec tions
ĠH e
Ġm emb
Ġsm all
Ġf ac
Ġmodel s
ro ph
Ġ ed
Ġne gative
ĠU n
Ġparticip ants
Ġsignificant ly
Ġstr ateg
S A
j or
Ġ u
Ġdem onstr
Ġb lood
Ġd er
s y
og raph
if ied
Ġrec om
Ġinclud ed
Ġb l
r y
se qu
Ġ '
Ġ <
Ġt erm
orm al
Ġre le
Ġ1 2
Ġd id
Ġbec ause
Ġdes ign
Ġl a
Ġe qu
pr int
s ed
is h
in a
Ġconf ir
re qu
Ġidentif ied
plic ation
tal ity
C E
ec ted
Ġexper i
or ding
ic es
Ġb as
Ġpr ac
Ġp ost
Ġall ow
u id
op h
Ġcor onavirus
Ġma jor
Ġad d
Ġs it
i o
in k
Ġst and
1 1
Ġrespective ly
c ri
Ġconc entr
Ġis ol
Ġpos sible
o res
Ġv is
er n
Ġac id
enz a
ide red
Ġh ow
Ġsever al
Ġpre print
t o
ar m
Ġcons idered
Ġpartic ular
T G
Ġvacc ine
Ġmor tality
ot her
Ġqu es
Ġ1 9
Ġac tiv
Ġimp act
Ġmed ical
ĠT o
Ġat t
ĠI L
Ġem erg
Ġex t
Ģ ¢
Ġrem ain
he l
Ġinfl amm
en si
Ġtrans mission
is hed
Ġeffec tive
Ġdist rib
t y
i um
Ġt re
Ġcom b
etw ork
vir on
o f
ro und
at or
Ġm icro
i el
Ġchild ren
Ġmo lec
x t
Ġwe e
re g
Ġhe l
Ġcons ider
Ġsam ple
o v
end ent
v ant
b reak
Ġchang es
Ġ1 5
Ġpro b
Ġ ill
Ġappro ach
Ġcomple x
Ġm ut
Ġac ute
ic s
d uce
st and
o y
Ġval ues
c ed
Ġprovid e
Ġres id
Ġpro duc
r ation
Ġ ke
in d
Ġval ue
Ġlike ly
Ġrepres ent
Ġanal y
Ġbe fore
Ġexper im
Ġinhib it
Ġph ys
z ed
Ġm ark
ab les
Ġf requ
Ġt em
on al
Ġdescrib ed
Ġresul t
a ke
Ġsur ve
Ġdi rect
Ġpro f
Ġexam ple
Ġa ir
ha vi
Ġdise ases
Ġtyp e
Ġcomp ar
di tions
Ġevid ence
Ġman ag
ar ch
1 5
og n
Ġout break
is ed
f t
Ġd ay
Ġcont in
Ġpo ly
y n
en ing
Ġm at
1 4
T A
Ġsp read
Ġrece pt
Ġf am
Ġtest ing
Ġ3 0
Ġle ar
Ġg reat
a v
Ġ ly
Ġe arly
Ġmeas ures
u ally
ver age
Ġcont rib
Ġgener al
y c
ing le
w ard
Ġcon ditions
ne um
c ent
Ġsugg es
ver y
Ġser v
Ġbe havi
ut ed
Ġmechan ism
Ġ5 0
Ġn etwork
ce pt
Ġm ight
Ġen viron
Ġm ade
Ġca p
ver se
Ġgro w
Ġpar t
I V
c are
Ġpar amet
Ġe ven
if e
b ility
rel ated
Ġfinding s
ĠA f
Ġan im
ĠA ll
Ġobtain ed
Ġkn ow
Ġre t
Ġg iven
ti s
Ġin f
Ġf oc
n al
Ġsy n
Ġre f
1 8
Ġcon duc
Ġver y
Ġsugg est
iel d
Ġl o
is ts
Ġcal c
ce p
Ġb en
ti ous
m s
p on
Ġg lob
Ġc ult
Ġ est
Ġs ingle
Ġd om
Ġbin ding
Ġm ice
an ti
1 6
Ġh yp
Ġmon th
Ġn ucle
Ġch all
ent er
ol s
w ay
as ing
Ġt rain
Ġmulti ple
Ġp ur
Ġt iss
Ġdevelop ed
1 3
r al
Ġl ic
Ġor der
ĠR es
ĠC on
Ġn ec
f ace
Ġinflu enza
ul ations
Ġpro ble
end ed
Ġl ine
Ġloc al
Ġre port
Ġc op
Ġh ost
Ġc ri
ĠR e
Ġreg ion
in s
is ion
fici ent
Ġmethod s
s pec
f or
Ġ1 4
ac tions
Ġpri or
Ġst rain
Ġimpro ve
Ġfoc us
Ġb et
ific ation
5 0
Ġdiagn os
pl oy
Ġc er
Ġv i
ial ly
t he
Ġrel ative
Ġstand ard
Ġy o
u tions
Ġp at
a i
Ġdet ection
Ġauth or
ul ts
Ġ [
over n
Ġex tr
s ure
om en
1 7
our ces
Ġim plement
it her
Ġp neum
ic k
Ġprog ram
pec ted
ab l
Ġe lec
Ġkn own
as c
ĠF urther
Ġb acter
in fec
Ġl os
Ġunder stand
Ġstruct ure
ous e
Ġrel ations
Ġ er
Ġinclud e
c op
Ġch ange
Ġrespon ses
Ġh ist
Ġst atis
Ġdis pl
ĠC om
Ġpol ic
Ġenviron ment
Ġwor ld
Ġst ate
Ġac ross
ĠI F
ĠO n
Ġoutc omes
ot yp
Ġwhe ther
n er
Ġtherap y
tr y
et s
Ġ Z
Ġantibod y
oc yt
ak ing
Ġdifferen ces
Ġs ize
ĠA d
Ġsystem s
Ġha nd
Ġpres ence
plic ations
Ġinte res
Ġpl as
ep ti
Ġfo ur
e u
Ġlim it
el f
oun t
Ġs ensi
Ġfact or
Ġ rap
ĠI g
ep endent
Ġr ates
Ġhel p
Ġvari ous
es sion
Ġantibod ies
Ġcont r
Ġf ul
Ġ Q
Ġepid emic
Ġrecom m
ter s
ut ure
sy ch
tic ally
W e
Ġn ormal
Ġrequi red
Ġpro duction
y m
led ge
Ġst at
Ġidentif y
Ġen c
Ġcan cer
ĠâĪ Ĵ
i vers
w e
id ence
r u
s ing
j ect
0 5
Ġinfec tious
ti ll
ĠP ro
Ġconfir med
Ġ2 4
Ġv ol
an s
Ġe con
Ġne ut
ur n
Ġdisc us
Ġab s
ĠI nd
rom e
ore d
Ġc at
Ġlic ense
med i
ĠM ore
on ia
Ġ Y
l ation
at ors
Ġrap id
Ġstr ong
Ġcont act
Ġrelations hip
Ġst ress
Ġ2 00
h old
Ġr ange
Ġe le
ĠCh ina
a x
Ġdiagn osis
Ġre duced
d own
Ġv it
p ut
res sion
% ,
Ġre al
Ġ1 3
Ġ1 8
c i
Ġprim ary
Ġgen es
ran e
t t
Ġed uc
Ġ1 00
Ġv ia
ul es
he st
ĠD NA
ĠThere fore
Ġcharacter is
g er
Ġdom ain
se l
Ġab ove
Ġcommun ity
it or
Ġex pos
Ġe v
Ġdet ected
ab ly
Ġstud ents
ĠA CE
l ow
2 1
ĠI C
Ġrec ent
Ġqu ality
ac ts
ro ll
G A
ĠW h
C s
Ġo x
Ġmanag ement
Ġad min
an n
Ġpro ced
Ġdispl ay
Ġcons ist
Ġof ten
Ġg overn
Ġsc re
Ġre ve
Ġdistrib ution
Ġs uc
Ġglob al
Ġs ince
ot e
Ġ1 6
Ġacc ess
nd om
Ġcollec ted
Ġvari ables
Ġsequ ence
ir c
at a
Ġis s
te red
Ġprovid ed
Ġpresent ed
Ġs elf
ch o
Ġin j
Ġle ast
Ġ X
Ġlim ited
Ġpro m
Ġhealth care
Ġknow ledge
d es
iti s
Ġl ife
Ġe ither
at ures
Ġtes ted
Ġlab or
yn am
ater ial
Ġp sych
Ġlear ning
m ph
iz ing
ti ce
ĠHe alth
Ġbet ter
Ġf uture
Ġg ra
Ġacc ording
Ġm as
Ġdemonstr ated
Ġl ack
af f
Ġo l
Ġa verage
ter m
Ġconduc ted
str uc
Ġs till
Ġop tim
nd rome
Ġpath ogen
Ġf ail
ir d
Ġe pit
x iv
Ġ1 1
Ġcor rel
Ġver sion
Ġcar di
Ġra ndom
b e
pres sion
R xiv
Ġpat tern
Ġh owever
Ġd a
Ġ ur
anc es
Ġm y
Ġ2 5
Ġprevious ly
Ġspec ies
Ġo per
Ġre ad
Ġsh ort
Ġpneum onia
ag ing
Ġcon te
Ġincre asing
Ġiniti al
Ġke y
an e
Ġrecept or
Ġsign al
Ġde g
Ġtes ts
Ġcyt ok
Ġen h
Ġth us
feren ce
Ġhy per
c om
Ġmonth s
ti vi
Ġques tion
in o
P CR
Ġde l
pec t
Ġpro per
al ed
Ġin st
Ġr at
ur ation
c o
pec ially
m ore
ar di
Ġhigh ly
Ġg o
y r
ir al
Ġâ Ģ¢
Ġest abl
Ġg ran
Ġcri tical
Ġg uid
Ġtim es
Ġrequi re
ce ll
M P
ti f
Ġac h
Ġshow s
spec ific
Ġca use
iqu e
i er
Ġfac il
ib le
od e
Ġare as
Ġset ting
T h
Ġparamet ers
Ġass um
p ri
Ġach ie
Ġpre vent
Ġtrain ing
Ġass ay
w ays
Ġrec ogn
er v
Ġpre val
Ġdo es
li ke
am e
2 5
Ġexpos ure
s et
Ġf ew
Ġs um
Ġp ul
Ġmed Rxiv
Ġly mph
g l
Ġnec ess
Ġ Ï
Ġde li
ron ic
Ġsur face
Ġmin im
Ġac tive
Ġin v
n ot
Ġgrow th
our ce
Ġfam ily
ing s
pl ied
Ġad v
/ /
Ġst ep
Ġperform ance
Ġar tic
Ġre as
Ġm g
ĠIF N
Ġs w
Ġc irc
Ã ¤
ĠAl though
A P
Ġdifferen ce
tivi ties
ic t
Ġmed ic
Ġad j
d en
w h
Ġes pecially
od y
Ġinvol ved
Ġre duce
Ġr ati
Ġg l
: //
ĠI I
Ġsc ore
Ġem ploy
d ro
Ġconc ern
jec ts
Ġc hem
Ġdef ined
Ġh ome
i ous
ens ity
Ġacc ur
Ġaddition al
Ġm ust
Ġpro posed
Ġex p
Ġcontin u
igh ts
ĠTh us
Ġfollow ed
p ati
Ġne u
Ġauth ors
Ġac t
asc ular
Ġs a
Ġsur vi
Ġserv ices
Ã ³
ĠH C
ic ity
mit ted
Ġactiv ation
Ġsy ndrome
Ġcor res
Ġa im
Ġtiss ue
b o
Ġl iter
Ġp epti
Ġtem per
ĠC T
Ġsc i
ul ate
Ġ20 19
Ġsit u
Ġdif fic
9 5
Ġphys ical
Ġra di
3 0
l as
Ġm al
b id
an y
Ġpo int
p e
Ġre duction
Ġstrateg ies
Ġor ig
ic ian
el ine
g o
ar ding
ĠC o
h y
Ġd oc
R I
hes is
Ġben ef
Ġf ram
Ġex ist
Ġser um
Ġcomple te
Ġcaus ed
Ġterm s
is tic
Ġval id
Ġinte g
ĠE n
in ant
s c
Ġinter action
Ġsurve y
Ġapp ear
id es
Ġm ac
Ġto p
Ġfo od
Ġtyp es
ak en
Ġ1 7
Ġchall eng
Ġen g
Ġco ur
ect or
ĠP CR
Ġac tivities
Ġrespon d
Ġre plication
Ġobser v
Ġu til
Ġcharacteris tics
Ġgreat er
Ġcomp on
w n
Ġ >
A S
Ġloc k
om y
Ġw omen
Ġtrans cri
Ġare a
Ġc re
Ġthere fore
Ġre str
Ġstat us
Ġev ents
Ġs ite
os ph
u le
Ġconte xt
Ġdrug s
Ġph ase
af ety
Ġsever ity
ĠH IV
Ġab le
Ġreg ions
in ated
Ġse e
ab il
Ġconcentr ation
Ġch ronic
Ġf il
r it
Ġm en
Ġno vel
Ġrec ord
ur y
Ġmemb rane
Ġcult ure
Ġs oci
i ke
Ġcl us
g i
anc ed
C C
Ġg ly
Ġd own
he re
Ġinflamm atory
Ġon line
Ġover all
Ġtre ated
ĠO ur
Ġfe atures
ĠS e
mon ary
Ġc ateg
Ġs k
Ġcomp ound
i or
Ġv enti
Ġsequ ences
Ġadd ress
ĠM E
por tion
Ġsuc cess
our s
P s
Ġd ynam
Ġdet ail
Ġwee ks
D S
ocyt es
em s
ĠMore over
ĠFurther more
s p
fici ency
en e
Ġw ater
Ġdeath s
Ġm uch
Ġvacc ines
ĠA t
Ġ ess
um ent
Ġcr iter
Ġan tiv
Ġat ten
B D
ĠI m
Ġpers on
en sion
ti al
is on
A R
Ġs uf
ot he
Ġanti gen
ly ing
Ġdeterm ined
Ġprot oc
Ġexperi ence
ĠE x
Ġen z
Ġse en
Ġda ily
om et
Ġanalys es
Ġd ose
Ġl og
ogen e
fic ation
em ber
z e
in ts
Ġm aterial
Ġpre c
Ġg ood
et her
Ġaffec ted
P E
enc ed
Ġb ro
Ġt um
pit e
cep ti
ĠR T
g or
Ġdat as
ut es
% ),
Ġhe m
erg y
Ġneed ed
Ġab ility
Ġvacc ination
Ġl es
i ent
Ġco h
Ġc ross
Ġe vol
Ġm ental
Ġdeterm ine
Ġl ink
w are
gor ith
Ġlock down
T able
2 9
Ġoutc ome
ĠC C
an k
el s
Ġper cent
Ġ her
ĠIn tern
Ġwh at
Ġb ack
Ġan other
Ġpreval ence
er ation
Ġrestr ic
ap s
er c
Ġre duc
Ġint ro
ac tive
Ġdi e
4 0
Ġinter actions
Ġst aff
Ġ ;
Ġh ol
Ġpl ay
P S
Ġto ward
ow er
Ġanaly zed
p re
Ġad mission
Ġ9 5
Ġgen ome
Ġappro pri
Ġliter ature
Ġinter vention
Ġl arg
Ġf ib
Ġins tit
Ġf ield
Ġmeasure d
Ġrece ived
ĠAf ter
Ġlos s
em i
in ally
p et
Ġw ide
Ġcl ose
Ġecon omic
Ġmolec ular
Ġex c
hel ial
ac ted
G G
l usion
Ġc entr
Ġpa per
Ġde v
Ġtherap eu
Ġap plied
Ġcle ar
her s
ivers ity
Ġn at
od es
Ġcon dition
ac hes
Ġinc ub
Ġres ist
Ġg e
Ġreve aled
in fl
a ir
Ġtemper ature
Ġa round
ab ol
eng th
Ġs l
Ġd on
Ġp hen
Ġb u
Ġindic ated
Ġc ent
R F
Ġv s
Ġexpres sed
oc h
Ġbehavi or
Ġcap ac
por ted
Ġanim als
M S
p o
e ed
se e
Ġantiv iral
Ġma ke
Ġrati o
2 4
Ġb est
Ġlabor atory
Ġres ources
anc ing
Ġrele vant
p ose
Ġsensi tivity
enti ally
R T
Ġinter n
Ġ4 0
und er
Ġw ay
Ġselec ted
Ġal though
Ġe very
Ġex pected
tt ps
a e
ĠÂ ±
Ġparticular ly
fic acy
Ġs cho
Ġpro te
ĠI f
b or
Ġprac tice
u k
Ġ x
Ġproble m
B S
Ġdecre ased
Ġill ness
Ġal gorith
Ġm ix
a ve
Ġd ys
Ġn ur
Ġe th
Ġsus cepti
Ġc all
Ġs afety
Ġmechanism s
Ġpl ace
Ġâ ī
fer red
Ġs tim
Ġcoun try
Ġmed ia
ĠM ed
Ġestim ated
Ġstrateg y
ograph ic
enc ing
u rop
x i
ĠC I
k n
Ġinc idence
Ġmon itor
Ġwee k
si bility
oc y
8 0
it al
Ġwork ers
Ġse par
ĠC l
Ġd am
Ġexpl ain
Ġpro portion
A s
over y
Ġref lec
T o
Ġeduc ation
I C
o virus
Ġ *
Ġcommun ic
if y
Ġmain tain
or g
Ġf r
us tr
t ro
Ġcon n
in ing
and s
Ġfl ow
Ġcalc ulated
Ġassoci ation
Ġb ody
Ġgovern ment
ĠA c
s tit
A C
ĠIC U
Ġcon st
Ġpolic y
Ġf ive
Ġdecre ase
Ġpredic t
Ġsub sequ
ist ration
Ġevalu ated
is ing
r ing
2 3
um e
Ġcontr ast
ĠThe y
Ġcar ri
Ġpul monary
Ġper ce
Ġst ar
S V
Ġcriter ia
Ġc ost
Ġgran ted
ĠO ne
i at
ĠM arch
Ġresul ting
Ġdiffic ult
ro up
Ġassess ment
Ġdirect ly
Ġprof ession
Ġprot ec
Ġappro xim
e b
Ġstrain s
ĠWh ile
Ġmed i
er ate
Ġsugges ted
Ġnecess ary
r up
Ġess ential
urop e
ab or
ven tions
Ġplas ma
ĠÂ µ
Ġtri als
Ġreg arding
Ġpres sure
Ġma xim
Ġsit es
Ġinteres t
Ġcour se
Ġother s
ve ment
Ġcer tain
6 0
Ġco ll
in ary
Ġneed s
ĠC O
u ity
Ġsub st
Ġrecomm end
Ġtri al
r id
Ġneut ral
L I
Ġfl u
ill ion
Ġappropri ate
b ers
Ġcell ular
Ġth ough
t le
H O
f under
Ġd en
yr ight
Ġsc ale
Ġrepor ts
Ġunderstand ing
Ġsum m
Ġsecond ary
Ġf em
Th is
Ġs u
Ġha ving
Ġfail ure
Ġn ational
Ġscre ening
Ġ2 8
l ong
infl amm
xi ety
00 1
roll ed
y gen
ar tic
al es
C D
Ġinflamm ation
Ġcons um
ro w
Ġcop yright
ra d
og ens
Ġte am
ac es
Ġwhere as
e qu
Ġcapac ity
ul ating
Ġmemb ers
Ġdet ect
ĠIg G
Ġav oid
r im
Ġb ar
i k
Ġli ver
us c
Ġn ow
Ġpop ulations
ĠS im
Ġcon sequ
y mptom
Ġbec ome
Ġmet abol
2 7
out h
Ġ3 7
0 1
in ess
ĠE urope
ol ar
Ġcontain ing
ĠP ati
ĠU S
Ġpubl ished
Ġch ain
Ġyo u
Ġef ficacy
l or
Ġin n
Ġ2 3
Â °
Ġful l
op ath
pon ding
Ġpo or
on t
ĠA r
Ġinter ventions
it ation
Ġimport ance
Ġ2 1
up plement
k ing
L A
ar r
Ġad ults
Ġper pet
f usion
Ġbl ock
Ġ6 0
tim e
b i
ane ous
p ared
el ines
Ġt as
Ġd im
Ġinj ury
Ġevalu ation
Ġcorrel ation
Ġtherapeu tic
p p
w ide
Ġgener ated
Ġn an
d ay
ĠU SA
Ġdiagnos tic
p ir
or ies
Ġsol ution
Ġre action
Ġlo ad
ys is
I I
w w
ĠP E
Ġl ater
om a
Ġinflu ence
Ã ¼
Ġhist ory
Ġprovid es
it ing
Ġemerg ency
Ġen ergy
2 6
Ġd ig
t yp
Ġhigh l
ĠIntern ational
2 8
Ġpe ak
Ġmean s
Ġe vent
Ġappro aches
fic ial
en ari
Ġcoh ort
Ġ ent
ap p
h an
Ġassess ed
Ġd ri
Ġlead ing
ĠS p
at form
d o
Ġanim al
Ġf ace
Ġf und
Ġyo ung
Ġhy dro
olog ies
Ġfin al
Ġl at
Ġl ip
Ġf ever
Ġhuman s
Ã³ n
il i
Ġrat her
A T
Ġf at
ĠN o
ĠÎ ¼
Ġm it
Ġ enter
Ġpers onal
Ġag ents
Ġh om
Ġad op
Ġimmun ity
Ġhol der
Ġdi ab
Ġbro ad
â Ģ¢
Ġt aken
Ġbacter ial
Ġfrequ ency
Ġm ild
Ġnat ural
e re
unc tions
Ġcr is
Ġan xiety
le t
Ġsc ores
Ġm RNA
C OVID
Ġques tions
ra g
N F
Ġvit ro
Ġol der
Ġprocess es
form ation
ren ce
Ġcomb ination
L R
anc y
Ġcompar ison
enc ies
Ġconcentr ations
Ġdec ision
Ġon set
Ġpath ogens
Ġb rain
Ġtechn ology
pl ant
p ly
Ġp ower
dition al
Ġconsist ent
Ġproduc ts
Ġvi ew
Ġal tern
am in
Ġind ex
Ġindic ate
read y
Ġmed ian
Ġaffec t
Ġcorres ponding
is c
Ġreas on
Ġph arm
Ġhealth y
9 0
Ġwe ight
Ġfunction al
b s
Ġperpet uity
ician s
Ġs al
Ġse x
Î ±
en ess
Ġpl an
Ġox ygen
Ġinteg r
Ġe as
Ġvari able
Ġsub jects
Ġt ake
Ġch o
Ġcomp ut
P A
Ġro om
em ia
Ġnum bers
in duced
Ġreg ression
Ġinter val
Ġf ree
Ġal ong
E M
Ġind ependent
Ġpl atform
mer ic
G F
inflamm atory
Ġl ay
Ġhig hest
otyp e
Ġcl os
Ġl ast
ac tiv
ĠW ith
Ġevalu ate
iat ric
Ġprob ability
Ġst age
es is
tion al
Ġuse ful
Ġfacil it
os ts
Ġh ours
ymptom atic
Ġelec tr
Ġte le
Ġaf f
Ġin duced
Ġal ready
Ġint r
h ing
Ġrelative ly
Ġn as
et es
if ically
Ġrec ently
Ġisol ated
) ;
Ġproble ms
Ġp or
Ġpos ted
Ġincre ases
Ġs ource
wh ich
Ġrem o
Ġdep end
Ġfin d
ra y
Ġadd ed
Ġgene tic
ĠP re
Ġc yc
e ad
Ġexperim ents
Ġsc enari
Ġb o
Ġsugges ts
Ġprot ection
art ment
er ative
Ġ2 9
ĠÎ ²
Ġex ten
an tit
Ġdat ab
Ġspec ial
Ġf it
enti fic
I S
Ġph osph
Ġisol ation
ud e
Ġso ft
h ood
Ġiss ues
Î ²
Ġh ttps
o ti
4 3
Ġpo ints
Ġint en
ĠW hen
Ġam ino
y me
Ġ ve
Fig ure
b y
ex t
Ġcollec tion
Ġc he
Ġbe low
7 0
Ġ2 6
ak es
Ġpath way
en ding
N C
S ARS
ĠM et
Ġd uration
ul atory
4 5
Ġr ang
Ġqu ar
Ġpe er
Ġdeli very
ospit als
Ġproper ties
ar ing
op e
ari ly
Ġsurvi val
Ġsuccess ful
ew ork
m ost
Ġl ength
Ġser ies
Ġpot entially
Ġresear c
Ġto g
Ġbe li
Ġpos ition
N D
Ġim ages
Ġbi ological
cer tain
Ġpartic les
cl usion
on ic
Ġcompound s
Ġun til
entr y
Ġst ates
Ġstruct ures
ot s
Ġhe ter
ag ed
s ide
Ġs ection
Ġform ation
Ġreg ard
ĠME RS
on es
B V
pr il
Ġtog ether
Ġcan not
Ġap plication
Ġmajor ity
Ġproced ures
Ġe ar
â Ī
Ġacc ount
P D
Ġimpro ved
Ġm ass
f ort
Ġrel i
ger y
Ġvol ume
3 5
ĠR ec
Ġop en
ati ves
port un
Ġestabl ished
ran si
Ġchalleng es
Ġs ix
Ġprotec tive
Ġth rom
Ġex hib
Ġf unctions
2 2
Ġhe re
is ted
Ġre st
er o
infec ted
Ġre qu
Ġwork ing
ĠP h
Ġremain s
Ġguid elines
Ġstruct ural
Ġcomp os
Ġm illion
Ġtre nd
n ai
l ess
Ġmolec ules
Ġt it
ĠA R
N S
ne y
ĠÎ ±
lud ed
le x
y st
Ġh ouse
at s
ĠSim ilar
Ġventi lation
iqu es
Ġer r
Ġo wn
Ġartic le
3 8
or bid
ĠA m
Ġup on
Ġantib io
Ġen ti
Ġbas eline
Ġsuggest ing
jec tive
O S
dition ally
am p
Ġele v
Ġinter pre
Ġpro duced
Ġqu anti
Ġresist ance
Ġprotoc ol
Ġ ),
Ġt ub
Ġtrans port
Ġsam pl
Ġpa ren
d s
en ge
Ġof f
ure d
Ġs ens
Ġh ospitals
Ġ entry
g n
Ġstud ied
Ġcurrent ly
er ved
Ġto x
Ġem b
Ġepid emi
ĠM S
Ġpro v
% ).
g ical
Ġop portun
Ġ2 7
Ġprom ot
Ġmain ly
H C
ĠAf ric
ĠUn ited
Ġmonitor ing
Ġdevelop ing
et h
Ġpsych ological
l er
Ġen sure
Ġsitu ation
Ġd os
is ation
Ġ :
Ġto ol
ĠÃ Ĺ
Ġinvestig ated
rol og
Ġ ir
Ġse arch
E S
ograph y
Ġass ays
go ing
Ġdam age
i i
Ġd ate
k ed
Ġas ymptomatic
Ġam pl
Ġp ass
y si
Ġcon struc
Ġdifferen ti
Ã Ń
is tered
Ġ2 2
Ġfram ework
ĠA meric
Ġpattern s
Ġdesign ed
Ġstatis tical
g round
Ġmut ations
Ġdef in
Ġt ransi
Ġcontrol s
Ġdec l
Ġadmin istration
Ġb ur
Ġintern ational
Ġcompon ents
op las
w ise
Ġmac roph
Ġcris is
C M
Ġg u
Ġn ature
a z
Ġh al
Ġlarg er
C G
Ġm ic
ĠC or
4 8
Ġprac tic
Ġpre vention
Ġtranscri ption
iz es
Ġ ide
ac ed
Ġre pe
P I
ĠA pril
Ġint ra
ĠUn iversity
Ġtra vel
Ġr ight
Ġpredic ted
Ġcont ent
Ġexperim ental
Ġus ually
upplement ary
e red
ill ance
Ġsec re
Ġre pro
Ġ ul
D A
Ġwho le
cc ording
3 3
Ġac tion
Ġf ore
Ġdeg ree
i ving
ĠO f
Ġhe art
Ġdatas et
ĠSt ud
Ġa er
% .
ĠF inally
Ġcytok ines
Ġ4 8
olog ic
Ġinhib ition
P R
Ġd il
Ġse g
Ġdiab etes
kn own
20 20
Ġm id
ĠD ata
ros cop
Ġro b
Ġv ers
Ġmark et
tion ed
Ġresid ues
Ġabs ence
g es
Ġenvironment al
Ġserv ice
Ġevol ution
Ġcaus es
in ical
fl u
a pt
Ġun ique
Ġrecom b
Ġre ference
Ġhyp ot
ove red
P V
and id
ĠD e
1 00
Ġapproxim ately
Ġcentr al
o ly
anc ial
4 9
Ġcarri ed
Ġcom plications
Ġselec tion
Ġth ird
Ġy et
t hesis
ra nd
Ġdis s
Ġrec ru
Ġimplement ation
I R
Ġqu antit
Ġam ount
tif ied
Ġne xt
Ġexam ined
Ġbe g
Ġ /
Ġdi rec
Ġdoc ument
Ġpre gn
as is
ell ular
Ġag g
Ġrele ase
ro tein
Ġalgorith m
Ġclus ter
Ġaccur acy
Ġp ain
ur rent
tiv es
Ġem o
Ġp an
Ġsignal ing
f old
6 5
ed ing
Ġad verse
Ġdist ancing
A n
ri al
atis f
ur ity
roph il
t rans
Ġun it
Ġchall enge
7 5
Ġres ol
ar c
ren g
a h
Ġbacter ia
Ġim aging
ĠS ince
Ġtum or
ub le
Ġsp ace
othe rap
Ġb ound
re am
Ġm m
Ġtechn iques
Ġme et
Ġmed ium
Ġscho ol
Ġsur gery
Ġinhibit ors
ol es
m L
Ġproced ure
Ġpl ate
Ġsp ike
Ġpath ways
Ġestim ate
oid s
Ġl ed
Ġv iv
Ġdist ance
ocy te
Ġs ide
ĠI tal
Ġtoward s
Ġcommunic ation
if est
Ġs ources
ron ch
Ġr un
Ġnot ed
tiv eness
Ġsy st
Ġsoft ware
Ġpr inc
Ġcytok ine
est inal
t re
Ġh is
Ġresul ted
Ġ3 5
ord ers
Ġd one
m an
Ġquestion nai
Ġatten tion
9 9
w here
Ġvis ual
b ial
ĠO r
Ġlong er
Ġexist ing
. .
it es
Ġtr act
m l
Ġsubst anti
Ġpepti de
ĠB e
Ġw ord
Ġf ar
C AA
Ġconfir m
Ġcontrib ute
Ġrecomm ended
Ġsw ab
or ld
d ependent
O R
Ġs he
Ġca pt
ĠJ an
Ġt urn
ĠB i
Ġdist inc
Ġdynam ics
Ġl ig
Ġ %
Ġdel ay
E V
Ġsup plement
Ġp ast
Ġcontinu ous
Ġrecept ors
ib ility
Ġrec overy
Ġm M
Ġrequi res
b l
Ġpercent age
Ġoccur red
ary n
ri x
Ġinclud es
c ence
Ġk id
Ġc od
Ġrespond ents
A L
A D
Ġl ight
Ġcomb ined
Ġviv o
Ġallow ed
Ġm uc
ac ellular
Ġre d
Ġaltern ative
str uct
Ġgener ally
i Ã³n
Ġenz yme
Ġspec im
3 7
C S
â Ģ
Ġatt rib
im er
ĠM ay
Ġun certain
Ġrespon sible
Ġfollow s
Ġinc or
Ġg et
Ġbas is
f unction
Ġsurve illance
ĠU K
or der
om p
c al
d om
Ġinter view
Ġp ig
ĠS ome
Ġmod erate
uf act
typ e
Ġcon ver
Ġunder lying
Ġprovid ing
Ġsetting s
C L
m od
Ġfin ancial
Ġrepres ents
Ġlimit ations
Ġhouse hold
Ġus ers
A G
Ġidenti fication
3 6
ul in
un e
Ġst reng
Ġdiscus sed
Ġad ap
Ġestim ates
n ormal
Ġv ul
res hold
Ġin put
Ġd ensity
Ġex posed
Ġef ficiency
ĠS ec
ap e
M I
ĠF irst
ib r
Ġcharacter ized
Ġro ut
Ġpri v
for ts
Ġ8 0
Ġm ouse
ĠS c
Ġde pression
Ġresearc hers
ĠD ec
Ġequ ip
ac he
Ġimplement ed
Ġder ived
Ġquar ant
B Y
D V
Ġbu il
3 4
Ġsur gical
ĠSt ates
Ġto ols
Ġrapid ly
qu e
Ġtiss ues
Ġsus tain
Ġappro ved
u ary
b in
Ġindic ating
Ġmaxim um
Ġpolic ies
a ren
Ġw ild
Ġc andid
Ġspecific ity
Ġm aking
Ġf ix
al ysis
Ġpractic es
el i
Ġsubsequ ent
) -
os ter
Ġad vant
ĠAd ditionally
b an
ĠP R
Ã ¶
Ġbar ri
s h
Ġfl uid
Ġpre pared
Ġag re
Ġv ector
Ġproduc t
si a
Ġnetwork s
Ġle ft
Ġbi om
ĠC F
Ġbenef it
Ġbi as
Ġcardi ac
Ġf usion
Ġsa fe
Ġallow s
Ġpro duce
ach ing
er al
medi ated
Ġs atisf
por ts
Ġcon cept
Ġst ay
I T
Ġqu e
ĠPati ents
Ġreduc ing
Ġman ufact
ĠRes ults
al y
Ġd ra
o le
Ġth reat
Ġpredic tion
Ġsign s
Ġe in
ar ies
Ġar g
oci ated
Ġth reshold
pec ts
Ġtr ig
Ġform s
Ġdis ch
ĠS y
ĠP D
le vel
e g
Ġrisk s
Ġsyn the
Ġcom orbid
ĠN ew
Ġim medi
ros is
Ġvul ner
Ġ9 0
iz ations
ĠR BD
Ġef forts
Ġoutbreak s
Ġenh ance
er t
Ġm usc
Ġsh if
M E
Ġindic ates
infec tion
Ġ3 1
Ġac cept
ut ri
ĠB y
Ġrecord ed
Ġsuscepti ble
Ġtrans plant
Ġor al
si b
ĠCo vid
Ġpol i
Ġfrequ ently
Ġstatis tically
ĠD es
Ġst ain
Ġgly c
Ġl ines
en ed
do i
F or
Ġb us
u ed
Ġj ust
l and
Ġoptim al
Ġcommon ly
Ġb re
Ġperce ived
ĠIn te
Ġgen der
Ġle g
Ġline ar
ĠJan uary
Ġc hest
ear ch
ĠA ccording
Ġexperim ent
Ġsup er
Ġpers ist
ism s
Ġimprove ment
Ġc ut
Ġsim ple
Ġworld wide
Ġtarget s
Ġal one
4 7
S D
Ġdatab ase
6 8
of f
Ġret urn
ol ic
Ġsyst emic
Ġre pl
Ġl it
âĪ Ĵ
Ġsyn thesis
Ġim age
Ġche c
Ġag ent
Ġy ield
Ġtrans fer
Ġbenef its
o tic
I F
d le
Ġhe ad
Ġhal f
Ġconcern s
Ġwide ly
Ġdist ress
ĠĠĠĠ Ġ
ĠC R
us ted
ĠG en
Ġfe ature
Ġpoly mer
ĠA g
y cl
ĠO ther
Ġbas ic
Ġmat rix
Ġpa ir
Ġinvestig ate
Ġb uf
Ġenti re
Ġco ugh
Ġad apt
Ġ4 5
Ġestabl ish
Ġf rag
cri pt
oc ardi
Ġext re
Ġli ving
Ġas th
ic ine
it able
Ġreport ing
Ġlead s
ac hed
Ġfocus ed
Ġnum er
Ġachie ved
Ġass ign
ad es
igh ted
Ġm ale
Ġinter nal
Ġb ronch
Ġend ot
g roup
Ġcons ent
Ġparamet er
Ġal most
Ġar ter
Ġan tic
Ġdis orders
" ,
y ear
Ġm ig
ĠD uring
Ġsystem atic
Ġincor por
Ġoccur s
10 1
ines e
hel ess
Ġconc lusion
Ġcer tified
S T
Ġst able
Ġmacroph ages
9 8
Ġit ems
Ġas pects
s is
ass ociated
t a
E R
Ġdig ital
Ġ3 6
Ġap plications
Ġinstit ution
is ions
Ġe c
Ġclass ification
mer c
Ġill ustr
Ġelev ated
Ġrelationship s
Ġles ions
Ġt end
Ġeffec tiveness
Ġv ary
otherap y
sel f
t ual
m et
is es
ed iatric
Ġepit helial
Ġbi o
D NA
N T
Ġthrough out
Ġind uce
Ġpos i
iti g
Ġp H
. "
Ġacid s
ĠRe g
M V
Ġneut rophil
Ġun known
Ġrout ine
ang u
Ġsampl ing
Ġpharm ac
p ond
ov ascular
im mun
Ġse as
id s
Ġdi vid
m ic
Ġprogram s
Ġspec ifically
Ġmas k
I P
in ity
p ed
M A
O C
Ġdiscus sion
Ġdem and
Ġra re
Ġex erc
E C
Ġneu ro
Ġfr action
in ate
Ġsci entific
l ing
ĠCh inese
ĠD i
Ġvers us
as tr
fe red
Ġco ef
Ġful ly
4 6
A l
Ġv es
Ġext ent
Ġkid ney
ag ement
con t
or ing
Ġo ld
Ġvari ants
al ing
ok ing
Ġad ult
Ġcyc le
hod s
Ġad he
Ġsumm ar
Ġin duc
Ġdiagnos ed
Ġloc ation
Ġm il
ip her
ac ing
Ġm is
Ġt er
ĠA T
Ġdis rup
Ġlear n
ĠS ci
as ive
Ġl as
Ġinhibit or
Ġsp ati
i RNA
li er
Ġfe ed
Ġun its
ist ry
re en
Ġpos sibility
ĠW HO
t ure
ect ors
ĠW u
ĠAs s
Ġqu al
Ġincub ated
Ġgener ation
Ġdes pite
Ġre plic
l if
Ġexperi enced
Ġup per
Ġan s
Ġser ious
Ġaut om
as ter
Ġc osts
te e
Ġsequ encing
om er
Ġvari ation
Ġcommun ities
z ing
Ġm ach
Ġfam il
Ġfem ale
pos itive
A V
Ġinst ance
ĠG erm
y ing
Ġbeg in
Ġy our
Ġg ain
ĠN S
Ġp ut
3 9
Ġbeli e
Ġcor related
Ġhospital ized
pati ent
Ġsk in
Ġus er
Ġex ce
Ġprog ression
Ġorig inal
Ġtreat ments
p i
Ġcr uc
Ġl ist
otyp es
Ġcont acts
Ġout side
Ġrob ust
Ġ7 0
Ġw a
r h
Ġcom pl
Ġprocess ing
Ġmut ation
Ġv ide
p ers
Ġâī ¥
Ġsup ply
g ed
Ġad equ
Ġ3 8
o int
Ġg raph
Ġcoll abor
ri ef
h ol
Ġrecommend ations
ros pective
or gan
6 7
Ġhospital ization
b ack
ĠC ons
Ġw rit
Ġet c
Ġc ogn
Ġvari ety
ĠEurope an
Ġef ficient
Ġmechan ical
Ġcontain s
Ġres pect
Ġinten sive
Ġ20 21
* *
ĠAm ong
The re
ĠT NF
Ġpepti des
Ġm iss
Ġ3 2
Ġad mitted
Ġdistinc t
Ġgl uc
Ġconst ant
ill s
ting ly
Ġcall ed
Ġlink ed
Ã ¡
Ġt w
Ġsignific ance
jec ted
Ġexten sive
Ġan n
ph yl
ir ing
Ġflu ores
Ġfacil ities
er b
Ġpro mis
Ġwe ak
Ġgener ate
4 4
6 3
Ġachie ve
Ġdesc ri
ĠM ost
be ing
Ġiss ue
ĠN ational
Ġemerg ing
Ġd og
Ġtem por
Ġcruc ial
Ġartic les
Ġp ack
om al
Ġfe el
Ġcol on
Ġn or
5 7
Ġcomple ment
Ġbur den
as h
Ġnot e
Ġn orm
ogen ic
ĠWu han
ever al
Ġenh anced
B M
Ġf ig
ĠIn c
Ġdemonstr ate
Ġtechn ique
ĠS outh
Ġacc um
Ġde ep
op erative
ot ox
Ġdescrib e
Ġconf idence
Ġdi arr
Ġ3 3
ten sion
C I
Ġl ate
Ġquestionnai re
ti tion
Ġm itig
pos ition
Ġmas ks
C l
in ter
Ġsim ulation
Ġlit tle
Ġconsum ption
Ġextr acted
ĠCon t
Ġb al
at in
Ġaer os
Ġasth ma
Ġpre par
oc hem
lud ing
se ud
ec ause
ĠA D
Ġdo i
Ġreg ular
Ġne ur
Ġur ban
o qu
Ġinterpre t
Ġpro p
Ġre nal
m ia
Ġal le
Ġal ter
2 00
8 8
i re
Ġdep endent
Ġquarant ine
Ġex pect
le ar
Ġph ysi
r ich
oti de
Ġem ph
Ġtra ditional
Ġtrans l
at al
ĠIn stit
ĠF eb
Ġf av
Ġab normal
Ġexc luded
Ġatt em
Ġst ages
Ġal ign
Ġappear s
Ġdomain s
ard s
a w
f act
Ġn odes
Ġcomp re
ĠL e
Ġquantit ative
Ġequip ment
si zed
Ġinter act
T R
Ġprog n
Ġheter ogene
Ġbuf fer
ĠH R
Ġse ems
Ġsup ported
k g
Ġm ar
Ġprog ress
Ġcomp are
Ġun c
H V
ag en
Ġcompon ent
g ens
Ġst er
Ġinvol vement
Ġb at
po int
9 7
Ġexam ination
ĠC oV
Ġn ame
Ġsub ject
ast ro
ru ary
1 101
Ġc ore
Ġcont rolled
Ġst ability
Ġh ar
Ġman ifest
Ġstrong ly
Ġn m
Ġdys function
ĠA b
ĠO RF
oph il
ĠS D
Ġsus pected
Ġstep s
in ations
Ġcom merc
Ġpro ject
yc in
Ġout put
Ġdetail ed
Ġon going
ĠS h
Ġm em
ĠH ospital
Ġfamil ies
Ġdim ension
Ġchem ical
res tingly
Ġenz ym
Ġap op
Ġst art
Ġdi vers
LI SA
Ġcol le
Ġprom ote
Ġsuf ficient
Ġloc ated
Ġpo ll
ĠSimilar ly
Ġavail ability
Ġl angu
Ġmet a
Ġd u
P C
Ġreas ons
Ġtarget ing
ch ing
Ġfix ed
Ġpur pose
Ġper ipher
Ġob es
W h
Ġinvestig ation
Ġhypot hesis
ĠHe re
Ġaut o
Ġsensi tive
Ġextre me
Ġcar b
Ġtechn ologies
ĠO ver
ĠM e
oc oc
ĠP A
Ġd ro
ap an
y ond
Ġc reat
Ġch ann
Ġbus iness
Ġreg ulation
Ġemploy ed
3 2
Ġf al
Ġon ce
Ġpro lif
m o
Ġrecomb inant
Â ·
Ġrece iving
Ġcur ve
Ġrecogn ition
5 5
Ġmen tioned
Ġt aking
Ġpo ol
Ġb ed
Ġresid ents
Ġconsequ ences
ĠE R
o u
Ġsl ight
c rib
Ġw ar
c y
s or
Ġintro duced
Ġlung s
ĠSec ond
H S
Ġcardi ovascular
Ġmo b
Ġcons tit
ad a
x y
Ġli ve
Ġadmin istered
ens us
Ġsymptom atic
ĠH A
H R
le ep
ĠO R
Ġele ments
Ġear lier
Ġcompre hen
Ġshow ing
Ġcor rect
I t
feren ces
ĠB l
Ġco ord
ĠW orld
N P
tre ated
Ġal ways
ĠD ise
ph al
ĠB oth
Ġlay er
yl ation
Ġexperi ences
us ive
Ġsh are
vention al
Ġspecim ens
Ġmedic ine
Ġtr ue
ĠC S
Ġf ear
Ġconsider ing
a us
res sive
ĠâĪ Ī
ĠItal y
tern al
Ġret rospective
fec t
Ġtas k
Ġerr or
Ġt ext
Ġrece ive
Ġnas al
a rent
4 1
p ts
virus es
ĠC A
Ġr ights
Ġelec tro
Ġcateg ories
Ġthrom b
b rid
ell ing
ĠFeb ruary
ĠN or
Ġlab el
Ġinn ate
Ġhe p
Ġs il
O ur
Ġcontin ue
Ġag ed
Ġocc up
Ġde vi
Ġs low
ĠE D
Ġman us
Ġpresent ation
Ġcont am
res t
Ġass ist
Ġpers ons
Ġobserv ations
c hed
ĠRes earch
Ġcoronavirus es
Ġw ays
ĠE ach
Ġmaterial s
ep end
Ġcomp r
Ġprovid ers
I L
ĠT wo
Ġb reat
d is
I G
Ġprofession als
Ġdev ices
ĠAl so
abil ities
ĠJ une
ĠS pec
Ġas ked
Ġcre ated
Ġm L
op es
Ġan gi
Ġsus p
Ġmod ified
Ġtarget ed
ĠC ol
Ġscenari o
Ġincub ation
Ġvis its
Ġsub str
ĠAn other
7 7
st ream
l im
Ġof fer
S t
r in
our nal
val ent
ĠJ apan
ĠS uch
u ly
N V
Ġinc lusion
um n
Ġrestric tions
Ġacc oun
Ġpos sib
Ġob jective
ve olar
Ġinform ed
Ġfrequ ent
es tern
Ġsol utions
Ġagg reg
Ġsh ared
Ġobserv ation
m icro
M D
em ents
on omic
Ġc ity
Ġanti gens
Ġsmall er
Ġh um
Ġdos es
Ġprote ase
Ġinc ome
Ġmic roscop
ĠS ub
er ing
9 6
Ġk in
Ġcomple ted
ĠT r
ge al
Ġrec ip
3 1
Ġmix ed
h al
Ġdro ple
us try
Ġepidemi ological
Ġpoli tical
i ents
ve red
Ġw ave
ir th
oc al
g ent
Ġre actions
ĠOr gan
Ġcoun ter
Ġv on
ar ia
Ġair way
Ġox id
aryn geal
ĠB ased
Ġquanti f
ĠS ection
ra z
ac iÃ³n
oph ag
Ġad en
Ġinter fer
Ġcon j
at her
cop rotein
ul f
Ġplas m
Ġs ense
Ġvis it
Ġel im
t ra
qui red
Ġre fer
v ari
Ġimmun os
it ative
Ġthe ory
ĠN ot
Ġmark ers
Ġexpl ore
ĠAR DS
e e
Ġexam ine
Ġhyper tension
ĠInd ia
8 5
ad emic
Ġreg im
Ġcon fl
ubl ic
a u
il tr
Ġb ase
Ġinn ov
Ġle uk
Ġqu ick
Ġapp e
Ġin duction
r isk
Ġcomp et
Ġtyp ically
Ġspati al
Ġprinc ip
Ġre verse
m en
Ġf er
ĠU sing
ĠS ur
B P
ut h
ĠInte restingly
Ġnur ses
M R
Ġ |
ĠI V
Ġcomorbid ities
Ġneu rolog
ĠF rom
Ġint ensity
Ġst em
Ġ3 4
artic ip
ĠAfric a
Ġpro s
ĠInd eed
Ġreview ed
G TT
os a
Ġmanus cript
Ġse em
Ġn utri
ĠM od
or n
Ġendot helial
e k
ers hip
ro gen
Ġcle arly
Ġbe long
A CE
Ġfacilit ate
Ġv ascular
Ġenc od
Ġinstit utions
Ġdi et
plic ated
ul a
Ġset s
Ġpro long
A ll
Ġre p
ĠP M
et al
tr um
Ġremain ing
Ġperipher al
sel ves
ĠMet hods
6 6
Ġne ar
Ġorig in
um ents
Ġaff inity
ĠT LR
Ġgen omic
Ġinv est
Ġequ al
Ġperiod s
ĠP BS
Ġcorres pond
Ġtra um
ogen ous
Ġcomprehen sive
Ġdec isions
Ġmeasure ment
Ġmeasure ments
Ġcons ult
Ġman ner
oqu ine
ĠDec ember
0 4
os omes
Ġass emb
Ġs ession
t osis
Ġdetail s
Ġm l
Ġg ive
f ree
ĠI s
Ġc enter
Ġin oc
Ġmem ory
Ġphys icians
fec ted
ĠA p
mit tee
Ġimp acts
Ġremo ved
Ġs leep
Ġmusc le
Ġprof ile
Ġ rib
Ġreg ulatory
Ġin struc
Ġsub stit
Ġse ven
Ġ3 9
H D
Ġremain ed
Ġben e
C V
Ġans w
e es
Ġcre ate
Ġenc our
Ġactiv ated
Ġ5 5
Ġbehavi ors
ĠC an
m al
Ġcogn itive
Ġne igh
Ġin str
Ġeffective ly
Ġw ind
am ine
iti z
Ġwh ose
w ith
Ġup d
pl ies
Ġventi l
Ġstar ted
Ġhy d
Ġel der
Ġde b
ĠThe n
Ġexerc ise
op en
reg ulated
Ġuncertain ty
C O
he a
or al
N N
E T
ac erb
Ġregion al
Ġdatas ets
Ġpred om
Ġclass ified
Ġg astro
i ance
ot t
al le
Ġim m
Ġmo bility
Ġa w
as ion
Ġch rom
ig en
Ġneutral izing
Ġmicro bi
Ġco verage
Ġsup pres
Ġparticip ant
Ġover l
Ġaccur ate
eli hood
Ġit self
p ing
Ġbe yond
n el
um ab
Ġdynam ic
t heless
Ġind ustry
Ġdif f
0 2
st e
Ġrel ation
ĠG iven
Ġpan el
Ġdi verse
Ġc as
lor oquine
Ġseg ment
Ġsubstanti al
Ġprim arily
Ġlip id
C h
Ġmor bid
pro tein
Ġbin d
Ġsuscepti bility
Ġgra d
P P
ph a
ĠS T
app ing
Î ³
Ġback ground
Ġpolymer ase
Ġpathogen esis
Ġsec urity
Ġinvol ving
Ġparen ts
Ġto o
ĠP er
ĠP l
Ġlat ter
Ġstreng th
Ġm agn
ĠM D
Ġke ep
ĠR SV
o llow
ĠS upplementary
Ġm ess
Ġrem ote
ater al
Ġus es
Ġvir tual
c hem
Ġm akes
Ġdivid ed
Ġj ob
Ġp ap
lo ad
Ġd est
Ġex ternal
ul ative
oc ation
Ġex acerb
Ġact ual
Ġrec overed
ĠE LISA
ĠGerm any
ĠH ence
Ġbehavi our
Ġdeg rad
or ph
os cop
Ġmet h
" .
is sion
i red
7 8
Ġconst rain
le ts
vir al
Ġminim um
Ġgly coprotein
Ġdivers ity
Ġth ink
Ġcl im
Ġbuil ding
Ġgo al
o h
reat ment
Ġprofession al
Ġv an
Ġar ch
U S
T C
ĠB ecause
Ġre ach
reg ulation
k elihood
ax is
Ġres ource
Ġsoci o
Ġin activ
ĠEn gl
t ag
er y
Ġf lex
ĠDes pite
Ġmean ing
Ġen s
Ġexplain ed
Ġrecogn ized
Ġclus ters
Ġcon ventional
Ġexp and
si an
Ġfal se
ul l
Ġd rop
Ġol ig
Ġcho ice
as tic
og lob
Ġ4 2
ur b
Ġmost ly
ens in
Ġeas ily
Ġp en
Ġdev ice
A b
Ġde le
term inal
ic o
T AA
Ġro les
Ġindi rect
Ġcaus ing
opath y
on ucle
Ġdi ed
us ed
Ġbegin ning
Ġreflec t
Ġac ademic
Ġaim ed
ut ing
Ġrepresent ed
5 3
Ġr h
Ġm amm
Ġmin or
0 3
Ġc ities
Ġrequ iring
Ġelder ly
Ġlangu age
Ġsci ence
Ġinst ead
Ġisol ates
arg ed
b it
Ġadequ ate
ow s
Ġtr ack
ĠV ir
Ġprot ect
Ġt en
Ġf arm
Ġrepe ated
Ġprob ably
Ġex act
Ġtransi tion
ĠT rans
5 9
6 9
micro bial
Ġcult ures
ĠT B
R es
ps is
Ġcateg or
av age
um in
ol a
Ġdistrib uted
ĠN e
6 4
bin ding
ure r
Ġextr action
Ġrequire ments
Ġf all
Ġdog s
u tive
Ġrecru it
Ġtit ers
Ġprotoc ols
Ġdif fer
Ġac tions
Ġs ector
w ent
nd er
ĠM in
Ġdo uble
Ġst op
Ġgro und
m ark
Ġwas te
Ġvol un
t ake
Ġsk ills
Ġatt ack
d r
he alth
Ġthem selves
oc ks
Ġthe ore
ĠC ell
i vir
ell a
Ġn ode
Ġsoci ety
Ġon es
c hes
ult aneous
Ġsc an
Ġvulner able
Ġmark ed
Ġr ank
i j
Ġsub s
Ġex cept
A d
es ted
Ġantibio tics
Ġpromis ing
Ġpers pective
Ġc ere
y e
Ġadop ted
Ġapop tosis
Ġfil ter
Ġca pit
Ġcat s
p tions
Ġen velop
Ġ7 5
och ond
Ġb il
Ġsu itable
Ġb irth
B C
ĠI S
Ġab und
Ġmo tiv
Ġat tit
Ġâī ¤
Ġtherap ies
p iratory
olog ists
Ġconn ec
Ġprof il
Ġh ard
ĠN O
ĠAmeric an
Ġdep ending
Ġp ay
ĠE V
Ġclass es
Ġcoun ts
ĠÂ ¼
Ġthough t
ist ing
Ġmy ocardi
em a
G AA
Ġpl aced
Ġdisch arge
a im
w ell
ant ly
Ġse psis
Ġmorbid ity
Ġtrans form
Ġphen omen
od ies
ustr al
Ġp seud
Ġlarge ly
en di
l u
ĠP r
Ġpl ant
Ġclinical ly
Ġcommerc ial
Ġtyp ical
end s
Ġen ough
Ġ6 5
ĠS everal
Ġemo tional
id ent
hem atic
Ġs ch
Ġassum ed
Ġiniti ally
Ġresol ution
Ġepit opes
fici ently
Ġc um
Ġthere by
Ġ20 18
ĠM any
I s
Ġantibio tic
T CT
Ġli kelihood
ĠE m
Ġfe as
os en
R A
pati tis
c he
c or
i ves
ĠI D
Ġla w
Ġcons erved
t est
o on
ac tivity
Ġp ediatric
4 2
Ġmin utes
Ġbre ast
Ġs ent
Ġco ver
Ġscenari os
Ġplan ning
Ġdem ographic
Ġdefin ition
ĠHC V
a vi
Ġe qui
Ġdifferen tial
