{"<pad>":0,"<unk>":1,"<cls>":2,"<sep>":3,"!":4,"\"":5,"#":6,"$":7,"%":8,"&":9,"'":10,"(":11,")":12,"*":13,"+":14,",":15,"-":16,".":17,"/":18,"0":19,"1":20,"2":21,"3":22,"4":23,"5":24,"6":25,"7":26,"8":27,"9":28,":":29,";":30,"<":31,"=":32,">":33,"?":34,"@":35,"A":36,"B":37,"C":38,"D":39,"E":40,"F":41,"G":42,"H":43,"I":44,"J":45,"K":46,"L":47,"M":48,"N":49,"O":50,"P":51,"Q":52,"R":53,"S":54,"T":55,"U":56,"V":57,"W":58,"X":59,"Y":60,"Z":61,"[":62,"\\":63,"]":64,"^":65,"_":66,"`":67,"a":68,"b":69,"c":70,"d":71,"e":72,"f":73,"g":74,"h":75,"i":76,"j":77,"k":78,"l":79,"m":80,"n":81,"o":82,"p":83,"q":84,"r":85,"s":86,"t":87,"u":88,"v":89,"w":90,"x":91,"y":92,"z":93,"{":94,"|":95,"}":96,"~":97,"¡":98,"¢":99,"£":100,"¤":101,"¥":102,"¦":103,"§":104,"¨":105,"©":106,"ª":107,"«":108,"¬":109,"®":110,"¯":111,"°":112,"±":113,"²":114,"³":115,"´":116,"µ":117,"¶":118,"·":119,"¸":120,"¹":121,"º":122,"»":123,"¼":124,"½":125,"¾":126,"¿":127,"À":128,"Á":129,"Â":130,"Ã":131,"Ä":132,"Å":133,"Æ":134,"Ç":135,"È":136,"É":137,"Ê":138,"Ë":139,"Ì":140,"Í":141,"Î":142,"Ï":143,"Ð":144,"Ñ":145,"Ò":146,"Ó":147,"Ô":148,"Õ":149,"Ö":150,"×":151,"Ø":152,"Ù":153,"Ú":154,"Û":155,"Ü":156,"Ý":157,"Þ":158,"ß":159,"à":160,"á":161,"â":162,"ã":163,"ä":164,"å":165,"æ":166,"ç":167,"è":168,"é":169,"ê":170,"ë":171,"ì":172,"í":173,"î":174,"ï":175,"ð":176,"ñ":177,"ò":178,"ó":179,"ô":180,"õ":181,"ö":182,"÷":183,"ø":184,"ù":185,"ú":186,"û":187,"ü":188,"ý":189,"þ":190,"ÿ":191,"Ā":192,"ā":193,"Ă":194,"ă":195,"Ą":196,"ą":197,"Ć":198,"ć":199,"Ĉ":200,"ĉ":201,"Ċ":202,"ċ":203,"Č":204,"č":205,"Ď":206,"ď":207,"Đ":208,"đ":209,"Ē":210,"ē":211,"Ĕ":212,"ĕ":213,"Ė":214,"ė":215,"Ę":216,"ę":217,"Ě":218,"ě":219,"Ĝ":220,"ĝ":221,"Ğ":222,"ğ":223,"Ġ":224,"ġ":225,"Ģ":226,"ģ":227,"Ĥ":228,"ĥ":229,"Ħ":230,"ħ":231,"Ĩ":232,"ĩ":233,"Ī":234,"ī":235,"Ĭ":236,"ĭ":237,"Į":238,"į":239,"İ":240,"ı":241,"Ĳ":242,"ĳ":243,"Ĵ":244,"ĵ":245,"Ķ":246,"ķ":247,"ĸ":248,"Ĺ":249,"ĺ":250,"Ļ":251,"ļ":252,"Ľ":253,"ľ":254,"Ŀ":255,"ŀ":256,"Ł":257,"ł":258,"Ń":259,"Ġt":260,"in":261,"Ġa":262,"re":263,"he":264,"on":265,"ti":266,"en":267,"Ġthe":268,"Ġs":269,"Ġo":270,"er":271,"Ġc":272,"ed":273,"Ġp":274,"al":275,"es":276,"Ġin":277,"or":278,"at":279,"Ġw":280,"nd":281,"is":282,"Ġof":283,"Ġd":284,"it":285,"tion":286,"Ġf":287,"Ġand":288,"Ġm":289,"ro":290,"an":291,"Ġb":292,"ing":293,"ic":294,"as":295,"ar":296,"Ġre":297,"Ġto":298,"ent":299,"le":300,"Ġe":301,"us":302,"ec":303,"ation":304,"ve":305,"Ġh":306,"Ġth":307,"ly":308,"ac":309,"Ġ(":310,"om":311,"Ġn":312,"ul":313,"os":314,"ur":315,"Ġl":316,"id":317,"ĠT":318,"im":319,"ll":320,"et":321,"ir":322,"ith":323,"Ġv":324,"ig":325,"Ġwith":326,"Ġfor":327,"ce":328,"ol":329,"Ġst":330,"Ġcon":331,"Ġis":332,"ut":333,"Ġwe":334,"Ġpro":335,"Ġg":336,"ĠC":337,"Ġas":338,"un":339,"Ġan":340,"Ġbe":341,"ot":342,"ow":343,"ati":344,"ter":345,"res":346,"ĠI":347,"ĠA":348,"il":349,"ĠS":350,"uc":351,"em":352,"am":353,"Ġon":354,"Ġthat":355,"if":356,"ab":357,"ity":358,"od":359,"Ġ1":360,"ts":361,"ver":362,"st":363,"Ġ.":364,"ted":365,"um":366,"Ġex":367,"oc":368,"Ġ2":369,"ate":370,"Ġres":371,"ated":372,"ĠThe":373,"ud":374,"tic":375,"ra":376,"ri":377,"si":378,"Ġwas":379,"qu":380,"op":381,"her":382,"ents":383,"Ġcom":384,"se":385,"ay":386,"fec":387,"Ġby":388,"Ġde":389,"ag":390,"Ġwere":391,"Ġare":392,"Ġor":393,"Ġac":394,"rom":395,"ad":396,"og":397,"th":398,"ure":399,"Ġdis":400,"Ġr":401,"Ġus":402,"pl":403,"ain":404,"ĠP":405,"Ġwh":406,"ment":407,"Ġim":408,"up":409,"el":410,"ore":411,"ical":412,"ess":413,"te":414,"ĠF":415,"Ġal":416,"ĠM":417,"ers":418,"ren":419,"ĠĠ":420,"Ġfrom":421,"por":422,"Ġse":423,"red":424,"ĠH":425,"ase":426,"und":427,"Ġinc":428,"ant":429,"ine":430,"Ġat":431,"ies":432,"tive":433,"pec":434,"Ġco":435,"ug":436,"Ġpati":437,"di":438,"ĠR":439,"Ġsh":440,"Ġch":441,"Ġad":442,"Ġstud":443,"Ġha":444,"iz":445,"ub":446,"Ġhe":447,"igh":448,"ell":449,"Ġcomp":450,"Ġen":451,"Ġne":452,"Ġthis":453,"ch":454,").":455,"ran":456,"Ġcont":457,"able":458,"sion":459,"Ġnot":460,"and":461,"ations":462,"Ġ3":463,"orm":464,"Ġle":465,"ĠIn":466,"19":467,"ous":468,"ther":469,"vel":470,"ich":471,"est":472,"ĠE":473,"Ġper":474,"ĠD":475,"ĠN":476,"tions":477,"ence":478,"ial":479,"Ġpre":480,"ID":481,"ge":482,"Ġit":483,"Ġpatients":484,"ĠB":485,"duc":486,"Ġhave":487,"OV":488,"Ġvir":489,"Ġinfec":490,"ign":491,"Ġcell":492,"act":493,"Ġcl":494,"vid":495,"OVID":496,"per":497,"ion":498,"enti":499,"Ġpar":500,"vi":501,"Ġcan":502,"Ġsy":503,"ĠW":504,"ific":505,"Ġass":506,"fe":507,"00":508,"ĠCOVID":509,"),":510,"Ġwhich":511,"ost":512,"pt":513,"Ġfo":514,"ill":515,"ary":516,"Ġap":517,"ph":518,"ip":519,"form":520,"Ġgen":521,"ke":522,"ia":523,"ory":524,"pro":525,"Ġca":526,"ist":527,"Ġdi":528,"ys":529,"ding":530,"ved":531,"ors":532,"tiv":533,"Ġmod":534,"Ġef":535,"ple":536,"Ġhas":537,"Ġinter":538,"ally":539,"Ġ4":540,"ear":541,"ome":542,"ance":543,"uld":544,"olog":545,"ased":546,"Ġdif":547,"lec":548,"feren":549,"Ġdat":550,"Ġun":551,"Ġ5":552,"so":553,"ĠO":554,"ĠG":555,"ue":556,"ative":557,"port":558,"ong":559,"Ġrec":560,"Ġab":561,"Ġint":562,"Ġresp":563,"ven":564,"rans":565,"iti":566,"alth":567,"etw":568,"Ġstudy":569,"Ġall":570,"Ġ0":571,"mun":572,"Ġ,":573,"Ġcons":574,"ach":575,"ari":576,"ĠL":577,"enc":578,"RS":579,"age":580,"Ġalso":581,"pres":582,"ases":583,"ugh":584,"lud":585,"ĠTh":586,"Ġpl":587,"all":588,"Ġwhe":589,"Ġpos":590,"reat":591,"Ġbeen":592,"ib":593,"Ġsc":594,"fic":595,"Ġ20":596,"Ġtrans":597,"end":598,"Ġob":599,"uch":600,"Ġshow":601,"yp":602,"ide":603,"Ġsign":604,"Ġme":605,"Ġdata":606,"ose":607,"Ġgro":608,"ork":609,"Ġout":610,"ath":611,"ting":612,"Ġdifferen":613,"Ġy":614,"vir":615,"tr":616,"Ġother":617,"oV":618,"Ġpres":619,"Ġtheir":620,"Ġdet":621,"Ġk":622,"ates":623,"Ġvirus":624,"ak":625,"fl":626,"Ġanti":627,"Ġresul":628,"Ġreg":629,"Ġaf":630,"rib":631,"ular":632,"Ġanal":633,"een":634,"Ġqu":635,"Ġdise":636,"val":637,"Ġmore":638,"Ġhealth":639,"Ġmay":640,"ĠU":641,"tein":642,"ility":643,"Ġcells":644,"etween":645,"ual":646,"Ġtim":647,"The":648,"Ġthese":649,"Ġeffec":650,"CoV":651,"ied":652,"Ġbetween":653,"out":654,"Ġinclud":655,"ep":656,"ew":657,"Ġrel":658,"Ġmed":659,"atory":660,"Ġsub":661,"Ġincre":662,"Ġsam":663,"ARS":664,"Ġund":665,"Ġmodel":666,"NA":667,"Ġstr":668,"our":669,"emic":670,"ber":671,"Ġag":672,"Ġused":673,"ap":674,"Ġind":675,"ight":676,"Ġspec":677,"Ġman":678,"tim":679,"20":680,"oci":681,"pit":682,"uring":683,"Ġmet":684,"Ġcor":685,"ever":686,"Ġusing":687,"ail":688,"Ġdes":689,"Ġsp":690,"Ġhigh":691,"Ġthan":692,"ast":693,"ens":694,"ĠSARS":695,"Ġprotein":696,"Ġrespon":697,"Ġsur":698,"str":699,"Ġph":700,"Ġacc":701,"Ġro":702,"Ġsuch":703,"Ġpartic":704,"Ġam":705,"ulation":706,"Ġinfection":707,"Ġpr":708,"ould":709,"ĠThis":710,"Ġser":711,"erm":712,"ass":713,"ures":714,"Ġ6":715,"ard":716,"Ġ=":717,"Ġvari":718,"velop":719,"Ġnum":720,"Ġgroup":721,"Ġno":722,"Ġtime":723,"tain":724,"Ġsup":725,"Ġem":726,"stem":727,"ech":728,"lo":729,"Ġdisease":730,"Ġpo":731,"ays":732,"Ġunder":733,"pos":734,"ves":735,"Ġli":736,"der":737,"tal":738,"Ġbut":739,"Ġsignific":740,"ble":741,"Ġlevel":742,"wo":743,"dition":744,"ating":745,"rap":746,"Ġanalys":747,"ne":748,"Ġimmun":749,"Ġdec":750,"plic":751,"Ġdevelop":752,"ree":753,"Ġover":754,"ang":755,"ile":756,"ten":757,"anc":758,"Ġour":759,"Ġwill":760,"'s":761,"Ġduring":762,"Ġâ":763,"isk":764,"Ġuse":765,"ĠV":766,"oth":767,"ution":768,"Ġsystem":769,"ized":770,"Ġsignificant":771,"Ġclin":772,"unc":773,"ace":774,"Ġone":775,"ĠFig":776,"Ġappro":777,"Ġ\"":778,"Ġval":779,"Ġthere":780,"Ġwho":781,"Ġrepor":782,"llow":783,"rain":784,"les":785,"Ġinfl":786,"rol":787,"Ġtwo":788,"Ġwork":789,"acc":790,"Ġlow":791,"cess":792,"owever":793,"ect":794,"ser":795,"are":796,"ack":797,"Ġtreat":798,"Ġstudies":799,"ational":800,"one":801,"Ġprovid":802,"ĠWe":803,"ared":804,"Ġsim":805,"Ġid":806,"Ġcol":807,"ros":808,"Ġnumber":809,"Ġmo":810,"ung":811,"ants":812,"ines":813,"ult":814,"ues":815,"Ġrisk":816,"Ġar":817,"uman":818,"Ġfollow":819,"Ġassoci":820,"Ġ7":821,"ond":822,"Ġcases":823,"Ġfact":824,"Ġresults":825,"Ġhad":826,"tivity":827,"arg":828,"Ġconc":829,"Ġfin":830,"own":831,"Ġdifferent":832,"Ġcoun":833,"virus":834,"ection":835,"rec":836,"als":837,"Ġafter":838,"li":839,"Ġmost":840,"int":841,"acter":842,"Ġdist":843,"Ġidenti":844,"Ġ10":845,"use":846,"fer":847,"Ġ9":848,"Ġgener":849,"yt":850,"irst":851,"ities":852,"mis":853,"Ġmeas":854,"ild":855,"Ġclinical":856,"Ġonly":857,"fore":858,"itive":859,"Ġaut":860,"ice":861,"Ġperform":862,"Ġtest":863,"Ġes":864,"Ġinto":865,"mpt":866,"Ġpresent":867,"Ġeach":868,"Ġvacc":869,"Ġexper":870,"hod":871,"atic":872,"Ġthey":873,"Ġanalysis":874,"Ġop":875,"Ġpe":876,"hed":877,"Ġwell":878,"andemic":879,"Ġviral":880,"Ġform":881,"ubl":882,"ological":883,"Ġindi":884,"Ġboth":885,"ospit":886,"Ġbi":887,"rough":888,"Ġpath":889,"Ġreported":890,"entr":891,"Ġnon":892,"uct":893,"ization":894,"ute":895,"over":896,"ments":897,"ving":898,"Ġhuman":899,"ential":900,"tical":901,"Ġpop":902,"mptom":903,"Ġhig":904,"mon":905,"Ġmon":906,"ater":907,"Ġdo":908,"ined":909,"Ġcould":910,"Ġq":911,"ism":912,"Ġobser":913,"Ġav":914,"ces":915,"Ġpandemic":916,"10":917,"ability":918,"tern":919,"Ġexpres":920,"Ġits":921,"Ġloc":922,"Ġtr":923,"gen":924,"urther":925,"ram":926,"qui":927,"Ġma":928,"ust":929,"Ġcomple":930,"Ġup":931,"Ġcare":932,"Ġtreatment":933,"vidual":934,"ef":935,"ough":936,"ogen":937,"cc":938,"ĠK":939,"erg":940,"duced":941,"ination":942,"Ġ8":943,"Ġver":944,"Ġneed":945,"Ġexam":946,"Ġfound":947,"Ġinform":948,"Ġpot":949,"Ġsome":950,"Ġrem":951,"Ġwhen":952,"Ġimport":953,"Ġfirst":954,"vol":955,"Ġindividual":956,"ord":957,"hen":958,"agn":959,"hib":960,"ency":961,"ian":962,"Ġmethod":963,"ology":964,"unction":965,"ĠJ":966,"Ġthrough":967,"ature":968,"Ġsec":969,"duction":970,"ress":971,"Ġpubl":972,"CT":973,"Ġra":974,"med":975,"rent":976,"Ġcontrol":977,"ĠIt":978,"Ġrece":979,"Ġantib":980,"ok":981,"view":982,"ĠHowever":983,"tit":984,"osis":985,"Ġidentif":986,"Ġtyp":987,"Ġresear":988,"ĠÎ":989,"pr":990,"Ġdem":991,"Ġindic":992,"Ġbec":993,"ugg":994,"ospital":995,"mission":996,"ort":997,"yl":998,"ited":999,"Ġmin":1000,"Ġ-":1001,"Ġshould":1002,"Ġcar":1003,"Ġyear":1004,"Ġassociated":1005,"Ġpatient":1006,"Ġnew":1007,"Ġimp":1008,"Ġpred":1009,"Ġmul":1010,"Ġhigher":1011,"ric":1012,"AA":1013,"Ġconf":1014,"amm":1015,"gan":1016,"Ġkn":1017,"ilar":1018,"Ġdisc":1019,"In":1020,"Ġset":1021,"de":1022,"Ġsugg":1023,"Ġparticip":1024,"ons":1025,"pective":1026,"Ġcur":1027,"Ġprot":1028,"Ġprocess":1029,"Ġwhere":1030,"ently":1031,"Ġincluding":1032,"vere":1033,"Ġfl":1034,"rel":1035,"ite":1036,"action":1037,"Ġso":1038,"ange":1039,"Ġaddition":1040,"ise":1041,"art":1042,"iratory":1043,"Ġsymptom":1044,"ateg":1045,"ex":1046,"ties":1047,"Ġj":1048,"old":1049,"ning":1050,"sive":1051,"usion":1052,"Ġthose":1053,"ition":1054,"ement":1055,"Ġ).":1056,"ocial":1057,"ark":1058,"fici":1059,"Ġpers":1060,"iv":1061,"Ġend":1062,"Ġpositive":1063,"its":1064,"ples":1065,"ox":1066,"ive":1067,"Ġrequi":1068,"Ġavail":1069,"emb":1070,"Ġsequ":1071,"ĠFor":1072,"Ġcr":1073,"Ġsm":1074,"af":1075,"ize":1076,"Ġlevels":1077,"Ġfe":1078,"ĠCh":1079,"omes":1080,"ĠFigure":1081,"ĠĠĠĠ":1082,"hes":1083,"echn":1084,"Ġdue":1085,"vious":1086,"Ġdesc":1087,"sible":1088,"ie":1089,"ona":1090,"Ġprog":1091,"ages":1092,"Ġpopulation":1093,"Ġlim":1094,"Ġcompared":1095,"Ġ2020":1096,"Ġins":1097,"uf":1098,"Ġdiagn":1099,"con":1100,"ks":1101,"Ġsever":1102,"Ġmain":1103,"read":1104,"Ġdr":1105,"CR":1106,"ural":1107,"Ġshown":1108,"Ġincreased":1109,"Ġlike":1110,"Ġcase":1111,"Ġinflu":1112,"Ġbased":1113,"Ġabout":1114,"ĠAs":1115,"plement":1116,"Ġapp":1117,"Ġinformation":1118,"Ġresponse":1119,"ĠÂ":1120,"Ġresearch":1121,"Ġrate":1122,"Ġfunction":1123,"Ġspecific":1124,"Ġrespiratory":1125,"ily":1126,"Ġocc":1127,"ron":1128,"ness":1129,"Ġhy":1130,"valu":1131,"Ġimportant":1132,"tics":1133,"Ġstruct":1134,"ld":1135,"Ġhospital":1136,"Ġantibod":1137,"Ġmulti":1138,".,":1139,"ety":1140,"Ġdays":1141,"Ġinhib":1142,"hem":1143,"Ġmor":1144,"TT":1145,"arget":1146,"Ġassess":1147,"Ġep":1148,"arge":1149,"Ġwithin":1150,"Ġsocial":1151,"rect":1152,"Ġsevere":1153,"Fig":1154,"inal":1155,"Ġpredic":1156,"Ġtherap":1157,"raph":1158,"Ġpublic":1159,"Ġtra":1160,"Ġagain":1161,"Ġpa":1162,"Ġamong":1163,"Ġany":1164,"Ġage":1165,"%)":1166,"ality":1167,"ful":1168,"ople":1169,"Ġthree":1170,"Ġi":1171,"Ġet":1172,"Ġavailable":1173,"ale":1174,"ĠAn":1175,"Ã©":1176,"Ġeffect":1177,"ĠRNA":1178,"Ġif":1179,"Ġevalu":1180,"Ġcount":1181,"Ġobserved":1182,"Ġinte":1183,"Ġwould":1184,"ĠThese":1185,"Ġ+":1186,"ĠThere":1187,"Ġcommun":1188,"ĠTable":1189,"tig":1190,"Ġdef":1191,"Ġtechn":1192,"Ġdeterm":1193,"ix":1194,"jec":1195,"iod":1196,"rop":1197,"ause":1198,"Ġimpro":1199,"ions":1200,"oun":1201,"ound":1202,"Ġauth":1203,"ption":1204,"ock":1205,"ries":1206,"arly":1207,"Ġtarget":1208,"ĠSt":1209,"Ġexpression":1210,"Ġgene":1211,"oid":1212,"Ġsimilar":1213,"Ġmean":1214,"iter":1215,"ross":1216,"vers":1217,"Ġshowed":1218,"Ġpotential":1219,"Ġpeople":1220,"cl":1221,"Ġlead":1222,"Ġprevious":1223,"Ġactivity":1224,"Ġyears":1225,"eng":1226,"cer":1227,"Ġprim":1228,"onavirus":1229,"Ġtes":1230,"Ġdescrib":1231,"Ġchar":1232,"Ġperiod":1233,"Ġwhile":1234,"icro":1235,"Ġcollec":1236,"iss":1237,"Ġclass":1238,"ade":1239,"Ġel":1240,"ses":1241,"ulated":1242,"atis":1243,"Ġbin":1244,"Ġchild":1245,"CA":1246,"Ġperformed":1247,"gative":1248,"Ġinfected":1249,"Ġestim":1250,"ĠĠĠ":1251,"Ġdep":1252,"Ġagainst":1253,"ental":1254,"Ġmany":1255,"ences":1256,"Ġreview":1257,"Ġrepres":1258,"ove":1259,"ived":1260,"Ġeffects":1261,"ense":1262,"echan":1263,"Ġoutc":1264,"Ġcharacter":1265,"Ġte":1266,"Ġ)":1267,"Ġpol":1268,"Ġfactors":1269,"Ġsymptoms":1270,"Ġthem":1271,"par":1272,"Ġfurther":1273,"ha":1274,"vent":1275,"uce":1276,"Ġdrug":1277,"Ġsame":1278,"min":1279,"Ġsamples":1280,"Ġtri":1281,"Ġincrease":1282,"Ġmeasure":1283,"ob":1284,"Ġcaus":1285,"Ġchang":1286,"Ġexpl":1287,"Ġgroups":1288,"Ġlong":1289,"Ġinvol":1290,"ĠAl":1291,"onstr":1292,"ince":1293,"ider":1294,"Ġorgan":1295,"Ġiniti":1296,"lob":1297,"Ġmechan":1298,"Ġcyt":1299,"ĠCD":1300,"inc":1301,"Ġcal":1302,"Ġobtain":1303,"Ġsol":1304,"enz":1305,"lood":1306,"though":1307,"ood":1308,"acy":1309,"Ġsus":1310,"ĠâĪ":1311,"Ġthen":1312,"ically":1313,"omic":1314,"000":1315,"ucle":1316,"Ġdeath":1317,"vention":1318,"Ġtotal":1319,"Ġoccur":1320,"Ġaffec":1321,"xim":1322,"iqu":1323,"Ġsecond":1324,"amet":1325,"ps":1326,"Ġproteins":1327,"Ġcurrent":1328,"vestig":1329,"ma":1330,"Ġimmune":1331,"Ġlarge":1332,"Ġz":1333,"mer":1334,"Ġrespective":1335,"me":1336,"12":1337,"Ġfinding":1338,"Ġpri":1339,"Ġdevelopment":1340,"ĠÃ":1341,"Ġfollowing":1342,"Ġdecre":1343,"hip":1344,"Ġsupport":1345,"reak":1346,"mit":1347,"Ġrole":1348,"Ġless":1349,"Ġwor":1350,"line":1351,"Ġindividuals":1352,"Ġepid":1353,"Ġcle":1354,"iven":1355,"Ġcommon":1356,"ately":1357,"Ġviruses":1358,"Ġlower":1359,"til":1360,"Ġlung":1361,"Ġevid":1362,"based":1363,"posed":1364,"Ġinvestig":1365,"Ġbeing":1366,"Ġcontain":1367,"RNA":1368,"Ġselec":1369,"led":1370,"Ġcountries":1371,"Ġlab":1372,"Ġrelated":1373,"Ġwithout":1374,"Ġinfections":1375,"ĠHe":1376,"Ġmemb":1377,"Ġsmall":1378,"Ġfac":1379,"Ġmodels":1380,"roph":1381,"Ġed":1382,"Ġnegative":1383,"ĠUn":1384,"Ġparticipants":1385,"Ġsignificantly":1386,"Ġstrateg":1387,"SA":1388,"jor":1389,"Ġu":1390,"Ġdemonstr":1391,"Ġblood":1392,"Ġder":1393,"sy":1394,"ograph":1395,"ified":1396,"Ġrecom":1397,"Ġincluded":1398,"Ġbl":1399,"ry":1400,"sequ":1401,"Ġ'":1402,"Ġ<":1403,"Ġterm":1404,"ormal":1405,"Ġrele":1406,"Ġ12":1407,"Ġdid":1408,"Ġbecause":1409,"Ġdesign":1410,"Ġla":1411,"Ġequ":1412,"print":1413,"sed":1414,"ish":1415,"ina":1416,"Ġconfir":1417,"requ":1418,"Ġidentified":1419,"plication":1420,"tality":1421,"CE":1422,"ected":1423,"Ġexperi":1424,"ording":1425,"ices":1426,"Ġbas":1427,"Ġprac":1428,"Ġpost":1429,"Ġallow":1430,"uid":1431,"oph":1432,"Ġcoronavirus":1433,"Ġmajor":1434,"Ġadd":1435,"Ġsit":1436,"io":1437,"ink":1438,"Ġstand":1439,"11":1440,"Ġrespectively":1441,"cri":1442,"Ġconcentr":1443,"Ġisol":1444,"Ġpossible":1445,"ores":1446,"Ġvis":1447,"ern":1448,"Ġacid":1449,"enza":1450,"idered":1451,"Ġhow":1452,"Ġseveral":1453,"Ġpreprint":1454,"to":1455,"arm":1456,"Ġconsidered":1457,"Ġparticular":1458,"TG":1459,"Ġvaccine":1460,"Ġmortality":1461,"other":1462,"Ġques":1463,"Ġ19":1464,"Ġactiv":1465,"Ġimpact":1466,"Ġmedical":1467,"ĠTo":1468,"Ġatt":1469,"ĠIL":1470,"Ġemerg":1471,"Ġext":1472,"Ģ¢":1473,"Ġremain":1474,"hel":1475,"Ġinflamm":1476,"ensi":1477,"Ġtransmission":1478,"ished":1479,"Ġeffective":1480,"Ġdistrib":1481,"ty":1482,"ium":1483,"Ġtre":1484,"Ġcomb":1485,"etwork":1486,"viron":1487,"of":1488,"round":1489,"ator":1490,"Ġmicro":1491,"iel":1492,"Ġchildren":1493,"Ġmolec":1494,"xt":1495,"Ġwee":1496,"reg":1497,"Ġhel":1498,"Ġconsider":1499,"Ġsample":1500,"ov":1501,"endent":1502,"vant":1503,"break":1504,"Ġchanges":1505,"Ġ15":1506,"Ġprob":1507,"Ġill":1508,"Ġapproach":1509,"Ġcomplex":1510,"Ġmut":1511,"Ġacute":1512,"ics":1513,"duce":1514,"stand":1515,"oy":1516,"Ġvalues":1517,"ced":1518,"Ġprovide":1519,"Ġresid":1520,"Ġproduc":1521,"ration":1522,"Ġke":1523,"ind":1524,"Ġvalue":1525,"Ġlikely":1526,"Ġrepresent":1527,"Ġanaly":1528,"Ġbefore":1529,"Ġexperim":1530,"Ġinhibit":1531,"Ġphys":1532,"zed":1533,"Ġmark":1534,"ables":1535,"Ġfrequ":1536,"Ġtem":1537,"onal":1538,"Ġdescribed":1539,"Ġresult":1540,"ake":1541,"Ġsurve":1542,"Ġdirect":1543,"Ġprof":1544,"Ġexample":1545,"Ġair":1546,"havi":1547,"Ġdiseases":1548,"Ġtype":1549,"Ġcompar":1550,"ditions":1551,"Ġevidence":1552,"Ġmanag":1553,"arch":1554,"15":1555,"ogn":1556,"Ġoutbreak":1557,"ised":1558,"ft":1559,"Ġday":1560,"Ġcontin":1561,"Ġpoly":1562,"yn":1563,"ening":1564,"Ġmat":1565,"14":1566,"TA":1567,"Ġspread":1568,"Ġrecept":1569,"Ġfam":1570,"Ġtesting":1571,"Ġ30":1572,"Ġlear":1573,"Ġgreat":1574,"av":1575,"Ġly":1576,"Ġearly":1577,"Ġmeasures":1578,"ually":1579,"verage":1580,"Ġcontrib":1581,"Ġgeneral":1582,"yc":1583,"ingle":1584,"ward":1585,"Ġconditions":1586,"neum":1587,"cent":1588,"Ġsugges":1589,"very":1590,"Ġserv":1591,"Ġbehavi":1592,"uted":1593,"Ġmechanism":1594,"Ġ50":1595,"Ġnetwork":1596,"cept":1597,"Ġmight":1598,"Ġenviron":1599,"Ġmade":1600,"Ġcap":1601,"verse":1602,"Ġgrow":1603,"Ġpart":1604,"IV":1605,"care":1606,"Ġparamet":1607,"Ġeven":1608,"ife":1609,"bility":1610,"related":1611,"Ġfindings":1612,"ĠAf":1613,"Ġanim":1614,"ĠAll":1615,"Ġobtained":1616,"Ġknow":1617,"Ġret":1618,"Ġgiven":1619,"tis":1620,"Ġinf":1621,"Ġfoc":1622,"nal":1623,"Ġsyn":1624,"Ġref":1625,"18":1626,"Ġconduc":1627,"Ġvery":1628,"Ġsuggest":1629,"ield":1630,"Ġlo":1631,"ists":1632,"Ġcalc":1633,"cep":1634,"Ġben":1635,"tious":1636,"ms":1637,"pon":1638,"Ġglob":1639,"Ġcult":1640,"Ġest":1641,"Ġsingle":1642,"Ġdom":1643,"Ġbinding":1644,"Ġmice":1645,"anti":1646,"16":1647,"Ġhyp":1648,"Ġmonth":1649,"Ġnucle":1650,"Ġchall":1651,"enter":1652,"ols":1653,"way":1654,"asing":1655,"Ġtrain":1656,"Ġmultiple":1657,"Ġpur":1658,"Ġtiss":1659,"Ġdeveloped":1660,"13":1661,"ral":1662,"Ġlic":1663,"Ġorder":1664,"ĠRes":1665,"ĠCon":1666,"Ġnec":1667,"face":1668,"Ġinfluenza":1669,"ulations":1670,"Ġproble":1671,"ended":1672,"Ġline":1673,"Ġlocal":1674,"Ġreport":1675,"Ġcop":1676,"Ġhost":1677,"Ġcri":1678,"ĠRe":1679,"Ġregion":1680,"ins":1681,"ision":1682,"ficient":1683,"Ġmethods":1684,"spec":1685,"for":1686,"Ġ14":1687,"actions":1688,"Ġprior":1689,"Ġstrain":1690,"Ġimprove":1691,"Ġfocus":1692,"Ġbet":1693,"ification":1694,"50":1695,"Ġdiagnos":1696,"ploy":1697,"Ġcer":1698,"Ġvi":1699,"ially":1700,"the":1701,"Ġrelative":1702,"Ġstandard":1703,"Ġyo":1704,"utions":1705,"Ġpat":1706,"ai":1707,"Ġdetection":1708,"Ġauthor":1709,"ults":1710,"Ġ[":1711,"overn":1712,"Ġextr":1713,"sure":1714,"omen":1715,"17":1716,"ources":1717,"Ġimplement":1718,"ither":1719,"Ġpneum":1720,"ick":1721,"Ġprogram":1722,"pected":1723,"abl":1724,"Ġelec":1725,"Ġknown":1726,"asc":1727,"ĠFurther":1728,"Ġbacter":1729,"infec":1730,"Ġlos":1731,"Ġunderstand":1732,"Ġstructure":1733,"ouse":1734,"Ġrelations":1735,"Ġer":1736,"Ġinclude":1737,"cop":1738,"Ġchange":1739,"Ġresponses":1740,"Ġhist":1741,"Ġstatis":1742,"Ġdispl":1743,"ĠCom":1744,"Ġpolic":1745,"Ġenvironment":1746,"Ġworld":1747,"Ġstate":1748,"Ġacross":1749,"ĠIF":1750,"ĠOn":1751,"Ġoutcomes":1752,"otyp":1753,"Ġwhether":1754,"ner":1755,"Ġtherapy":1756,"try":1757,"ets":1758,"ĠZ":1759,"Ġantibody":1760,"ocyt":1761,"aking":1762,"Ġdifferences":1763,"Ġsize":1764,"ĠAd":1765,"Ġsystems":1766,"Ġhand":1767,"Ġpresence":1768,"plications":1769,"Ġinteres":1770,"Ġplas":1771,"epti":1772,"Ġfour":1773,"eu":1774,"Ġlimit":1775,"elf":1776,"ount":1777,"Ġsensi":1778,"Ġfactor":1779,"Ġrap":1780,"ĠIg":1781,"ependent":1782,"Ġrates":1783,"Ġhelp":1784,"Ġvarious":1785,"ession":1786,"Ġantibodies":1787,"Ġcontr":1788,"Ġful":1789,"ĠQ":1790,"Ġepidemic":1791,"Ġrecomm":1792,"ters":1793,"uture":1794,"sych":1795,"tically":1796,"We":1797,"Ġnormal":1798,"Ġrequired":1799,"Ġproduction":1800,"ym":1801,"ledge":1802,"Ġstat":1803,"Ġidentify":1804,"Ġenc":1805,"Ġcancer":1806,"ĠâĪĴ":1807,"ivers":1808,"we":1809,"idence":1810,"ru":1811,"sing":1812,"ject":1813,"05":1814,"Ġinfectious":1815,"till":1816,"ĠPro":1817,"Ġconfirmed":1818,"Ġ24":1819,"Ġvol":1820,"ans":1821,"Ġecon":1822,"Ġneut":1823,"urn":1824,"Ġdiscus":1825,"Ġabs":1826,"ĠInd":1827,"rome":1828,"ored":1829,"Ġcat":1830,"Ġlicense":1831,"medi":1832,"ĠMore":1833,"onia":1834,"ĠY":1835,"lation":1836,"ators":1837,"Ġrapid":1838,"Ġstrong":1839,"Ġcontact":1840,"Ġrelationship":1841,"Ġstress":1842,"Ġ200":1843,"hold":1844,"Ġrange":1845,"Ġele":1846,"ĠChina":1847,"ax":1848,"Ġdiagnosis":1849,"Ġreduced":1850,"down":1851,"Ġvit":1852,"put":1853,"ression":1854,"%,":1855,"Ġreal":1856,"Ġ13":1857,"Ġ18":1858,"ci":1859,"Ġprimary":1860,"Ġgenes":1861,"rane":1862,"tt":1863,"Ġeduc":1864,"Ġ100":1865,"Ġvia":1866,"ules":1867,"hest":1868,"ĠDNA":1869,"ĠTherefore":1870,"Ġcharacteris":1871,"ger":1872,"Ġdomain":1873,"sel":1874,"Ġabove":1875,"Ġcommunity":1876,"itor":1877,"Ġexpos":1878,"Ġev":1879,"Ġdetected":1880,"ably":1881,"Ġstudents":1882,"ĠACE":1883,"low":1884,"21":1885,"ĠIC":1886,"Ġrecent":1887,"Ġquality":1888,"acts":1889,"roll":1890,"GA":1891,"ĠWh":1892,"Cs":1893,"Ġox":1894,"Ġmanagement":1895,"Ġadmin":1896,"ann":1897,"Ġproced":1898,"Ġdisplay":1899,"Ġconsist":1900,"Ġoften":1901,"Ġgovern":1902,"Ġscre":1903,"Ġreve":1904,"Ġdistribution":1905,"Ġsuc":1906,"Ġglobal":1907,"Ġsince":1908,"ote":1909,"Ġ16":1910,"Ġaccess":1911,"ndom":1912,"Ġcollected":1913,"Ġvariables":1914,"Ġsequence":1915,"irc":1916,"ata":1917,"Ġiss":1918,"tered":1919,"Ġprovided":1920,"Ġpresented":1921,"Ġself":1922,"cho":1923,"Ġinj":1924,"Ġleast":1925,"ĠX":1926,"Ġlimited":1927,"Ġprom":1928,"Ġhealthcare":1929,"Ġknowledge":1930,"des":1931,"itis":1932,"Ġlife":1933,"Ġeither":1934,"atures":1935,"Ġtested":1936,"Ġlabor":1937,"ynam":1938,"aterial":1939,"Ġpsych":1940,"Ġlearning":1941,"mph":1942,"izing":1943,"tice":1944,"ĠHealth":1945,"Ġbetter":1946,"Ġfuture":1947,"Ġgra":1948,"Ġaccording":1949,"Ġmas":1950,"Ġdemonstrated":1951,"Ġlack":1952,"aff":1953,"Ġol":1954,"Ġaverage":1955,"term":1956,"Ġconducted":1957,"struc":1958,"Ġstill":1959,"Ġoptim":1960,"ndrome":1961,"Ġpathogen":1962,"Ġfail":1963,"ird":1964,"Ġepit":1965,"xiv":1966,"Ġ11":1967,"Ġcorrel":1968,"Ġversion":1969,"Ġcardi":1970,"Ġrandom":1971,"be":1972,"pression":1973,"Rxiv":1974,"Ġpattern":1975,"Ġhowever":1976,"Ġda":1977,"Ġur":1978,"ances":1979,"Ġmy":1980,"Ġ25":1981,"Ġpreviously":1982,"Ġspecies":1983,"Ġoper":1984,"Ġread":1985,"Ġshort":1986,"Ġpneumonia":1987,"aging":1988,"Ġconte":1989,"Ġincreasing":1990,"Ġinitial":1991,"Ġkey":1992,"ane":1993,"Ġreceptor":1994,"Ġsignal":1995,"Ġdeg":1996,"Ġtests":1997,"Ġcytok":1998,"Ġenh":1999,"Ġthus":2000,"ference":2001,"Ġhyper":2002,"com":2003,"Ġmonths":2004,"tivi":2005,"Ġquestion":2006,"ino":2007,"PCR":2008,"Ġdel":2009,"pect":2010,"Ġproper":2011,"aled":2012,"Ġinst":2013,"Ġrat":2014,"uration":2015,"co":2016,"pecially":2017,"more":2018,"ardi":2019,"Ġhighly":2020,"Ġgo":2021,"yr":2022,"iral":2023,"ĠâĢ¢":2024,"Ġestabl":2025,"Ġgran":2026,"Ġcritical":2027,"Ġguid":2028,"Ġtimes":2029,"Ġrequire":2030,"cell":2031,"MP":2032,"tif":2033,"Ġach":2034,"Ġshows":2035,"specific":2036,"Ġcause":2037,"ique":2038,"ier":2039,"Ġfacil":2040,"ible":2041,"ode":2042,"Ġareas":2043,"Ġsetting":2044,"Th":2045,"Ġparameters":2046,"Ġassum":2047,"pri":2048,"Ġachie":2049,"Ġprevent":2050,"Ġtraining":2051,"Ġassay":2052,"ways":2053,"Ġrecogn":2054,"erv":2055,"Ġpreval":2056,"Ġdoes":2057,"like":2058,"ame":2059,"25":2060,"Ġexposure":2061,"set":2062,"Ġfew":2063,"Ġsum":2064,"Ġpul":2065,"ĠmedRxiv":2066,"Ġlymph":2067,"gl":2068,"Ġnecess":2069,"ĠÏ":2070,"Ġdeli":2071,"ronic":2072,"Ġsurface":2073,"Ġminim":2074,"Ġactive":2075,"Ġinv":2076,"not":2077,"Ġgrowth":2078,"ource":2079,"Ġfamily":2080,"ings":2081,"plied":2082,"Ġadv":2083,"//":2084,"Ġstep":2085,"Ġperformance":2086,"Ġartic":2087,"Ġreas":2088,"Ġmg":2089,"ĠIFN":2090,"Ġsw":2091,"Ġcirc":2092,"Ã¤":2093,"ĠAlthough":2094,"AP":2095,"Ġdifference":2096,"tivities":2097,"ict":2098,"Ġmedic":2099,"Ġadj":2100,"den":2101,"wh":2102,"Ġespecially":2103,"ody":2104,"Ġinvolved":2105,"Ġreduce":2106,"Ġrati":2107,"Ġgl":2108,"://":2109,"ĠII":2110,"Ġscore":2111,"Ġemploy":2112,"dro":2113,"Ġconcern":2114,"jects":2115,"Ġchem":2116,"Ġdefined":2117,"Ġhome":2118,"ious":2119,"ensity":2120,"Ġaccur":2121,"Ġadditional":2122,"Ġmust":2123,"Ġproposed":2124,"Ġexp":2125,"Ġcontinu":2126,"ights":2127,"ĠThus":2128,"Ġfollowed":2129,"pati":2130,"Ġneu":2131,"Ġauthors":2132,"Ġact":2133,"ascular":2134,"Ġsa":2135,"Ġsurvi":2136,"Ġservices":2137,"Ã³":2138,"ĠHC":2139,"icity":2140,"mitted":2141,"Ġactivation":2142,"Ġsyndrome":2143,"Ġcorres":2144,"Ġaim":2145,"Ġtissue":2146,"bo":2147,"Ġliter":2148,"Ġpepti":2149,"Ġtemper":2150,"ĠCT":2151,"Ġsci":2152,"ulate":2153,"Ġ2019":2154,"Ġsitu":2155,"Ġdiffic":2156,"95":2157,"Ġphysical":2158,"Ġradi":2159,"30":2160,"las":2161,"Ġmal":2162,"bid":2163,"any":2164,"Ġpoint":2165,"pe":2166,"Ġreduction":2167,"Ġstrategies":2168,"Ġorig":2169,"ician":2170,"eline":2171,"go":2172,"arding":2173,"ĠCo":2174,"hy":2175,"Ġdoc":2176,"RI":2177,"hesis":2178,"Ġbenef":2179,"Ġfram":2180,"Ġexist":2181,"Ġserum":2182,"Ġcomplete":2183,"Ġcaused":2184,"Ġterms":2185,"istic":2186,"Ġvalid":2187,"Ġinteg":2188,"ĠEn":2189,"inant":2190,"sc":2191,"Ġinteraction":2192,"Ġsurvey":2193,"Ġappear":2194,"ides":2195,"Ġmac":2196,"Ġtop":2197,"Ġfood":2198,"Ġtypes":2199,"aken":2200,"Ġ17":2201,"Ġchalleng":2202,"Ġeng":2203,"Ġcour":2204,"ector":2205,"ĠPCR":2206,"Ġactivities":2207,"Ġrespond":2208,"Ġreplication":2209,"Ġobserv":2210,"Ġutil":2211,"Ġcharacteristics":2212,"Ġgreater":2213,"Ġcompon":2214,"wn":2215,"Ġ>":2216,"AS":2217,"Ġlock":2218,"omy":2219,"Ġwomen":2220,"Ġtranscri":2221,"Ġarea":2222,"Ġcre":2223,"Ġtherefore":2224,"Ġrestr":2225,"Ġstatus":2226,"Ġevents":2227,"Ġsite":2228,"osph":2229,"ule":2230,"Ġcontext":2231,"Ġdrugs":2232,"Ġphase":2233,"afety":2234,"Ġseverity":2235,"ĠHIV":2236,"Ġable":2237,"Ġregions":2238,"inated":2239,"Ġsee":2240,"abil":2241,"Ġconcentration":2242,"Ġchronic":2243,"Ġfil":2244,"rit":2245,"Ġmen":2246,"Ġnovel":2247,"Ġrecord":2248,"ury":2249,"Ġmembrane":2250,"Ġculture":2251,"Ġsoci":2252,"ike":2253,"Ġclus":2254,"gi":2255,"anced":2256,"CC":2257,"Ġgly":2258,"Ġdown":2259,"here":2260,"Ġinflammatory":2261,"Ġonline":2262,"Ġoverall":2263,"Ġtreated":2264,"ĠOur":2265,"Ġfeatures":2266,"ĠSe":2267,"monary":2268,"Ġcateg":2269,"Ġsk":2270,"Ġcompound":2271,"ior":2272,"Ġventi":2273,"Ġsequences":2274,"Ġaddress":2275,"ĠME":2276,"portion":2277,"Ġsuccess":2278,"ours":2279,"Ps":2280,"Ġdynam":2281,"Ġdetail":2282,"Ġweeks":2283,"DS":2284,"ocytes":2285,"ems":2286,"ĠMoreover":2287,"ĠFurthermore":2288,"sp":2289,"ficiency":2290,"ene":2291,"Ġwater":2292,"Ġdeaths":2293,"Ġmuch":2294,"Ġvaccines":2295,"ĠAt":2296,"Ġess":2297,"ument":2298,"Ġcriter":2299,"Ġantiv":2300,"Ġatten":2301,"BD":2302,"ĠIm":2303,"Ġperson":2304,"ension":2305,"tial":2306,"ison":2307,"AR":2308,"Ġsuf":2309,"othe":2310,"Ġantigen":2311,"lying":2312,"Ġdetermined":2313,"Ġprotoc":2314,"Ġexperience":2315,"ĠEx":2316,"Ġenz":2317,"Ġseen":2318,"Ġdaily":2319,"omet":2320,"Ġanalyses":2321,"Ġdose":2322,"Ġlog":2323,"ogene":2324,"fication":2325,"ember":2326,"ze":2327,"ints":2328,"Ġmaterial":2329,"Ġprec":2330,"Ġgood":2331,"ether":2332,"Ġaffected":2333,"PE":2334,"enced":2335,"Ġbro":2336,"Ġtum":2337,"pite":2338,"cepti":2339,"ĠRT":2340,"gor":2341,"Ġdatas":2342,"utes":2343,"%),":2344,"Ġhem":2345,"ergy":2346,"Ġneeded":2347,"Ġability":2348,"Ġvaccination":2349,"Ġles":2350,"ient":2351,"Ġcoh":2352,"Ġcross":2353,"Ġevol":2354,"Ġmental":2355,"Ġdetermine":2356,"Ġlink":2357,"ware":2358,"gorith":2359,"Ġlockdown":2360,"Table":2361,"29":2362,"Ġoutcome":2363,"ĠCC":2364,"ank":2365,"els":2366,"Ġpercent":2367,"Ġher":2368,"ĠIntern":2369,"Ġwhat":2370,"Ġback":2371,"Ġanother":2372,"Ġprevalence":2373,"eration":2374,"Ġrestric":2375,"aps":2376,"erc":2377,"Ġreduc":2378,"Ġintro":2379,"active":2380,"Ġdie":2381,"40":2382,"Ġinteractions":2383,"Ġstaff":2384,"Ġ;":2385,"Ġhol":2386,"Ġplay":2387,"PS":2388,"Ġtoward":2389,"ower":2390,"Ġanalyzed":2391,"pre":2392,"Ġadmission":2393,"Ġ95":2394,"Ġgenome":2395,"Ġappropri":2396,"Ġliterature":2397,"Ġintervention":2398,"Ġlarg":2399,"Ġfib":2400,"Ġinstit":2401,"Ġfield":2402,"Ġmeasured":2403,"Ġreceived":2404,"ĠAfter":2405,"Ġloss":2406,"emi":2407,"inally":2408,"pet":2409,"Ġwide":2410,"Ġclose":2411,"Ġeconomic":2412,"Ġmolecular":2413,"Ġexc":2414,"helial":2415,"acted":2416,"GG":2417,"lusion":2418,"Ġcentr":2419,"Ġpaper":2420,"Ġdev":2421,"Ġtherapeu":2422,"Ġapplied":2423,"Ġclear":2424,"hers":2425,"iversity":2426,"Ġnat":2427,"odes":2428,"Ġcondition":2429,"aches":2430,"Ġincub":2431,"Ġresist":2432,"Ġge":2433,"Ġrevealed":2434,"infl":2435,"air":2436,"Ġtemperature":2437,"Ġaround":2438,"abol":2439,"ength":2440,"Ġsl":2441,"Ġdon":2442,"Ġphen":2443,"Ġbu":2444,"Ġindicated":2445,"Ġcent":2446,"RF":2447,"Ġvs":2448,"Ġexpressed":2449,"och":2450,"Ġbehavior":2451,"Ġcapac":2452,"ported":2453,"Ġanimals":2454,"MS":2455,"po":2456,"eed":2457,"see":2458,"Ġantiviral":2459,"Ġmake":2460,"Ġratio":2461,"24":2462,"Ġbest":2463,"Ġlaboratory":2464,"Ġresources":2465,"ancing":2466,"Ġrelevant":2467,"pose":2468,"Ġsensitivity":2469,"entially":2470,"RT":2471,"Ġintern":2472,"Ġ40":2473,"under":2474,"Ġway":2475,"Ġselected":2476,"Ġalthough":2477,"Ġevery":2478,"Ġexpected":2479,"ttps":2480,"ae":2481,"ĠÂ±":2482,"Ġparticularly":2483,"ficacy":2484,"Ġscho":2485,"Ġprote":2486,"ĠIf":2487,"bor":2488,"Ġpractice":2489,"uk":2490,"Ġx":2491,"Ġproblem":2492,"BS":2493,"Ġdecreased":2494,"Ġillness":2495,"Ġalgorith":2496,"Ġmix":2497,"ave":2498,"Ġdys":2499,"Ġnur":2500,"Ġeth":2501,"Ġsuscepti":2502,"Ġcall":2503,"Ġsafety":2504,"Ġmechanisms":2505,"Ġplace":2506,"Ġâī":2507,"ferred":2508,"Ġstim":2509,"Ġcountry":2510,"Ġmedia":2511,"ĠMed":2512,"Ġestimated":2513,"Ġstrategy":2514,"ographic":2515,"encing":2516,"urop":2517,"xi":2518,"ĠCI":2519,"kn":2520,"Ġincidence":2521,"Ġmonitor":2522,"Ġweek":2523,"sibility":2524,"ocy":2525,"80":2526,"ital":2527,"Ġworkers":2528,"Ġsepar":2529,"ĠCl":2530,"Ġdam":2531,"Ġexplain":2532,"Ġproportion":2533,"As":2534,"overy":2535,"Ġreflec":2536,"To":2537,"Ġeducation":2538,"IC":2539,"ovirus":2540,"Ġ*":2541,"Ġcommunic":2542,"ify":2543,"Ġmaintain":2544,"org":2545,"Ġfr":2546,"ustr":2547,"tro":2548,"Ġconn":2549,"ining":2550,"ands":2551,"Ġflow":2552,"Ġcalculated":2553,"Ġassociation":2554,"Ġbody":2555,"Ġgovernment":2556,"ĠAc":2557,"stit":2558,"AC":2559,"ĠICU":2560,"Ġconst":2561,"Ġpolicy":2562,"Ġfive":2563,"Ġdecrease":2564,"Ġpredict":2565,"Ġsubsequ":2566,"istration":2567,"Ġevaluated":2568,"ising":2569,"ring":2570,"23":2571,"ume":2572,"Ġcontrast":2573,"ĠThey":2574,"Ġcarri":2575,"Ġpulmonary":2576,"Ġperce":2577,"Ġstar":2578,"SV":2579,"Ġcriteria":2580,"Ġcost":2581,"Ġgranted":2582,"ĠOne":2583,"iat":2584,"ĠMarch":2585,"Ġresulting":2586,"Ġdifficult":2587,"roup":2588,"Ġassessment":2589,"Ġdirectly":2590,"Ġprofession":2591,"Ġprotec":2592,"Ġapproxim":2593,"eb":2594,"Ġstrains":2595,"ĠWhile":2596,"Ġmedi":2597,"erate":2598,"Ġsuggested":2599,"Ġnecessary":2600,"rup":2601,"Ġessential":2602,"urope":2603,"abor":2604,"ventions":2605,"Ġplasma":2606,"ĠÂµ":2607,"Ġtrials":2608,"Ġregarding":2609,"Ġpressure":2610,"Ġmaxim":2611,"Ġsites":2612,"Ġinterest":2613,"Ġcourse":2614,"Ġothers":2615,"vement":2616,"Ġcertain":2617,"60":2618,"Ġcoll":2619,"inary":2620,"Ġneeds":2621,"ĠCO":2622,"uity":2623,"Ġsubst":2624,"Ġrecommend":2625,"Ġtrial":2626,"rid":2627,"Ġneutral":2628,"LI":2629,"Ġflu":2630,"illion":2631,"Ġappropriate":2632,"bers":2633,"Ġcellular":2634,"Ġthough":2635,"tle":2636,"HO":2637,"funder":2638,"Ġden":2639,"yright":2640,"Ġscale":2641,"Ġreports":2642,"Ġunderstanding":2643,"Ġsumm":2644,"Ġsecondary":2645,"Ġfem":2646,"This":2647,"Ġsu":2648,"Ġhaving":2649,"Ġfailure":2650,"Ġnational":2651,"Ġscreening":2652,"Ġ28":2653,"long":2654,"inflamm":2655,"xiety":2656,"001":2657,"rolled":2658,"ygen":2659,"artic":2660,"ales":2661,"CD":2662,"Ġinflammation":2663,"Ġconsum":2664,"row":2665,"Ġcopyright":2666,"rad":2667,"ogens":2668,"Ġteam":2669,"aces":2670,"Ġwhereas":2671,"equ":2672,"Ġcapacity":2673,"ulating":2674,"Ġmembers":2675,"Ġdetect":2676,"ĠIgG":2677,"Ġavoid":2678,"rim":2679,"Ġbar":2680,"ik":2681,"Ġliver":2682,"usc":2683,"Ġnow":2684,"Ġpopulations":2685,"ĠSim":2686,"Ġconsequ":2687,"ymptom":2688,"Ġbecome":2689,"Ġmetabol":2690,"27":2691,"outh":2692,"Ġ37":2693,"01":2694,"iness":2695,"ĠEurope":2696,"olar":2697,"Ġcontaining":2698,"ĠPati":2699,"ĠUS":2700,"Ġpublished":2701,"Ġchain":2702,"Ġyou":2703,"Ġefficacy":2704,"lor":2705,"Ġinn":2706,"Ġ23":2707,"Â°":2708,"Ġfull":2709,"opath":2710,"ponding":2711,"Ġpoor":2712,"ont":2713,"ĠAr":2714,"Ġinterventions":2715,"itation":2716,"Ġimportance":2717,"Ġ21":2718,"upplement":2719,"king":2720,"LA":2721,"arr":2722,"Ġadults":2723,"Ġperpet":2724,"fusion":2725,"Ġblock":2726,"Ġ60":2727,"time":2728,"bi":2729,"aneous":2730,"pared":2731,"elines":2732,"Ġtas":2733,"Ġdim":2734,"Ġinjury":2735,"Ġevaluation":2736,"Ġcorrelation":2737,"Ġtherapeutic":2738,"pp":2739,"wide":2740,"Ġgenerated":2741,"Ġnan":2742,"day":2743,"ĠUSA":2744,"Ġdiagnostic":2745,"pir":2746,"ories":2747,"Ġsolution":2748,"Ġreaction":2749,"Ġload":2750,"ysis":2751,"II":2752,"ww":2753,"ĠPE":2754,"Ġlater":2755,"oma":2756,"Ġinfluence":2757,"Ã¼":2758,"Ġhistory":2759,"Ġprovides":2760,"iting":2761,"Ġemergency":2762,"Ġenergy":2763,"26":2764,"Ġdig":2765,"typ":2766,"Ġhighl":2767,"ĠInternational":2768,"28":2769,"Ġpeak":2770,"Ġmeans":2771,"Ġevent":2772,"Ġapproaches":2773,"ficial":2774,"enari":2775,"Ġcohort":2776,"Ġent":2777,"app":2778,"han":2779,"Ġassessed":2780,"Ġdri":2781,"Ġleading":2782,"ĠSp":2783,"atform":2784,"do":2785,"Ġanimal":2786,"Ġface":2787,"Ġfund":2788,"Ġyoung":2789,"Ġhydro":2790,"ologies":2791,"Ġfinal":2792,"Ġlat":2793,"Ġlip":2794,"Ġfever":2795,"Ġhumans":2796,"Ã³n":2797,"ili":2798,"Ġrather":2799,"AT":2800,"Ġfat":2801,"ĠNo":2802,"ĠÎ¼":2803,"Ġmit":2804,"Ġenter":2805,"Ġpersonal":2806,"Ġagents":2807,"Ġhom":2808,"Ġadop":2809,"Ġimmunity":2810,"Ġholder":2811,"Ġdiab":2812,"Ġbroad":2813,"âĢ¢":2814,"Ġtaken":2815,"Ġbacterial":2816,"Ġfrequency":2817,"Ġmild":2818,"Ġnatural":2819,"ere":2820,"unctions":2821,"Ġcris":2822,"Ġanxiety":2823,"let":2824,"Ġscores":2825,"ĠmRNA":2826,"COVID":2827,"Ġquestions":2828,"rag":2829,"NF":2830,"Ġvitro":2831,"Ġolder":2832,"Ġprocesses":2833,"formation":2834,"rence":2835,"Ġcombination":2836,"LR":2837,"ancy":2838,"Ġcomparison":2839,"encies":2840,"Ġconcentrations":2841,"Ġdecision":2842,"Ġonset":2843,"Ġpathogens":2844,"Ġbrain":2845,"Ġtechnology":2846,"plant":2847,"ply":2848,"Ġpower":2849,"ditional":2850,"Ġconsistent":2851,"Ġproducts":2852,"Ġview":2853,"Ġaltern":2854,"amin":2855,"Ġindex":2856,"Ġindicate":2857,"ready":2858,"Ġmedian":2859,"Ġaffect":2860,"Ġcorresponding":2861,"isc":2862,"Ġreason":2863,"Ġpharm":2864,"Ġhealthy":2865,"90":2866,"Ġweight":2867,"Ġfunctional":2868,"bs":2869,"Ġperpetuity":2870,"icians":2871,"Ġsal":2872,"Ġsex":2873,"Î±":2874,"eness":2875,"Ġplan":2876,"Ġoxygen":2877,"Ġintegr":2878,"Ġeas":2879,"Ġvariable":2880,"Ġsubjects":2881,"Ġtake":2882,"Ġcho":2883,"Ġcomput":2884,"PA":2885,"Ġroom":2886,"emia":2887,"Ġnumbers":2888,"induced":2889,"Ġregression":2890,"Ġinterval":2891,"Ġfree":2892,"Ġalong":2893,"EM":2894,"Ġindependent":2895,"Ġplatform":2896,"meric":2897,"GF":2898,"inflammatory":2899,"Ġlay":2900,"Ġhighest":2901,"otype":2902,"Ġclos":2903,"Ġlast":2904,"activ":2905,"ĠWith":2906,"Ġevaluate":2907,"iatric":2908,"Ġprobability":2909,"Ġstage":2910,"esis":2911,"tional":2912,"Ġuseful":2913,"Ġfacilit":2914,"osts":2915,"Ġhours":2916,"ymptomatic":2917,"Ġelectr":2918,"Ġtele":2919,"Ġaff":2920,"Ġinduced":2921,"Ġalready":2922,"Ġintr":2923,"hing":2924,"Ġrelatively":2925,"Ġnas":2926,"etes":2927,"ifically":2928,"Ġrecently":2929,"Ġisolated":2930,");":2931,"Ġproblems":2932,"Ġpor":2933,"Ġposted":2934,"Ġincreases":2935,"Ġsource":2936,"which":2937,"Ġremo":2938,"Ġdepend":2939,"Ġfind":2940,"ray":2941,"Ġadded":2942,"Ġgenetic":2943,"ĠPre":2944,"Ġcyc":2945,"ead":2946,"Ġexperiments":2947,"Ġscenari":2948,"Ġbo":2949,"Ġsuggests":2950,"Ġprotection":2951,"artment":2952,"erative":2953,"Ġ29":2954,"ĠÎ²":2955,"Ġexten":2956,"antit":2957,"Ġdatab":2958,"Ġspecial":2959,"Ġfit":2960,"entific":2961,"IS":2962,"Ġphosph":2963,"Ġisolation":2964,"ude":2965,"Ġsoft":2966,"hood":2967,"Ġissues":2968,"Î²":2969,"Ġhttps":2970,"oti":2971,"43":2972,"Ġpoints":2973,"Ġinten":2974,"ĠWhen":2975,"Ġamino":2976,"yme":2977,"Ġve":2978,"Figure":2979,"by":2980,"ext":2981,"Ġcollection":2982,"Ġche":2983,"Ġbelow":2984,"70":2985,"Ġ26":2986,"akes":2987,"Ġpathway":2988,"ending":2989,"NC":2990,"SARS":2991,"ĠMet":2992,"Ġduration":2993,"ulatory":2994,"45":2995,"Ġrang":2996,"Ġquar":2997,"Ġpeer":2998,"Ġdelivery":2999,"ospitals":3000,"Ġproperties":3001,"aring":3002,"ope":3003,"arily":3004,"Ġsurvival":3005,"Ġsuccessful":3006,"ework":3007,"most":3008,"Ġlength":3009,"Ġseries":3010,"Ġpotentially":3011,"Ġresearc":3012,"Ġtog":3013,"Ġbeli":3014,"Ġposition":3015,"ND":3016,"Ġimages":3017,"Ġbiological":3018,"certain":3019,"Ġparticles":3020,"clusion":3021,"onic":3022,"Ġcompounds":3023,"Ġuntil":3024,"entry":3025,"Ġstates":3026,"Ġstructures":3027,"ots":3028,"Ġheter":3029,"aged":3030,"side":3031,"Ġsection":3032,"Ġformation":3033,"Ġregard":3034,"ĠMERS":3035,"ones":3036,"BV":3037,"pril":3038,"Ġtogether":3039,"Ġcannot":3040,"Ġapplication":3041,"Ġmajority":3042,"Ġprocedures":3043,"Ġear":3044,"âĪ":3045,"Ġaccount":3046,"PD":3047,"Ġimproved":3048,"Ġmass":3049,"fort":3050,"Ġreli":3051,"gery":3052,"Ġvolume":3053,"35":3054,"ĠRec":3055,"Ġopen":3056,"atives":3057,"portun":3058,"Ġestablished":3059,"ransi":3060,"Ġchallenges":3061,"Ġsix":3062,"Ġprotective":3063,"Ġthrom":3064,"Ġexhib":3065,"Ġfunctions":3066,"22":3067,"Ġhere":3068,"isted":3069,"Ġrest":3070,"ero":3071,"infected":3072,"Ġrequ":3073,"Ġworking":3074,"ĠPh":3075,"Ġremains":3076,"Ġguidelines":3077,"Ġstructural":3078,"Ġcompos":3079,"Ġmillion":3080,"Ġtrend":3081,"nai":3082,"less":3083,"Ġmolecules":3084,"Ġtit":3085,"ĠAR":3086,"NS":3087,"ney":3088,"ĠÎ±":3089,"luded":3090,"lex":3091,"yst":3092,"Ġhouse":3093,"ats":3094,"ĠSimilar":3095,"Ġventilation":3096,"iques":3097,"Ġerr":3098,"Ġown":3099,"Ġarticle":3100,"38":3101,"orbid":3102,"ĠAm":3103,"Ġupon":3104,"Ġantibio":3105,"Ġenti":3106,"Ġbaseline":3107,"Ġsuggesting":3108,"jective":3109,"OS":3110,"ditionally":3111,"amp":3112,"Ġelev":3113,"Ġinterpre":3114,"Ġproduced":3115,"Ġquanti":3116,"Ġresistance":3117,"Ġprotocol":3118,"Ġ),":3119,"Ġtub":3120,"Ġtransport":3121,"Ġsampl":3122,"Ġparen":3123,"ds":3124,"enge":3125,"Ġoff":3126,"ured":3127,"Ġsens":3128,"Ġhospitals":3129,"Ġentry":3130,"gn":3131,"Ġstudied":3132,"Ġcurrently":3133,"erved":3134,"Ġtox":3135,"Ġemb":3136,"Ġepidemi":3137,"ĠMS":3138,"Ġprov":3139,"%).":3140,"gical":3141,"Ġopportun":3142,"Ġ27":3143,"Ġpromot":3144,"Ġmainly":3145,"HC":3146,"ĠAfric":3147,"ĠUnited":3148,"Ġmonitoring":3149,"Ġdeveloping":3150,"eth":3151,"Ġpsychological":3152,"ler":3153,"Ġensure":3154,"Ġsituation":3155,"Ġdos":3156,"isation":3157,"Ġ:":3158,"Ġtool":3159,"ĠÃĹ":3160,"Ġinvestigated":3161,"rolog":3162,"Ġir":3163,"Ġsearch":3164,"ES":3165,"ography":3166,"Ġassays":3167,"going":3168,"Ġdamage":3169,"ii":3170,"Ġdate":3171,"ked":3172,"Ġasymptomatic":3173,"Ġampl":3174,"Ġpass":3175,"ysi":3176,"Ġconstruc":3177,"Ġdifferenti":3178,"ÃŃ":3179,"istered":3180,"Ġ22":3181,"Ġframework":3182,"ĠAmeric":3183,"Ġpatterns":3184,"Ġdesigned":3185,"Ġstatistical":3186,"ground":3187,"Ġmutations":3188,"Ġdefin":3189,"Ġtransi":3190,"Ġcontrols":3191,"Ġdecl":3192,"Ġadministration":3193,"Ġbur":3194,"Ġinternational":3195,"Ġcomponents":3196,"oplas":3197,"wise":3198,"Ġmacroph":3199,"Ġcrisis":3200,"CM":3201,"Ġgu":3202,"Ġnature":3203,"az":3204,"Ġhal":3205,"Ġlarger":3206,"CG":3207,"Ġmic":3208,"ĠCor":3209,"48":3210,"Ġpractic":3211,"Ġprevention":3212,"Ġtranscription":3213,"izes":3214,"Ġide":3215,"aced":3216,"Ġrepe":3217,"PI":3218,"ĠApril":3219,"Ġintra":3220,"ĠUniversity":3221,"Ġtravel":3222,"Ġright":3223,"Ġpredicted":3224,"Ġcontent":3225,"Ġexperimental":3226,"Ġusually":3227,"upplementary":3228,"ered":3229,"illance":3230,"Ġsecre":3231,"Ġrepro":3232,"Ġul":3233,"DA":3234,"Ġwhole":3235,"ccording":3236,"33":3237,"Ġaction":3238,"Ġfore":3239,"Ġdegree":3240,"iving":3241,"ĠOf":3242,"Ġheart":3243,"Ġdataset":3244,"ĠStud":3245,"Ġaer":3246,"%.":3247,"ĠFinally":3248,"Ġcytokines":3249,"Ġ48":3250,"ologic":3251,"Ġinhibition":3252,"PR":3253,"Ġdil":3254,"Ġseg":3255,"Ġdiabetes":3256,"known":3257,"2020":3258,"Ġmid":3259,"ĠData":3260,"roscop":3261,"Ġrob":3262,"Ġvers":3263,"Ġmarket":3264,"tioned":3265,"Ġresidues":3266,"Ġabsence":3267,"ges":3268,"Ġenvironmental":3269,"Ġservice":3270,"Ġevolution":3271,"Ġcauses":3272,"inical":3273,"flu":3274,"apt":3275,"Ġunique":3276,"Ġrecomb":3277,"Ġreference":3278,"Ġhypot":3279,"overed":3280,"PV":3281,"andid":3282,"ĠDe":3283,"100":3284,"Ġapproximately":3285,"Ġcentral":3286,"oly":3287,"ancial":3288,"49":3289,"Ġcarried":3290,"Ġcomplications":3291,"Ġselection":3292,"Ġthird":3293,"Ġyet":3294,"thesis":3295,"rand":3296,"Ġdiss":3297,"Ġrecru":3298,"Ġimplementation":3299,"IR":3300,"Ġquantit":3301,"Ġamount":3302,"tified":3303,"Ġnext":3304,"Ġexamined":3305,"Ġbeg":3306,"Ġ/":3307,"Ġdirec":3308,"Ġdocument":3309,"Ġpregn":3310,"asis":3311,"ellular":3312,"Ġagg":3313,"Ġrelease":3314,"rotein":3315,"Ġalgorithm":3316,"Ġcluster":3317,"Ġaccuracy":3318,"Ġpain":3319,"urrent":3320,"tives":3321,"Ġemo":3322,"Ġpan":3323,"Ġsignaling":3324,"fold":3325,"65":3326,"eding":3327,"Ġadverse":3328,"Ġdistancing":3329,"An":3330,"rial":3331,"atisf":3332,"urity":3333,"rophil":3334,"trans":3335,"Ġunit":3336,"Ġchallenge":3337,"75":3338,"Ġresol":3339,"arc":3340,"reng":3341,"ah":3342,"Ġbacteria":3343,"Ġimaging":3344,"ĠSince":3345,"Ġtumor":3346,"uble":3347,"Ġspace":3348,"otherap":3349,"Ġbound":3350,"ream":3351,"Ġmm":3352,"Ġtechniques":3353,"Ġmeet":3354,"Ġmedium":3355,"Ġschool":3356,"Ġsurgery":3357,"Ġinhibitors":3358,"oles":3359,"mL":3360,"Ġprocedure":3361,"Ġplate":3362,"Ġspike":3363,"Ġpathways":3364,"Ġestimate":3365,"oids":3366,"Ġled":3367,"Ġviv":3368,"Ġdistance":3369,"ocyte":3370,"Ġside":3371,"ĠItal":3372,"Ġtowards":3373,"Ġcommunication":3374,"ifest":3375,"Ġsources":3376,"ronch":3377,"Ġrun":3378,"Ġnoted":3379,"tiveness":3380,"Ġsyst":3381,"Ġsoftware":3382,"Ġprinc":3383,"Ġcytokine":3384,"estinal":3385,"tre":3386,"Ġhis":3387,"Ġresulted":3388,"Ġ35":3389,"orders":3390,"Ġdone":3391,"man":3392,"Ġquestionnai":3393,"Ġattention":3394,"99":3395,"where":3396,"Ġvisual":3397,"bial":3398,"ĠOr":3399,"Ġlonger":3400,"Ġexisting":3401,"..":3402,"ites":3403,"Ġtract":3404,"ml":3405,"Ġsubstanti":3406,"Ġpeptide":3407,"ĠBe":3408,"Ġword":3409,"Ġfar":3410,"CAA":3411,"Ġconfirm":3412,"Ġcontribute":3413,"Ġrecommended":3414,"Ġswab":3415,"orld":3416,"dependent":3417,"OR":3418,"Ġshe":3419,"Ġcapt":3420,"ĠJan":3421,"Ġturn":3422,"ĠBi":3423,"Ġdistinc":3424,"Ġdynamics":3425,"Ġlig":3426,"Ġ%":3427,"Ġdelay":3428,"EV":3429,"Ġsupplement":3430,"Ġpast":3431,"Ġcontinuous":3432,"Ġreceptors":3433,"ibility":3434,"Ġrecovery":3435,"ĠmM":3436,"Ġrequires":3437,"bl":3438,"Ġpercentage":3439,"Ġoccurred":3440,"aryn":3441,"rix":3442,"Ġincludes":3443,"cence":3444,"Ġkid":3445,"Ġcod":3446,"Ġrespondents":3447,"AL":3448,"AD":3449,"Ġlight":3450,"Ġcombined":3451,"Ġvivo":3452,"Ġallowed":3453,"Ġmuc":3454,"acellular":3455,"Ġred":3456,"Ġalternative":3457,"struct":3458,"Ġgenerally":3459,"iÃ³n":3460,"Ġenzyme":3461,"Ġspecim":3462,"37":3463,"CS":3464,"âĢ":3465,"Ġattrib":3466,"imer":3467,"ĠMay":3468,"Ġuncertain":3469,"Ġresponsible":3470,"Ġfollows":3471,"Ġincor":3472,"Ġget":3473,"Ġbasis":3474,"function":3475,"Ġsurveillance":3476,"ĠUK":3477,"order":3478,"omp":3479,"cal":3480,"dom":3481,"Ġinterview":3482,"Ġpig":3483,"ĠSome":3484,"Ġmoderate":3485,"ufact":3486,"type":3487,"Ġconver":3488,"Ġunderlying":3489,"Ġproviding":3490,"Ġsettings":3491,"CL":3492,"mod":3493,"Ġfinancial":3494,"Ġrepresents":3495,"Ġlimitations":3496,"Ġhousehold":3497,"Ġusers":3498,"AG":3499,"Ġidentification":3500,"36":3501,"ulin":3502,"une":3503,"Ġstreng":3504,"Ġdiscussed":3505,"Ġadap":3506,"Ġestimates":3507,"normal":3508,"Ġvul":3509,"reshold":3510,"Ġinput":3511,"Ġdensity":3512,"Ġexposed":3513,"Ġefficiency":3514,"ĠSec":3515,"ape":3516,"MI":3517,"ĠFirst":3518,"ibr":3519,"Ġcharacterized":3520,"Ġrout":3521,"Ġpriv":3522,"forts":3523,"Ġ80":3524,"Ġmouse":3525,"ĠSc":3526,"Ġdepression":3527,"Ġresearchers":3528,"ĠDec":3529,"Ġequip":3530,"ache":3531,"Ġimplemented":3532,"Ġderived":3533,"Ġquarant":3534,"BY":3535,"DV":3536,"Ġbuil":3537,"34":3538,"Ġsurgical":3539,"ĠStates":3540,"Ġtools":3541,"Ġrapidly":3542,"que":3543,"Ġtissues":3544,"Ġsustain":3545,"Ġapproved":3546,"uary":3547,"bin":3548,"Ġindicating":3549,"Ġmaximum":3550,"Ġpolicies":3551,"aren":3552,"Ġwild":3553,"Ġcandid":3554,"Ġspecificity":3555,"Ġmaking":3556,"Ġfix":3557,"alysis":3558,"Ġpractices":3559,"eli":3560,"Ġsubsequent":3561,")-":3562,"oster":3563,"Ġadvant":3564,"ĠAdditionally":3565,"ban":3566,"ĠPR":3567,"Ã¶":3568,"Ġbarri":3569,"sh":3570,"Ġfluid":3571,"Ġprepared":3572,"Ġagre":3573,"Ġvector":3574,"Ġproduct":3575,"sia":3576,"Ġnetworks":3577,"Ġleft":3578,"Ġbiom":3579,"ĠCF":3580,"Ġbenefit":3581,"Ġbias":3582,"Ġcardiac":3583,"Ġfusion":3584,"Ġsafe":3585,"Ġallows":3586,"Ġproduce":3587,"aching":3588,"eral":3589,"mediated":3590,"Ġsatisf":3591,"ports":3592,"Ġconcept":3593,"Ġstay":3594,"IT":3595,"Ġque":3596,"ĠPatients":3597,"Ġreducing":3598,"Ġmanufact":3599,"ĠResults":3600,"aly":3601,"Ġdra":3602,"ole":3603,"Ġthreat":3604,"Ġprediction":3605,"Ġsigns":3606,"Ġein":3607,"aries":3608,"Ġarg":3609,"ociated":3610,"Ġthreshold":3611,"pects":3612,"Ġtrig":3613,"Ġforms":3614,"Ġdisch":3615,"ĠSy":3616,"ĠPD":3617,"level":3618,"eg":3619,"Ġrisks":3620,"Ġsynthe":3621,"Ġcomorbid":3622,"ĠNew":3623,"Ġimmedi":3624,"rosis":3625,"Ġvulner":3626,"Ġ90":3627,"izations":3628,"ĠRBD":3629,"Ġefforts":3630,"Ġoutbreaks":3631,"Ġenhance":3632,"ert":3633,"Ġmusc":3634,"Ġshif":3635,"ME":3636,"Ġindicates":3637,"infection":3638,"Ġ31":3639,"Ġaccept":3640,"utri":3641,"ĠBy":3642,"Ġrecorded":3643,"Ġsusceptible":3644,"Ġtransplant":3645,"Ġoral":3646,"sib":3647,"ĠCovid":3648,"Ġpoli":3649,"Ġfrequently":3650,"Ġstatistically":3651,"ĠDes":3652,"Ġstain":3653,"Ġglyc":3654,"Ġlines":3655,"ened":3656,"doi":3657,"For":3658,"Ġbus":3659,"ued":3660,"Ġjust":3661,"land":3662,"Ġoptimal":3663,"Ġcommonly":3664,"Ġbre":3665,"Ġperceived":3666,"ĠInte":3667,"Ġgender":3668,"Ġleg":3669,"Ġlinear":3670,"ĠJanuary":3671,"Ġchest":3672,"earch":3673,"ĠAccording":3674,"Ġexperiment":3675,"Ġsuper":3676,"Ġpersist":3677,"isms":3678,"Ġimprovement":3679,"Ġcut":3680,"Ġsimple":3681,"Ġworldwide":3682,"Ġtargets":3683,"Ġalone":3684,"47":3685,"SD":3686,"Ġdatabase":3687,"68":3688,"off":3689,"Ġreturn":3690,"olic":3691,"Ġsystemic":3692,"Ġrepl":3693,"Ġlit":3694,"âĪĴ":3695,"Ġsynthesis":3696,"Ġimage":3697,"Ġchec":3698,"Ġagent":3699,"Ġyield":3700,"Ġtransfer":3701,"Ġbenefits":3702,"otic":3703,"IF":3704,"dle":3705,"Ġhead":3706,"Ġhalf":3707,"Ġconcerns":3708,"Ġwidely":3709,"Ġdistress":3710,"ĠĠĠĠĠ":3711,"ĠCR":3712,"usted":3713,"ĠGen":3714,"Ġfeature":3715,"Ġpolymer":3716,"ĠAg":3717,"ycl":3718,"ĠOther":3719,"Ġbasic":3720,"Ġmatrix":3721,"Ġpair":3722,"Ġinvestigate":3723,"Ġbuf":3724,"Ġentire":3725,"Ġcough":3726,"Ġadapt":3727,"Ġ45":3728,"Ġestablish":3729,"Ġfrag":3730,"cript":3731,"ocardi":3732,"Ġextre":3733,"Ġliving":3734,"Ġasth":3735,"icine":3736,"itable":3737,"Ġreporting":3738,"Ġleads":3739,"ached":3740,"Ġfocused":3741,"Ġnumer":3742,"Ġachieved":3743,"Ġassign":3744,"ades":3745,"ighted":3746,"Ġmale":3747,"Ġinternal":3748,"Ġbronch":3749,"Ġendot":3750,"group":3751,"Ġconsent":3752,"Ġparameter":3753,"Ġalmost":3754,"Ġarter":3755,"Ġantic":3756,"Ġdisorders":3757,"\",":3758,"year":3759,"Ġmig":3760,"ĠDuring":3761,"Ġsystematic":3762,"Ġincorpor":3763,"Ġoccurs":3764,"101":3765,"inese":3766,"heless":3767,"Ġconclusion":3768,"Ġcertified":3769,"ST":3770,"Ġstable":3771,"Ġmacrophages":3772,"98":3773,"Ġitems":3774,"Ġaspects":3775,"sis":3776,"associated":3777,"ta":3778,"ER":3779,"Ġdigital":3780,"Ġ36":3781,"Ġapplications":3782,"Ġinstitution":3783,"isions":3784,"Ġec":3785,"Ġclassification":3786,"merc":3787,"Ġillustr":3788,"Ġelevated":3789,"Ġrelationships":3790,"Ġlesions":3791,"Ġtend":3792,"Ġeffectiveness":3793,"Ġvary":3794,"otherapy":3795,"self":3796,"tual":3797,"met":3798,"ises":3799,"ediatric":3800,"Ġepithelial":3801,"Ġbio":3802,"DNA":3803,"NT":3804,"Ġthroughout":3805,"Ġinduce":3806,"Ġposi":3807,"itig":3808,"ĠpH":3809,".\"":3810,"Ġacids":3811,"ĠReg":3812,"MV":3813,"Ġneutrophil":3814,"Ġunknown":3815,"Ġroutine":3816,"angu":3817,"Ġsampling":3818,"Ġpharmac":3819,"pond":3820,"ovascular":3821,"immun":3822,"Ġseas":3823,"ids":3824,"Ġdivid":3825,"mic":3826,"Ġprograms":3827,"Ġspecifically":3828,"Ġmask":3829,"IP":3830,"inity":3831,"ped":3832,"MA":3833,"OC":3834,"Ġdiscussion":3835,"Ġdemand":3836,"Ġrare":3837,"Ġexerc":3838,"EC":3839,"Ġneuro":3840,"Ġfraction":3841,"inate":3842,"Ġscientific":3843,"ling":3844,"ĠChinese":3845,"ĠDi":3846,"Ġversus":3847,"astr":3848,"fered":3849,"Ġcoef":3850,"Ġfully":3851,"46":3852,"Al":3853,"Ġves":3854,"Ġextent":3855,"Ġkidney":3856,"agement":3857,"cont":3858,"oring":3859,"Ġold":3860,"Ġvariants":3861,"aling":3862,"oking":3863,"Ġadult":3864,"Ġcycle":3865,"hods":3866,"Ġadhe":3867,"Ġsummar":3868,"Ġinduc":3869,"Ġdiagnosed":3870,"Ġlocation":3871,"Ġmil":3872,"ipher":3873,"acing":3874,"Ġmis":3875,"Ġter":3876,"ĠAT":3877,"Ġdisrup":3878,"Ġlearn":3879,"ĠSci":3880,"asive":3881,"Ġlas":3882,"Ġinhibitor":3883,"Ġspati":3884,"iRNA":3885,"lier":3886,"Ġfeed":3887,"Ġunits":3888,"istry":3889,"reen":3890,"Ġpossibility":3891,"ĠWHO":3892,"ture":3893,"ectors":3894,"ĠWu":3895,"ĠAss":3896,"Ġqual":3897,"Ġincubated":3898,"Ġgeneration":3899,"Ġdespite":3900,"Ġreplic":3901,"lif":3902,"Ġexperienced":3903,"Ġupper":3904,"Ġans":3905,"Ġserious":3906,"Ġautom":3907,"aster":3908,"Ġcosts":3909,"tee":3910,"Ġsequencing":3911,"omer":3912,"Ġvariation":3913,"Ġcommunities":3914,"zing":3915,"Ġmach":3916,"Ġfamil":3917,"Ġfemale":3918,"positive":3919,"AV":3920,"Ġinstance":3921,"ĠGerm":3922,"ying":3923,"Ġbegin":3924,"Ġyour":3925,"Ġgain":3926,"ĠNS":3927,"Ġput":3928,"39":3929,"Ġbelie":3930,"Ġcorrelated":3931,"Ġhospitalized":3932,"patient":3933,"Ġskin":3934,"Ġuser":3935,"Ġexce":3936,"Ġprogression":3937,"Ġoriginal":3938,"Ġtreatments":3939,"pi":3940,"Ġcruc":3941,"Ġlist":3942,"otypes":3943,"Ġcontacts":3944,"Ġoutside":3945,"Ġrobust":3946,"Ġ70":3947,"Ġwa":3948,"rh":3949,"Ġcompl":3950,"Ġprocessing":3951,"Ġmutation":3952,"Ġvide":3953,"pers":3954,"Ġâī¥":3955,"Ġsupply":3956,"ged":3957,"Ġadequ":3958,"Ġ38":3959,"oint":3960,"Ġgraph":3961,"Ġcollabor":3962,"rief":3963,"hol":3964,"Ġrecommendations":3965,"rospective":3966,"organ":3967,"67":3968,"Ġhospitalization":3969,"back":3970,"ĠCons":3971,"Ġwrit":3972,"Ġetc":3973,"Ġcogn":3974,"Ġvariety":3975,"ĠEuropean":3976,"Ġefficient":3977,"Ġmechanical":3978,"Ġcontains":3979,"Ġrespect":3980,"Ġintensive":3981,"Ġ2021":3982,"**":3983,"ĠAmong":3984,"There":3985,"ĠTNF":3986,"Ġpeptides":3987,"Ġmiss":3988,"Ġ32":3989,"Ġadmitted":3990,"Ġdistinct":3991,"Ġgluc":3992,"Ġconstant":3993,"ills":3994,"tingly":3995,"Ġcalled":3996,"Ġlinked":3997,"Ã¡":3998,"Ġtw":3999,"Ġsignificance":4000,"jected":4001,"Ġextensive":4002,"Ġann":4003,"phyl":4004,"iring":4005,"Ġfluores":4006,"Ġfacilities":4007,"erb":4008,"Ġpromis":4009,"Ġweak":4010,"Ġgenerate":4011,"44":4012,"63":4013,"Ġachieve":4014,"Ġdescri":4015,"ĠMost":4016,"being":4017,"Ġissue":4018,"ĠNational":4019,"Ġemerging":4020,"Ġdog":4021,"Ġtempor":4022,"Ġcrucial":4023,"Ġarticles":4024,"Ġpack":4025,"omal":4026,"Ġfeel":4027,"Ġcolon":4028,"Ġnor":4029,"57":4030,"Ġcomplement":4031,"Ġburden":4032,"ash":4033,"Ġnote":4034,"Ġnorm":4035,"ogenic":4036,"ĠWuhan":4037,"everal":4038,"Ġenhanced":4039,"BM":4040,"Ġfig":4041,"ĠInc":4042,"Ġdemonstrate":4043,"Ġtechnique":4044,"ĠSouth":4045,"Ġaccum":4046,"Ġdeep":4047,"operative":4048,"otox":4049,"Ġdescribe":4050,"Ġconfidence":4051,"Ġdiarr":4052,"Ġ33":4053,"tension":4054,"CI":4055,"Ġlate":4056,"Ġquestionnaire":4057,"tition":4058,"Ġmitig":4059,"position":4060,"Ġmasks":4061,"Cl":4062,"inter":4063,"Ġsimulation":4064,"Ġlittle":4065,"Ġconsumption":4066,"Ġextracted":4067,"ĠCont":4068,"Ġbal":4069,"atin":4070,"Ġaeros":4071,"Ġasthma":4072,"Ġprepar":4073,"ochem":4074,"luding":4075,"seud":4076,"ecause":4077,"ĠAD":4078,"Ġdoi":4079,"Ġregular":4080,"Ġneur":4081,"Ġurban":4082,"oqu":4083,"Ġinterpret":4084,"Ġprop":4085,"Ġrenal":4086,"mia":4087,"Ġalle":4088,"Ġalter":4089,"200":4090,"88":4091,"ire":4092,"Ġdependent":4093,"Ġquarantine":4094,"Ġexpect":4095,"lear":4096,"Ġphysi":4097,"rich":4098,"otide":4099,"Ġemph":4100,"Ġtraditional":4101,"Ġtransl":4102,"atal":4103,"ĠInstit":4104,"ĠFeb":4105,"Ġfav":4106,"Ġabnormal":4107,"Ġexcluded":4108,"Ġattem":4109,"Ġstages":4110,"Ġalign":4111,"Ġappears":4112,"Ġdomains":4113,"ards":4114,"aw":4115,"fact":4116,"Ġnodes":4117,"Ġcompre":4118,"ĠLe":4119,"Ġquantitative":4120,"Ġequipment":4121,"sized":4122,"Ġinteract":4123,"TR":4124,"Ġprogn":4125,"Ġheterogene":4126,"Ġbuffer":4127,"ĠHR":4128,"Ġseems":4129,"Ġsupported":4130,"kg":4131,"Ġmar":4132,"Ġprogress":4133,"Ġcompare":4134,"Ġunc":4135,"HV":4136,"agen":4137,"Ġcomponent":4138,"gens":4139,"Ġster":4140,"Ġinvolvement":4141,"Ġbat":4142,"point":4143,"97":4144,"Ġexamination":4145,"ĠCoV":4146,"Ġname":4147,"Ġsubject":4148,"astro":4149,"ruary":4150,"1101":4151,"Ġcore":4152,"Ġcontrolled":4153,"Ġstability":4154,"Ġhar":4155,"Ġmanifest":4156,"Ġstrongly":4157,"Ġnm":4158,"Ġdysfunction":4159,"ĠAb":4160,"ĠORF":4161,"ophil":4162,"ĠSD":4163,"Ġsuspected":4164,"Ġsteps":4165,"inations":4166,"Ġcommerc":4167,"Ġproject":4168,"ycin":4169,"Ġoutput":4170,"Ġdetailed":4171,"Ġongoing":4172,"ĠSh":4173,"Ġmem":4174,"ĠHospital":4175,"Ġfamilies":4176,"Ġdimension":4177,"Ġchemical":4178,"restingly":4179,"Ġenzym":4180,"Ġapop":4181,"Ġstart":4182,"Ġdivers":4183,"LISA":4184,"Ġcolle":4185,"Ġpromote":4186,"Ġsufficient":4187,"Ġlocated":4188,"Ġpoll":4189,"ĠSimilarly":4190,"Ġavailability":4191,"Ġlangu":4192,"Ġmeta":4193,"Ġdu":4194,"PC":4195,"Ġreasons":4196,"Ġtargeting":4197,"ching":4198,"Ġfixed":4199,"Ġpurpose":4200,"Ġperipher":4201,"Ġobes":4202,"Wh":4203,"Ġinvestigation":4204,"Ġhypothesis":4205,"ĠHere":4206,"Ġauto":4207,"Ġsensitive":4208,"Ġextreme":4209,"Ġcarb":4210,"Ġtechnologies":4211,"ĠOver":4212,"ĠMe":4213,"ococ":4214,"ĠPA":4215,"Ġdro":4216,"apan":4217,"yond":4218,"Ġcreat":4219,"Ġchann":4220,"Ġbusiness":4221,"Ġregulation":4222,"Ġemployed":4223,"32":4224,"Ġfal":4225,"Ġonce":4226,"Ġprolif":4227,"mo":4228,"Ġrecombinant":4229,"Â·":4230,"Ġreceiving":4231,"Ġcurve":4232,"Ġrecognition":4233,"55":4234,"Ġmentioned":4235,"Ġtaking":4236,"Ġpool":4237,"Ġbed":4238,"Ġresidents":4239,"Ġconsequences":4240,"ĠER":4241,"ou":4242,"Ġslight":4243,"crib":4244,"Ġwar":4245,"cy":4246,"sor":4247,"Ġintroduced":4248,"Ġlungs":4249,"ĠSecond":4250,"HS":4251,"Ġcardiovascular":4252,"Ġmob":4253,"Ġconstit":4254,"ada":4255,"xy":4256,"Ġlive":4257,"Ġadministered":4258,"ensus":4259,"Ġsymptomatic":4260,"ĠHA":4261,"HR":4262,"leep":4263,"ĠOR":4264,"Ġelements":4265,"Ġearlier":4266,"Ġcomprehen":4267,"Ġshowing":4268,"Ġcorrect":4269,"It":4270,"ferences":4271,"ĠBl":4272,"Ġcoord":4273,"ĠWorld":4274,"NP":4275,"treated":4276,"Ġalways":4277,"ĠDise":4278,"phal":4279,"ĠBoth":4280,"Ġlayer":4281,"ylation":4282,"Ġexperiences":4283,"usive":4284,"Ġshare":4285,"ventional":4286,"Ġspecimens":4287,"Ġmedicine":4288,"Ġtrue":4289,"ĠCS":4290,"Ġfear":4291,"Ġconsidering":4292,"aus":4293,"ressive":4294,"ĠâĪĪ":4295,"ĠItaly":4296,"ternal":4297,"Ġretrospective":4298,"fect":4299,"Ġtask":4300,"Ġerror":4301,"Ġtext":4302,"Ġreceive":4303,"Ġnasal":4304,"arent":4305,"41":4306,"pts":4307,"viruses":4308,"ĠCA":4309,"Ġrights":4310,"Ġelectro":4311,"Ġcategories":4312,"Ġthromb":4313,"brid":4314,"elling":4315,"ĠFebruary":4316,"ĠNor":4317,"Ġlabel":4318,"Ġinnate":4319,"Ġhep":4320,"Ġsil":4321,"Our":4322,"Ġcontinue":4323,"Ġaged":4324,"Ġoccup":4325,"Ġdevi":4326,"Ġslow":4327,"ĠED":4328,"Ġmanus":4329,"Ġpresentation":4330,"Ġcontam":4331,"rest":4332,"Ġassist":4333,"Ġpersons":4334,"Ġobservations":4335,"ched":4336,"ĠResearch":4337,"Ġcoronaviruses":4338,"Ġways":4339,"ĠEach":4340,"Ġmaterials":4341,"epend":4342,"Ġcompr":4343,"Ġproviders":4344,"IL":4345,"ĠTwo":4346,"Ġbreat":4347,"dis":4348,"IG":4349,"Ġprofessionals":4350,"Ġdevices":4351,"ĠAlso":4352,"abilities":4353,"ĠJune":4354,"ĠSpec":4355,"Ġasked":4356,"Ġcreated":4357,"ĠmL":4358,"opes":4359,"Ġangi":4360,"Ġsusp":4361,"Ġmodified":4362,"Ġtargeted":4363,"ĠCol":4364,"Ġscenario":4365,"Ġincubation":4366,"Ġvisits":4367,"Ġsubstr":4368,"ĠAnother":4369,"77":4370,"stream":4371,"lim":4372,"Ġoffer":4373,"St":4374,"rin":4375,"ournal":4376,"valent":4377,"ĠJapan":4378,"ĠSuch":4379,"uly":4380,"NV":4381,"Ġinclusion":4382,"umn":4383,"Ġrestrictions":4384,"Ġaccoun":4385,"Ġpossib":4386,"Ġobjective":4387,"veolar":4388,"Ġinformed":4389,"Ġfrequent":4390,"estern":4391,"Ġsolutions":4392,"Ġaggreg":4393,"Ġshared":4394,"Ġobservation":4395,"micro":4396,"MD":4397,"ements":4398,"onomic":4399,"Ġcity":4400,"Ġantigens":4401,"Ġsmaller":4402,"Ġhum":4403,"Ġdoses":4404,"Ġprotease":4405,"Ġincome":4406,"Ġmicroscop":4407,"ĠSub":4408,"ering":4409,"96":4410,"Ġkin":4411,"Ġcompleted":4412,"ĠTr":4413,"geal":4414,"Ġrecip":4415,"31":4416,"Ġmixed":4417,"hal":4418,"Ġdrople":4419,"ustry":4420,"Ġepidemiological":4421,"Ġpolitical":4422,"ients":4423,"vered":4424,"Ġwave":4425,"irth":4426,"ocal":4427,"gent":4428,"Ġreactions":4429,"ĠOrgan":4430,"Ġcounter":4431,"Ġvon":4432,"aria":4433,"Ġairway":4434,"Ġoxid":4435,"aryngeal":4436,"ĠBased":4437,"Ġquantif":4438,"ĠSection":4439,"raz":4440,"aciÃ³n":4441,"ophag":4442,"Ġaden":4443,"Ġinterfer":4444,"Ġconj":4445,"ather":4446,"coprotein":4447,"ulf":4448,"Ġplasm":4449,"Ġsense":4450,"Ġvisit":4451,"Ġelim":4452,"tra":4453,"quired":4454,"Ġrefer":4455,"vari":4456,"Ġimmunos":4457,"itative":4458,"Ġtheory":4459,"ĠNot":4460,"Ġmarkers":4461,"Ġexplore":4462,"ĠARDS":4463,"ee":4464,"Ġexamine":4465,"Ġhypertension":4466,"ĠIndia":4467,"85":4468,"ademic":4469,"Ġregim":4470,"Ġconfl":4471,"ublic":4472,"au":4473,"iltr":4474,"Ġbase":4475,"Ġinnov":4476,"Ġleuk":4477,"Ġquick":4478,"Ġappe":4479,"Ġinduction":4480,"risk":4481,"Ġcompet":4482,"Ġtypically":4483,"Ġspatial":4484,"Ġprincip":4485,"Ġreverse":4486,"men":4487,"Ġfer":4488,"ĠUsing":4489,"ĠSur":4490,"BP":4491,"uth":4492,"ĠInterestingly":4493,"Ġnurses":4494,"MR":4495,"Ġ|":4496,"ĠIV":4497,"Ġcomorbidities":4498,"Ġneurolog":4499,"ĠFrom":4500,"Ġintensity":4501,"Ġstem":4502,"Ġ34":4503,"articip":4504,"ĠAfrica":4505,"Ġpros":4506,"ĠIndeed":4507,"Ġreviewed":4508,"GTT":4509,"osa":4510,"Ġmanuscript":4511,"Ġseem":4512,"Ġnutri":4513,"ĠMod":4514,"orn":4515,"Ġendothelial":4516,"ek":4517,"ership":4518,"rogen":4519,"Ġclearly":4520,"Ġbelong":4521,"ACE":4522,"Ġfacilitate":4523,"Ġvascular":4524,"Ġencod":4525,"Ġinstitutions":4526,"Ġdiet":4527,"plicated":4528,"ula":4529,"Ġsets":4530,"Ġprolong":4531,"All":4532,"Ġrep":4533,"ĠPM":4534,"etal":4535,"trum":4536,"Ġremaining":4537,"Ġperipheral":4538,"selves":4539,"ĠMethods":4540,"66":4541,"Ġnear":4542,"Ġorigin":4543,"uments":4544,"Ġaffinity":4545,"ĠTLR":4546,"Ġgenomic":4547,"Ġinvest":4548,"Ġequal":4549,"Ġperiods":4550,"ĠPBS":4551,"Ġcorrespond":4552,"Ġtraum":4553,"ogenous":4554,"Ġcomprehensive":4555,"Ġdecisions":4556,"Ġmeasurement":4557,"Ġmeasurements":4558,"Ġconsult":4559,"Ġmanner":4560,"oquine":4561,"ĠDecember":4562,"04":4563,"osomes":4564,"Ġassemb":4565,"Ġsession":4566,"tosis":4567,"Ġdetails":4568,"Ġml":4569,"Ġgive":4570,"free":4571,"ĠIs":4572,"Ġcenter":4573,"Ġinoc":4574,"Ġmemory":4575,"Ġphysicians":4576,"fected":4577,"ĠAp":4578,"mittee":4579,"Ġimpacts":4580,"Ġremoved":4581,"Ġsleep":4582,"Ġmuscle":4583,"Ġprofile":4584,"Ġrib":4585,"Ġregulatory":4586,"Ġinstruc":4587,"Ġsubstit":4588,"Ġseven":4589,"Ġ39":4590,"HD":4591,"Ġremained":4592,"Ġbene":4593,"CV":4594,"Ġansw":4595,"ees":4596,"Ġcreate":4597,"Ġencour":4598,"Ġactivated":4599,"Ġ55":4600,"Ġbehaviors":4601,"ĠCan":4602,"mal":4603,"Ġcognitive":4604,"Ġneigh":4605,"Ġinstr":4606,"Ġeffectively":4607,"Ġwind":4608,"amine":4609,"itiz":4610,"Ġwhose":4611,"with":4612,"Ġupd":4613,"plies":4614,"Ġventil":4615,"Ġstarted":4616,"Ġhyd":4617,"Ġelder":4618,"Ġdeb":4619,"ĠThen":4620,"Ġexercise":4621,"open":4622,"regulated":4623,"Ġuncertainty":4624,"CO":4625,"hea":4626,"oral":4627,"NN":4628,"ET":4629,"acerb":4630,"Ġregional":4631,"Ġdatasets":4632,"Ġpredom":4633,"Ġclassified":4634,"Ġgastro":4635,"iance":4636,"ott":4637,"alle":4638,"Ġimm":4639,"Ġmobility":4640,"Ġaw":4641,"asion":4642,"Ġchrom":4643,"igen":4644,"Ġneutralizing":4645,"Ġmicrobi":4646,"Ġcoverage":4647,"Ġsuppres":4648,"Ġparticipant":4649,"Ġoverl":4650,"Ġaccurate":4651,"elihood":4652,"Ġitself":4653,"ping":4654,"Ġbeyond":4655,"nel":4656,"umab":4657,"Ġdynamic":4658,"theless":4659,"Ġindustry":4660,"Ġdiff":4661,"02":4662,"ste":4663,"Ġrelation":4664,"ĠGiven":4665,"Ġpanel":4666,"Ġdiverse":4667,"Ġcas":4668,"loroquine":4669,"Ġsegment":4670,"Ġsubstantial":4671,"Ġprimarily":4672,"Ġlipid":4673,"Ch":4674,"Ġmorbid":4675,"protein":4676,"Ġbind":4677,"Ġsusceptibility":4678,"Ġgrad":4679,"PP":4680,"pha":4681,"ĠST":4682,"apping":4683,"Î³":4684,"Ġbackground":4685,"Ġpolymerase":4686,"Ġpathogenesis":4687,"Ġsecurity":4688,"Ġinvolving":4689,"Ġparents":4690,"Ġtoo":4691,"ĠPer":4692,"ĠPl":4693,"Ġlatter":4694,"Ġstrength":4695,"Ġmagn":4696,"ĠMD":4697,"Ġkeep":4698,"ĠRSV":4699,"ollow":4700,"ĠSupplementary":4701,"Ġmess":4702,"Ġremote":4703,"ateral":4704,"Ġuses":4705,"Ġvirtual":4706,"chem":4707,"Ġmakes":4708,"Ġdivided":4709,"Ġjob":4710,"Ġpap":4711,"load":4712,"Ġdest":4713,"Ġexternal":4714,"ulative":4715,"ocation":4716,"Ġexacerb":4717,"Ġactual":4718,"Ġrecovered":4719,"ĠELISA":4720,"ĠGermany":4721,"ĠHence":4722,"Ġbehaviour":4723,"Ġdegrad":4724,"orph":4725,"oscop":4726,"Ġmeth":4727,"\".":4728,"ission":4729,"ired":4730,"78":4731,"Ġconstrain":4732,"lets":4733,"viral":4734,"Ġminimum":4735,"Ġglycoprotein":4736,"Ġdiversity":4737,"Ġthink":4738,"Ġclim":4739,"Ġbuilding":4740,"Ġgoal":4741,"oh":4742,"reatment":4743,"Ġprofessional":4744,"Ġvan":4745,"Ġarch":4746,"US":4747,"TC":4748,"ĠBecause":4749,"Ġreach":4750,"regulation":4751,"kelihood":4752,"axis":4753,"Ġresource":4754,"Ġsocio":4755,"Ġinactiv":4756,"ĠEngl":4757,"tag":4758,"ery":4759,"Ġflex":4760,"ĠDespite":4761,"Ġmeaning":4762,"Ġens":4763,"Ġexplained":4764,"Ġrecognized":4765,"Ġclusters":4766,"Ġconventional":4767,"Ġexpand":4768,"sian":4769,"Ġfalse":4770,"ull":4771,"Ġdrop":4772,"Ġolig":4773,"Ġchoice":4774,"astic":4775,"oglob":4776,"Ġ42":4777,"urb":4778,"Ġmostly":4779,"ensin":4780,"Ġeasily":4781,"Ġpen":4782,"Ġdevice":4783,"Ab":4784,"Ġdele":4785,"terminal":4786,"ico":4787,"TAA":4788,"Ġroles":4789,"Ġindirect":4790,"Ġcausing":4791,"opathy":4792,"onucle":4793,"Ġdied":4794,"used":4795,"Ġbeginning":4796,"Ġreflect":4797,"Ġacademic":4798,"Ġaimed":4799,"uting":4800,"Ġrepresented":4801,"53":4802,"Ġrh":4803,"Ġmamm":4804,"Ġminor":4805,"03":4806,"Ġcities":4807,"Ġrequiring":4808,"Ġelderly":4809,"Ġlanguage":4810,"Ġscience":4811,"Ġinstead":4812,"Ġisolates":4813,"arged":4814,"bit":4815,"Ġadequate":4816,"ows":4817,"Ġtrack":4818,"ĠVir":4819,"Ġprotect":4820,"Ġten":4821,"Ġfarm":4822,"Ġrepeated":4823,"Ġprobably":4824,"Ġexact":4825,"Ġtransition":4826,"ĠTrans":4827,"59":4828,"69":4829,"microbial":4830,"Ġcultures":4831,"ĠTB":4832,"Res":4833,"psis":4834,"Ġcategor":4835,"avage":4836,"umin":4837,"ola":4838,"Ġdistributed":4839,"ĠNe":4840,"64":4841,"binding":4842,"urer":4843,"Ġextraction":4844,"Ġrequirements":4845,"Ġfall":4846,"Ġdogs":4847,"utive":4848,"Ġrecruit":4849,"Ġtiters":4850,"Ġprotocols":4851,"Ġdiffer":4852,"Ġactions":4853,"Ġsector":4854,"went":4855,"nder":4856,"ĠMin":4857,"Ġdouble":4858,"Ġstop":4859,"Ġground":4860,"mark":4861,"Ġwaste":4862,"Ġvolun":4863,"take":4864,"Ġskills":4865,"Ġattack":4866,"dr":4867,"health":4868,"Ġthemselves":4869,"ocks":4870,"Ġtheore":4871,"ĠCell":4872,"ivir":4873,"ella":4874,"Ġnode":4875,"Ġsociety":4876,"Ġones":4877,"ches":4878,"ultaneous":4879,"Ġscan":4880,"Ġvulnerable":4881,"Ġmarked":4882,"Ġrank":4883,"ij":4884,"Ġsubs":4885,"Ġexcept":4886,"Ad":4887,"ested":4888,"Ġantibiotics":4889,"Ġpromising":4890,"Ġperspective":4891,"Ġcere":4892,"ye":4893,"Ġadopted":4894,"Ġapoptosis":4895,"Ġfilter":4896,"Ġcapit":4897,"Ġcats":4898,"ptions":4899,"Ġenvelop":4900,"Ġ75":4901,"ochond":4902,"Ġbil":4903,"Ġsuitable":4904,"Ġbirth":4905,"BC":4906,"ĠIS":4907,"Ġabund":4908,"Ġmotiv":4909,"Ġattit":4910,"Ġâī¤":4911,"Ġtherapies":4912,"piratory":4913,"ologists":4914,"Ġconnec":4915,"Ġprofil":4916,"Ġhard":4917,"ĠNO":4918,"ĠAmerican":4919,"Ġdepending":4920,"Ġpay":4921,"ĠEV":4922,"Ġclasses":4923,"Ġcounts":4924,"ĠÂ¼":4925,"Ġthought":4926,"isting":4927,"Ġmyocardi":4928,"ema":4929,"GAA":4930,"Ġplaced":4931,"Ġdischarge":4932,"aim":4933,"well":4934,"antly":4935,"Ġsepsis":4936,"Ġmorbidity":4937,"Ġtransform":4938,"Ġphenomen":4939,"odies":4940,"ustral":4941,"Ġpseud":4942,"Ġlargely":4943,"endi":4944,"lu":4945,"ĠPr":4946,"Ġplant":4947,"Ġclinically":4948,"Ġcommercial":4949,"Ġtypical":4950,"ends":4951,"Ġenough":4952,"Ġ65":4953,"ĠSeveral":4954,"Ġemotional":4955,"ident":4956,"hematic":4957,"Ġsch":4958,"Ġassumed":4959,"Ġinitially":4960,"Ġresolution":4961,"Ġepitopes":4962,"ficiently":4963,"Ġcum":4964,"Ġthereby":4965,"Ġ2018":4966,"ĠMany":4967,"Is":4968,"Ġantibiotic":4969,"TCT":4970,"Ġlikelihood":4971,"ĠEm":4972,"Ġfeas":4973,"osen":4974,"RA":4975,"patitis":4976,"che":4977,"cor":4978,"ives":4979,"ĠID":4980,"Ġlaw":4981,"Ġconserved":4982,"test":4983,"oon":4984,"activity":4985,"Ġpediatric":4986,"42":4987,"Ġminutes":4988,"Ġbreast":4989,"Ġsent":4990,"Ġcover":4991,"Ġscenarios":4992,"Ġplanning":4993,"Ġdemographic":4994,"Ġdefinition":4995,"ĠHCV":4996,"avi":4997,"Ġequi":4998,"Ġdifferential":4999}