{"<pad>":0,"<unk>":1,"<cls>":2,"<sep>":3,"!":4,"\"":5,"#":6,"$":7,"%":8,"&":9,"'":10,"(":11,")":12,"*":13,"+":14,",":15,"-":16,".":17,"/":18,"0":19,"1":20,"2":21,"3":22,"4":23,"5":24,"6":25,"7":26,"8":27,"9":28,":":29,";":30,"<":31,"=":32,">":33,"?":34,"@":35,"A":36,"B":37,"C":38,"D":39,"E":40,"F":41,"G":42,"H":43,"I":44,"J":45,"K":46,"L":47,"M":48,"N":49,"O":50,"P":51,"Q":52,"R":53,"S":54,"T":55,"U":56,"V":57,"W":58,"X":59,"Y":60,"Z":61,"[":62,"\\":63,"]":64,"^":65,"_":66,"`":67,"a":68,"b":69,"c":70,"d":71,"e":72,"f":73,"g":74,"h":75,"i":76,"j":77,"k":78,"l":79,"m":80,"n":81,"o":82,"p":83,"q":84,"r":85,"s":86,"t":87,"u":88,"v":89,"w":90,"x":91,"y":92,"z":93,"{":94,"|":95,"}":96,"~":97,"¡":98,"¢":99,"£":100,"¤":101,"¥":102,"¦":103,"§":104,"¨":105,"©":106,"ª":107,"«":108,"¬":109,"®":110,"¯":111,"°":112,"±":113,"²":114,"³":115,"´":116,"µ":117,"¶":118,"·":119,"¸":120,"¹":121,"º":122,"»":123,"¼":124,"½":125,"¾":126,"¿":127,"À":128,"Á":129,"Â":130,"Ã":131,"Ä":132,"Å":133,"Æ":134,"Ç":135,"È":136,"É":137,"Ê":138,"Ë":139,"Ì":140,"Í":141,"Î":142,"Ï":143,"Ð":144,"Ñ":145,"Ò":146,"Ó":147,"Ô":148,"Õ":149,"Ö":150,"×":151,"Ø":152,"Ù":153,"Ú":154,"Û":155,"Ü":156,"Ý":157,"Þ":158,"ß":159,"à":160,"á":161,"â":162,"ã":163,"ä":164,"å":165,"æ":166,"ç":167,"è":168,"é":169,"ê":170,"ë":171,"ì":172,"í":173,"î":174,"ï":175,"ð":176,"ñ":177,"ò":178,"ó":179,"ô":180,"õ":181,"ö":182,"÷":183,"ø":184,"ù":185,"ú":186,"û":187,"ü":188,"ý":189,"þ":190,"ÿ":191,"Ā":192,"ā":193,"Ă":194,"ă":195,"Ą":196,"ą":197,"Ć":198,"ć":199,"Ĉ":200,"ĉ":201,"Ċ":202,"ċ":203,"Č":204,"č":205,"Ď":206,"ď":207,"Đ":208,"đ":209,"Ē":210,"ē":211,"Ĕ":212,"ĕ":213,"Ė":214,"ė":215,"Ę":216,"ę":217,"Ě":218,"ě":219,"Ĝ":220,"ĝ":221,"Ğ":222,"ğ":223,"Ġ":224,"ġ":225,"Ģ":226,"ģ":227,"Ĥ":228,"ĥ":229,"Ħ":230,"ħ":231,"Ĩ":232,"ĩ":233,"Ī":234,"ī":235,"Ĭ":236,"ĭ":237,"Į":238,"į":239,"İ":240,"ı":241,"Ĳ":242,"ĳ":243,"Ĵ":244,"ĵ":245,"Ķ":246,"ķ":247,"ĸ":248,"Ĺ":249,"ĺ":250,"Ļ":251,"ļ":252,"Ľ":253,"ľ":254,"Ŀ":255,"ŀ":256,"Ł":257,"ł":258,"Ń":259,"Ġt":260,"in":261,"Ġa":262,"re":263,"he":264,"on":265,"ti":266,"en":267,"Ġthe":268,"Ġs":269,"Ġo":270,"er":271,"Ġc":272,"ed":273,"Ġp":274,"al":275,"es":276,"Ġin":277,"or":278,"at":279,"Ġw":280,"nd":281,"is":282,"Ġof":283,"Ġd":284,"it":285,"tion":286,"Ġf":287,"Ġand":288,"Ġm":289,"ro":290,"an":291,"Ġb":292,"ing":293,"ic":294,"as":295,"ar":296,"Ġre":297,"Ġto":298,"ent":299,"le":300,"Ġe":301,"us":302,"ec":303,"ation":304,"ve":305,"Ġh":306,"Ġth":307,"ly":308,"ac":309,"Ġ(":310,"om":311,"Ġn":312,"ul":313,"os":314,"ur":315,"Ġl":316,"id":317,"ĠT":318,"im":319,"ll":320,"et":321,"ir":322,"ith":323,"Ġv":324,"ig":325,"Ġwith":326,"Ġfor":327,"ce":328,"ol":329,"Ġst":330,"Ġcon":331,"Ġis":332,"ut":333,"Ġwe":334,"Ġpro":335,"Ġg":336,"ĠC":337,"Ġas":338,"un":339,"Ġan":340,"Ġbe":341,"ot":342,"ow":343,"ati":344,"ter":345,"res":346,"ĠI":347,"ĠA":348,"il":349,"ĠS":350,"uc":351,"em":352,"am":353,"Ġon":354,"Ġthat":355,"if":356,"ab":357,"ity":358,"od":359,"Ġ1":360,"ts":361,"ver":362,"st":363,"Ġ.":364,"ted":365,"um":366,"Ġex":367,"oc":368,"Ġ2":369,"ate":370,"Ġres":371,"ated":372,"ĠThe":373,"ud":374,"tic":375,"ra":376,"ri":377,"si":378,"Ġwas":379,"qu":380,"op":381,"her":382,"ents":383,"Ġcom":384,"se":385,"ay":386,"fec":387,"Ġby":388,"Ġde":389,"ag":390,"Ġwere":391,"Ġare":392,"Ġor":393,"Ġac":394,"rom":395,"ad":396,"og":397,"th":398,"ure":399,"Ġdis":400,"Ġr":401,"Ġus":402,"pl":403,"ain":404,"ĠP":405,"Ġwh":406,"ment":407,"Ġim":408,"up":409,"el":410,"ore":411,"ical":412,"ess":413,"te":414,"ĠF":415,"Ġal":416,"ĠM":417,"ers":418,"ren":419,"ĠĠ":420,"Ġfrom":421,"por":422,"Ġse":423,"red":424,"ĠH":425,"ase":426,"und":427,"Ġinc":428,"ant":429,"ine":430,"Ġat":431,"ies":432,"tive":433,"pec":434,"Ġco":435,"ug":436,"Ġpati":437,"di":438,"ĠR":439,"Ġsh":440,"Ġch":441,"Ġad":442,"Ġstud":443,"Ġha":444,"iz":445,"ub":446,"Ġhe":447,"igh":448,"ell":449,"Ġcomp":450,"Ġen":451,"Ġne":452,"Ġthis":453,"ch":454,").":455,"ran":456,"Ġcont":457,"able":458,"sion":459,"Ġnot":460,"and":461,"ations":462,"Ġ3":463,"orm":464,"Ġle":465,"ĠIn":466,"19":467,"ous":468,"ther":469,"vel":470,"ich":471,"est":472,"ĠE":473,"Ġper":474,"ĠD":475,"ĠN":476,"tions":477,"ence":478,"ial":479,"Ġpre":480,"ID":481,"ge":482,"Ġit":483,"Ġpatients":484,"ĠB":485,"duc":486,"Ġhave":487,"OV":488,"Ġvir":489,"Ġinfec":490,"ign":491,"Ġcell":492,"act":493,"Ġcl":494,"vid":495,"OVID":496,"per":497,"ion":498,"enti":499,"Ġpar":500,"vi":501,"Ġcan":502,"Ġsy":503,"ĠW":504,"ific":505,"Ġass":506,"fe":507,"00":508,"ĠCOVID":509,"),":510,"Ġwhich":511,"ost":512,"pt":513,"Ġfo":514,"ill":515,"ary":516,"Ġap":517,"ph":518,"ip":519,"form":520,"Ġgen":521,"ke":522,"ia":523,"ory":524,"pro":525,"Ġca":526,"ist":527,"Ġdi":528,"ys":529,"ding":530,"ved":531,"ors":532,"tiv":533,"Ġmod":534,"Ġef":535,"ple":536,"Ġhas":537,"Ġinter":538,"ally":539,"Ġ4":540,"ear":541,"ome":542,"ance":543,"uld":544,"olog":545,"ased":546,"Ġdif":547,"lec":548,"feren":549,"Ġdat":550,"Ġun":551,"Ġ5":552,"so":553,"ĠO":554,"ĠG":555,"ue":556,"ative":557,"port":558,"ong":559,"Ġrec":560,"Ġab":561,"Ġint":562,"Ġresp":563,"ven":564,"rans":565,"iti":566,"alth":567,"etw":568,"Ġstudy":569,"Ġall":570,"Ġ0":571,"mun":572,"Ġ,":573,"Ġcons":574,"ach":575,"ari":576,"ĠL":577,"enc":578,"RS":579,"age":580,"Ġalso":581,"pres":582,"ases":583,"ugh":584,"lud":585,"ĠTh":586,"Ġpl":587,"all":588,"Ġwhe":589,"Ġpos":590,"reat":591,"Ġbeen":592,"ib":593,"Ġsc":594,"fic":595,"Ġ20":596,"Ġtrans":597,"end":598,"Ġob":599,"uch":600,"Ġshow":601,"yp":602,"ide":603,"Ġsign":604,"Ġme":605,"Ġdata":606,"ose":607,"Ġgro":608,"ork":609,"Ġout":610,"ath":611,"ting":612,"Ġdifferen":613,"Ġy":614,"vir":615,"tr":616,"Ġother":617,"oV":618,"Ġpres":619,"Ġtheir":620,"Ġdet":621,"Ġk":622,"ates":623,"Ġvirus":624,"ak":625,"fl":626,"Ġanti":627,"Ġresul":628,"Ġreg":629,"Ġaf":630,"rib":631,"ular":632,"Ġanal":633,"een":634,"Ġqu":635,"Ġdise":636,"val":637,"Ġmore":638,"Ġhealth":639,"Ġmay":640,"ĠU":641,"tein":642,"ility":643,"Ġcells":644,"etween":645,"ual":646,"Ġtim":647,"The":648,"Ġthese":649,"Ġeffec":650,"CoV":651,"ied":652,"Ġbetween":653,"out":654,"Ġinclud":655,"ep":656,"ew":657,"Ġrel":658,"Ġmed":659,"atory":660,"Ġsub":661,"Ġincre":662,"Ġsam":663,"ARS":664,"Ġund":665,"Ġmodel":666,"NA":667,"Ġstr":668,"our":669,"emic":670,"ber":671,"Ġag":672,"Ġused":673,"ap":674,"Ġind":675,"ight":676,"Ġspec":677,"Ġman":678,"tim":679,"20":680,"oci":681,"pit":682,"uring":683,"Ġmet":684,"Ġcor":685,"ever":686,"Ġusing":687,"ail":688,"Ġdes":689,"Ġsp":690,"Ġhigh":691,"Ġthan":692,"ast":693,"ens":694,"ĠSARS":695,"Ġprotein":696,"Ġrespon":697,"Ġsur":698,"str":699,"Ġph":700,"Ġacc":701,"Ġro":702,"Ġsuch":703,"Ġpartic":704,"Ġam":705,"ulation":706,"Ġinfection":707,"Ġpr":708,"ould":709,"ĠThis":710,"Ġser":711,"erm":712,"ass":713,"ures":714,"Ġ6":715,"ard":716,"Ġ=":717,"Ġvari":718,"velop":719,"Ġnum":720,"Ġgroup":721,"Ġno":722,"Ġtime":723,"tain":724,"Ġsup":725,"Ġem":726,"stem":727,"ech":728,"lo":729,"Ġdisease":730,"Ġpo":731,"ays":732,"Ġunder":733,"pos":734,"ves":735,"Ġli":736,"der":737,"tal":738,"Ġbut":739,"Ġsignific":740,"ble":741,"Ġlevel":742,"wo":743,"dition":744,"ating":745,"rap":746,"Ġanalys":747,"ne":748,"Ġimmun":749,"Ġdec":750,"plic":751,"Ġdevelop":752,"ree":753,"Ġover":754,"ang":755,"ile":756,"ten":757,"anc":758,"Ġour":759,"Ġwill":760,"'s":761,"Ġduring":762,"Ġâ":763,"isk":764,"Ġuse":765,"ĠV":766,"oth":767,"ution":768,"Ġsystem":769,"ized":770,"Ġsignificant":771,"Ġclin":772,"unc":773,"ace":774,"Ġone":775,"ĠFig":776,"Ġappro":777,"Ġ\"":778,"Ġval":779,"Ġthere":780,"Ġwho":781,"Ġrepor":782,"llow":783,"rain":784,"les":785,"Ġinfl":786,"rol":787,"Ġtwo":788,"Ġwork":789,"acc":790,"Ġlow":791,"cess":792,"owever":793,"ect":794,"ser":795,"are":796,"ack":797,"Ġtreat":798,"Ġstudies":799,"ational":800,"one":801,"Ġprovid":802,"ĠWe":803,"ared":804,"Ġsim":805,"Ġid":806,"Ġcol":807,"ros":808,"Ġnumber":809,"Ġmo":810,"ung":811,"ants":812,"ines":813,"ult":814,"ues":815,"Ġrisk":816,"Ġar":817,"uman":818,"Ġfollow":819,"Ġassoci":820,"Ġ7":821,"ond":822,"Ġcases":823,"Ġfact":824,"Ġresults":825,"Ġhad":826,"tivity":827,"arg":828,"Ġconc":829,"Ġfin":830,"own":831,"Ġdifferent":832,"Ġcoun":833,"virus":834,"ection":835,"rec":836,"als":837,"Ġafter":838,"li":839,"Ġmost":840,"int":841,"acter":842,"Ġdist":843,"Ġidenti":844,"Ġ10":845,"use":846,"fer":847,"Ġ9":848,"Ġgener":849,"yt":850,"irst":851,"ities":852,"mis":853,"Ġmeas":854,"ild":855,"Ġclinical":856,"Ġonly":857,"fore":858,"itive":859,"Ġaut":860,"ice":861,"Ġperform":862,"Ġtest":863,"Ġes":864,"Ġinto":865,"mpt":866,"Ġpresent":867,"Ġeach":868,"Ġvacc":869,"Ġexper":870,"hod":871,"atic":872,"Ġthey":873,"Ġanalysis":874,"Ġop":875,"Ġpe":876,"hed":877,"Ġwell":878,"andemic":879,"Ġviral":880,"Ġform":881,"ubl":882,"ological":883,"Ġindi":884,"Ġboth":885,"ospit":886,"Ġbi":887,"rough":888,"Ġpath":889,"Ġreported":890,"entr":891,"Ġnon":892,"uct":893,"ization":894,"ute":895,"over":896,"ments":897,"ving":898,"Ġhuman":899,"ential":900,"tical":901,"Ġpop":902,"mptom":903,"Ġhig":904,"mon":905,"Ġmon":906,"ater":907,"Ġdo":908,"ined":909,"Ġcould":910,"Ġq":911,"ism":912,"Ġobser":913,"Ġav":914,"ces":915,"Ġpandemic":916,"10":917,"ability":918,"tern":919,"Ġexpres":920,"Ġits":921,"Ġloc":922,"Ġtr":923,"gen":924,"urther":925,"ram":926,"qui":927,"Ġma":928,"ust":929,"Ġcomple":930,"Ġup":931,"Ġcare":932,"Ġtreatment":933,"vidual":934,"ef":935,"ough":936,"ogen":937,"cc":938,"ĠK":939,"erg":940,"duced":941,"ination":942,"Ġ8":943,"Ġver":944,"Ġneed":945,"Ġexam":946,"Ġfound":947,"Ġinform":948,"Ġpot":949,"Ġsome":950,"Ġrem":951,"Ġwhen":952,"Ġimport":953,"Ġfirst":954,"vol":955,"Ġindividual":956,"ord":957,"hen":958,"agn":959,"hib":960,"ency":961,"ian":962,"Ġmethod":963,"ology":964,"unction":965,"ĠJ":966,"Ġthrough":967,"ature":968,"Ġsec":969,"duction":970,"ress":971,"Ġpubl":972,"CT":973,"Ġra":974,"med":975,"rent":976,"Ġcontrol":977,"ĠIt":978,"Ġrece":979,"Ġantib":980,"ok":981,"view":982,"ĠHowever":983,"tit":984,"osis":985,"Ġidentif":986,"Ġtyp":987,"Ġresear":988,"ĠÎ":989,"pr":990,"Ġdem":991,"Ġindic":992,"Ġbec":993,"ugg":994,"ospital":995,"mission":996,"ort":997,"yl":998,"ited":999,"Ġmin":1000,"Ġ-":1001,"Ġshould":1002,"Ġcar":1003,"Ġyear":1004,"Ġassociated":1005,"Ġpatient":1006,"Ġnew":1007,"Ġimp":1008,"Ġpred":1009,"Ġmul":1010,"Ġhigher":1011,"ric":1012,"AA":1013,"Ġconf":1014,"amm":1015,"gan":1016,"Ġkn":1017,"ilar":1018,"Ġdisc":1019,"In":1020,"Ġset":1021,"de":1022,"Ġsugg":1023,"Ġparticip":1024,"ons":1025,"pective":1026,"Ġcur":1027,"Ġprot":1028,"Ġprocess":1029,"Ġwhere":1030,"ently":1031,"Ġincluding":1032,"vere":1033,"Ġfl":1034,"rel":1035,"ite":1036,"action":1037,"Ġso":1038,"ange":1039,"Ġaddition":1040,"ise":1041,"art":1042,"iratory":1043,"Ġsymptom":1044,"ateg":1045,"ex":1046,"ties":1047,"Ġj":1048,"old":1049,"ning":1050,"sive":1051,"usion":1052,"Ġthose":1053,"ition":1054,"ement":1055,"Ġ).":1056,"ocial":1057,"ark":1058,"fici":1059,"Ġpers":1060,"iv":1061,"Ġend":1062,"Ġpositive":1063,"its":1064,"ples":1065,"ox":1066,"ive":1067,"Ġrequi":1068,"Ġavail":1069,"emb":1070,"Ġsequ":1071,"ĠFor":1072,"Ġcr":1073,"Ġsm":1074,"af":1075,"ize":1076,"Ġlevels":1077,"Ġfe":1078,"ĠCh":1079,"omes":1080,"ĠFigure":1081,"ĠĠĠĠ":1082,"hes":1083,"echn":1084,"Ġdue":1085,"vious":1086,"Ġdesc":1087,"sible":1088,"ie":1089,"ona":1090,"Ġprog":1091,"ages":1092,"Ġpopulation":1093,"Ġlim":1094,"Ġcompared":1095,"Ġ2020":1096,"Ġins":1097,"uf":1098,"Ġdiagn":1099,"con":1100,"ks":1101,"Ġsever":1102,"Ġmain":1103,"read":1104,"Ġdr":1105,"CR":1106,"ural":1107,"Ġshown":1108,"Ġincreased":1109,"Ġlike":1110,"Ġcase":1111,"Ġinflu":1112,"Ġbased":1113,"Ġabout":1114,"ĠAs":1115,"plement":1116,"Ġapp":1117,"Ġinformation":1118,"Ġresponse":1119,"ĠÂ":1120,"Ġresearch":1121,"Ġrate":1122,"Ġfunction":1123,"Ġspecific":1124,"Ġrespiratory":1125,"ily":1126,"Ġocc":1127,"ron":1128,"ness":1129,"Ġhy":1130,"valu":1131,"Ġimportant":1132,"tics":1133,"Ġstruct":1134,"ld":1135,"Ġhospital":1136,"Ġantibod":1137,"Ġmulti":1138,".,":1139,"ety":1140,"Ġdays":1141,"Ġinhib":1142,"hem":1143,"Ġmor":1144,"TT":1145,"arget":1146,"Ġassess":1147,"Ġep":1148,"arge":1149,"Ġwithin":1150,"Ġsocial":1151,"rect":1152,"Ġsevere":1153,"Fig":1154,"inal":1155,"Ġpredic":1156,"Ġtherap":1157,"raph":1158,"Ġpublic":1159,"Ġtra":1160,"Ġagain":1161,"Ġpa":1162,"Ġamong":1163,"Ġany":1164,"Ġage":1165,"%)":1166,"ality":1167,"ful":1168,"ople":1169,"Ġthree":1170,"Ġi":1171,"Ġet":1172,"Ġavailable":1173,"ale":1174,"ĠAn":1175,"Ã©":1176,"Ġeffect":1177,"ĠRNA":1178,"Ġif":1179,"Ġevalu":1180,"Ġcount":1181,"Ġobserved":1182,"Ġinte":1183,"Ġwould":1184,"ĠThese":1185,"Ġ+":1186,"ĠThere":1187,"Ġcommun":1188,"ĠTable":1189,"tig":1190,"Ġdef":1191,"Ġtechn":1192,"Ġdeterm":1193,"ix":1194,"jec":1195,"iod":1196,"rop":1197,"ause":1198,"Ġimpro":1199,"ions":1200,"oun":1201,"ound":1202,"Ġauth":1203,"ption":1204,"ock":1205,"ries":1206,"arly":1207,"Ġtarget":1208,"ĠSt":1209,"Ġexpression":1210,"Ġgene":1211,"oid":1212,"Ġsimilar":1213,"Ġmean":1214,"iter":1215,"ross":1216,"vers":1217,"Ġshowed":1218,"Ġpotential":1219,"Ġpeople":1220,"cl":1221,"Ġlead":1222,"Ġprevious":1223,"Ġactivity":1224,"Ġyears":1225,"eng":1226,"cer":1227,"Ġprim":1228,"onavirus":1229,"Ġtes":1230,"Ġdescrib":1231,"Ġchar":1232,"Ġperiod":1233,"Ġwhile":1234,"icro":1235,"Ġcollec":1236,"iss":1237,"Ġclass":1238,"ade":1239,"Ġel":1240,"ses":1241,"ulated":1242,"atis":1243,"Ġbin":1244,"Ġchild":1245,"CA":1246,"Ġperformed":1247,"gative":1248,"Ġinfected":1249,"Ġestim":1250,"ĠĠĠ":1251,"Ġdep":1252,"Ġagainst":1253,"ental":1254,"Ġmany":1255,"ences":1256,"Ġreview":1257,"Ġrepres":1258,"ove":1259,"ived":1260,"Ġeffects":1261,"ense":1262,"echan":1263,"Ġoutc":1264,"Ġcharacter":1265,"Ġte":1266,"Ġ)":1267,"Ġpol":1268,"Ġfactors":1269,"Ġsymptoms":1270,"Ġthem":1271,"par":1272,"Ġfurther":1273,"ha":1274,"vent":1275,"uce":1276,"Ġdrug":1277,"Ġsame":1278,"min":1279,"Ġsamples":1280,"Ġtri":1281,"Ġincrease":1282,"Ġmeasure":1283,"ob":1284,"Ġcaus":1285,"Ġchang":1286,"Ġexpl":1287,"Ġgroups":1288,"Ġlong":1289,"Ġinvol":1290,"ĠAl":1291,"onstr":1292,"ince":1293,"ider":1294,"Ġorgan":1295,"Ġiniti":1296,"lob":1297,"Ġmechan":1298,"Ġcyt":1299,"ĠCD":1300,"inc":1301,"Ġcal":1302,"Ġobtain":1303,"Ġsol":1304,"enz":1305,"lood":1306,"though":1307,"ood":1308,"acy":1309,"Ġsus":1310,"ĠâĪ":1311,"Ġthen":1312,"ically":1313,"omic":1314,"000":1315,"ucle":1316,"Ġdeath":1317,"vention":1318,"Ġtotal":1319,"Ġoccur":1320,"Ġaffec":1321,"xim":1322,"iqu":1323,"Ġsecond":1324,"amet":1325,"ps":1326,"Ġproteins":1327,"Ġcurrent":1328,"vestig":1329,"ma":1330,"Ġimmune":1331,"Ġlarge":1332,"Ġz":1333,"mer":1334,"Ġrespective":1335,"me":1336,"12":1337,"Ġfinding":1338,"Ġpri":1339,"Ġdevelopment":1340,"ĠÃ":1341,"Ġfollowing":1342,"Ġdecre":1343,"hip":1344,"Ġsupport":1345,"reak":1346,"mit":1347,"Ġrole":1348,"Ġless":1349,"Ġwor":1350,"line":1351,"Ġindividuals":1352,"Ġepid":1353,"Ġcle":1354,"iven":1355,"Ġcommon":1356,"ately":1357,"Ġviruses":1358,"Ġlower":1359,"til":1360,"Ġlung":1361,"Ġevid":1362,"based":1363,"posed":1364,"Ġinvestig":1365,"Ġbeing":1366,"Ġcontain":1367,"RNA":1368,"Ġselec":1369,"led":1370,"Ġcountries":1371,"Ġlab":1372,"Ġrelated":1373,"Ġwithout":1374,"Ġinfections":1375,"ĠHe":1376,"Ġmemb":1377,"Ġsmall":1378,"Ġfac":1379,"Ġmodels":1380,"roph":1381,"Ġed":1382,"Ġnegative":1383,"ĠUn":1384,"Ġparticipants":1385,"Ġsignificantly":1386,"Ġstrateg":1387,"SA":1388,"jor":1389,"Ġu":1390,"Ġdemonstr":1391,"Ġblood":1392,"Ġder":1393,"sy":1394,"ograph":1395,"ified":1396,"Ġrecom":1397,"Ġincluded":1398,"Ġbl":1399,"ry":1400,"sequ":1401,"Ġ'":1402,"Ġ<":1403,"Ġterm":1404,"ormal":1405,"Ġrele":1406,"Ġ12":1407,"Ġdid":1408,"Ġbecause":1409,"Ġdesign":1410,"Ġla":1411,"Ġequ":1412,"print":1413,"sed":1414,"ish":1415,"ina":1416,"Ġconfir":1417,"requ":1418,"Ġidentified":1419,"plication":1420,"tality":1421,"CE":1422,"ected":1423,"Ġexperi":1424,"ording":1425,"ices":1426,"Ġbas":1427,"Ġprac":1428,"Ġpost":1429,"Ġallow":1430,"uid":1431,"oph":1432,"Ġcoronavirus":1433,"Ġmajor":1434,"Ġadd":1435,"Ġsit":1436,"io":1437,"ink":1438,"Ġstand":1439,"11":1440,"Ġrespectively":1441,"cri":1442,"Ġconcentr":1443,"Ġisol":1444,"Ġpossible":1445,"ores":1446,"Ġvis":1447,"ern":1448,"Ġacid":1449,"enza":1450,"idered":1451,"Ġhow":1452,"Ġseveral":1453,"Ġpreprint":1454,"to":1455,"arm":1456,"Ġconsidered":1457,"Ġparticular":1458,"TG":1459,"Ġvaccine":1460,"Ġmortality":1461,"other":1462,"Ġques":1463,"Ġ19":1464,"Ġactiv":1465,"Ġimpact":1466,"Ġmedical":1467,"ĠTo":1468,"Ġatt":1469,"ĠIL":1470,"Ġemerg":1471,"Ġext":1472,"Ģ¢":1473,"Ġremain":1474,"hel":1475,"Ġinflamm":1476,"ensi":1477,"Ġtransmission":1478,"ished":1479,"Ġeffective":1480,"Ġdistrib":1481,"ty":1482,"ium":1483,"Ġtre":1484,"Ġcomb":1485,"etwork":1486,"viron":1487,"of":1488,"round":1489,"ator":1490,"Ġmicro":1491,"iel":1492,"Ġchildren":1493,"Ġmolec":1494,"xt":1495,"Ġwee":1496,"reg":1497,"Ġhel":1498,"Ġconsider":1499,"Ġsample":1500,"ov":1501,"endent":1502,"vant":1503,"break":1504,"Ġchanges":1505,"Ġ15":1506,"Ġprob":1507,"Ġill":1508,"Ġapproach":1509,"Ġcomplex":1510,"Ġmut":1511,"Ġacute":1512,"ics":1513,"duce":1514,"stand":1515,"oy":1516,"Ġvalues":1517,"ced":1518,"Ġprovide":1519,"Ġresid":1520,"Ġproduc":1521,"ration":1522,"Ġke":1523,"ind":1524,"Ġvalue":1525,"Ġlikely":1526,"Ġrepresent":1527,"Ġanaly":1528,"Ġbefore":1529,"Ġexperim":1530,"Ġinhibit":1531,"Ġphys":1532,"zed":1533,"Ġmark":1534,"ables":1535,"Ġfrequ":1536,"Ġtem":1537,"onal":1538,"Ġdescribed":1539,"Ġresult":1540,"ake":1541,"Ġsurve":1542,"Ġdirect":1543,"Ġprof":1544,"Ġexample":1545,"Ġair":1546,"havi":1547,"Ġdiseases":1548,"Ġtype":1549,"Ġcompar":1550,"ditions":1551,"Ġevidence":1552,"Ġmanag":1553,"arch":1554,"15":1555,"ogn":1556,"Ġoutbreak":1557,"ised":1558,"ft":1559,"Ġday":1560,"Ġcontin":1561,"Ġpoly":1562,"yn":1563,"ening":1564,"Ġmat":1565,"14":1566,"TA":1567,"Ġspread":1568,"Ġrecept":1569,"Ġfam":1570,"Ġtesting":1571,"Ġ30":1572,"Ġlear":1573,"Ġgreat":1574,"av":1575,"Ġly":1576,"Ġearly":1577,"Ġmeasures":1578,"ually":1579,"verage":1580,"Ġcontrib":1581,"Ġgeneral":1582,"yc":1583,"ingle":1584,"ward":1585,"Ġconditions":1586,"neum":1587,"cent":1588,"Ġsugges":1589,"very":1590,"Ġserv":1591,"Ġbehavi":1592,"uted":1593,"Ġmechanism":1594,"Ġ50":1595,"Ġnetwork":1596,"cept":1597,"Ġmight":1598,"Ġenviron":1599,"Ġmade":1600,"Ġcap":1601,"verse":1602,"Ġgrow":1603,"Ġpart":1604,"IV":1605,"care":1606,"Ġparamet":1607,"Ġeven":1608,"ife":1609,"bility":1610,"related":1611,"Ġfindings":1612,"ĠAf":1613,"Ġanim":1614,"ĠAll":1615,"Ġobtained":1616,"Ġknow":1617,"Ġret":1618,"Ġgiven":1619,"tis":1620,"Ġinf":1621,"Ġfoc":1622,"nal":1623,"Ġsyn":1624,"Ġref":1625,"18":1626,"Ġconduc":1627,"Ġvery":1628,"Ġsuggest":1629,"ield":1630,"Ġlo":1631,"ists":1632,"Ġcalc":1633,"cep":1634,"Ġben":1635,"tious":1636,"ms":1637,"pon":1638,"Ġglob":1639,"Ġcult":1640,"Ġest":1641,"Ġsingle":1642,"Ġdom":1643,"Ġbinding":1644,"Ġmice":1645,"anti":1646,"16":1647,"Ġhyp":1648,"Ġmonth":1649,"Ġnucle":1650,"Ġchall":1651,"enter":1652,"ols":1653,"way":1654,"asing":1655,"Ġtrain":1656,"Ġmultiple":1657,"Ġpur":1658,"Ġtiss":1659,"Ġdeveloped":1660,"13":1661,"ral":1662,"Ġlic":1663,"Ġorder":1664,"ĠRes":1665,"ĠCon":1666,"Ġnec":1667,"face":1668,"Ġinfluenza":1669,"ulations":1670,"Ġproble":1671,"ended":1672,"Ġline":1673,"Ġlocal":1674,"Ġreport":1675,"Ġcop":1676,"Ġhost":1677,"Ġcri":1678,"ĠRe":1679,"Ġregion":1680,"ins":1681,"ision":1682,"ficient":1683,"Ġmethods":1684,"spec":1685,"for":1686,"Ġ14":1687,"actions":1688,"Ġprior":1689,"Ġstrain":1690,"Ġimprove":1691,"Ġfocus":1692,"Ġbet":1693,"ification":1694,"50":1695,"Ġdiagnos":1696,"ploy":1697,"Ġcer":1698,"Ġvi":1699,"ially":1700,"the":1701,"Ġrelative":1702,"Ġstandard":1703,"Ġyo":1704,"utions":1705,"Ġpat":1706,"ai":1707,"Ġdetection":1708,"Ġauthor":1709,"ults":1710,"Ġ[":1711,"overn":1712,"Ġextr":1713,"sure":1714,"omen":1715,"17":1716,"ources":1717,"Ġimplement":1718,"ither":1719,"Ġpneum":1720,"ick":1721,"Ġprogram":1722,"pected":1723,"abl":1724,"Ġelec":1725,"Ġknown":1726,"asc":1727,"ĠFurther":1728,"Ġbacter":1729,"infec":1730,"Ġlos":1731,"Ġunderstand":1732,"Ġstructure":1733,"ouse":1734,"Ġrelations":1735,"Ġer":1736,"Ġinclude":1737,"cop":1738,"Ġchange":1739,"Ġresponses":1740,"Ġhist":1741,"Ġstatis":1742,"Ġdispl":1743,"ĠCom":1744,"Ġpolic":1745,"Ġenvironment":1746,"Ġworld":1747,"Ġstate":1748,"Ġacross":1749,"ĠIF":1750,"ĠOn":1751,"Ġoutcomes":1752,"otyp":1753,"Ġwhether":1754,"ner":1755,"Ġtherapy":1756,"try":1757,"ets":1758,"ĠZ":1759,"Ġantibody":1760,"ocyt":1761,"aking":1762,"Ġdifferences":1763,"Ġsize":1764,"ĠAd":1765,"Ġsystems":1766,"Ġhand":1767,"Ġpresence":1768,"plications":1769,"Ġinteres":1770,"Ġplas":1771,"epti":1772,"Ġfour":1773,"eu":1774,"Ġlimit":1775,"elf":1776,"ount":1777,"Ġsensi":1778,"Ġfactor":1779,"Ġrap":1780,"ĠIg":1781,"ependent":1782,"Ġrates":1783,"Ġhelp":1784,"Ġvarious":1785,"ession":1786,"Ġantibodies":1787,"Ġcontr":1788,"Ġful":1789,"ĠQ":1790,"Ġepidemic":1791,"Ġrecomm":1792,"ters":1793,"uture":1794,"sych":1795,"tically":1796,"We":1797,"Ġnormal":1798,"Ġrequired":1799,"Ġproduction":1800,"ym":1801,"ledge":1802,"Ġstat":1803,"Ġidentify":1804,"Ġenc":1805,"Ġcancer":1806,"ĠâĪĴ":1807,"ivers":1808,"we":1809,"idence":1810,"ru":1811,"sing":1812,"ject":1813,"05":1814,"Ġinfectious":1815,"till":1816,"ĠPro":1817,"Ġconfirmed":1818,"Ġ24":1819,"Ġvol":1820,"ans":1821,"Ġecon":1822,"Ġneut":1823,"urn":1824,"Ġdiscus":1825,"Ġabs":1826,"ĠInd":1827,"rome":1828,"ored":1829,"Ġcat":1830,"Ġlicense":1831,"medi":1832,"ĠMore":1833,"onia":1834,"ĠY":1835,"lation":1836,"ators":1837,"Ġrapid":1838,"Ġstrong":1839,"Ġcontact":1840,"Ġrelationship":1841,"Ġstress":1842,"Ġ200":1843,"hold":1844,"Ġrange":1845,"Ġele":1846,"ĠChina":1847,"ax":1848,"Ġdiagnosis":1849,"Ġreduced":1850,"down":1851,"Ġvit":1852,"put":1853,"ression":1854,"%,":1855,"Ġreal":1856,"Ġ13":1857,"Ġ18":1858,"ci":1859,"Ġprimary":1860,"Ġgenes":1861,"rane":1862,"tt":1863,"Ġeduc":1864,"Ġ100":1865,"Ġvia":1866,"ules":1867,"hest":1868,"ĠDNA":1869,"ĠTherefore":1870,"Ġcharacteris":1871,"ger":1872,"Ġdomain":1873,"sel":1874,"Ġabove":1875,"Ġcommunity":1876,"itor":1877,"Ġexpos":1878,"Ġev":1879,"Ġdetected":1880,"ably":1881,"Ġstudents":1882,"ĠACE":1883,"low":1884,"21":1885,"ĠIC":1886,"Ġrecent":1887,"Ġquality":1888,"acts":1889,"roll":1890,"GA":1891,"ĠWh":1892,"Cs":1893,"Ġox":1894,"Ġmanagement":1895,"Ġadmin":1896,"ann":1897,"Ġproced":1898,"Ġdisplay":1899,"Ġconsist":1900,"Ġoften":1901,"Ġgovern":1902,"Ġscre":1903,"Ġreve":1904,"Ġdistribution":1905,"Ġsuc":1906,"Ġglobal":1907,"Ġsince":1908,"ote":1909,"Ġ16":1910,"Ġaccess":1911,"ndom":1912,"Ġcollected":1913,"Ġvariables":1914,"Ġsequence":1915,"irc":1916,"ata":1917,"Ġiss":1918,"tered":1919,"Ġprovided":1920,"Ġpresented":1921,"Ġself":1922,"cho":1923,"Ġinj":1924,"Ġleast":1925,"ĠX":1926,"Ġlimited":1927,"Ġprom":1928,"Ġhealthcare":1929,"Ġknowledge":1930,"des":1931,"itis":1932,"Ġlife":1933,"Ġeither":1934,"atures":1935,"Ġtested":1936,"Ġlabor":1937,"ynam":1938,"aterial":1939,"Ġpsych":1940,"Ġlearning":1941,"mph":1942,"izing":1943,"tice":1944,"ĠHealth":1945,"Ġbetter":1946,"Ġfuture":1947,"Ġgra":1948,"Ġaccording":1949,"Ġmas":1950,"Ġdemonstrated":1951,"Ġlack":1952,"aff":1953,"Ġol":1954,"Ġaverage":1955,"term":1956,"Ġconducted":1957,"struc":1958,"Ġstill":1959,"Ġoptim":1960,"ndrome":1961,"Ġpathogen":1962,"Ġfail":1963,"ird":1964,"Ġepit":1965,"xiv":1966,"Ġ11":1967,"Ġcorrel":1968,"Ġversion":1969,"Ġcardi":1970,"Ġrandom":1971,"be":1972,"pression":1973,"Rxiv":1974,"Ġpattern":1975,"Ġhowever":1976,"Ġda":1977,"Ġur":1978,"ances":1979,"Ġmy":1980,"Ġ25":1981,"Ġpreviously":1982,"Ġspecies":1983,"Ġoper":1984,"Ġread":1985,"Ġshort":1986,"Ġpneumonia":1987,"aging":1988,"Ġconte":1989,"Ġincreasing":1990,"Ġinitial":1991,"Ġkey":1992,"ane":1993,"Ġreceptor":1994,"Ġsignal":1995,"Ġdeg":1996,"Ġtests":1997,"Ġcytok":1998,"Ġenh":1999,"Ġthus":2000,"ference":2001,"Ġhyper":2002,"com":2003,"Ġmonths":2004,"tivi":2005,"Ġquestion":2006,"ino":2007,"PCR":2008,"Ġdel":2009,"pect":2010,"Ġproper":2011,"aled":2012,"Ġinst":2013,"Ġrat":2014,"uration":2015,"co":2016,"pecially":2017,"more":2018,"ardi":2019,"Ġhighly":2020,"Ġgo":2021,"yr":2022,"iral":2023,"ĠâĢ¢":2024,"Ġestabl":2025,"Ġgran":2026,"Ġcritical":2027,"Ġguid":2028,"Ġtimes":2029,"Ġrequire":2030,"cell":2031,"MP":2032,"tif":2033,"Ġach":2034,"Ġshows":2035,"specific":2036,"Ġcause":2037,"ique":2038,"ier":2039,"Ġfacil":2040,"ible":2041,"ode":2042,"Ġareas":2043,"Ġsetting":2044,"Th":2045,"Ġparameters":2046,"Ġassum":2047,"pri":2048,"Ġachie":2049,"Ġprevent":2050,"Ġtraining":2051,"Ġassay":2052,"ways":2053,"Ġrecogn":2054,"erv":2055,"Ġpreval":2056,"Ġdoes":2057,"like":2058,"ame":2059,"25":2060,"Ġexposure":2061,"set":2062,"Ġfew":2063,"Ġsum":2064,"Ġpul":2065,"ĠmedRxiv":2066,"Ġlymph":2067,"gl":2068,"Ġnecess":2069,"ĠÏ":2070,"Ġdeli":2071,"ronic":2072,"Ġsurface":2073,"Ġminim":2074,"Ġactive":2075,"Ġinv":2076,"not":2077,"Ġgrowth":2078,"ource":2079,"Ġfamily":2080,"ings":2081,"plied":2082,"Ġadv":2083,"//":2084,"Ġstep":2085,"Ġperformance":2086,"Ġartic":2087,"Ġreas":2088,"Ġmg":2089,"ĠIFN":2090,"Ġsw":2091,"Ġcirc":2092,"Ã¤":2093,"ĠAlthough":2094,"AP":2095,"Ġdifference":2096,"tivities":2097,"ict":2098,"Ġmedic":2099,"Ġadj":2100,"den":2101,"wh":2102,"Ġespecially":2103,"ody":2104,"Ġinvolved":2105,"Ġreduce":2106,"Ġrati":2107,"Ġgl":2108,"://":2109,"ĠII":2110,"Ġscore":2111,"Ġemploy":2112,"dro":2113,"Ġconcern":2114,"jects":2115,"Ġchem":2116,"Ġdefined":2117,"Ġhome":2118,"ious":2119,"ensity":2120,"Ġaccur":2121,"Ġadditional":2122,"Ġmust":2123,"Ġproposed":2124,"Ġexp":2125,"Ġcontinu":2126,"ights":2127,"ĠThus":2128,"Ġfollowed":2129,"pati":2130,"Ġneu":2131,"Ġauthors":2132,"Ġact":2133,"ascular":2134,"Ġsa":2135,"Ġsurvi":2136,"Ġservices":2137,"Ã³":2138,"ĠHC":2139,"icity":2140,"mitted":2141,"Ġactivation":2142,"Ġsyndrome":2143,"Ġcorres":2144,"Ġaim":2145,"Ġtissue":2146,"bo":2147,"Ġliter":2148,"Ġpepti":2149,"Ġtemper":2150,"ĠCT":2151,"Ġsci":2152,"ulate":2153,"Ġ2019":2154,"Ġsitu":2155,"Ġdiffic":2156,"95":2157,"Ġphysical":2158,"Ġradi":2159,"30":2160,"las":2161,"Ġmal":2162,"bid":2163,"any":2164,"Ġpoint":2165,"pe":2166,"Ġreduction":2167,"Ġstrategies":2168,"Ġorig":2169,"ician":2170,"eline":2171,"go":2172,"arding":2173,"ĠCo":2174,"hy":2175,"Ġdoc":2176,"RI":2177,"hesis":2178,"Ġbenef":2179,"Ġfram":2180,"Ġexist":2181,"Ġserum":2182,"Ġcomplete":2183,"Ġcaused":2184,"Ġterms":2185,"istic":2186,"Ġvalid":2187,"Ġinteg":2188,"ĠEn":2189,"inant":2190,"sc":2191,"Ġinteraction":2192,"Ġsurvey":2193,"Ġappear":2194,"ides":2195,"Ġmac":2196,"Ġtop":2197,"Ġfood":2198,"Ġtypes":2199,"aken":2200,"Ġ17":2201,"Ġchalleng":2202,"Ġeng":2203,"Ġcour":2204,"ector":2205,"ĠPCR":2206,"Ġactivities":2207,"Ġrespond":2208,"Ġreplication":2209,"Ġobserv":2210,"Ġutil":2211,"Ġcharacteristics":2212,"Ġgreater":2213,"Ġcompon":2214,"wn":2215,"Ġ>":2216,"AS":2217,"Ġlock":2218,"omy":2219,"Ġwomen":2220,"Ġtranscri":2221,"Ġarea":2222,"Ġcre":2223,"Ġtherefore":2224,"Ġrestr":2225,"Ġstatus":2226,"Ġevents":2227,"Ġsite":2228,"osph":2229,"ule":2230,"Ġcontext":2231,"Ġdrugs":2232,"Ġphase":2233,"afety":2234,"Ġseverity":2235,"ĠHIV":2236,"Ġable":2237,"Ġregions":2238,"inated":2239,"Ġsee":2240,"abil":2241,"Ġconcentration":2242,"Ġchronic":2243,"Ġfil":2244,"rit":2245,"Ġmen":2246,"Ġnovel":2247,"Ġrecord":2248,"ury":2249,"Ġmembrane":2250,"Ġculture":2251,"Ġsoci":2252,"ike":2253,"Ġclus":2254,"gi":2255,"anced":2256,"CC":2257,"Ġgly":2258,"Ġdown":2259,"here":2260,"Ġinflammatory":2261,"Ġonline":2262,"Ġoverall":2263,"Ġtreated":2264,"ĠOur":2265,"Ġfeatures":2266,"ĠSe":2267,"monary":2268,"Ġcateg":2269,"Ġsk":2270,"Ġcompound":2271,"ior":2272,"Ġventi":2273,"Ġsequences":2274,"Ġaddress":2275,"ĠME":2276,"portion":2277,"Ġsuccess":2278,"ours":2279,"Ps":2280,"Ġdynam":2281,"Ġdetail":2282,"Ġweeks":2283,"DS":2284,"ocytes":2285,"ems":2286,"ĠMoreover":2287,"ĠFurthermore":2288,"sp":2289,"ficiency":2290,"ene":2291,"Ġwater":2292,"Ġdeaths":2293,"Ġmuch":2294,"Ġvaccines":2295,"ĠAt":2296,"Ġess":2297,"ument":2298,"Ġcriter":2299,"Ġantiv":2300,"Ġatten":2301,"BD":2302,"ĠIm":2303,"Ġperson":2304,"ension":2305,"tial":2306,"ison":2307,"AR":2308,"Ġsuf":2309,"othe":2310,"Ġantigen":2311,"lying":2312,"Ġdetermined":2313,"Ġprotoc":2314,"Ġexperience":2315,"ĠEx":2316,"Ġenz":2317,"Ġseen":2318,"Ġdaily":2319,"omet":2320,"Ġanalyses":2321,"Ġdose":2322,"Ġlog":2323,"ogene":2324,"fication":2325,"ember":2326,"ze":2327,"ints":2328,"Ġmaterial":2329,"Ġprec":2330,"Ġgood":2331,"ether":2332,"Ġaffected":2333,"PE":2334,"enced":2335,"Ġbro":2336,"Ġtum":2337,"pite":2338,"cepti":2339,"ĠRT":2340,"gor":2341,"Ġdatas":2342,"utes":2343,"%),":2344,"Ġhem":2345,"ergy":2346,"Ġneeded":2347,"Ġability":2348,"Ġvaccination":2349,"Ġles":2350,"ient":2351,"Ġcoh":2352,"Ġcross":2353,"Ġevol":2354,"Ġmental":2355,"Ġdetermine":2356,"Ġlink":2357,"ware":2358,"gorith":2359,"Ġlockdown":2360,"Table":2361,"29":2362,"Ġoutcome":2363,"ĠCC":2364,"ank":2365,"els":2366,"Ġpercent":2367,"Ġher":2368,"ĠIntern":2369,"Ġwhat":2370,"Ġback":2371,"Ġanother":2372,"Ġprevalence":2373,"eration":2374,"Ġrestric":2375,"aps":2376,"erc":2377,"Ġreduc":2378,"Ġintro":2379,"active":2380,"Ġdie":2381,"40":2382,"Ġinteractions":2383,"Ġstaff":2384,"Ġ;":2385,"Ġhol":2386,"Ġplay":2387,"PS":2388,"Ġtoward":2389,"ower":2390,"Ġanalyzed":2391,"pre":2392,"Ġadmission":2393,"Ġ95":2394,"Ġgenome":2395,"Ġappropri":2396,"Ġliterature":2397,"Ġintervention":2398,"Ġlarg":2399,"Ġfib":2400,"Ġinstit":2401,"Ġfield":2402,"Ġmeasured":2403,"Ġreceived":2404,"ĠAfter":2405,"Ġloss":2406,"emi":2407,"inally":2408,"pet":2409,"Ġwide":2410,"Ġclose":2411,"Ġeconomic":2412,"Ġmolecular":2413,"Ġexc":2414,"helial":2415,"acted":2416,"GG":2417,"lusion":2418,"Ġcentr":2419,"Ġpaper":2420,"Ġdev":2421,"Ġtherapeu":2422,"Ġapplied":2423,"Ġclear":2424,"hers":2425,"iversity":2426,"Ġnat":2427,"odes":2428,"Ġcondition":2429,"aches":2430,"Ġincub":2431,"Ġresist":2432,"Ġge":2433,"Ġrevealed":2434,"infl":2435,"air":2436,"Ġtemperature":2437,"Ġaround":2438,"abol":2439,"ength":2440,"Ġsl":2441,"Ġdon":2442,"Ġphen":2443,"Ġbu":2444,"Ġindicated":2445,"Ġcent":2446,"RF":2447,"Ġvs":2448,"Ġexpressed":2449,"och":2450,"Ġbehavior":2451,"Ġcapac":2452,"ported":2453,"Ġanimals":2454,"MS":2455,"po":2456,"eed":2457,"see":2458,"Ġantiviral":2459,"Ġmake":2460,"Ġratio":2461,"24":2462,"Ġbest":2463,"Ġlaboratory":2464,"Ġresources":2465,"ancing":2466,"Ġrelevant":2467,"pose":2468,"Ġsensitivity":2469,"entially":2470,"RT":2471,"Ġintern":2472,"Ġ40":2473,"under":2474,"Ġway":2475,"Ġselected":2476,"Ġalthough":2477,"Ġevery":2478,"Ġexpected":2479,"ttps":2480,"ae":2481,"ĠÂ±":2482,"Ġparticularly":2483,"ficacy":2484,"Ġscho":2485,"Ġprote":2486,"ĠIf":2487,"bor":2488,"Ġpractice":2489,"uk":2490,"Ġx":2491,"Ġproblem":2492,"BS":2493,"Ġdecreased":2494,"Ġillness":2495,"Ġalgorith":2496,"Ġmix":2497,"ave":2498,"Ġdys":2499,"Ġnur":2500,"Ġeth":2501,"Ġsuscepti":2502,"Ġcall":2503,"Ġsafety":2504,"Ġmechanisms":2505,"Ġplace":2506,"Ġâī":2507,"ferred":2508,"Ġstim":2509,"Ġcountry":2510,"Ġmedia":2511,"ĠMed":2512,"Ġestimated":2513,"Ġstrategy":2514,"ographic":2515,"encing":2516,"urop":2517,"xi":2518,"ĠCI":2519,"kn":2520,"Ġincidence":2521,"Ġmonitor":2522,"Ġweek":2523,"sibility":2524,"ocy":2525,"80":2526,"ital":2527,"Ġworkers":2528,"Ġsepar":2529,"ĠCl":2530,"Ġdam":2531,"Ġexplain":2532,"Ġproportion":2533,"As":2534,"overy":2535,"Ġreflec":2536,"To":2537,"Ġeducation":2538,"IC":2539,"ovirus":2540,"Ġ*":2541,"Ġcommunic":2542,"ify":2543,"Ġmaintain":2544,"org":2545,"Ġfr":2546,"ustr":2547,"tro":2548,"Ġconn":2549,"ining":2550,"ands":2551,"Ġflow":2552,"Ġcalculated":2553,"Ġassociation":2554,"Ġbody":2555,"Ġgovernment":2556,"ĠAc":2557,"stit":2558,"AC":2559,"ĠICU":2560,"Ġconst":2561,"Ġpolicy":2562,"Ġfive":2563,"Ġdecrease":2564,"Ġpredict":2565,"Ġsubsequ":2566,"istration":2567,"Ġevaluated":2568,"ising":2569,"ring":2570,"23":2571,"ume":2572,"Ġcontrast":2573,"ĠThey":2574,"Ġcarri":2575,"Ġpulmonary":2576,"Ġperce":2577,"Ġstar":2578,"SV":2579,"Ġcriteria":2580,"Ġcost":2581,"Ġgranted":2582,"ĠOne":2583,"iat":2584,"ĠMarch":2585,"Ġresulting":2586,"Ġdifficult":2587,"roup":2588,"Ġassessment":2589,"Ġdirectly":2590,"Ġprofession":2591,"Ġprotec":2592,"Ġapproxim":2593,"eb":2594,"Ġstrains":2595,"ĠWhile":2596,"Ġmedi":2597,"erate":2598,"Ġsuggested":2599,"Ġnecessary":2600,"rup":2601,"Ġessential":2602,"urope":2603,"abor":2604,"ventions":2605,"Ġplasma":2606,"ĠÂµ":2607,"Ġtrials":2608,"Ġregarding":2609,"Ġpressure":2610,"Ġmaxim":2611,"Ġsites":2612,"Ġinterest":2613,"Ġcourse":2614,"Ġothers":2615,"vement":2616,"Ġcertain":2617,"60":2618,"Ġcoll":2619,"inary":2620,"Ġneeds":2621,"ĠCO":2622,"uity":2623,"Ġsubst":2624,"Ġrecommend":2625,"Ġtrial":2626,"rid":2627,"Ġneutral":2628,"LI":2629,"Ġflu":2630,"illion":2631,"Ġappropriate":2632,"bers":2633,"Ġcellular":2634,"Ġthough":2635,"tle":2636,"HO":2637,"funder":2638,"Ġden":2639,"yright":2640,"Ġscale":2641,"Ġreports":2642,"Ġunderstanding":2643,"Ġsumm":2644,"Ġsecondary":2645,"Ġfem":2646,"This":2647,"Ġsu":2648,"Ġhaving":2649,"Ġfailure":2650,"Ġnational":2651,"Ġscreening":2652,"Ġ28":2653,"long":2654,"inflamm":2655,"xiety":2656,"001":2657,"rolled":2658,"ygen":2659,"artic":2660,"ales":2661,"CD":2662,"Ġinflammation":2663,"Ġconsum":2664,"row":2665,"Ġcopyright":2666,"rad":2667,"ogens":2668,"Ġteam":2669,"aces":2670,"Ġwhereas":2671,"equ":2672,"Ġcapacity":2673,"ulating":2674,"Ġmembers":2675,"Ġdetect":2676,"ĠIgG":2677,"Ġavoid":2678,"rim":2679,"Ġbar":2680,"ik":2681,"Ġliver":2682,"usc":2683,"Ġnow":2684,"Ġpopulations":2685,"ĠSim":2686,"Ġconsequ":2687,"ymptom":2688,"Ġbecome":2689,"Ġmetabol":2690,"27":2691,"outh":2692,"Ġ37":2693,"01":2694,"iness":2695,"ĠEurope":2696,"olar":2697,"Ġcontaining":2698,"ĠPati":2699,"ĠUS":2700,"Ġpublished":2701,"Ġchain":2702,"Ġyou":2703,"Ġefficacy":2704,"lor":2705,"Ġinn":2706,"Ġ23":2707,"Â°":2708,"Ġfull":2709,"opath":2710,"ponding":2711,"Ġpoor":2712,"ont":2713,"ĠAr":2714,"Ġinterventions":2715,"itation":2716,"Ġimportance":2717,"Ġ21":2718,"upplement":2719,"king":2720,"LA":2721,"arr":2722,"Ġadults":2723,"Ġperpet":2724,"fusion":2725,"Ġblock":2726,"Ġ60":2727,"time":2728,"bi":2729,"aneous":2730,"pared":2731,"elines":2732,"Ġtas":2733,"Ġdim":2734,"Ġinjury":2735,"Ġevaluation":2736,"Ġcorrelation":2737,"Ġtherapeutic":2738,"pp":2739,"wide":2740,"Ġgenerated":2741,"Ġnan":2742,"day":2743,"ĠUSA":2744,"Ġdiagnostic":2745,"pir":2746,"ories":2747,"Ġsolution":2748,"Ġreaction":2749,"Ġload":2750,"ysis":2751,"II":2752,"ww":2753,"ĠPE":2754,"Ġlater":2755,"oma":2756,"Ġinfluence":2757,"Ã¼":2758,"Ġhistory":2759,"Ġprovides":2760,"iting":2761,"Ġemergency":2762,"Ġenergy":2763,"26":2764,"Ġdig":2765,"typ":2766,"Ġhighl":2767,"ĠInternational":2768,"28":2769,"Ġpeak":2770,"Ġmeans":2771,"Ġevent":2772,"Ġapproaches":2773,"ficial":2774,"enari":2775,"Ġcohort":2776,"Ġent":2777,"app":2778,"han":2779,"Ġassessed":2780,"Ġdri":2781,"Ġleading":2782,"ĠSp":2783,"atform":2784,"do":2785,"Ġanimal":2786,"Ġface":2787,"Ġfund":2788,"Ġyoung":2789,"Ġhydro":2790,"ologies":2791,"Ġfinal":2792,"Ġlat":2793,"Ġlip":2794,"Ġfever":2795,"Ġhumans":2796,"Ã³n":2797,"ili":2798,"Ġrather":2799,"AT":2800,"Ġfat":2801,"ĠNo":2802,"ĠÎ¼":2803,"Ġmit":2804,"Ġenter":2805,"Ġpersonal":2806,"Ġagents":2807,"Ġhom":2808,"Ġadop":2809,"Ġimmunity":2810,"Ġholder":2811,"Ġdiab":2812,"Ġbroad":2813,"âĢ¢":2814,"Ġtaken":2815,"Ġbacterial":2816,"Ġfrequency":2817,"Ġmild":2818,"Ġnatural":2819,"ere":2820,"unctions":2821,"Ġcris":2822,"Ġanxiety":2823,"let":2824,"Ġscores":2825,"ĠmRNA":2826,"COVID":2827,"Ġquestions":2828,"rag":2829,"NF":2830,"Ġvitro":2831,"Ġolder":2832,"Ġprocesses":2833,"formation":2834,"rence":2835,"Ġcombination":2836,"LR":2837,"ancy":2838,"Ġcomparison":2839,"encies":2840,"Ġconcentrations":2841,"Ġdecision":2842,"Ġonset":2843,"Ġpathogens":2844,"Ġbrain":2845,"Ġtechnology":2846,"plant":2847,"ply":2848,"Ġpower":2849,"ditional":2850,"Ġconsistent":2851,"Ġproducts":2852,"Ġview":2853,"Ġaltern":2854,"amin":2855,"Ġindex":2856,"Ġindicate":2857,"ready":2858,"Ġmedian":2859,"Ġaffect":2860,"Ġcorresponding":2861,"isc":2862,"Ġreason":2863,"Ġpharm":2864,"Ġhealthy":2865,"90":2866,"Ġweight":2867,"Ġfunctional":2868,"bs":2869,"Ġperpetuity":2870,"icians":2871,"Ġsal":2872,"Ġsex":2873,"Î±":2874,"eness":2875,"Ġplan":2876,"Ġoxygen":2877,"Ġintegr":2878,"Ġeas":2879,"Ġvariable":2880,"Ġsubjects":2881,"Ġtake":2882,"Ġcho":2883,"Ġcomput":2884,"PA":2885,"Ġroom":2886,"emia":2887,"Ġnumbers":2888,"induced":2889,"Ġregression":2890,"Ġinterval":2891,"Ġfree":2892,"Ġalong":2893,"EM":2894,"Ġindependent":2895,"Ġplatform":2896,"meric":2897,"GF":2898,"inflammatory":2899,"Ġlay":2900,"Ġhighest":2901,"otype":2902,"Ġclos":2903,"Ġlast":2904,"activ":2905,"ĠWith":2906,"Ġevaluate":2907,"iatric":2908,"Ġprobability":2909,"Ġstage":2910,"esis":2911,"tional":2912,"Ġuseful":2913,"Ġfacilit":2914,"osts":2915,"Ġhours":2916,"ymptomatic":2917,"Ġelectr":2918,"Ġtele":2919,"Ġaff":2920,"Ġinduced":2921,"Ġalready":2922,"Ġintr":2923,"hing":2924,"Ġrelatively":2925,"Ġnas":2926,"etes":2927,"ifically":2928,"Ġrecently":2929,"Ġisolated":2930,");":2931,"Ġproblems":2932,"Ġpor":2933,"Ġposted":2934,"Ġincreases":2935,"Ġsource":2936,"which":2937,"Ġremo":2938,"Ġdepend":2939,"Ġfind":2940,"ray":2941,"Ġadded":2942,"Ġgenetic":2943,"ĠPre":2944,"Ġcyc":2945,"ead":2946,"Ġexperiments":2947,"Ġscenari":2948,"Ġbo":2949,"Ġsuggests":2950,"Ġprotection":2951,"artment":2952,"erative":2953,"Ġ29":2954,"ĠÎ²":2955,"Ġexten":2956,"antit":2957,"Ġdatab":2958,"Ġspecial":2959,"Ġfit":2960,"entific":2961,"IS":2962,"Ġphosph":2963,"Ġisolation":2964,"ude":2965,"Ġsoft":2966,"hood":2967,"Ġissues":2968,"Î²":2969,"Ġhttps":2970,"oti":2971,"43":2972,"Ġpoints":2973,"Ġinten":2974,"ĠWhen":2975,"Ġamino":2976,"yme":2977,"Ġve":2978,"Figure":2979,"by":2980,"ext":2981,"Ġcollection":2982,"Ġche":2983,"Ġbelow":2984,"70":2985,"Ġ26":2986,"akes":2987,"Ġpathway":2988,"ending":2989,"NC":2990,"SARS":2991,"ĠMet":2992,"Ġduration":2993,"ulatory":2994,"45":2995,"Ġrang":2996,"Ġquar":2997,"Ġpeer":2998,"Ġdelivery":2999,"ospitals":3000,"Ġproperties":3001,"aring":3002,"ope":3003,"arily":3004,"Ġsurvival":3005,"Ġsuccessful":3006,"ework":3007,"most":3008,"Ġlength":3009,"Ġseries":3010,"Ġpotentially":3011,"Ġresearc":3012,"Ġtog":3013,"Ġbeli":3014,"Ġposition":3015,"ND":3016,"Ġimages":3017,"Ġbiological":3018,"certain":3019,"Ġparticles":3020,"clusion":3021,"onic":3022,"Ġcompounds":3023,"Ġuntil":3024,"entry":3025,"Ġstates":3026,"Ġstructures":3027,"ots":3028,"Ġheter":3029,"aged":3030,"side":3031,"Ġsection":3032,"Ġformation":3033,"Ġregard":3034,"ĠMERS":3035,"ones":3036,"BV":3037,"pril":3038,"Ġtogether":3039,"Ġcannot":3040,"Ġapplication":3041,"Ġmajority":3042,"Ġprocedures":3043,"Ġear":3044,"âĪ":3045,"Ġaccount":3046,"PD":3047,"Ġimproved":3048,"Ġmass":3049,"fort":3050,"Ġreli":3051,"gery":3052,"Ġvolume":3053,"35":3054,"ĠRec":3055,"Ġopen":3056,"atives":3057,"portun":3058,"Ġestablished":3059,"ransi":3060,"Ġchallenges":3061,"Ġsix":3062,"Ġprotective":3063,"Ġthrom":3064,"Ġexhib":3065,"Ġfunctions":3066,"22":3067,"Ġhere":3068,"isted":3069,"Ġrest":3070,"ero":3071,"infected":3072,"Ġrequ":3073,"Ġworking":3074,"ĠPh":3075,"Ġremains":3076,"Ġguidelines":3077,"Ġstructural":3078,"Ġcompos":3079,"Ġmillion":3080,"Ġtrend":3081,"nai":3082,"less":3083,"Ġmolecules":3084,"Ġtit":3085,"ĠAR":3086,"NS":3087,"ney":3088,"ĠÎ±":3089,"luded":3090,"lex":3091,"yst":3092,"Ġhouse":3093,"ats":3094,"ĠSimilar":3095,"Ġventilation":3096,"iques":3097,"Ġerr":3098,"Ġown":3099,"Ġarticle":3100,"38":3101,"orbid":3102,"ĠAm":3103,"Ġupon":3104,"Ġantibio":3105,"Ġenti":3106,"Ġbaseline":3107,"Ġsuggesting":3108,"jective":3109,"OS":3110,"ditionally":3111,"amp":3112,"Ġelev":3113,"Ġinterpre":3114,"Ġproduced":3115,"Ġquanti":3116,"Ġresistance":3117,"Ġprotocol":3118,"Ġ),":3119,"Ġtub":3120,"Ġtransport":3121,"Ġsampl":3122,"Ġparen":3123,"ds":3124,"enge":3125,"Ġoff":3126,"ured":3127,"Ġsens":3128,"Ġhospitals":3129,"Ġentry":3130,"gn":3131,"Ġstudied":3132,"Ġcurrently":3133,"erved":3134,"Ġtox":3135,"Ġemb":3136,"Ġepidemi":3137,"ĠMS":3138,"Ġprov":3139,"%).":3140,"gical":3141,"Ġopportun":3142,"Ġ27":3143,"Ġpromot":3144,"Ġmainly":3145,"HC":3146,"ĠAfric":3147,"ĠUnited":3148,"Ġmonitoring":3149,"Ġdeveloping":3150,"eth":3151,"Ġpsychological":3152,"ler":3153,"Ġensure":3154,"Ġsituation":3155,"Ġdos":3156,"isation":3157,"Ġ:":3158,"Ġtool":3159,"ĠÃĹ":3160,"Ġinvestigated":3161,"rolog":3162,"Ġir":3163,"Ġsearch":3164,"ES":3165,"ography":3166,"Ġassays":3167,"going":3168,"Ġdamage":3169,"ii":3170,"Ġdate":3171,"ked":3172,"Ġasymptomatic":3173,"Ġampl":3174,"Ġpass":3175,"ysi":3176,"Ġconstruc":3177,"Ġdifferenti":3178,"ÃŃ":3179,"istered":3180,"Ġ22":3181,"Ġframework":3182,"ĠAmeric":3183,"Ġpatterns":3184,"Ġdesigned":3185,"Ġstatistical":3186,"ground":3187,"Ġmutations":3188,"Ġdefin":3189,"Ġtransi":3190,"Ġcontrols":3191,"Ġdecl":3192,"Ġadministration":3193,"Ġbur":3194,"Ġinternational":3195,"Ġcomponents":3196,"oplas":3197,"wise":3198,"Ġmacroph":3199,"Ġcrisis":3200,"CM":3201,"Ġgu":3202,"Ġnature":3203,"az":3204,"Ġhal":3205,"Ġlarger":3206,"CG":3207,"Ġmic":3208,"ĠCor":3209,"48":3210,"Ġpractic":3211,"Ġprevention":3212,"Ġtranscription":3213,"izes":3214,"Ġide":3215,"aced":3216,"Ġrepe":3217,"PI":3218,"ĠApril":3219,"Ġintra":3220,"ĠUniversity":3221,"Ġtravel":3222,"Ġright":3223,"Ġpredicted":3224,"Ġcontent":3225,"Ġexperimental":3226,"Ġusually":3227,"upplementary":3228,"ered":3229,"illance":3230,"Ġsecre":3231,"Ġrepro":3232,"Ġul":3233,"DA":3234,"Ġwhole":3235,"ccording":3236,"33":3237,"Ġaction":3238,"Ġfore":3239,"Ġdegree":3240,"iving":3241,"ĠOf":3242,"Ġheart":3243,"Ġdataset":3244,"ĠStud":3245,"Ġaer":3246,"%.":3247,"ĠFinally":3248,"Ġcytokines":3249,"Ġ48":3250,"ologic":3251,"Ġinhibition":3252,"PR":3253,"Ġdil":3254,"Ġseg":3255,"Ġdiabetes":3256,"known":3257,"2020":3258,"Ġmid":3259,"ĠData":3260,"roscop":3261,"Ġrob":3262,"Ġvers":3263,"Ġmarket":3264,"tioned":3265,"Ġresidues":3266,"Ġabsence":3267,"ges":3268,"Ġenvironmental":3269,"Ġservice":3270,"Ġevolution":3271,"Ġcauses":3272,"inical":3273,"flu":3274,"apt":3275,"Ġunique":3276,"Ġrecomb":3277,"Ġreference":3278,"Ġhypot":3279,"overed":3280,"PV":3281,"andid":3282,"ĠDe":3283,"100":3284,"Ġapproximately":3285,"Ġcentral":3286,"oly":3287,"ancial":3288,"49":3289,"Ġcarried":3290,"Ġcomplications":3291,"Ġselection":3292,"Ġthird":3293,"Ġyet":3294,"thesis":3295,"rand":3296,"Ġdiss":3297,"Ġrecru":3298,"Ġimplementation":3299,"IR":3300,"Ġquantit":3301,"Ġamount":3302,"tified":3303,"Ġnext":3304,"Ġexamined":3305,"Ġbeg":3306,"Ġ/":3307,"Ġdirec":3308,"Ġdocument":3309,"Ġpregn":3310,"asis":3311,"ellular":3312,"Ġagg":3313,"Ġrelease":3314,"rotein":3315,"Ġalgorithm":3316,"Ġcluster":3317,"Ġaccuracy":3318,"Ġpain":3319,"urrent":3320,"tives":3321,"Ġemo":3322,"Ġpan":3323,"Ġsignaling":3324,"fold":3325,"65":3326,"eding":3327,"Ġadverse":3328,"Ġdistancing":3329,"An":3330,"rial":3331,"atisf":3332,"urity":3333,"rophil":3334,"trans":3335,"Ġunit":3336,"Ġchallenge":3337,"75":3338,"Ġresol":3339,"arc":3340,"reng":3341,"ah":3342,"Ġbacteria":3343,"Ġimaging":3344,"ĠSince":3345,"Ġtumor":3346,"uble":3347,"Ġspace":3348,"otherap":3349,"Ġbound":3350,"ream":3351,"Ġmm":3352,"Ġtechniques":3353,"Ġmeet":3354,"Ġmedium":3355,"Ġschool":3356,"Ġsurgery":3357,"Ġinhibitors":3358,"oles":3359,"mL":3360,"Ġprocedure":3361,"Ġplate":3362,"Ġspike":3363,"Ġpathways":3364,"Ġestimate":3365,"oids":3366,"Ġled":3367,"Ġviv":3368,"Ġdistance":3369,"ocyte":3370,"Ġside":3371,"ĠItal":3372,"Ġtowards":3373,"Ġcommunication":3374,"ifest":3375,"Ġsources":3376,"ronch":3377,"Ġrun":3378,"Ġnoted":3379,"tiveness":3380,"Ġsyst":3381,"Ġsoftware":3382,"Ġprinc":3383,"Ġcytokine":3384,"estinal":3385,"tre":3386,"Ġhis":3387,"Ġresulted":3388,"Ġ35":3389,"orders":3390,"Ġdone":3391,"man":3392,"Ġquestionnai":3393,"Ġattention":3394,"99":3395,"where":3396,"Ġvisual":3397,"bial":3398,"ĠOr":3399,"Ġlonger":3400,"Ġexisting":3401,"..":3402,"ites":3403,"Ġtract":3404,"ml":3405,"Ġsubstanti":3406,"Ġpeptide":3407,"ĠBe":3408,"Ġword":3409,"Ġfar":3410,"CAA":3411,"Ġconfirm":3412,"Ġcontribute":3413,"Ġrecommended":3414,"Ġswab":3415,"orld":3416,"dependent":3417,"OR":3418,"Ġshe":3419,"Ġcapt":3420,"ĠJan":3421,"Ġturn":3422,"ĠBi":3423,"Ġdistinc":3424,"Ġdynamics":3425,"Ġlig":3426,"Ġ%":3427,"Ġdelay":3428,"EV":3429,"Ġsupplement":3430,"Ġpast":3431,"Ġcontinuous":3432,"Ġreceptors":3433,"ibility":3434,"Ġrecovery":3435,"ĠmM":3436,"Ġrequires":3437,"bl":3438,"Ġpercentage":3439,"Ġoccurred":3440,"aryn":3441,"rix":3442,"Ġincludes":3443,"cence":3444,"Ġkid":3445,"Ġcod":3446,"Ġrespondents":3447,"AL":3448,"AD":3449,"Ġlight":3450,"Ġcombined":3451,"Ġvivo":3452,"Ġallowed":3453,"Ġmuc":3454,"acellular":3455,"Ġred":3456,"Ġalternative":3457,"struct":3458,"Ġgenerally":3459,"iÃ³n":3460,"Ġenzyme":3461,"Ġspecim":3462,"37":3463,"CS":3464,"âĢ":3465,"Ġattrib":3466,"imer":3467,"ĠMay":3468,"Ġuncertain":3469,"Ġresponsible":3470,"Ġfollows":3471,"Ġincor":3472,"Ġget":3473,"Ġbasis":3474,"function":3475,"Ġsurveillance":3476,"ĠUK":3477,"order":3478,"omp":3479,"cal":3480,"dom":3481,"Ġinterview":3482,"Ġpig":3483,"ĠSome":3484,"Ġmoderate":3485,"ufact":3486,"type":3487,"Ġconver":3488,"Ġunderlying":3489,"Ġproviding":3490,"Ġsettings":3491,"CL":3492,"mod":3493,"Ġfinancial":3494,"Ġrepresents":3495,"Ġlimitations":3496,"Ġhousehold":3497,"Ġusers":3498,"AG":3499,"Ġidentification":3500,"36":3501,"ulin":3502,"une":3503,"Ġstreng":3504,"Ġdiscussed":3505,"Ġadap":3506,"Ġestimates":3507,"normal":3508,"Ġvul":3509,"reshold":3510,"Ġinput":3511,"Ġdensity":3512,"Ġexposed":3513,"Ġefficiency":3514,"ĠSec":3515,"ape":3516,"MI":3517,"ĠFirst":3518,"ibr":3519,"Ġcharacterized":3520,"Ġrout":3521,"Ġpriv":3522,"forts":3523,"Ġ80":3524,"Ġmouse":3525,"ĠSc":3526,"Ġdepression":3527,"Ġresearchers":3528,"ĠDec":3529,"Ġequip":3530,"ache":3531,"Ġimplemented":3532,"Ġderived":3533,"Ġquarant":3534,"BY":3535,"DV":3536,"Ġbuil":3537,"34":3538,"Ġsurgical":3539,"ĠStates":3540,"Ġtools":3541,"Ġrapidly":3542,"que":3543,"Ġtissues":3544,"Ġsustain":3545,"Ġapproved":3546,"uary":3547,"bin":3548,"Ġindicating":3549,"Ġmaximum":3550,"Ġpolicies":3551,"aren":3552,"Ġwild":3553,"Ġcandid":3554,"Ġspecificity":3555,"Ġmaking":3556,"Ġfix":3557,"alysis":3558,"Ġpractices":3559,"eli":3560,"Ġsubsequent":3561,")-":3562,"oster":3563,"Ġadvant":3564,"ĠAdditionally":3565,"ban":3566,"ĠPR":3567,"Ã¶":3568,"Ġbarri":3569,"sh":3570,"Ġfluid":3571,"Ġprepared":3572,"Ġagre":3573,"Ġvector":3574,"Ġproduct":3575,"sia":3576,"Ġnetworks":3577,"Ġleft":3578,"Ġbiom":3579,"ĠCF":3580,"Ġbenefit":3581,"Ġbias":3582,"Ġcardiac":3583,"Ġfusion":3584,"Ġsafe":3585,"Ġallows":3586,"Ġproduce":3587,"aching":3588,"eral":3589,"mediated":3590,"Ġsatisf":3591,"ports":3592,"Ġconcept":3593,"Ġstay":3594,"IT":3595,"Ġque":3596,"ĠPatients":3597,"Ġreducing":3598,"Ġmanufact":3599,"ĠResults":3600,"aly":3601,"Ġdra":3602,"ole":3603,"Ġthreat":3604,"Ġprediction":3605,"Ġsigns":3606,"Ġein":3607,"aries":3608,"Ġarg":3609,"ociated":3610,"Ġthreshold":3611,"pects":3612,"Ġtrig":3613,"Ġforms":3614,"Ġdisch":3615,"ĠSy":3616,"ĠPD":3617,"level":3618,"eg":3619,"Ġrisks":3620,"Ġsynthe":3621,"Ġcomorbid":3622,"ĠNew":3623,"Ġimmedi":3624,"rosis":3625,"Ġvulner":3626,"Ġ90":3627,"izations":3628,"ĠRBD":3629,"Ġefforts":3630,"Ġoutbreaks":3631,"Ġenhance":3632,"ert":3633,"Ġmusc":3634,"Ġshif":3635,"ME":3636,"Ġindicates":3637,"infection":3638,"Ġ31":3639,"Ġaccept":3640,"utri":3641,"ĠBy":3642,"Ġrecorded":3643,"Ġsusceptible":3644,"Ġtransplant":3645,"Ġoral":3646,"sib":3647,"ĠCovid":3648,"Ġpoli":3649,"Ġfrequently":3650,"Ġstatistically":3651,"ĠDes":3652,"Ġstain":3653,"Ġglyc":3654,"Ġlines":3655,"ened":3656,"doi":3657,"For":3658,"Ġbus":3659,"ued":3660,"Ġjust":3661,"land":3662,"Ġoptimal":3663,"Ġcommonly":3664,"Ġbre":3665,"Ġperceived":3666,"ĠInte":3667,"Ġgender":3668,"Ġleg":3669,"Ġlinear":3670,"ĠJanuary":3671,"Ġchest":3672,"earch":3673,"ĠAccording":3674,"Ġexperiment":3675,"Ġsuper":3676,"Ġpersist":3677,"isms":3678,"Ġimprovement":3679,"Ġcut":3680,"Ġsimple":3681,"Ġworldwide":3682,"Ġtargets":3683,"Ġalone":3684,"47":3685,"SD":3686,"Ġdatabase":3687,"68":3688,"off":3689,"Ġreturn":3690,"olic":3691,"Ġsystemic":3692,"Ġrepl":3693,"Ġlit":3694,"âĪĴ":3695,"Ġsynthesis":3696,"Ġimage":3697,"Ġchec":3698,"Ġagent":3699,"Ġyield":3700,"Ġtransfer":3701,"Ġbenefits":3702,"otic":3703,"IF":3704,"dle":3705,"Ġhead":3706,"Ġhalf":3707,"Ġconcerns":3708,"Ġwidely":3709,"Ġdistress":3710,"ĠĠĠĠĠ":3711,"ĠCR":3712,"usted":3713,"ĠGen":3714,"Ġfeature":3715,"Ġpolymer":3716,"ĠAg":3717,"ycl":3718,"ĠOther":3719,"Ġbasic":3720,"Ġmatrix":3721,"Ġpair":3722,"Ġinvestigate":3723,"Ġbuf":3724,"Ġentire":3725,"Ġcough":3726,"Ġadapt":3727,"Ġ45":3728,"Ġestablish":3729,"Ġfrag":3730,"cript":3731,"ocardi":3732,"Ġextre":3733,"Ġliving":3734,"Ġasth":3735,"icine":3736,"itable":3737,"Ġreporting":3738,"Ġleads":3739,"ached":3740,"Ġfocused":3741,"Ġnumer":3742,"Ġachieved":3743,"Ġassign":3744,"ades":3745,"ighted":3746,"Ġmale":3747,"Ġinternal":3748,"Ġbronch":3749,"Ġendot":3750,"group":3751,"Ġconsent":3752,"Ġparameter":3753,"Ġalmost":3754,"Ġarter":3755,"Ġantic":3756,"Ġdisorders":3757,"\",":3758,"year":3759,"Ġmig":3760,"ĠDuring":3761,"Ġsystematic":3762,"Ġincorpor":3763,"Ġoccurs":3764,"101":3765,"inese":3766,"heless":3767,"Ġconclusion":3768,"Ġcertified":3769,"ST":3770,"Ġstable":3771,"Ġmacrophages":3772,"98":3773,"Ġitems":3774,"Ġaspects":3775,"sis":3776,"associated":3777,"ta":3778,"ER":3779,"Ġdigital":3780,"Ġ36":3781,"Ġapplications":3782,"Ġinstitution":3783,"isions":3784,"Ġec":3785,"Ġclassification":3786,"merc":3787,"Ġillustr":3788,"Ġelevated":3789,"Ġrelationships":3790,"Ġlesions":3791,"Ġtend":3792,"Ġeffectiveness":3793,"Ġvary":3794,"otherapy":3795,"self":3796,"tual":3797,"met":3798,"ises":3799,"ediatric":3800,"Ġepithelial":3801,"Ġbio":3802,"DNA":3803,"NT":3804,"Ġthroughout":3805,"Ġinduce":3806,"Ġposi":3807,"itig":3808,"ĠpH":3809,".\"":3810,"Ġacids":3811,"ĠReg":3812,"MV":3813,"Ġneutrophil":3814,"Ġunknown":3815,"Ġroutine":3816,"angu":3817,"Ġsampling":3818,"Ġpharmac":3819,"pond":3820,"ovascular":3821,"immun":3822,"Ġseas":3823,"ids":3824,"Ġdivid":3825,"mic":3826,"Ġprograms":3827,"Ġspecifically":3828,"Ġmask":3829,"IP":3830,"inity":3831,"ped":3832,"MA":3833,"OC":3834,"Ġdiscussion":3835,"Ġdemand":3836,"Ġrare":3837,"Ġexerc":3838,"EC":3839,"Ġneuro":3840,"Ġfraction":3841,"inate":3842,"Ġscientific":3843,"ling":3844,"ĠChinese":3845,"ĠDi":3846,"Ġversus":3847,"astr":3848,"fered":3849,"Ġcoef":3850,"Ġfully":3851,"46":3852,"Al":3853,"Ġves":3854,"Ġextent":3855,"Ġkidney":3856,"agement":3857,"cont":3858,"oring":3859,"Ġold":3860,"Ġvariants":3861,"aling":3862,"oking":3863,"Ġadult":3864,"Ġcycle":3865,"hods":3866,"Ġadhe":3867,"Ġsummar":3868,"Ġinduc":3869,"Ġdiagnosed":3870,"Ġlocation":3871,"Ġmil":3872,"ipher":3873,"acing":3874,"Ġmis":3875,"Ġter":3876,"ĠAT":3877,"Ġdisrup":3878,"Ġlearn":3879,"ĠSci":3880,"asive":3881,"Ġlas":3882,"Ġinhibitor":3883,"Ġspati":3884,"iRNA":3885,"lier":3886,"Ġfeed":3887,"Ġunits":3888,"istry":3889,"reen":3890,"Ġpossibility":3891,"ĠWHO":3892,"ture":3893,"ectors":3894,"ĠWu":3895,"ĠAss":3896,"Ġqual":3897,"Ġincubated":3898,"Ġgeneration":3899,"Ġdespite":3900,"Ġreplic":3901,"lif":3902,"Ġexperienced":3903,"Ġupper":3904,"Ġans":3905,"Ġserious":3906,"Ġautom":3907,"aster":3908,"Ġcosts":3909,"tee":3910,"Ġsequencing":3911,"omer":3912,"Ġvariation":3913,"Ġcommunities":3914,"zing":3915,"Ġmach":3916,"Ġfamil":3917,"Ġfemale":3918,"positive":3919,"AV":3920,"Ġinstance":3921,"ĠGerm":3922,"ying":3923,"Ġbegin":3924,"Ġyour":3925,"Ġgain":3926,"ĠNS":3927,"Ġput":3928,"39":3929,"Ġbelie":3930,"Ġcorrelated":3931,"Ġhospitalized":3932,"patient":3933,"Ġskin":3934,"Ġuser":3935,"Ġexce":3936,"Ġprogression":3937,"Ġoriginal":3938,"Ġtreatments":3939,"pi":3940,"Ġcruc":3941,"Ġlist":3942,"otypes":3943,"Ġcontacts":3944,"Ġoutside":3945,"Ġrobust":3946,"Ġ70":3947,"Ġwa":3948,"rh":3949,"Ġcompl":3950,"Ġprocessing":3951,"Ġmutation":3952,"Ġvide":3953,"pers":3954,"Ġâī¥":3955,"Ġsupply":3956,"ged":3957,"Ġadequ":3958,"Ġ38":3959,"oint":3960,"Ġgraph":3961,"Ġcollabor":3962,"rief":3963,"hol":3964,"Ġrecommendations":3965,"rospective":3966,"organ":3967,"67":3968,"Ġhospitalization":3969,"back":3970,"ĠCons":3971,"Ġwrit":3972,"Ġetc":3973,"Ġcogn":3974,"Ġvariety":3975,"ĠEuropean":3976,"Ġefficient":3977,"Ġmechanical":3978,"Ġcontains":3979,"Ġrespect":3980,"Ġintensive":3981,"Ġ2021":3982,"**":3983,"ĠAmong":3984,"There":3985,"ĠTNF":3986,"Ġpeptides":3987,"Ġmiss":3988,"Ġ32":3989,"Ġadmitted":3990,"Ġdistinct":3991,"Ġgluc":3992,"Ġconstant":3993,"ills":3994,"tingly":3995,"Ġcalled":3996,"Ġlinked":3997,"Ã¡":3998,"Ġtw":3999,"Ġsignificance":4000,"jected":4001,"Ġextensive":4002,"Ġann":4003,"phyl":4004,"iring":4005,"Ġfluores":4006,"Ġfacilities":4007,"erb":4008,"Ġpromis":4009,"Ġweak":4010,"Ġgenerate":4011,"44":4012,"63":4013,"Ġachieve":4014,"Ġdescri":4015,"ĠMost":4016,"being":4017,"Ġissue":4018,"ĠNational":4019,"Ġemerging":4020,"Ġdog":4021,"Ġtempor":4022,"Ġcrucial":4023,"Ġarticles":4024,"Ġpack":4025,"omal":4026,"Ġfeel":4027,"Ġcolon":4028,"Ġnor":4029,"57":4030,"Ġcomplement":4031,"Ġburden":4032,"ash":4033,"Ġnote":4034,"Ġnorm":4035,"ogenic":4036,"ĠWuhan":4037,"everal":4038,"Ġenhanced":4039,"BM":4040,"Ġfig":4041,"ĠInc":4042,"Ġdemonstrate":4043,"Ġtechnique":4044,"ĠSouth":4045,"Ġaccum":4046,"Ġdeep":4047,"operative":4048,"otox":4049,"Ġdescribe":4050,"Ġconfidence":4051,"Ġdiarr":4052,"Ġ33":4053,"tension":4054,"CI":4055,"Ġlate":4056,"Ġquestionnaire":4057,"tition":4058,"Ġmitig":4059,"position":4060,"Ġmasks":4061,"Cl":4062,"inter":4063,"Ġsimulation":4064,"Ġlittle":4065,"Ġconsumption":4066,"Ġextracted":4067,"ĠCont":4068,"Ġbal":4069,"atin":4070,"Ġaeros":4071,"Ġasthma":4072,"Ġprepar":4073,"ochem":4074,"luding":4075,"seud":4076,"ecause":4077,"ĠAD":4078,"Ġdoi":4079,"Ġregular":4080,"Ġneur":4081,"Ġurban":4082,"oqu":4083,"Ġinterpret":4084,"Ġprop":4085,"Ġrenal":4086,"mia":4087,"Ġalle":4088,"Ġalter":4089,"200":4090,"88":4091,"ire":4092,"Ġdependent":4093,"Ġquarantine":4094,"Ġexpect":4095,"lear":4096,"Ġphysi":4097,"rich":4098,"otide":4099,"Ġemph":4100,"Ġtraditional":4101,"Ġtransl":4102,"atal":4103,"ĠInstit":4104,"ĠFeb":4105,"Ġfav":4106,"Ġabnormal":4107,"Ġexcluded":4108,"Ġattem":4109,"Ġstages":4110,"Ġalign":4111,"Ġappears":4112,"Ġdomains":4113,"ards":4114,"aw":4115,"fact":4116,"Ġnodes":4117,"Ġcompre":4118,"ĠLe":4119,"Ġquantitative":4120,"Ġequipment":4121,"sized":4122,"Ġinteract":4123,"TR":4124,"Ġprogn":4125,"Ġheterogene":4126,"Ġbuffer":4127,"ĠHR":4128,"Ġseems":4129,"Ġsupported":4130,"kg":4131,"Ġmar":4132,"Ġprogress":4133,"Ġcompare":4134,"Ġunc":4135,"HV":4136,"agen":4137,"Ġcomponent":4138,"gens":4139,"Ġster":4140,"Ġinvolvement":4141,"Ġbat":4142,"point":4143,"97":4144,"Ġexamination":4145,"ĠCoV":4146,"Ġname":4147,"Ġsubject":4148,"astro":4149,"ruary":4150,"1101":4151,"Ġcore":4152,"Ġcontrolled":4153,"Ġstability":4154,"Ġhar":4155,"Ġmanifest":4156,"Ġstrongly":4157,"Ġnm":4158,"Ġdysfunction":4159,"ĠAb":4160,"ĠORF":4161,"ophil":4162,"ĠSD":4163,"Ġsuspected":4164,"Ġsteps":4165,"inations":4166,"Ġcommerc":4167,"Ġproject":4168,"ycin":4169,"Ġoutput":4170,"Ġdetailed":4171,"Ġongoing":4172,"ĠSh":4173,"Ġmem":4174,"ĠHospital":4175,"Ġfamilies":4176,"Ġdimension":4177,"Ġchemical":4178,"restingly":4179,"Ġenzym":4180,"Ġapop":4181,"Ġstart":4182,"Ġdivers":4183,"LISA":4184,"Ġcolle":4185,"Ġpromote":4186,"Ġsufficient":4187,"Ġlocated":4188,"Ġpoll":4189,"ĠSimilarly":4190,"Ġavailability":4191,"Ġlangu":4192,"Ġmeta":4193,"Ġdu":4194,"PC":4195,"Ġreasons":4196,"Ġtargeting":4197,"ching":4198,"Ġfixed":4199,"Ġpurpose":4200,"Ġperipher":4201,"Ġobes":4202,"Wh":4203,"Ġinvestigation":4204,"Ġhypothesis":4205,"ĠHere":4206,"Ġauto":4207,"Ġsensitive":4208,"Ġextreme":4209,"Ġcarb":4210,"Ġtechnologies":4211,"ĠOver":4212,"ĠMe":4213,"ococ":4214,"ĠPA":4215,"Ġdro":4216,"apan":4217,"yond":4218,"Ġcreat":4219,"Ġchann":4220,"Ġbusiness":4221,"Ġregulation":4222,"Ġemployed":4223,"32":4224,"Ġfal":4225,"Ġonce":4226,"Ġprolif":4227,"mo":4228,"Ġrecombinant":4229,"Â·":4230,"Ġreceiving":4231,"Ġcurve":4232,"Ġrecognition":4233,"55":4234,"Ġmentioned":4235,"Ġtaking":4236,"Ġpool":4237,"Ġbed":4238,"Ġresidents":4239,"Ġconsequences":4240,"ĠER":4241,"ou":4242,"Ġslight":4243,"crib":4244,"Ġwar":4245,"cy":4246,"sor":4247,"Ġintroduced":4248,"Ġlungs":4249,"ĠSecond":4250,"HS":4251,"Ġcardiovascular":4252,"Ġmob":4253,"Ġconstit":4254,"ada":4255,"xy":4256,"Ġlive":4257,"Ġadministered":4258,"ensus":4259,"Ġsymptomatic":4260,"ĠHA":4261,"HR":4262,"leep":4263,"ĠOR":4264,"Ġelements":4265,"Ġearlier":4266,"Ġcomprehen":4267,"Ġshowing":4268,"Ġcorrect":4269,"It":4270,"ferences":4271,"ĠBl":4272,"Ġcoord":4273,"ĠWorld":4274,"NP":4275,"treated":4276,"Ġalways":4277,"ĠDise":4278,"phal":4279,"ĠBoth":4280,"Ġlayer":4281,"ylation":4282,"Ġexperiences":4283,"usive":4284,"Ġshare":4285,"ventional":4286,"Ġspecimens":4287,"Ġmedicine":4288,"Ġtrue":4289,"ĠCS":4290,"Ġfear":4291,"Ġconsidering":4292,"aus":4293,"ressive":4294,"ĠâĪĪ":4295,"ĠItaly":4296,"ternal":4297,"Ġretrospective":4298,"fect":4299,"Ġtask":4300,"Ġerror":4301,"Ġtext":4302,"Ġreceive":4303,"Ġnasal":4304,"arent":4305,"41":4306,"pts":4307,"viruses":4308,"ĠCA":4309,"Ġrights":4310,"Ġelectro":4311,"Ġcategories":4312,"Ġthromb":4313,"brid":4314,"elling":4315,"ĠFebruary":4316,"ĠNor":4317,"Ġlabel":4318,"Ġinnate":4319,"Ġhep":4320,"Ġsil":4321,"Our":4322,"Ġcontinue":4323,"Ġaged":4324,"Ġoccup":4325,"Ġdevi":4326,"Ġslow":4327,"ĠED":4328,"Ġmanus":4329,"Ġpresentation":4330,"Ġcontam":4331,"rest":4332,"Ġassist":4333,"Ġpersons":4334,"Ġobservations":4335,"ched":4336,"ĠResearch":4337,"Ġcoronaviruses":4338,"Ġways":4339,"ĠEach":4340,"Ġmaterials":4341,"epend":4342,"Ġcompr":4343,"Ġproviders":4344,"IL":4345,"ĠTwo":4346,"Ġbreat":4347,"dis":4348,"IG":4349,"Ġprofessionals":4350,"Ġdevices":4351,"ĠAlso":4352,"abilities":4353,"ĠJune":4354,"ĠSpec":4355,"Ġasked":4356,"Ġcreated":4357,"ĠmL":4358,"opes":4359,"Ġangi":4360,"Ġsusp":4361,"Ġmodified":4362,"Ġtargeted":4363,"ĠCol":4364,"Ġscenario":4365,"Ġincubation":4366,"Ġvisits":4367,"Ġsubstr":4368,"ĠAnother":4369,"77":4370,"stream":4371,"lim":4372,"Ġoffer":4373,"St":4374,"rin":4375,"ournal":4376,"valent":4377,"ĠJapan":4378,"ĠSuch":4379,"uly":4380,"NV":4381,"Ġinclusion":4382,"umn":4383,"Ġrestrictions":4384,"Ġaccoun":4385,"Ġpossib":4386,"Ġobjective":4387,"veolar":4388,"Ġinformed":4389,"Ġfrequent":4390,"estern":4391,"Ġsolutions":4392,"Ġaggreg":4393,"Ġshared":4394,"Ġobservation":4395,"micro":4396,"MD":4397,"ements":4398,"onomic":4399,"Ġcity":4400,"Ġantigens":4401,"Ġsmaller":4402,"Ġhum":4403,"Ġdoses":4404,"Ġprotease":4405,"Ġincome":4406,"Ġmicroscop":4407,"ĠSub":4408,"ering":4409,"96":4410,"Ġkin":4411,"Ġcompleted":4412,"ĠTr":4413,"geal":4414,"Ġrecip":4415,"31":4416,"Ġmixed":4417,"hal":4418,"Ġdrople":4419,"ustry":4420,"Ġepidemiological":4421,"Ġpolitical":4422,"ients":4423,"vered":4424,"Ġwave":4425,"irth":4426,"ocal":4427,"gent":4428,"Ġreactions":4429,"ĠOrgan":4430,"Ġcounter":4431,"Ġvon":4432,"aria":4433,"Ġairway":4434,"Ġoxid":4435,"aryngeal":4436,"ĠBased":4437,"Ġquantif":4438,"ĠSection":4439,"raz":4440,"aciÃ³n":4441,"ophag":4442,"Ġaden":4443,"Ġinterfer":4444,"Ġconj":4445,"ather":4446,"coprotein":4447,"ulf":4448,"Ġplasm":4449,"Ġsense":4450,"Ġvisit":4451,"Ġelim":4452,"tra":4453,"quired":4454,"Ġrefer":4455,"vari":4456,"Ġimmunos":4457,"itative":4458,"Ġtheory":4459,"ĠNot":4460,"Ġmarkers":4461,"Ġexplore":4462,"ĠARDS":4463,"ee":4464,"Ġexamine":4465,"Ġhypertension":4466,"ĠIndia":4467,"85":4468,"ademic":4469,"Ġregim":4470,"Ġconfl":4471,"ublic":4472,"au":4473,"iltr":4474,"Ġbase":4475,"Ġinnov":4476,"Ġleuk":4477,"Ġquick":4478,"Ġappe":4479,"Ġinduction":4480,"risk":4481,"Ġcompet":4482,"Ġtypically":4483,"Ġspatial":4484,"Ġprincip":4485,"Ġreverse":4486,"men":4487,"Ġfer":4488,"ĠUsing":4489,"ĠSur":4490,"BP":4491,"uth":4492,"ĠInterestingly":4493,"Ġnurses":4494,"MR":4495,"Ġ|":4496,"ĠIV":4497,"Ġcomorbidities":4498,"Ġneurolog":4499,"ĠFrom":4500,"Ġintensity":4501,"Ġstem":4502,"Ġ34":4503,"articip":4504,"ĠAfrica":4505,"Ġpros":4506,"ĠIndeed":4507,"Ġreviewed":4508,"GTT":4509,"osa":4510,"Ġmanuscript":4511,"Ġseem":4512,"Ġnutri":4513,"ĠMod":4514,"orn":4515,"Ġendothelial":4516,"ek":4517,"ership":4518,"rogen":4519,"Ġclearly":4520,"Ġbelong":4521,"ACE":4522,"Ġfacilitate":4523,"Ġvascular":4524,"Ġencod":4525,"Ġinstitutions":4526,"Ġdiet":4527,"plicated":4528,"ula":4529,"Ġsets":4530,"Ġprolong":4531,"All":4532,"Ġrep":4533,"ĠPM":4534,"etal":4535,"trum":4536,"Ġremaining":4537,"Ġperipheral":4538,"selves":4539,"ĠMethods":4540,"66":4541,"Ġnear":4542,"Ġorigin":4543,"uments":4544,"Ġaffinity":4545,"ĠTLR":4546,"Ġgenomic":4547,"Ġinvest":4548,"Ġequal":4549,"Ġperiods":4550,"ĠPBS":4551,"Ġcorrespond":4552,"Ġtraum":4553,"ogenous":4554,"Ġcomprehensive":4555,"Ġdecisions":4556,"Ġmeasurement":4557,"Ġmeasurements":4558,"Ġconsult":4559,"Ġmanner":4560,"oquine":4561,"ĠDecember":4562,"04":4563,"osomes":4564,"Ġassemb":4565,"Ġsession":4566,"tosis":4567,"Ġdetails":4568,"Ġml":4569,"Ġgive":4570,"free":4571,"ĠIs":4572,"Ġcenter":4573,"Ġinoc":4574,"Ġmemory":4575,"Ġphysicians":4576,"fected":4577,"ĠAp":4578,"mittee":4579,"Ġimpacts":4580,"Ġremoved":4581,"Ġsleep":4582,"Ġmuscle":4583,"Ġprofile":4584,"Ġrib":4585,"Ġregulatory":4586,"Ġinstruc":4587,"Ġsubstit":4588,"Ġseven":4589,"Ġ39":4590,"HD":4591,"Ġremained":4592,"Ġbene":4593,"CV":4594,"Ġansw":4595,"ees":4596,"Ġcreate":4597,"Ġencour":4598,"Ġactivated":4599,"Ġ55":4600,"Ġbehaviors":4601,"ĠCan":4602,"mal":4603,"Ġcognitive":4604,"Ġneigh":4605,"Ġinstr":4606,"Ġeffectively":4607,"Ġwind":4608,"amine":4609,"itiz":4610,"Ġwhose":4611,"with":4612,"Ġupd":4613,"plies":4614,"Ġventil":4615,"Ġstarted":4616,"Ġhyd":4617,"Ġelder":4618,"Ġdeb":4619,"ĠThen":4620,"Ġexercise":4621,"open":4622,"regulated":4623,"Ġuncertainty":4624,"CO":4625,"hea":4626,"oral":4627,"NN":4628,"ET":4629,"acerb":4630,"Ġregional":4631,"Ġdatasets":4632,"Ġpredom":4633,"Ġclassified":4634,"Ġgastro":4635,"iance":4636,"ott":4637,"alle":4638,"Ġimm":4639,"Ġmobility":4640,"Ġaw":4641,"asion":4642,"Ġchrom":4643,"igen":4644,"Ġneutralizing":4645,"Ġmicrobi":4646,"Ġcoverage":4647,"Ġsuppres":4648,"Ġparticipant":4649,"Ġoverl":4650,"Ġaccurate":4651,"elihood":4652,"Ġitself":4653,"ping":4654,"Ġbeyond":4655,"nel":4656,"umab":4657,"Ġdynamic":4658,"theless":4659,"Ġindustry":4660,"Ġdiff":4661,"02":4662,"ste":4663,"Ġrelation":4664,"ĠGiven":4665,"Ġpanel":4666,"Ġdiverse":4667,"Ġcas":4668,"loroquine":4669,"Ġsegment":4670,"Ġsubstantial":4671,"Ġprimarily":4672,"Ġlipid":4673,"Ch":4674,"Ġmorbid":4675,"protein":4676,"Ġbind":4677,"Ġsusceptibility":4678,"Ġgrad":4679,"PP":4680,"pha":4681,"ĠST":4682,"apping":4683,"Î³":4684,"Ġbackground":4685,"Ġpolymerase":4686,"Ġpathogenesis":4687,"Ġsecurity":4688,"Ġinvolving":4689,"Ġparents":4690,"Ġtoo":4691,"ĠPer":4692,"ĠPl":4693,"Ġlatter":4694,"Ġstrength":4695,"Ġmagn":4696,"ĠMD":4697,"Ġkeep":4698,"ĠRSV":4699,"ollow":4700,"ĠSupplementary":4701,"Ġmess":4702,"Ġremote":4703,"ateral":4704,"Ġuses":4705,"Ġvirtual":4706,"chem":4707,"Ġmakes":4708,"Ġdivided":4709,"Ġjob":4710,"Ġpap":4711,"load":4712,"Ġdest":4713,"Ġexternal":4714,"ulative":4715,"ocation":4716,"Ġexacerb":4717,"Ġactual":4718,"Ġrecovered":4719,"ĠELISA":4720,"ĠGermany":4721,"ĠHence":4722,"Ġbehaviour":4723,"Ġdegrad":4724,"orph":4725,"oscop":4726,"Ġmeth":4727,"\".":4728,"ission":4729,"ired":4730,"78":4731,"Ġconstrain":4732,"lets":4733,"viral":4734,"Ġminimum":4735,"Ġglycoprotein":4736,"Ġdiversity":4737,"Ġthink":4738,"Ġclim":4739,"Ġbuilding":4740,"Ġgoal":4741,"oh":4742,"reatment":4743,"Ġprofessional":4744,"Ġvan":4745,"Ġarch":4746,"US":4747,"TC":4748,"ĠBecause":4749,"Ġreach":4750,"regulation":4751,"kelihood":4752,"axis":4753,"Ġresource":4754,"Ġsocio":4755,"Ġinactiv":4756,"ĠEngl":4757,"tag":4758,"ery":4759,"Ġflex":4760,"ĠDespite":4761,"Ġmeaning":4762,"Ġens":4763,"Ġexplained":4764,"Ġrecognized":4765,"Ġclusters":4766,"Ġconventional":4767,"Ġexpand":4768,"sian":4769,"Ġfalse":4770,"ull":4771,"Ġdrop":4772,"Ġolig":4773,"Ġchoice":4774,"astic":4775,"oglob":4776,"Ġ42":4777,"urb":4778,"Ġmostly":4779,"ensin":4780,"Ġeasily":4781,"Ġpen":4782,"Ġdevice":4783,"Ab":4784,"Ġdele":4785,"terminal":4786,"ico":4787,"TAA":4788,"Ġroles":4789,"Ġindirect":4790,"Ġcausing":4791,"opathy":4792,"onucle":4793,"Ġdied":4794,"used":4795,"Ġbeginning":4796,"Ġreflect":4797,"Ġacademic":4798,"Ġaimed":4799,"uting":4800,"Ġrepresented":4801,"53":4802,"Ġrh":4803,"Ġmamm":4804,"Ġminor":4805,"03":4806,"Ġcities":4807,"Ġrequiring":4808,"Ġelderly":4809,"Ġlanguage":4810,"Ġscience":4811,"Ġinstead":4812,"Ġisolates":4813,"arged":4814,"bit":4815,"Ġadequate":4816,"ows":4817,"Ġtrack":4818,"ĠVir":4819,"Ġprotect":4820,"Ġten":4821,"Ġfarm":4822,"Ġrepeated":4823,"Ġprobably":4824,"Ġexact":4825,"Ġtransition":4826,"ĠTrans":4827,"59":4828,"69":4829,"microbial":4830,"Ġcultures":4831,"ĠTB":4832,"Res":4833,"psis":4834,"Ġcategor":4835,"avage":4836,"umin":4837,"ola":4838,"Ġdistributed":4839,"ĠNe":4840,"64":4841,"binding":4842,"urer":4843,"Ġextraction":4844,"Ġrequirements":4845,"Ġfall":4846,"Ġdogs":4847,"utive":4848,"Ġrecruit":4849,"Ġtiters":4850,"Ġprotocols":4851,"Ġdiffer":4852,"Ġactions":4853,"Ġsector":4854,"went":4855,"nder":4856,"ĠMin":4857,"Ġdouble":4858,"Ġstop":4859,"Ġground":4860,"mark":4861,"Ġwaste":4862,"Ġvolun":4863,"take":4864,"Ġskills":4865,"Ġattack":4866,"dr":4867,"health":4868,"Ġthemselves":4869,"ocks":4870,"Ġtheore":4871,"ĠCell":4872,"ivir":4873,"ella":4874,"Ġnode":4875,"Ġsociety":4876,"Ġones":4877,"ches":4878,"ultaneous":4879,"Ġscan":4880,"Ġvulnerable":4881,"Ġmarked":4882,"Ġrank":4883,"ij":4884,"Ġsubs":4885,"Ġexcept":4886,"Ad":4887,"ested":4888,"Ġantibiotics":4889,"Ġpromising":4890,"Ġperspective":4891,"Ġcere":4892,"ye":4893,"Ġadopted":4894,"Ġapoptosis":4895,"Ġfilter":4896,"Ġcapit":4897,"Ġcats":4898,"ptions":4899,"Ġenvelop":4900,"Ġ75":4901,"ochond":4902,"Ġbil":4903,"Ġsuitable":4904,"Ġbirth":4905,"BC":4906,"ĠIS":4907,"Ġabund":4908,"Ġmotiv":4909,"Ġattit":4910,"Ġâī¤":4911,"Ġtherapies":4912,"piratory":4913,"ologists":4914,"Ġconnec":4915,"Ġprofil":4916,"Ġhard":4917,"ĠNO":4918,"ĠAmerican":4919,"Ġdepending":4920,"Ġpay":4921,"ĠEV":4922,"Ġclasses":4923,"Ġcounts":4924,"ĠÂ¼":4925,"Ġthought":4926,"isting":4927,"Ġmyocardi":4928,"ema":4929,"GAA":4930,"Ġplaced":4931,"Ġdischarge":4932,"aim":4933,"well":4934,"antly":4935,"Ġsepsis":4936,"Ġmorbidity":4937,"Ġtransform":4938,"Ġphenomen":4939,"odies":4940,"ustral":4941,"Ġpseud":4942,"Ġlargely":4943,"endi":4944,"lu":4945,"ĠPr":4946,"Ġplant":4947,"Ġclinically":4948,"Ġcommercial":4949,"Ġtypical":4950,"ends":4951,"Ġenough":4952,"Ġ65":4953,"ĠSeveral":4954,"Ġemotional":4955,"ident":4956,"hematic":4957,"Ġsch":4958,"Ġassumed":4959,"Ġinitially":4960,"Ġresolution":4961,"Ġepitopes":4962,"ficiently":4963,"Ġcum":4964,"Ġthereby":4965,"Ġ2018":4966,"ĠMany":4967,"Is":4968,"Ġantibiotic":4969,"TCT":4970,"Ġlikelihood":4971,"ĠEm":4972,"Ġfeas":4973,"osen":4974,"RA":4975,"patitis":4976,"che":4977,"cor":4978,"ives":4979,"ĠID":4980,"Ġlaw":4981,"Ġconserved":4982,"test":4983,"oon":4984,"activity":4985,"Ġpediatric":4986,"42":4987,"Ġminutes":4988,"Ġbreast":4989,"Ġsent":4990,"Ġcover":4991,"Ġscenarios":4992,"Ġplanning":4993,"Ġdemographic":4994,"Ġdefinition":4995,"ĠHCV":4996,"avi":4997,"Ġequi":4998,"Ġdifferential":4999,"Ġadvantage":5000,"Ġnucleic":5001,"Ġagreement":5002,"Ġqualitative":5003,"Ġadvanced":5004,"Ġwords":5005,"icular":5006,"otensin":5007,"Ġmodeling":5008,"ĠInter":5009,"Ġseparate":5010,"Ġprivate":5011,"acement":5012,"oxid":5013,"ars":5014,"Ġax":5015,"nce":5016,"Ġempir":5017,"Ġderiv":5018,"ica":5019,"oz":5020,"Ġgenomes":5021,"fection":5022,"Ġinfiltr":5023,"Ġfir":5024,"Ġsubsequently":5025,"Ġparticipation":5026,"Ġobesity":5027,"ront":5028,"Ġintracellular":5029,"Ġsem":5030,"CP":5031,"ĠIII":5032,"Ġranging":5033,"Ġantimicrobial":5034,"alities":5035,"faces":5036,"Ġbiomark":5037,"Ġstarting":5038,"Ġproliferation":5039,"Ġeducational":5040,"Ġschools":5041,"Ġrecords":5042,"Ġmove":5043,"Ġinfants":5044,"Ġimpair":5045,"Ġinser":5046,"Ġtrained":5047,"Ġcompletely":5048,"Ġtable":5049,"Ġland":5050,"vity":5051,"Ġbond":5052,"Ġsuccessfully":5053,"ĠAS":5054,"Ġkind":5055,"roke":5056,"Ġclean":5057,"ethyl":5058,"sequently":5059,"ĠDE":5060,"Ġreached":5061,"Ġ41":5062,"Ġther":5063,"Ġmovement":5064,"itude":5065,"www":5066,"Ġindepend":5067,"ĠConclusion":5068,"osomal":5069,"Ġmetabolic":5070,"evertheless":5071,"ocl":5072,"ĠâĢ":5073,"Ws":5074,"Ġdefine":5075,"71":5076,"'t":5077,"Ġsubun":5078,"ĠMedical":5079,"Ġrandomized":5080,"Ġvideo":5081,"62":5082,"ĠCH":5083,"Ġphot":5084,"Ġcenters":5085,"Ġmolecule":5086,"derived":5087,"Ġbone":5088,"ĠSer":5089,"Ġstudent":5090,"ĠDisease":5091,"poses":5092,".)":5093,"ĠAI":5094,"bal":5095,"scale":5096,"Ġbios":5097,"Ġimplications":5098,"Ġemission":5099,"Ġhepatitis":5100,"ĠSw":5101,"Ġcust":5102,"Ġshed":5103,"Ġlibr":5104,"ĠAustral":5105,"Ġcolumn":5106,"lude":5107,"Ġglucose":5108,"ĠJuly":5109,"ĠSystem":5110,"Ġnanop":5111,"Ġexplan":5112,"Ġidentifying":5113,"Ġextended":5114,"Ġpregnancy":5115,"Ġcomparing":5116,"economic":5117,"Ġexch":5118,"Ġclosely":5119,"Ġparts":5120,"Ġ44":5121,"Ġcritically":5122,"Ġbreak":5123,"Ġapplic":5124,"ĠĠĠĠĠĠĠĠ":5125,"Ġpredictive":5126,"articipants":5127,"Ġcomparable":5128,"endix":5129,"LP":5130,"Ġdoct":5131,"Ġcontinued":5132,"Ġbeneficial":5133,"Ġprospective":5134,"osome":5135,"Ġsimultaneous":5136,"Ġdocumented":5137,"Ġcoli":5138,"Ġ47":5139,"areness":5140,"ĠPPE":5141,"Ġmode":5142,"Ġsignals":5143,"Con":5144,"Ġcheck":5145,"Ġanalyze":5146,"Ġcm":5147,"Ġï":5148,"pressive":5149,"Ġplays":5150,"Ġcleavage":5151,"Pro":5152,"Ġcompan":5153,"Ġpresents":5154,"ĠPT":5155,"pen":5156,"Ġmediated":5157,"Ġabsor":5158,"Ġple":5159,"Ġslightly":5160,"Ġtranslation":5161,"Ġvariant":5162,"force":5163,"omestic":5164,"Ġ43":5165,"Ġadaptive":5166,"upl":5167,"Ġmembran":5168,"Ġadjusted":5169,"Ġcarry":5170,"Ġzu":5171,"Ġalgorithms":5172,"esthe":5173,"MT":5174,"Ġdur":5175,"Ġdiarrhea":5176,"ulates":5177,"Ġlys":5178,"astruct":5179,"58":5180,"Ġopportunity":5181,"Ġteac":5182,"Ġpurified":5183,"Ġserve":5184,"ĠSE":5185,"Ġmanufacturer":5186,"ĠCV":5187,"Ġaerosol":5188,"Ġnursing":5189,"ĠCX":5190,"Ġparticle":5191,"ochemical":5192,"Ġcapture":5193,"Ġvalidation":5194,"ĠDr":5195,"Ġintestinal":5196,"Ġdiscre":5197,"Ġeight":5198,"Ġshock":5199,"Ġconsists":5200,"08":5201,"urs":5202,"Ġforec":5203,"Ġparticipate":5204,"Ġbecame":5205,"aired":5206,"Ġmitochond":5207,"pan":5208,"Ġparas":5209,"ritis":5210,"agulation":5211,"BL":5212,"Ġopportunities":5213,"Ġacces":5214,"tingu":5215,"Ġcam":5216,"Ġassociations":5217,"Ġpossibly":5218,"Ġenzymes":5219,"elt":5220,"Ġlymphocytes":5221,"Ġextract":5222,"Ġwhy":5223,"Ġphyl":5224,"Ġalco":5225,"Ġnsp":5226,"ided":5227,"oe":5228,"Ġamb":5229,"Ġlargest":5230,"Ġteaching":5231,"rant":5232,"Ġrev":5233,"Ġspeed":5234,"GCT":5235,"Ġsimulations":5236,"Ġsituations":5237,"iver":5238,"ented":5239,"Ġadjust":5240,"Ġunp":5241,"Ġinteresting":5242,"Ġgrowing":5243,"Ġcategory":5244,"Ġdepends":5245,"Ġallowing":5246,"Ġcircum":5247,"07":5248,"ĠSup":5249,"arb":5250,"Ġidentity":5251,"Ġalveolar":5252,"rance":5253,"ĠHS":5254,"Ġreferred":5255,"borne":5256,"Ġdegradation":5257,"Ġmachine":5258,"terior":5259,"ĠNF":5260,"Ġhybrid":5261,"ĠCP":5262,"Ġdistingu":5263,"Ġinjection":5264,"Ġdecline":5265,"ĠClinical":5266,"HA":5267,"hydro":5268,"Ġexhibited":5269,"Ġamplification":5270,"Ġpartial":5271,"Ġcumulative":5272,"udes":5273,"Ġ#":5274,"Ġshift":5275,"Ġimmunosup":5276,"Ġ56":5277,"Ġtrust":5278,"Ġbecomes":5279,"Ġspl":5280,"Ġpublication":5281,"Ġhypox":5282,"ifications":5283,"Ġchanged":5284,"Ġnuclear":5285,"otal":5286,"Ġattenu":5287,"ĠAP":5288,"Ġdonor":5289,"Ġeine":5290,"Ġsummary":5291,"Ġrise":5292,"Ġorganizations":5293,"ĠImmun":5294,"Ġfeedback":5295,"negative":5296,"Ġcontributed":5297,"Ġplus":5298,"ĠAnti":5299,"Ġsuffer":5300,"Ġcontroll":5301,"Ġindust":5302,"Ġengagement":5303,"ime":5304,"ĠSA":5305,"Ġcontained":5306,"Ġcompe":5307,"ming":5308,"Ġplatforms":5309,"Ġimmediately":5310,"Ġmorph":5311,"Ġdisorder":5312,"Ġchosen":5313,"ct":5314,"Ġsym":5315,"orrh":5316,"taining":5317,"Ġnews":5318,"esides":5319,"analysis":5320,"ariate":5321,"plicit":5322,"istr":5323,"Ġcode":5324,"Ġnucleotide":5325,"Ġformed":5326,"Ġplot":5327,"Ġassigned":5328,"Ġtour":5329,"Ġ72":5330,"artments":5331,"son":5332,"Ġconnected":5333,"allel":5334,"Ġ46":5335,"Ġhab":5336,"OD":5337,"Ġsched":5338,"Ġguidance":5339,"Ġintegrated":5340,"ungen":5341,"icht":5342,"Ġspe":5343,"ĠNevertheless":5344,"times":5345,"Ġcomposition":5346,"Ġchallenging":5347,"LS":5348,"Ġclinic":5349,"Ġnumerous":5350,"Ġrepresentative":5351,"ED":5352,"Ġimproving":5353,"FA":5354,",\"":5355,"Ġ58":5356,"Ġcontribution":5357,"Ġmotif":5358,"Ġutilized":5359,"Ġreliable":5360,"Ġcolleag":5361,"Ġcryst":5362,"Ġcomplexes":5363,"Ġhapp":5364,"ubation":5365,"Ġmissing":5366,"Ġrural":5367,"ollowing":5368,"Ġstored":5369,"ĠKore":5370,"Ġwhite":5371,"erve":5372,"come":5373,"ĠOb":5374,"Ġmother":5375,"ifi":5376,"Ġnit":5377,"Ġassume":5378,"ĠÃł":5379,"Ġpreparation":5380,"Ġpredominant":5381,"Ġmiddle":5382,"âĢ²":5383,"ifug":5384,"Ġunclear":5385,"Ġhypothe":5386,"Ġethn":5387,"rie":5388,"Ġstrict":5389,"Ġcoefficient":5390,"ĠSch":5391,"Ġapparent":5392,"Ġnanopartic":5393,"Ġvitamin":5394,"Ġbiop":5395,"Ġexplored":5396,"SS":5397,"Ġharm":5398,"Ġviol":5399,"Ġintervals":5400,"Ġmember":5401,"ĠÃĢ":5402,"ded":5403,"Ġengine":5404,"ĠDep":5405,"Ġpigs":5406,"Ġconsideration":5407,"Ġ57":5408,"09":5409,"EP":5410,"Ġ49":5411,"Ġmedication":5412,"ton":5413,"Ġgreen":5414,"Ġmobile":5415,"Ġprolonged":5416,"GTG":5417,"Ġconsensus":5418,"tially":5419,"Ġemphas":5420,"Ġdonors":5421,"immune":5422,"ĠHLA":5423,"Ġoccurrence":5424,"06":5425,"Ġfemales":5426,"Ġclaim":5427,"pread":5428,"Ġphosphory":5429,"Ġpathogenic":5430,"ĠNa":5431,"Ġmaintained":5432,"Ġvalidated":5433,"Ġnam":5434,"Ġbalance":5435,"uction":5436,"Ġstatistics":5437,"Ġ52":5438,"Ġdepartment":5439,"Ġreproduc":5440,"tras":5441,"ĠÃ©":5442,"Ġeconomy":5443,"Ġawareness":5444,"Ġod":5445,"rastruct":5446,"Ġuptake":5447,"56":5448,"ffic":5449,"IK":5450,"aceu":5451,"Ġcompliance":5452,"section":5453,"Ġcomputed":5454,"Ġord":5455,"Ġnever":5456,"ff":5457,"Ġprophyl":5458,"Ġlocations":5459,"Ġstimulation":5460,"ĠNK":5461,"Ġdomestic":5462,"Ġsolid":5463,"Ġanalog":5464,"Ġmembranes":5465,"Ġmales":5466,"Ġcandidate":5467,"atically":5468,"ĠCa":5469,"isher":5470,"Ġclimate":5471,"Ġhighlighted":5472,"Ġsimilarity":5473,"GE":5474,"Ġng":5475,"olute":5476,"Ġtoler":5477,"Ġstroke":5478,"Ġformal":5479,"ĠMA":5480,"ernat":5481,"Ġtechnical":5482,"Ġbarriers":5483,"ĠDue":5484,"Ġinterpretation":5485,"Ġreleased":5486,"Ġquickly":5487,"ocking":5488,"ĠOrganization":5489,"Ġ59":5490,"Ġdiscuss":5491,"ameter":5492,"Ġmetric":5493,"ĠNP":5494,"range":5495,"lium":5496,"Ġacquired":5497,"Ġeffort":5498,"Ġcytoplas":5499,"Ġcereb":5500,"Ġappeared":5501,"Ġcytotox":5502,"Ġcome":5503,"plate":5504,"ptive":5505,"iform":5506,"dim":5507,"87":5508,"cyt":5509,"Ġindicators":5510,"Ġenable":5511,"Ġneon":5512,"Ġdissem":5513,"lyc":5514,"Ġtasks":5515,"Ġcolleagues":5516,"Ġkit":5517,"Ġtoxicity":5518,"olid":5519,"Ġclinicians":5520,"itect":5521,"Ġyounger":5522,"Ġheat":5523,"illed":5524,"Ġrab":5525,"fective":5526,"ĠÂ·":5527,"LC":5528,"89":5529,"Ġsubstrate":5530,"intestinal":5531,"cephal":5532,"Ġloop":5533,"Ġhemat":5534,"ordance":5535,"Ġspectrum":5536,"Ġrats":5537,"Ġdiscrim":5538,"Ã¼r":5539,"life":5540,"ĠAfrican":5541,"Ġven":5542,"Ġgas":5543,"ament":5544,"Ġtax":5545,"Ġintermedi":5546,"Ġdifferentiation":5547,"IN":5548,"Ġ96":5549,"Ġminimal":5550,"Ġoptions":5551,"Ġinvolves":5552,"LD":5553,"Ġoffic":5554,"Ġfung":5555,"igible":5556,"ulti":5557,"Ġ$":5558,"Ġpositively":5559,"Ġequation":5560,"FP":5561,"venous":5562,"Ġprimers":5563,"edic":5564,"Although":5565,"Ġalcohol":5566,"okine":5567,"Ġcorrec":5568,"Ġ51":5569,"ĠPatient":5570,"phone":5571,"Ġpotent":5572,"Ġswabs":5573,"human":5574,"Ġ500":5575,"Ġtrends":5576,"Ġpersonnel":5577,"obic":5578,"razil":5579,"Ġmultiv":5580,"ventive":5581,"ĠOnly":5582,"Ġlet":5583,"isons":5584,"Ġlook":5585,"including":5586,"Ġrespir":5587,"Ġmyel":5588,"flow":5589,"hr":5590,"ifying":5591,"Ġhence":5592,"bola":5593,"Ġexamples":5594,"lic":5595,"Ġmutant":5596,"icts":5597,"Ġinterferon":5598,"Ġrecruitment":5599,"Ġcompanies":5600,"Ġcapable":5601,"cribed":5602,"Ġfast":5603,"ĠGroup":5604,"Ġschem":5605,"Ġtree":5606,"Ġstandards":5607,"Ġsupporting":5608,"Ġdetec":5609,"ubiqu":5610,"Ġaud":5611,"Ġcycl":5612,"RSV":5613,"arity":5614,"Ġperception":5615,"Ġselective":5616,"ĠIgM":5617,"Ġtrade":5618,"Ġforce":5619,"Ġvaccinated":5620,"Ġfluorescence":5621,"Ġusage":5622,"oor":5623,"ometry":5624,"akers":5625,"UC":5626,"Ġemerged":5627,"ĠAnd":5628,"Ġinfrastruct":5629,"Ġemergence":5630,"ibri":5631,"Ġ54":5632,"Ġsubgroup":5633,"Ġprimer":5634,"cin":5635,"ĠOverall":5636,"Ġanalysed":5637,"Ġmater":5638,"ĠSo":5639,"Ġphysiological":5640,"Ġsharing":5641,"Ġtransplantation":5642,"icles":5643,"Ġpregnant":5644,"Ġunlike":5645,"Ġheterogeneity":5646,"73":5647,"ĠPar":5648,"Ġtranscript":5649,"ĠHE":5650,"Ġcamp":5651,"Ġpractical":5652,"urance":5653,"Ġsurfaces":5654,"ilities":5655,"Ġligand":5656,"86":5657,"Ġestimation":5658,"alk":5659,"ilience":5660,"Ġbarrier":5661,"Ġapply":5662,"79":5663,"ĠÎ³":5664,"ĠEr":5665,"Ġvariance":5666,"ĠRV":5667,"ĠBut":5668,"Ġwashed":5669,"Ġnearly":5670,"Ġpresenting":5671,"Ġcarbon":5672,"Ġmalign":5673,"Ġmanifestations":5674,"Ġshor":5675,"Ġpartn":5676,"ecutive":5677,"Ġpreventing":5678,"Ġexpressing":5679,"Ġorganization":5680,"Ġtopic":5681,"Ġtrauma":5682,"ĠApp":5683,"Ġbelieve":5684,"Ġdraw":5685,"Ġacqu":5686,"Se":5687,"olec":5688,"Ġ53":5689,"avir":5690,"Ġfunding":5691,"Ġvariability":5692,"Supplementary":5693,"CCT":5694,"Ġvectors":5695,"Ġinsuf":5696,"Ġkinase":5697,"cus":5698,"Ġsmo":5699,"Ġtraffic":5700,"ĠNon":5701,"Ġstaining":5702,"ares":5703,"get":5704,"))":5705,"Ġmes":5706,"ĠInstitute":5707,"Ġtracing":5708,"Ġdeviation":5709,"Ġcortic":5710,"Ġwer":5711,"Ġzero":5712,"Ġsupernat":5713,"Ġdisplayed":5714,"ging":5715,"Ġadoles":5716,"Ġbr":5717,"Ġconform":5718,"ostic":5719,"Ġprognosis":5720,"Ġsmart":5721,"IA":5722,"RE":5723,"ĠBrazil":5724,"Ġacce":5725,"Ġaffecting":5726,"Ġvital":5727,"Ġist":5728,"Ġethical":5729,"Ġ2017":5730,"Ġautophag":5731,"Ã©s":5732,"NPs":5733,"Ġneurological":5734,"Ġfigure":5735,"actic":5736,"Ġepis":5737,"Ġinvasive":5738,"Ġstake":5739,"opharyngeal":5740,"ret":5741,"Ġsections":5742,"LT":5743,"osin":5744,"Ġvirul":5745,"Ġlogistic":5746,"Ġhold":5747,"Ġfibrosis":5748,"link":5749,"ceptions":5750,"Ġindependently":5751,"Ġaddressed":5752,"Ġcharacteristic":5753,"Ġattr":5754,"Ġauf":5755,"Ġtrigger":5756,"char":5757,"aving":5758,"openia":5759,"thal":5760,"Ġjus":5761,"Ġpolym":5762,"omb":5763,"Ġaffects":5764,"ancer":5765,"Ġnamely":5766,"Ġoption":5767,"Ã¨":5768,"ister":5769,"Ġapproval":5770,"Ġlowest":5771,"ogenetic":5772,"Ġarchitect":5773,"Ġwall":5774,"ĠVirus":5775,"ĠHuman":5776,"atories":5777,"version":5778,"Ġencoun":5779,"itions":5780,"Ġbuild":5781,"Ġfragment":5782,"Ġimmunization":5783,"iR":5784,"urally":5785,"Ġcirculating":5786,"Ġotherwise":5787,"Ġpara":5788,"Ġ&":5789,"Ġembed":5790,"rate":5791,"Ġreduces":5792,"ĠEU":5793,"anned":5794,"Ġsera":5795,"ometric":5796,"Ġelectronic":5797,"Ġparallel":5798,"Ġinhibitory":5799,"Ġtail":5800,"cessive":5801,"ĠHis":5802,"Ġattributed":5803,"ocytosis":5804,"MO":5805,"Ġfu":5806,"Ġsqu":5807,"Ġprecise":5808,"Ġcomplexity":5809,"lab":5810,"Ġneutrophils":5811,"Gs":5812,"Ġconstruct":5813,"ĠCoronavirus":5814,"Ġspreading":5815,"onin":5816,"Ġdeliver":5817,"tile":5818,"idespread":5819,"Ġgel":5820,"Ġsatisfaction":5821,"obacter":5822,"Ġmedications":5823,"ICU":5824,"Ġinfect":5825,"oclonal":5826,"Ġunderst":5827,"Ġabsolute":5828,"Ġconduct":5829,"Ġproxim":5830,"Ġtemporal":5831,"agul":5832,"Ġliqu":5833,"volution":5834,"Ġorgans":5835,"Ġaccumulation":5836,"ques":5837,"hospital":5838,"jectives":5839,"then":5840,"''":5841,"Ġexpress":5842,"ecal":5843,"On":5844,"ĠDif":5845,"Ġdiscovery":5846,"Ġinequ":5847,"Es":5848,"vit":5849,"Ġinfluenced":5850,"Ġreproduction":5851,"Ġmetabolism":5852,"Ġcoupl":5853,"Ġlisted":5854,"value":5855,"ĠEth":5856,"ercul":5857,"Ġinstitutional":5858,"Ms":5859,"ĠEven":5860,"Ġmatter":5861,"Ġpreventive":5862,"Ġmarg":5863,"Ġble":5864,"ns":5865,"Ġphenotype":5866,"Ġion":5867,"medicine":5868,"Ġhygi":5869,"ounts":5870,"ocom":5871,"vors":5872,"Ġrestricted":5873,"oming":5874,"idae":5875,"Â±":5876,"Ġsat":5877,"yle":5878,"72":5879,"ubiquit":5880,"Ġwors":5881,"Ġcomm":5882,"Ġaccomp":5883,"Ġexpon":5884,"Ġnewly":5885,"94":5886,"Ġclearance":5887,"Ġforward":5888,"Ġobserve":5889,"Ġclosed":5890,"Ġextra":5891,"Ġfa":5892,"Ġneural":5893,"76":5894,"Ġpas":5895,"Ġroute":5896,"Ġconserv":5897,"Ġsurge":5898,"Ġinhibited":5899,"oli":5900,"ĠCal":5901,"Ġmap":5902,"ĠControl":5903,"Ġcapital":5904,"Ġstabil":5905,"ĠMan":5906,"ĠCNS":5907,"entical":5908,"Ġsecretion":5909,"Ġoccurring":5910,"Ġeasy":5911,"Ġthor":5912,"Ġguide":5913,"93":5914,"):":5915,"Ġfewer":5916,"ergic":5917,"52":5918,"TAT":5919,"Ġinterviews":5920,"Ġexperts":5921,"Ġauthorities":5922,"Ġdecreases":5923,"Ġwidespread":5924,"Ġmethodology":5925,"Ġstandardi":5926,"Ġunderwent":5927,"person":5928,"Ġdroplets":5929,"Ex":5930,"Ġsubmitted":5931,"Ġmom":5932,"Ġren":5933,"ota":5934,"Ġcaps":5935,"Ġgastrointestinal":5936,"Ġwritten":5937,"Ġopin":5938,"Ġvalu":5939,"Ġprofiles":5940,"Ġextremely":5941,"ocr":5942,"Ġtakes":5943,"troph":5944,"sts":5945,"acting":5946,"Net":5947,"Ġsurround":5948,"Ġtransferred":5949,"Ġhistor":5950,"Ġmarker":5951,"Ġdelayed":5952,"Ġsizes":5953,"Ġepidemics":5954,"ĠSP":5955,"sess":5956,"Ġconcer":5957,"Ġtwice":5958,"Ġplates":5959,"existing":5960,"strand":5961,"54":5962,"Ġmonit":5963,"Ġtook":5964,"Ġenvironments":5965,"Ġbrief":5966,"DP":5967,"Ġstated":5968,"Ġencephal":5969,"know":5970,"ĠEbola":5971,"Ġinsights":5972,"ACT":5973,"Ġincreasingly":5974,"Ġhot":5975,"Ġplants":5976,"Ġequil":5977,"Ġcentrifug":5978,"Ġquite":5979,"ackground":5980,"ishing":5981,"Ġmigration":5982,"ado":5983,"Ġresilience":5984,"ĠCenter":5985,"Ġthick":5986,"ptember":5987,"Ġelectron":5988,"Ġlimitation":5989,"ken":5990,"Ġplacebo":5991,"Ġexchange":5992,"haps":5993,"Ġfavor":5994,"ATT":5995,"Ġpurch":5996,"Ġ''":5997,"ĠGu":5998,"Ġcopies":5999,"ylated":6000,"Ġcomputer":6001,"Ġfed":6002,"gram":6003,"83":6004,"ĠHCoV":6005,"ĠUV":6006,"Ġmand":6007,"ĠGP":6008,"Ġpropose":6009,"inating":6010,"Ġnegatively":6011,"Ġconstructed":6012,"Ġpapers":6013,"Ġpredictions":6014,"Ġtrop":6015,"Ġexpan":6016,"Ġscreen":6017,"fluenza":6018,"atig":6019,"Ġsubset":6020,"Ġintegration":6021,"Ġintroduction":6022,"Ġpersistent":6023,"92":6024,"ttp":6025,"Ġuns":6026,"Ġoperating":6027,"Ġrules":6028,"Ġnone":6029,"Ġinitiation":6030,"Ġbehavioral":6031,"ria":6032,"TP":6033,"Ġplatelet":6034,"Ġcitiz":6035,"Ġsmoking":6036,"Ġcultural":6037,"clusive":6038,"Ġmixture":6039,"Ġerrors":6040,"ĠĠĠĠĠĠ":6041,"Ġdirection":6042,"Ġ2015":6043,"CF":6044,"Ġstock":6045,"Ġcandidates":6046,"ĠEq":6047,"Ġweb":6048,"Ġround":6049,"oted":6050,"Ġadherence":6051,"Ġeti":6052,"Ig":6053,"Ġreserved":6054,"umb":6055,"ux":6056,"ĠParticipants":6057,"Ġimmediate":6058,"Ġtrache":6059,"Ġvariations":6060,"ĠQu":6061,"uous":6062,"icle":6063,"Ġelement":6064,"Ġrandomly":6065,"clinical":6066,"Ġdetermin":6067,"Ġcareful":6068,"Ġ2016":6069,"Ġstorm":6070,"ĠTe":6071,"Ġdistr":6072,"Ġcorticoster":6073,"Ġchanging":6074,"Ġhous":6075,"Rs":6076,"Ġconsiderable":6077,"onym":6078,"ulum":6079,"Ġtheoretical":6080,"Ġvaried":6081,"izumab":6082,"Ġpermission":6083,"Ġprogressive":6084,"Ġrepresentation":6085,"Ġmel":6086,"Ġfacility":6087,"ese":6088,"ĠTechn":6089,"Ġempirical":6090,"Ġuna":6091,"Ġsummarized":6092,"vance":6093,"ĠWestern":6094,"Ġemployees":6095,"Ġexhibit":6096,"aran":6097,"Ġcontamination":6098,"Ġfront":6099,"Ġcontag":6100,"Ġangiotensin":6101,"IKV":6102,"Ġunderstood":6103,"icted":6104,"Ġtreating":6105,"nea":6106,"entral":6107,"ogenesis":6108,"Ġofficial":6109,"ighting":6110,"ĠStatis":6111,"ĠAug":6112,"ĠBo":6113,"Ġaccom":6114,"ologous":6115,"',":6116,"ien":6117,"Ġelic":6118,"ĠMO":6119,"tenance":6120,"Ġlives":6121,"Ġremoval":6122,"Ġoil":6123,"Ġalpha":6124,"Ġgovernments":6125,"Ġhosts":6126,"74":6127,"ĠHCWs":6128,"ĠVero":6129,"81":6130,"urrently":6131,"orage":6132,"Ġarri":6133,"Ġsaliv":6134,"Ġchannel":6135,"].":6136,"Ġserop":6137,"ĠCare":6138,"Ġaltered":6139,"Ġvessel":6140,"making":6141,"ĠDM":6142,"Ġinfrastructure":6143,"Ġbig":6144,"Ġhaem":6145,"work":6146,"ĠsiRNA":6147,"entation":6148,"Ġwerden":6149,"Ġassembly":6150,"ei":6151,"Ġhydrogen":6152,"Ġbei":6153,"odium":6154,"BI":6155,"entists":6156,"Ġmilk":6157,"ĠEast":6158,"Ġmonoclonal":6159,"ĠAng":6160,"Ġaims":6161,"ĠGo":6162,"Ġobvious":6163,"Ġhighlight":6164,"Ġworks":6165,"oms":6166,"Ġamounts":6167,"Ġmagnitude":6168,"Ġcataly":6169,"Ġpathology":6170,"Ġcolor":6171,"rept":6172,"91":6173,"Ġbelief":6174,"timately":6175,"Ġmathematic":6176,"Ġpurposes":6177,"Ġsynthetic":6178,"ĠPEDV":6179,"Ġequivalent":6180,"Ġori":6181,"Ġintravenous":6182,"erculosis":6183,"ĠVer":6184,"Ġpositions":6185,"Ġinterface":6186,"Ġmalaria":6187,"RSS":6188,"Ġport":6189,"Ġenrolled":6190,"yro":6191,"TS":6192,"Ġgut":6193,"jection":6194,"osal":6195,"ontin":6196,"Ġnation":6197,"Ġexpansion":6198,"atigue":6199,"ogram":6200,"Ġna":6201,"appro":6202,"no":6203,"Ġannot":6204,"ĠCommittee":6205,"Ġnanoparticles":6206,"part":6207,"LE":6208,"Ġprobe":6209,"ĠLD":6210,"Ġwebs":6211,"agne":6212,"Ġstri":6213,"Ġwhom":6214,"Ġfile":6215,"atively":6216,"Ġorganisms":6217,"vo":6218,"Ġpropag":6219,"Ġshape":6220,"Ġtraject":6221,"pes":6222,"ias":6223,"Ġdram":6224,"ATG":6225,"los":6226,"iples":6227,"Ġadju":6228,"Ġpairs":6229,"Ġcontrolling":6230,"ystem":6231,"iction":6232,"ĨĴ":6233,"Ġadvantages":6234,"Ġcircumst":6235,"ĠSeptember":6236,"ĠStudies":6237,"Bs":6238,"water":6239,"vian":6240,"Ġpil":6241,"era":6242,"Ġoperation":6243,"tes":6244,"Ġassessing":6245,"Ġminimize":6246,"84":6247,"Ġimmuno":6248,"Ġstimul":6249,"Ġmanage":6250,"ensional":6251,"ift":6252,"ignific":6253,"Ġcred":6254,"Ġrecipients":6255,"Ġresidue":6256,"Ġ~":6257,"ancre":6258,"Ġcomposed":6259,"ĠTM":6260,"Ġnasopharyngeal":6261,"Ġphysician":6262,"ĠÂµg":6263,"rog":6264,"Ġjud":6265,"Ġhygiene":6266,"Ġpossess":6267,"ulties":6268,"ĠNorth":6269,"Ġbox":6270,"Ġidea":6271,"Ġhaz":6272,"Ġinduces":6273,"ociation":6274,"oviruses":6275,"ĠÎ¼g":6276,"ĠSO":6277,"Ġidentical":6278,"such":6279,"Ġveh":6280,"otes":6281,"Ġcomparisons":6282,"fied":6283,"Ġperforming":6284,"Ġabnormalities":6285,"Ġultras":6286,"Ġchlor":6287,"plete":6288,"ĠCent":6289,"Ġplasmid":6290,"Ġexists":6291,"ĠÎ»":6292,"ĠPI":6293,"Ġresistant":6294,"Ġconsequence":6295,"Ġinfectivity":6296,"aceutical":6297,"Ġlayers":6298,"Ġune":6299,"ads":6300,"Ġblue":6301,"omas":6302,"amental":6303,"aque":6304,"Ġproven":6305,"GS":6306,"Ġfi":6307,"Ġurgent":6308,"Ġmind":6309,"ĠFollowing":6310,"TCA":6311,"acent":6312,"ĠNote":6313,"61":6314,"inks":6315,"Ġassumption":6316,"embrane":6317,"Ġunable":6318,"Ġaccordance":6319,"Ġcurves":6320,"Ġsometimes":6321,"Ġmaternal":6322,"Ġcarcin":6323,"ĠMon":6324,"Ġgeograph":6325,"key":6326,"Ġinsulin":6327,"ato":6328,"Ġmaintaining":6329,"51":6330,"ricult":6331,"82":6332,"da":6333,"Ġneighbor":6334,"Ġphenomenon":6335,"Ġreviews":6336,"Ġdas":6337,"urine":6338,"Ġrepresenting":6339,"Ġdeclared":6340,"Ġunivers":6341,"Ġconcerning":6342,"Ġbov":6343,"DM":6344,"Ġdental":6345,"idal":6346,"chloroquine":6347,"Ġsensor":6348,"LV":6349,"ĠStr":6350,"state":6351,"ĠPS":6352,"itary":6353,"Ġtransmitted":6354,"Ġvarying":6355,"Ġliquid":6356,"prising":6357,"na":6358,"mental":6359,"Ġrule":6360,"ĠFrance":6361,"Ġratios":6362,"Ġepitope":6363,"Ġcry":6364,"asting":6365,"ĠLPS":6366,"Ġextracellular":6367,"ĠTw":6368,"amples":6369,"Ġdistributions":6370,"CH":6371,"Ġsimultaneously":6372,"Ġdecreasing":6373,"ĠAsia":6374,"Ġseason":6375,"lig":6376,"ĠPa":6377,"Ġgoals":6378,"Ġtoxic":6379,"alled":6380,"ococcus":6381,"ĠKorea":6382,"amide":6383,"Ġvaluable":6384,"Ġteachers":6385,"Ġimpaired":6386,"Ġfold":6387,"OVA":6388,"Ġdeficiency":6389,"ĠNA":6390,"Ġcalves":6391,"Ġreag":6392,"Ġ1000":6393,"apse":6394,"Ġmyocardial":6395,"Ġadministr":6396,"Ġstorage":6397,"ĠSpecifically":6398,"Ġvolunte":6399,"Ġ2009":6400,"Ġmaintenance":6401,"Ġcathe":6402,"Ġcomputational":6403,"ĠHigh":6404,"EA":6405,"istent":6406,"Com":6407,"sur":6408,"Ġ99":6409,"engue":6410,"Ġbats":6411,"QR":6412,"ployment":6413,"Ġ300":6414,"ĠÂ°":6415,"ss":6416,"mber":6417,"Ġevident":6418,"MPRSS":6419,"Ġcollaboration":6420,"Ġsuperv":6421,"ĠAmerica":6422,"Ġmonocytes":6423,"Ġinside":6424,"eded":6425,"Ġtwe":6426,"Ġneg":6427,"osp":6428,"ĠLa":6429,"Ġpac":6430,"Ġuniversity":6431,"%;":6432,"Ġglobally":6433,"Ġinvolve":6434,"ĠIBV":6435,"holders":6436,"Ġinvestigations":6437,"Ġbiomarkers":6438,"Ġencoding":6439,"Ġjoint":6440,"Ġhor":6441,"Ġpartially":6442,"otor":6443,"Ġang":6444,"Ġevaluating":6445,"Ġreliability":6446,"ounc":6447,"Ġprotected":6448,"Ġsubunit":6449,"Ġseasonal":6450,"Ġacet":6451,"CCA":6452,"Ġbinds":6453,"Ġorth":6454,"Ġmonitored":6455,"Ġobstruc":6456,"phosph":6457,"Ġgap":6458,"yth":6459,"Ġneutralization":6460,"ĠcDNA":6461,"Ġfatigue":6462,"Ġprinciples":6463,"Ġfri":6464,"Ġcold":6465,"Ġalb":6466,"Ġpollution":6467,"Ġintermediate":6468,"anted":6469,"Ġobservational":6470,"Ġtelemedicine":6471,"Ġthrombo":6472,"Ġtumors":6473,"Ġsupports":6474,"Ġcultured":6475,"Ġretrie":6476,"desivir":6477,"dominal":6478,"....":6479,"Ġanswer":6480,"Ġrelevance":6481,"valence":6482,"anger":6483,"Ġinh":6484,"ÃŁ":6485,"https":6486,"Ġconjug":6487,"Ġexplicit":6488,"ĠCanada":6489,"ĠPL":6490,"oronavirus":6491,"One":6492,"Ġdecades":6493,"Ġchains":6494,"Ġovercome":6495,"cepts":6496,"omers":6497,"illing":6498,"Ġoptimization":6499,"gal":6500,"Ġrecruited":6501,"ĠDet":6502,"Ġdelivered":6503,"ĠSa":6504,"ovember":6505,"Ġoutpatient":6506,"Ġinters":6507,"resh":6508,"ĠBAL":6509,"week":6510,"Ġdocking":6511,"xychloroquine":6512,"Ġdiameter":6513,"alian":6514,"ĠHy":6515,"Ġdilution":6516,"0001":6517,"Ġexception":6518,"Ġdeter":6519,"ĠDie":6520,"Re":6521,"reported":6522,"orts":6523,"Ġsynthesized":6524,"itud":6525,"Ġworse":6526,"Ġchick":6527,"Ġattempt":6528,"Ġsessions":6529,"Ġdial":6530,"Ġfundamental":6531,"Ġodds":6532,"ĠAN":6533,"rs":6534,"habil":6535,"Ġadapted":6536,"ĠAugust":6537,"Ġprice":6538,"dose":6539,"Ġcoding":6540,"vis":6541,"Ġoperations":6542,"Ġswit":6543,"Ġframe":6544,"ris":6545,"Ġfibro":6546,"ĠLabor":6547,"Ġ2014":6548,"fects":6549,"Ġprocessed":6550,"Ġsurveys":6551,"Ġinstructions":6552,"Ġonto":6553,"escent":6554,"ptic":6555,"ibrium":6556,"Ġstrati":6557,"isol":6558,"Ġ{":6559,"ĠSpain":6560,"eter":6561,"otides":6562,"ĠThree":6563,"Ġtopics":6564,"Ġsimpl":6565,"Ġanticip":6566,"RP":6567,"ĠMean":6568,"Ġgradi":6569,"Ġcovari":6570,"ĠHF":6571,"ĠmiRNA":6572,"Ġcycles":6573,"Ġconfound":6574,"Ġwilling":6575,"Ġmicrobial":6576,"Ġnine":6577,"Ġprivacy":6578,"Ġreads":6579,"onary":6580,"cto":6581,"Ġexcess":6582,"Ġeiner":6583,"Ġphases":6584,"Îº":6585,"Ġreveal":6586,"Ġdifficulties":6587,"tagon":6588,"Ġneurons":6589,"ĠAustralia":6590,"irds":6591,"Ġlost":6592,"Ġsed":6593,"Ġmicroscopy":6594,"Ġreasonable":6595,"ĠRA":6596,"ĠVP":6597,"Ġenvelope":6598,"Ġstrengthen":6599,"acet":6600,"ĠWT":6601,"Ġpancre":6602,"Ġcalculate":6603,"Ġaspect":6604,"ctober":6605,"Ġprovision":6606,"Ġmitochondrial":6607,"cription":6608,"data":6609,"Ġpopular":6610,"porting":6611,"ĠDepartment":6612,"Ġtube":6613,"Ġspect":6614,"Ġresidual":6615,"Ġdescription":6616,"Ġhouseholds":6617,"cipl":6618,"Ġranged":6619,"ĠPe":6620,"nen":6621,"vasive":6622,"Ac":6623,"Ġformat":6624,"eds":6625,"Ġaid":6626,"Ġradiation":6627,"mes":6628,"Ġdimensions":6629,"Ġbeh":6630,"agnetic":6631,"Ġpredictors":6632,"Ġcollect":6633,"Ġtiter":6634,"Ġcircumstances":6635,"ĠFour":6636,"Ġtransfusion":6637,"Ġaway":6638,"ĠInformation":6639,"dimensional":6640,"Ġclar":6641,"Ġteams":6642,"sin":6643,"zen":6644,"unately":6645,"Ġvalidity":6646,"Ġrestriction":6647,"ounced":6648,"Ġbuilt":6649,"ÃĹ":6650,"Ġbreath":6651,"ĠUnder":6652,"rade":6653,"elled":6654,"Ġdownstream":6655,"Ġubiquit":6656,"cents":6657,"ĠDis":6658,"Ġhemorrh":6659,"Ġrac":6660,"place":6661,"ĠOut":6662,"Ġfields":6663,"Ġprelim":6664,"llig":6665,"ĠIgA":6666,"iddle":6667,"Ġphosphorylation":6668,"Ġsin":6669,"Ġdatabases":6670,"Ġautoimmune":6671,"Ġlact":6672,"Ġdiluted":6673,"Ġperme":6674,"Ġapplicable":6675,"Ġzoon":6676,"Ġpriority":6677,"ĠMHV":6678,"inted":6679,"Ġbran":6680,"sectional":6681,"rose":6682,"resist":6683,"Ġaspir":6684,"Ġdetermining":6685,"Ġsodium":6686,"tensive":6687,"df":6688,"Ġworth":6689,"acchar":6690,"leuk":6691,"Ġantagon":6692,"Ġmodification":6693,"MC":6694,"Ġdeal":6695,"Ġweekly":6696,"etic":6697,"Ġoxidative":6698,"Ġindicator":6699,"Ġmetast":6700,"Ġdirected":6701,"lin":6702,"Ġclustering":6703,"Ġsubstantially":6704,"ĠTG":6705,"TE":6706,"vascular":6707,"illin":6708,"db":6709,"Ġfailed":6710,"Ġsan":6711,"Ġbegan":6712,"discipl":6713,"At":6714,"Ġmoment":6715,"ĠPublic":6716,"ĠCOPD":6717,"wing":6718,"Ġeen":6719,"ĠIR":6720,"ĠES":6721,"omics":6722,"Ġpromoting":6723,"ask":6724,"Ġce":6725,"Ġemployment":6726,"HE":6727,"ĠBio":6728,"Ġlymphocyte":6729,"Ġlimits":6730,"ĠCDC":6731,"reactive":6732,"review":6733,"body":6734,"herent":6735,"Ġscreened":6736,"Ġlibrary":6737,"Ġrational":6738,"Ġattitudes":6739,"Ġepithe":6740,"Da":6741,"Ġreserv":6742,"radi":6743,"cepted":6744,"ĠImport":6745,"ĠConsider":6746,"Ġconflict":6747,"ĠCRP":6748,"Ġraised":6749,"ĠIP":6750,"-,":6751,"Ġrequirement":6752,"mol":6753,"Ġnecrosis":6754,"Ġcoping":6755,"Ġinitiated":6756,"ca":6757,"ĠReview":6758,"DR":6759,"atitis":6760,"Ġtuberculosis":6761,"Ġlegal":6762,"ĠBesides":6763,"ON":6764,"Ġischem":6765,"ĠNovember":6766,"Ġintake":6767,"Ġextension":6768,"Ġsimply":6769,"Ġacknow":6770,"Ġfelt":6771,"Ġcompartment":6772,"ĠPrevious":6773,"--":6774,"oir":6775,"ĠMedicine":6776,"Ġonc":6777,"achment":6778,"Rec":6779,"ĠSoci":6780,"Ġpreca":6781,"cut":6782,"Ġshedding":6783,"Ġphone":6784,"inine":6785,"Ġefficiently":6786,"Ġcitizens":6787,"ficients":6788,"Ġhydroph":6789,"Ġsen":6790,"Ġrot":6791,"Ġattend":6792,"Ġglycos":6793,"ĠPF":6794,"Ġselect":6795,"Ġheight":6796,"lobal":6797,"Ġconcluded":6798,"uation":6799,"Ġrein":6800,"Ġpandemics":6801,"ML":6802,"urg":6803,"Ġmeeting":6804,"Ġpractition":6805,"habilitation":6806,"bound":6807,"class":6808,"ĠfÃ¼r":6809,"romised":6810,"ducing":6811,"ĠMRI":6812,"Ġconsecutive":6813,"Ġrecognize":6814,"Ġconstruction":6815,"ĠEl":6816,"BA":6817,"Ġarth":6818,"Ġadvance":6819,"Ġadaptation":6820,"Ġforeign":6821,"ĠRespiratory":6822,"Ġpublications":6823,"isition":6824,"CMO":6825,"Ġdry":6826,"ĠmiR":6827,"eces":6828,"KI":6829,"mean":6830,"iet":6831,"ĠEnglish":6832,"Ġburn":6833,"ĠRecently":6834,"Ġexplo":6835,"With":6836,"lich":6837,"Ġchemotherapy":6838,"Ġmodifications":6839,".;":6840,"ĠSS":6841,"Ġaver":6842,"Ġnoise":6843,"Ġexec":6844,"Ġdetecting":6845,"Ġplaces":6846,"ĠMHC":6847,"Ġpi":6848,"Ġdiffusion":6849,"Ġregardless":6850,"Ġremark":6851,"Ġstakeholders":6852,"Ġuniform":6853,"ience":6854,"Ġdoctors":6855,"Ġbud":6856,"Ġplans":6857,"ĠMaterial":6858,"Ġwindow":6859,"Ġbovine":6860,"Ġgives":6861,"ancies":6862,"Ġoffered":6863,"Ġpreliminary":6864,"Ġreuse":6865,"posing":6866,"Ġarterial":6867,"Ġintubation":6868,"Ġprevalent":6869,"Ġwel":6870,"glut":6871,"Since":6872,"lands":6873,"Ġconstraints":6874,"Ġprojects":6875,"ĠTyp":6876,"Ġcorrelations":6877,"RNAs":6878,"ĠWhat":6879,"Ġinterests":6880,"kt":6881,"Ġimpairment":6882,"Ġreconstr":6883,"Af":6884,"ucid":6885,"Ġ64":6886,"Ġste":6887,"kin":6888,"Ġundergo":6889,"Ġlaboratories":6890,"Ġfatality":6891,"rang":6892,"income":6893,"ump":6894,"oxide":6895,"Ġtet":6896,"Ġwriting":6897,"def":6898,"Ġhelpful":6899,"ĠStudy":6900,"Ġcoefficients":6901,"Ġsaid":6902,"Ġexplor":6903,"Ġarchitecture":6904,"olester":6905,"Ġframes":6906,"Ġpathological":6907,"Ġfrequencies":6908,"Ġaus":6909,"Ġ150":6910,"itudinal":6911,"vest":6912,"ĠGene":6913,"ĠOctober":6914,"inding":6915,"ÃŃa":6916,"Ġhour":6917,"Ġsubjected":6918,"Ġdeple":6919,"Ġcoronary":6920,"prot":6921,"ayer":6922,"word":6923,"Ġhumid":6924,"Ġana":6925,"ĠMR":6926,"osystem":6927,"Ġsich":6928,"Ġappearance":6929,"Ġoffers":6930,"membrane":6931,"Ġexcell":6932,"uge":6933,"Ġtiming":6934,"Ġblot":6935,"FV":6936,"ĠTest":6937,"ortic":6938,"Ġfragments":6939,"ba":6940,"Ġprinciple":6941,"Ġgreatly":6942,"Ġgold":6943,"Ġbring":6944,"Ġlob":6945,"ĠÏĥ":6946,"Ġgrade":6947,"Ġmarkets":6948,"Ġapplying":6949,"2019":6950,"Ġpert":6951,"Ġdetectable":6952,"Ġurine":6953,"pid":6954,"igma":6955,"Ġconval":6956,"atch":6957,"Ġreading":6958,"ĠPC":6959,"Ġutility":6960,"Ġstrand":6961,"empor":6962,"Ġpackage":6963,"ĠShe":6964,"Ġepithelium":6965,"Ġautophagy":6966,"Ġunex":6967,"Ġdifficulty":6968,"Ġesc":6969,"Ġbeta":6970,"Ġdeterior":6971,"OH":6972,"Ġbott":6973,"ĠMal":6974,"Ġsulf":6975,"Ġmucosal":6976,"Ġbilateral":6977,"Ġpromin":6978,"oprotein":6979,"ione":6980,"hyth":6981,"Ġassessments":6982,"Ġcontributing":6983,"ample":6984,"Ġisolate":6985,"Ġconsolid":6986,"Ġcoagulation":6987,"Ġinhibits":6988,"ĠTheir":6989,"ĠAppendix":6990,"],":6991,"Ġdriven":6992,"Ġphylogenetic":6993,"ĠMulti":6994,"Ġmeasuring":6995,"disciplinary":6996,"Ġtimely":6997,"Ġinfusion":6998,"Ġartery":6999,"Ġfeasible":7000,"Ġband":7001,"Ġrecover":7002,"Ġannual":7003,"Ġchannels":7004,"Ġsuperior":7005,"Ġarm":7006,"cf":7007,"Ġactually":7008,"Ġpacient":7009,"Ġabstr":7010,"ĠAnalysis":7011,"Ġdiscovered":7012,"ĠTC":7013,"Ġequilibrium":7014,"Ġdisruption":7015,"Ġrig":7016,"Ġinstrument":7017,"ĠItalian":7018,"standing":7019,"Ġdiver":7020,"Ġbreathing":7021,"Ġassumptions":7022,"Ġ(\"":7023,"pressed":7024,"Ġrelax":7025,"Ġconsisting":7026,"Ġconsisted":7027,"Ġsurvivors":7028,"adj":7029,"ĠYork":7030,"Ġrace":7031,"Ġsexual":7032,"Ġelse":7033,"ĠSI":7034,"Ġfetal":7035,"Ġkept":7036,"'.":7037,"apsid":7038,"Ġconclusions":7039,"month":7040,"Ġpreferred":7041,"ĠThat":7042,"Ġfatal":7043,"Ġtransportation":7044,"ĠRep":7045,"Ġligands":7046,"Ġstandardized":7047,"onavir":7048,"Ġvas":7049,"zer":7050,"Ġtemplate":7051,"Ġendogenous":7052,"tained":7053,"versely":7054,"ĠMicro":7055,"Ġadolescents":7056,"Ġgoing":7057,"rank":7058,"ĠTMPRSS":7059,"Ġusual":7060,"Ġcreating":7061,"ĠLA":7062,"Ġhier":7063,"Ġ85":7064,"Ġseparated":7065,"ought":7066,"ellow":7067,"tex":7068,"Im":7069,"HP":7070,"zation":7071,"Ġlabeled":7072,"Ġpredicting":7073,"tificial":7074,"Ġexistence":7075,"Ġsectors":7076,"Ġexplanation":7077,"dri":7078,"olecular":7079,"ponse":7080,"illary":7081,"Ġals":7082,"Ġcollective":7083,"ams":7084,"Ġvo":7085,"Ġpneumoniae":7086,"aign":7087,"nt":7088,"Ġseverely":7089,"Ġmodern":7090,"idad":7091,"idine":7092,"Ġsuic":7093,"Ġacquisition":7094,"Ġantico":7095,"Ġblack":7096,"Ġbul":7097,"Ġconcepts":7098,"Ġ2010":7099,"iger":7100,"Ġeye":7101,"ĠExper":7102,"Ġkine":7103,"ĠModel":7104,"Ġconven":7105,"itter":7106,"Ġinsufficient":7107,"Abs":7108,"ication":7109,"Ġagencies":7110,"Ġaug":7111,"ĠArab":7112,"Ġfresh":7113,"Ġcohorts":7114,"ĠBlack":7115,"Ġtom":7116,"âĢ¦":7117,"Ġmammalian":7118,"Ġcontributions":7119,"Ġremove":7120,"Ġcyst":7121,"Ġcontributes":7122,"tention":7123,"olytic":7124,"Ġrefers":7125,"ĠMa":7126,"Ġequations":7127,"Ġdischarged":7128,"yel":7129,"Ġpredominantly":7130,"acterial":7131,"ians":7132,"ĠRNAs":7133,"Ġscope":7134,"matic":7135,"Ġengage":7136,"Ġregistered":7137,"ischen":7138,"Ġshorter":7139,"restim":7140,"Ġalignment":7141,"ynamic":7142,"GO":7143,"cing":7144,"GFP":7145,"ĠHD":7146,"Ġconfig":7147,"Ġhomes":7148,"Ġunf":7149,"ĠDC":7150,"Des":7151,"gr":7152,"ĠFisher":7153,"Ġpooled":7154,"bre":7155,"Ġmurine":7156,"Ġranges":7157,"Ġseparately":7158,"ĠProtein":7159,"Ġpict":7160,"WHO":7161,"Ġbeds":7162,"GTA":7163,"stim":7164,"ĠLike":7165,"Ġcompany":7166,"Ġdisaster":7167,"Ġdescribes":7168,"Ġwearing":7169,"Ġincom":7170,"Ġcharge":7171,"While":7172,"Ġmim":7173,"Ġperhaps":7174,"path":7175,"formed":7176,"Ġtourism":7177,"Ġclassical":7178,"Ġcovered":7179,"Ġitem":7180,"IDS":7181,"Ġdispar":7182,"bed":7183,"Ġmitigate":7184,"Ġavian":7185,"Ġwr":7186,"Ġadding":7187,"ror":7188,"ÎºB":7189,"uate":7190,"SE":7191,"linked":7192,"Ġventr":7193,"ĠEf":7194,"Ġexcessive":7195,"oscopy":7196,"Ġinsight":7197,"Ġintended":7198,"Ġ2012":7199,"Ġproved":7200,"ĠAsian":7201,"ĠFDA":7202,"Ġelucid":7203,"ĠâĨĴ":7204,"cers":7205,"Ġdemonstrates":7206,"ios":7207,"ifer":7208,"Ġabdominal":7209,"Ġinvestment":7210,"Ġnamed":7211,"Ġbelieved":7212,"Ġkg":7213,"wan":7214,"Ġindustrial":7215,"Ġhepatic":7216,"eptide":7217,"Ġperceptions":7218,"Ġaware":7219,"inement":7220,"Ġeconom":7221,"Data":7222,"Ġrecur":7223,"Ġpredictor":7224,"Ġaccompan":7225,"ĠKong":7226,"Ġcontex":7227,"Ġreactive":7228,"Ġclon":7229,"Ġlacking":7230,"Ġformer":7231,"Ġultimately":7232,"Ġlimiting":7233,"Ġtransfected":7234,"ĠSocial":7235,"Ġdead":7236,"RIS":7237,"umes":7238,"Ġsurrounding":7239,"athe":7240,"ĠÏĦ":7241,"heum":7242,"Ġconnection":7243,"Ġexclusive":7244,"avy":7245,"Un":7246,"ulty":7247,"However":7248,"Ġpolymorph":7249,"Ġunlikely":7250,"dimer":7251,"Ġmicroorgan":7252,"Ġtransformation":7253,"from":7254,"Ġexclusion":7255,"Ġdysp":7256,"Ġagricult":7257,"ulator":7258,"Ġcommit":7259,"Ġbecoming":7260,"Ġ2013":7261,"ĠGI":7262,"Ġendemic":7263,"Ġstronger":7264,"ĠConsequently":7265,"Ġinnovation":7266,"Ġparent":7267,"ips":7268,"rained":7269,"patients":7270,"Ġaccessible":7271,"ĠHong":7272,"ungs":7273,"Ġexcellent":7274,"ocon":7275,"ĠSal":7276,"ĠNT":7277,"Ġthrombosis":7278,"oper":7279,"Ġresponsibility":7280,"Ġsick":7281,"roat":7282,"Ġpip":7283,"Ġsuppression":7284,"Ġsensors":7285,"Ġserological":7286,"RD":7287,"emble":7288,"Ġnormalized":7289,"Ġgeographic":7290,"tail":7291,"Ġhighlights":7292,"Ġweights":7293,"va":7294,"ĠCells":7295,"resistant":7296,"Ġagree":7297,"inder":7298,"Ġsustainable":7299,"omycin":7300,"Ġuniversal":7301,"Ġproof":7302,"Ġactivate":7303,"ogle":7304,"Ġpromoter":7305,"abled":7306,"Ġmutants":7307,"arrow":7308,"Ġmarrow":7309,"Ġsocioeconomic":7310,"Ġsimulated":7311,"Ġinfer":7312,"Ġdiscontin":7313,"Ġmathematical":7314,"olesterol":7315,"verex":7316,"treatment":7317,"Ġcodon":7318,"ito":7319,"ĠBMI":7320,"Ġillustrated":7321,"Ġske":7322,"Ġanesthe":7323,"through":7324,"Ġproducing":7325,"Ġsaturation":7326,"Ġraw":7327,"Ġadoption":7328,"Ġ2000":7329,"Ġmanaged":7330,"lined":7331,"book":7332,"ĠAB":7333,"Ġsearc":7334,"Ġsaliva":7335,"Ġvirulence":7336,"Ġblocking":7337,"Ġundergoing":7338,"Ġwant":7339,"Ġinhibiting":7340,"Ġevolutionary":7341,"rought":7342,"uz":7343,"Ġemissions":7344,"ously":7345,"-(":7346,"raft":7347,"ĠViral":7348,"Ġexpert":7349,"Ġdedic":7350,"Ġaccepted":7351,"imal":7352,"ĠRed":7353,"undred":7354,"Ġprem":7355,"plex":7356,"lect":7357,"Ġhydroxychloroquine":7358,"Ġproperty":7359,"gg":7360,"Ġlesion":7361,"Ġmetrics":7362,"III":7363,"Ġbleeding":7364,"Ġdominant":7365,"Ġdend":7366,"Ġembry":7367,"uries":7368,"Ġeosin":7369,"amb":7370,"Ġcampaign":7371,"ĠAdditional":7372,"Ġhydrophobic":7373,"genic":7374,"ĠGA":7375,"Ġeventually":7376,"Ġspaces":7377,"ocytic":7378,"Ġcomplicated":7379,"Ġsay":7380,"pted":7381,"Ġimprovements":7382,"Ġimplies":7383,"RBD":7384,"insic":7385,"ĠRecent":7386,"Ġepidemiology":7387,"dc":7388,"ĠPV":7389,"ĠDiagn":7390,"Ġpal":7391,"label":7392,"Ġfirms":7393,"givers":7394,"aa":7395,"Ġsuffering":7396,"dR":7397,"Ġgenotype":7398,"mentioned":7399,"Ġeligible":7400,"Ġspont":7401,"Ġscales":7402,"Ġaz":7403,"Ġgradient":7404,"Ġmapping":7405,"Ġreservoir":7406,"plicate":7407,"Ġnerv":7408,"Ġgather":7409,"titive":7410,"bb":7411,"Ġcirculation":7412,"Ġintention":7413,"ĠPP":7414,"unic":7415,"Ġmax":7416,"Ġbodies":7417,"ĠHP":7418,"ĠNotably":7419,"Ġbiology":7420,"iol":7421,"riched":7422,"ĠWest":7423,"ulmonary":7424,"Ġenrich":7425,"Ġindeed":7426,"Ġimmunoglob":7427,"Ġfaster":7428,"chain":7429,"ester":7430,"ogenicity":7431,"kal":7432,"Ġ2003":7433,"Ġparticipating":7434,"Ġdistinguish":7435,"Ġaugment":7436,"ĠImportantly":7437,"fortunately":7438,"Ġvic":7439,"yes":7440,"Ġknock":7441,"Ġlongitudinal":7442,"ipl":7443,"Ġallocation":7444,"Ġsustained":7445,"icillin":7446,"Ġgeographical":7447,"Ġrecombination":7448,"Ġcodes":7449,"Met":7450,"Ġregulate":7451,"rants":7452,"Ġrepair":7453,"Ġabundance":7454,"ignificant":7455,"Ġdengue":7456,"Ġproinflammatory":7457,"ĠGovern":7458,"Ġposterior":7459,"Ġcausal":7460,"Ġreadily":7461,"elle":7462,"Ġfair":7463,"ĠBay":7464,"ĠÂ®":7465,"uthor":7466,"Ġrad":7467,"Ġlatent":7468,"Med":7469,"fit":7470,"Ġconvalescent":7471,"ĠScience":7472,"2021":7473,"uing":7474,"ests":7475,"emographic":7476,"Ġideal":7477,"Ġsn":7478,"Ġanalytical":7479,"Ġprev":7480,"Ġdies":7481,"Ġscheme":7482,"Ġgenerating":7483,"Ġstained":7484,"Ġquantified":7485,"rees":7486,"night":7487,"No":7488,"ĠIniti":7489,"Ġcorresponds":7490,"Ġsoon":7491,"Ns":7492,"Ġprovince":7493,"Ġseek":7494,"Ġhorm":7495,"adequ":7496,"Ġhelps":7497,"ĠHSV":7498,"Ġdimin":7499,"Ġsought":7500,"anks":7501,"Ġclinics":7502,"ĠChild":7503,"invasive":7504,"vision":7505,"Ġinternet":7506,"Ġmatched":7507,"Ġspecimen":7508,"Ġobjectives":7509,"vation":7510,"Ġmitigation":7511,"Ġmodelling":7512,"Ġcalls":7513,"Ġsegments":7514,"ĠHBV":7515,"When":7516,"Ġnervous":7517,"Ġnative":7518,"He":7519,"Ġcomes":7520,"Ġscientists":7521,"Ġconsistently":7522,"Ġregulated":7523,"ferent":7524,"Ġacceptable":7525,"Ġconclude":7526,"vey":7527,"Ġvel":7528,"ados":7529,"Ġnecessarily":7530,"Ġregulations":7531,"Ġtelehealth":7532,"Ġrelig":7533,"ĠAcute":7534,"Ġsoluble":7535,"Ġincorporated":7536,"Ġcul":7537,"Ġlif":7538,"Ġderivatives":7539,"Ġsimilarly":7540,"ils":7541,"quar":7542,"ĠState":7543,"ĠSV":7544,"ĠÎ¸":7545,"These":7546,"Ġhands":7547,"ureus":7548,"ĠdÃ©":7549,"Ġserial":7550,"generation":7551,"Ġhepat":7552,"Ġagreed":7553,"anol":7554,"ĠPrim":7555,"actory":7556,"after":7557,"Ġalterations":7558,"Ġnicht":7559,"Ġacts":7560,"ĠScientific":7561,"Ġbiopsy":7562,"ĠPo":7563,"Ġspontaneous":7564,"Co":7565,"gered":7566,"ophysi":7567,"Pati":7568,"500":7569,"conf":7570,"hydr":7571,"NE":7572,"Ġexperiencing":7573,"Ġ63":7574,"orth":7575,"Ġ62":7576,"Ġstream":7577,"Ġcombinations":7578,"leukin":7579,"__":7580,"Ġhypothesized":7581,"asal":7582,"Ġrequest":7583,"ĠEC":7584,"Ġintersti":7585,"Ġantioxid":7586,"Ġcaptured":7587,"Ġaccompanied":7588,"Ġdisturb":7589,"Ġentities":7590,"Ġcharacterization":7591,"Ġproteases":7592,"ano":7593,"Ġmassive":7594,"ĠÎ´":7595,"Ġpoorly":7596,"Ġupdated":7597,"ĠCMV":7598,"Ġneonatal":7599,"Ġentre":7600,"Ġcytos":7601,"chool":7602,"Ġultrasound":7603,"Ġgr":7604,"Gen":7605,"Ġfinally":7606,"Ġcontinues":7607,"erge":7608,"Ġautomated":7609,"Ġsuspension":7610,"Ġundert":7611,"Ġpartners":7612,"ACA":7613,"Ġfocusing":7614,"nec":7615,"Ġthroat":7616,"Ġparad":7617,"cytes":7618,"Ġinsurance":7619,"Ġrely":7620,"Ġcontexts":7621,"PSS":7622,"Ġinterpreted":7623,"Ġpolar":7624,"ositive":7625,"Ġattachment":7626,"olip":7627,"Ġcoupled":7628,"grad":7629,"ische":7630,"ush":7631,"Ġsple":7632,"Ġtranscripts":7633,"Ġauch":7634,"iO":7635,"romycin":7636,"ocapsid":7637,"Ġenables":7638,"Ġhistorical":7639,"uled":7640,"Ġreplaced":7641,"pm":7642,"Ġlect":7643,"operation":7644,"Ġderm":7645,"Ġprobes":7646,"Ġutilization":7647,"Ġconceptual":7648,"Ag":7649,"Ġbinary":7650,"target":7651,"Ġadmissions":7652,"Ds":7653,"Ġplanned":7654,"Ġviolence":7655,"ĠThird":7656,"okines":7657,"ologist":7658,"Ġadhesion":7659,"Ġprognostic":7660,"arian":7661,"ĠNC":7662,"sm":7663,"ĠCompared":7664,"Ġcompens":7665,"Ġhundred":7666,"ĠSociety":7667,"Ġchoose":7668,"ĠATP":7669,"ĠDevelop":7670,"Ġprophylaxis":7671,"Ġconformation":7672,"apped":7673,"while":7674,"amily":7675,"Ġprep":7676,"Am":7677,"containing":7678,"Ġaureus":7679,"Ġzoonotic":7680,"cine":7681,"ĠServ":7682,"Ġdeterminants":7683,"1111":7684,"Ġacceptance":7685,"GT":7686,"Ġaxis":7687,"Ġtransmis":7688,"vacc":7689,"Ġmanufacturing":7690,"Ġleadership":7691,"ĠHCQ":7692,"ĠÂµM":7693,"Ġinsec":7694,"Ġdual":7695,"reviewed":7696,"bes":7697,"aj":7698,"ĠMV":7699,"Ġdemonstrating":7700,"rot":7701,"Ġreplacement":7702,"aden":7703,"Ġgave":7704,"enn":7705,"ĠCity":7706,"uit":7707,"ĠPK":7708,"ĠMT":7709,"ĠMiddle":7710,"Ġimmunological":7711,"Ġbehind":7712,"Ġconcerned":7713,"nc":7714,"Ġmultivariate":7715,"uck":7716,"Ġveloc":7717,"Ġconsultation":7718,"Ġpreced":7719,"Ġgest":7720,"GB":7721,"Ġexponential":7722,"Ġreproductive":7723,"OL":7724,"Ġsmooth":7725,"Ġassistance":7726,"Ġflexibility":7727,"Ġentit":7728,"Ġ(>":7729,"Ġcalculation":7730,"Ġphag":7731,"ogether":7732,"Ġmultic":7733,"iment":7734,"Ġexpanded":7735,"ĠÃħ":7736,"ĠOnce":7737,"Ġprecision":7738,"During":7739,"Ġreflected":7740,"Ġlag":7741,"Ġdetermination":7742,"Ġprominent":7743,"Ġmanip":7744,"aves":7745,"omod":7746,"dra":7747,"ostasis":7748,"stranded":7749,"olding":7750,"Ġglut":7751,"types":7752,"Ġlinks":7753,"Ġwashing":7754,"Ġsupernatant":7755,"Ġreflects":7756,"Ġbroader":7757,"ĠEngland":7758,"ĠInternet":7759,"After":7760,"Ġrarely":7761,"ĠAE":7762,"ĠEmerg":7763,"reed":7764,"Ġiron":7765,"Ġsuppor":7766,"Ġvac":7767,"Ġtag":7768,"Ġcharacterize":7769,"tility":7770,"Ġsput":7771,"Ġ120":7772,"Ġneither":7773,"sub":7774,"gence":7775,"squ":7776,"Ġcatalytic":7777,"Ġaccurately":7778,"Ġinoculated":7779,"Ġprioriti":7780,"inger":7781,"SP":7782,"ĠTai":7783,"Ġheld":7784,"thern":7785,"Ġhepar":7786,"Ġ000":7787,"Ġemotions":7788,"MB":7789,"Ġintest":7790,"Ġopac":7791,"illus":7792,"Ġmoder":7793,"etry":7794,"Ġpenet":7795,"Ġwear":7796,"dRp":7797,"Ġtechnological":7798,"ĠSC":7799,"Ġdoing":7800,"mat":7801,"what":7802,"lectr":7803,"alling":7804,"sities":7805,"Ġfract":7806,"Ġheavy":7807,"Ġamplified":7808,"oman":7809,"Ġspecified":7810,"Ġopinion":7811,"CSF":7812,"Ġdurch":7813,"Ġthemes":7814,"plas":7815,"Ġmodule":7816,"controlled":7817,"pop":7818,"amma":7819,"Ġ61":7820,"Ġgam":7821,"Ġdocuments":7822,"Ġcaregivers":7823,"Ġseparation":7824,"\")":7825,"OP":7826,"linear":7827,"ĠNI":7828,"Ġjour":7829,"ĠSm":7830,"ĠScale":7831,"AE":7832,"Ġherpes":7833,"Ġintroduce":7834,"troduction":7835,"Ġing":7836,"Ġdedicated":7837,"Ġremdesivir":7838,"Ġ98":7839,"Ġdesignated":7840,"Ġedema":7841,"Ġdepartments":7842,"Ġcorticosteroids":7843,"ployed":7844,"Ġcalcium":7845,"Ġheterogeneous":7846,"Ġintegrity":7847,"ĠBrief":7848,"Ġpsychiatric":7849,"oside":7850,"%-":7851,"Ġsupplemented":7852,"Ġequally":7853,"ĠEqu":7854,"Ġmoving":7855,"Ġplastic":7856,"Results":7857,"Ġthermal":7858,"ĠIFIT":7859,"avail":7860,"ĠAut":7861,"Ġimplementing":7862,"Ġsampled":7863,"Ġairborne":7864,"Ġacceler":7865,"Ġfluct":7866,"Ġlocalization":7867,"head":7868,"atus":7869,"cells":7870,"Ġorders":7871,"Ġattenuated":7872,"Ġorganiz":7873,"ocated":7874,"Ġventilator":7875,"ĠnM":7876,"Ġmeaningful":7877,"Ġgradually":7878,"Ġprone":7879,"Ġinadequ":7880,"Finally":7881,"ensive":7882,"Ġpresum":7883,"ĠVE":7884,"Me":7885,"Ġintellig":7886,"col":7887,"Ġconsiderations":7888,"hand":7889,"ifier":7890,"ĠVari":7891,"tise":7892,"ĠROS":7893,"Ġoverex":7894,"Ġrehabilitation":7895,"heses":7896,"Ar":7897,"Ġvirions":7898,"Ġinfiltration":7899,"Ġbirds":7900,"ben":7901,"ĠHub":7902,"Ġarray":7903,"Ġ400":7904,"Ġmotor":7905,"itus":7906,"Ġveter":7907,"Ġrecurrent":7908,"Ġvulnerability":7909,"asts":7910,"Ġmacro":7911,"Ġimplicated":7912,"anish":7913,"Ġthous":7914,"Ġflexible":7915,"Ĥ·":7916,"Ġfecal":7917,"Ġformula":7918,"Ġantigenic":7919,"Ġcholesterol":7920,"Ġpractitioners":7921,"Ġimpacted":7922,"factory":7923,"iones":7924,"Ġprovider":7925,"ĠGoogle":7926,"reced":7927,"Ġdepth":7928,"Ġleaders":7929,"yg":7930,"Ġmethyl":7931,"step":7932,"Ġ68":7933,"Ġtransp":7934,"Ġclosure":7935,"Ġvaries":7936,"lysis":7937,"ĠNext":7938,"size":7939,"NO":7940,"Ġvor":7941,"ĠInst":7942,"ĠECMO":7943,"ĠHu":7944,"sup":7945,"Ġfriends":7946,"abric":7947,"IQR":7948,"Ġmanaging":7949,"Ġquantify":7950,"utional":7951,"Ġrepeat":7952,"Ġchance":7953,"Ġlifest":7954,"Ġsubjective":7955,"Ġsind":7956,"Ġgrown":7957,"Ġguaran":7958,"Ġpron":7959,"Ġcasc":7960,"Ġpathophysi":7961,"Ġdeletion":7962,"ĠGl":7963,"ĠKing":7964,"Ġrich":7965,"La":7966,"En":7967,"Ġzone":7968,"Ġviability":7969,"ĠML":7970,"Ġneighb":7971,"udden":7972,"Ġsputum":7973,"Ġepisodes":7974,"Ġmaps":7975,"Ġregimen":7976,"Ġdefense":7977,"Ġtelephone":7978,"Ġconce":7979,"Based":7980,"Ġmagnetic":7981,"Ġeffector":7982,"Ġbes":7983,"Ġpowerful":7984,"raf":7985,"Ġdiffuse":7986,"wards":7987,"ĠFe":7988,"Ġye":7989,"Â®":7990,"ĠGlobal":7991,"ece":7992,"Ġcytotoxic":7993,"Ġquestionnaires":7994,"Ġward":7995,"Ġartificial":7996,"ya":7997,"Ġconsistency":7998,"Ġjo":7999,"udi":8000,"Ġpress":8001,"ĠWork":8002,"Ġever":8003,"recedented":8004,"Ġadenovirus":8005,"ilst":8006,"ĠNeu":8007,"Ġgreatest":8008,"Ġexha":8009,"Ġmacrophage":8010,"Ġstatement":8011,"lling":8012,"Ġtur":8013,"Ġafford":8014,"dd":8015,"ritic":8016,"AK":8017,"ĠPH":8018,"length":8019,"Ġethics":8020,"tiary":8021,"bio":8022,"ĠGS":8023,"Ġvenous":8024,"chron":8025,"oding":8026,"Ġdesired":8027,"antic":8028,"Ġaddressing":8029,"Ġconstructs":8030,"Ġfluorescent":8031,"points":8032,"cutaneous":8033,"cons":8034,"Ġwww":8035,"Ġtransmembrane":8036,"ĠCSF":8037,"ĠCommon":8038,"ĠTreatment":8039,"Ġadjuvant":8040,"ĠTherap":8041,"ĠProt":8042,"Ġroot":8043,"Ġbillion":8044,"ante":8045,"ĠCompar":8046,"otrop":8047,"Ã¤t":8048,"Ġpromotes":8049,"Ġabsent":8050,"Ġpilot":8051,"Ġfiltr":8052,"Ġmill":8053,"Ġgovernance":8054,"opo":8055,"Ġnutrition":8056,"Ġdroplet":8057,"jections":8058,"Ġnormally":8059,"Ġlot":8060,"Ġvast":8061,"olin":8062,"Ġsaline":8063,"etric":8064,"oea":8065,"Ġsole":8066,"Ġhoriz":8067,"Ġbrought":8068,"Ġcourses":8069,"Ġoste":8070,"Ġaccounts":8071,"Ġbonds":8072,"ĠRem":8073,"Ġcontaminated":8074,"yroid":8075,"Ġvolumes":8076,"Ġportion":8077,"Ġgenus":8078,"pin":8079,"Ġastro":8080,"Ġ66":8081,"Ġson":8082,"Ġoverlap":8083,"eliness":8084,"Ġdrawn":8085,"Ġcrystal":8086,"Ġpreparedness":8087,"oglobin":8088,"Ġsto":8089,"Ġoder":8090,"ĠDS":8091,"acr":8092,"Ġspp":8093,"Ġfine":8094,"activation":8095,"Ġunprecedented":8096,"ĠTaiwan":8097,"Ġmening":8098,"Ġmature":8099,"Ġanalyzing":8100,"uses":8101,"driven":8102,"Ġcontainment":8103,"Ġmessages":8104,"Ġenhancement":8105,"Ġfunctioning":8106,"ĠGC":8107,"vested":8108,"effective":8109,"itant":8110,"Ġnucleus":8111,"reci":8112,"hern":8113,"ĠEnd":8114,"Ġpositivity":8115,"eties":8116,"Ġfirm":8117,"ĠLet":8118,"Another":8119,"Ġcame":8120,"ĠIncre":8121,"Ġdiag":8122,"Ġprove":8123,"Ġnumerical":8124,"Ġhierarch":8125,"ĠTR":8126,"Ġrooms":8127,"Ġdietary":8128,"rene":8129,"IFN":8130,"Ġlon":8131,"212":8132,"Ġreality":8133,"activated":8134,"ĠHer":8135,"Ġpacientes":8136,"oud":8137,"Ġprincipal":8138,"ĠCB":8139,"Ġmatching":8140,"Ġovernight":8141,"Ġ94":8142,"120":8143,"cellular":8144,"dic":8145,"Ġdemands":8146,"aques":8147,"Ġresolved":8148,"Ġvessels":8149,"advant":8150,"Ġmos":8151,"ĠHB":8152,"ĠPrevention":8153,"Ġinherent":8154,"Ġformulation":8155,"onomy":8156,"Ġadi":8157,"Ġ67":8158,"gene":8159,"ĠStatistical":8160,"Ġbiot":8161,"Ġblocks":8162,"imilar":8163,"Ġcarcinoma":8164,"Ġobject":8165,"unicip":8166,"Ġvisible":8167,"Ġcapability":8168,"izer":8169,"Ġoperational":8170,"ĠNH":8171,"Ġmothers":8172,"Ġhousing":8173,"Ġages":8174,"Ġtweets":8175,"Ġadjustment":8176,"ĠSIR":8177,"Ġspleen":8178,"ĠHRV":8179,"Ġhumidity":8180,"Ġfoot":8181,"Ġinstances":8182,"Ġcentury":8183,"Ġinactivation":8184,"but":8185,"pectives":8186,"Ġdepos":8187,"Ġenriched":8188,"Ġextracts":8189,"ĠPres":8190,"ochastic":8191,"ĠInfec":8192,"Ġproce":8193,"Ã¯":8194,"GCA":8195,"Ġcerebral":8196,"Ġaging":8197,"ographics":8198,"Ġwebsite":8199,"ĠPri":8200,"fa":8201,"Ġabsorption":8202,"Ġoverview":8203,"Over":8204,"Ġeosinophil":8205,"Ġsemi":8206,"Ġlearned":8207,"Ġcytoplasm":8208,"using":8209,"Ġ00":8210,"Ġsplit":8211,"Ġstimulated":8212,"Ġinjuries":8213,"Ġrecommendation":8214,"Ġsound":8215,"Ġplaque":8216,"Ġadvice":8217,"Ġvolunteers":8218,"Ġolfactory":8219,"Ġtemperatures":8220,"angl":8221,"Ġcurric":8222,"Ġinterstitial":8223,"qPCR":8224,"Ġsel":8225,"DC":8226,"Ġinducing":8227,"astric":8228,"inavir":8229,"Ġglass":8230,"NK":8231,"Ġstead":8232,"Ġdescriptive":8233,"Ġproximity":8234,"ĠSing":8235,"Ġnurse":8236,"ĠSTAT":8237,"ĠFc":8238,"Ġdans":8239,"Ġquantity":8240,"ĠZIKV":8241,"Ġsudden":8242,"Ġhet":8243,"ysical":8244,"Ġau":8245,"Ġensuring":8246,"Ġprogramme":8247,"Ġhumoral":8248,"has":8249,"Ġdrive":8250,"Ġpharmaceutical":8251,"severe":8252,"Ġwellbeing":8253,"ga":8254,"Ġgiving":8255,"Ġlosses":8256,"ĠCurrently":8257,"Ġoptimized":8258,"Ġbelonging":8259,"br":8260,"Ġcapabilities":8261,"GFR":8262,"Ġthreats":8263,"DE":8264,"Ġinfarc":8265,"Ġjournal":8266,"occ":8267,"lection":8268,"econd":8269,"Ġsurprising":8270,"ĠCommun":8271,"Ġtolerance":8272,"Ġplots":8273,"ĠMy":8274,"Ġcy":8275,"orescence":8276,"ĠGe":8277,"adi":8278,"mm":8279,"If":8280,"Ġty":8281,"Ġbiochemical":8282,"onymous":8283,"dehy":8284,"ĠSevere":8285,"Ġroutes":8286,"Ġfra":8287,"Ġ2011":8288,"Ġobjects":8289,"ĠRel":8290,"ĠHow":8291,"tep":8292,"Ġdiscussions":8293,"teen":8294,"Ġmanual":8295,"information":8296,"Ph":8297,"Ġfungal":8298,"Ġnarr":8299,"posite":8300,"Ġheadache":8301,"ĠBayes":8302,"lege":8303,"Ġds":8304,"oxy":8305,"Ġdeclare":8306,"Ġpostoperative":8307,"Ġcomparative":8308,"proof":8309,"Ġsupportive":8310,"Ġcounty":8311,"Ġ(<":8312,"Ġmicroorganisms":8313,"Ġdegrees":8314,"Ġtry":8315,"ĠrÃ©":8316,"IM":8317,"ĠFuture":8318,"ĠÏģ":8319,"apter":8320,"Ġpropor":8321,"ĠEB":8322,"ibration":8323,"ĠFigures":8324,"ĠÂµL":8325,"Ġtertiary":8326,"Ġquantification":8327,"Ġprecip":8328,"ĠHep":8329,"Ġpeaks":8330,"Ġcattle":8331,"ette":8332,"Ġgaps":8333,"ĠNetwork":8334,"Ġtight":8335,"Ġadopt":8336,"ascul":8337,"Ġescape":8338,"Ġbeliefs":8339,"lasts":8340,"Ġillnesses":8341,"lines":8342,"unt":8343,"Ġleave":8344,"ĠBriefly":8345,"Ġinoculation":8346,"Ġwound":8347,"Ġfulf":8348,"irmed":8349,"ĠNLR":8350,"Ġspent":8351,"Ġrheum":8352,"Ġont":8353,"Ġinactivated":8354,"Ġnaturally":8355,"ensitivity":8356,"Ġhope":8357,"rays":8358,"Ġcentre":8359,"ĠĠĠĠĠĠĠ":8360,"Ġnucleocapsid":8361,"orous":8362,"ara":8363,"Ġedge":8364,"ilizumab":8365,"ĠDrug":8366,"Ġchromat":8367,"ĠCE":8368,"ĠkDa":8369,"otion":8370,"ĠMor":8371,"ional":8372,"Fs":8373,"Ġfru":8374,"Ġhazard":8375,"Ġappoint":8376,"Ġleak":8377,"Ġtransient":8378,"agic":8379,"Ġdiagnoses":8380,"Ġinvasion":8381,"Ġdisadvant":8382,"inking":8383,"Ġprompt":8384,"opathic":8385,"itone":8386,"Ġcord":8387,"Ġcompletion":8388,"Ġweighted":8389,"Ġphosphate":8390,"Ġmotivation":8391,"Ġethnic":8392,"Ġfeasibility":8393,"Ġcancers":8394,"ĠâĪ¼":8395,"Ġreaching":8396,"Ġseptic":8397,"Ġpel":8398,"ails":8399,"ĠInfluenza":8400,"process":8401,"Ġsubsets":8402,"Ã±":8403,"Ġpasseng":8404,"Ġcontro":8405,"Ġcommittee":8406,"GP":8407,"Ġstructured":8408,"Ġign":8409,"ĠÎ¼M":8410,"Ġpicture":8411,"Ġextend":8412,"Ġtracking":8413,"Ġconsumers":8414,"eling":8415,"Ġsor":8416,"osine":8417,"ĠPers":8418,"ĠGeneral":8419,"inates":8420,"ividual":8421,"Ġswine":8422,"ĠZe":8423,"alking":8424,"ilization":8425,"Ġcoming":8426,"forms":8427,"etheless":8428,"ulators":8429,"ucifer":8430,"seq":8431,"Ġstudying":8432,"Ġmetal":8433,"Ġrough":8434,"ls":8435,"Ġdiges":8436,"Ġexamining":8437,"Ġcomplementary":8438,"last":8439,"Ġmatch":8440,"Ġpow":8441,"pase":8442,"Ġ97":8443,"rend":8444,"Ġtransmit":8445,"Ġviable":8446,"Ġlum":8447,"Ġdisag":8448,"Ġnerve":8449,"Ã©e":8450,"Ġcorrelate":8451,"Ġgeneralized":8452,"Ġfibrin":8453,"Ġorganism":8454,"Ġvom":8455,"aped":8456,"pass":8457,"Ġextensively":8458,"Ġmediators":8459,"Ġwithdra":8460,"Ġcopy":8461,"Ġunless":8462,"ĠAssociation":8463,"ried":8464,"Ġsubstitution":8465,"Ġwider":8466,"asome":8467,"ĠAL":8468,"Ġamongst":8469,"control":8470,"Ġenrichment":8471,"Ġhypoxia":8472,"Ġfeeding":8473,"veness":8474,"ĠWhere":8475,"Ġallergic":8476,"iii":8477,"ĠCar":8478,"ĠHubei":8479,"ospor":8480,"ĠCAP":8481,"Ġinfluences":8482,"Ġelective":8483,"Ġscoring":8484,"Ġinpatient":8485,"Ġnach":8486,"Ġcapsid":8487,"Ġdissemination":8488,"Ġpublicly":8489,"Ġorganis":8490,"Ġdanger":8491,"Ġprices":8492,"Ġinner":8493,"ĠAF":8494,"Ġchildhood":8495,"ĠPBM":8496,"Ġdiscipl":8497,"omial":8498,"Ġmultiplex":8499,"ĠLC":8500,"Ġpaid":8501,"Ġconformational":8502,"gener":8503,"umor":8504,"Ġscans":8505,"Ġobst":8506,"abling":8507,"Ġdecided":8508,"Ġperspectives":8509,"COV":8510,"Ġcarefully":8511,"Ġexpertise":8512,"Ġmucosa":8513,"Ġverified":8514,"Ġviews":8515,"Ġworked":8516,"entia":8517,"jug":8518,"Ġresident":8519,"Ġfaced":8520,"Ġmodes":8521,"raining":8522,"aten":8523,"Ġelsewhere":8524,"Ġmicrobiota":8525,"throm":8526,"Ġcrow":8527,"Ġpover":8528,"ometer":8529,"room":8530,"Ġanth":8531,"rile":8532,"Ġimmunomod":8533,"Ġrota":8534,"Ġimper":8535,"Ġpoverty":8536,"igm":8537,"oney":8538,"ĠConsidering":8539,"inces":8540,"Ġcytoplasmic":8541,"Ġpurification":8542,"Ġengineering":8543,"Ġactively":8544,"drug":8545,"Ġlineage":8546,"Ġnos":8547,"Ġattempts":8548,"revalence":8549,"Ġseeking":8550,"Ġrod":8551,"world":8552,"Ġinvestigators":8553,"Ġmeetings":8554,"ministration":8555,"tid":8556,"Ġtriggered":8557,"Ġorganic":8558,"ĠSan":8559,"totic":8560,"gu":8561,"inting":8562,"lected":8563,"anine":8564,"Nase":8565,"iber":8566,"arse":8567,"Ġrhino":8568,"ĠFl":8569,"Ġcriterion":8570,"Ġfabric":8571,"Ġmouth":8572,"Ġrating":8573,"Ġtrim":8574,"chen":8575,"Ġcomprised":8576,"Ġbroadly":8577,"quito":8578,"ĠVacc":8579,"Ġfiltration":8580,"apore":8581,"ĠEM":8582,"Ġlicens":8583,"Ġcomplication":8584,"ĠThose":8585,"NI":8586,"CTTT":8587,"Ġenhancing":8588,"Ġnarrow":8589,"Ġpurs":8590,"Ġpersistence":8591,"ĠSyndrome":8592,"house":8593,"ĠDENV":8594,"Ġvelocity":8595,"Ġpure":8596,"weight":8597,"ampl":8598,"ille":8599,"Ġputative":8600,"quality":8601,"Ġ71":8602,"ading":8603,"Ġera":8604,"Ġalbumin":8605,"ault":8606,"HIV":8607,"aut":8608,"Ġstochastic":8609,"Ġoccasion":8610,"bc":8611,"Ġorganizational":8612,"Ġdescribing":8613,"Ġthings":8614,"Ġpassive":8615,"Ġreductions":8616,"Ġnucleotides":8617,"ĠKit":8618,"Ġoc":8619,"Ġprobable":8620,"Ġvehicle":8621,"ĠAct":8622,"ĠVal":8623,"Ġaerosols":8624,"Ġcompati":8625,"Ġadvances":8626,"Ġyeast":8627,"Ġaggregation":8628,"Ġscar":8629,"ypsin":8630,"uciferase":8631,"Ġworsening":8632,"Ġgetting":8633,"umm":8634,"Ġfocuses":8635,"ĠTwitter":8636,"Ġdepletion":8637,"Ġegg":8638,"non":8639,"Ġdispos":8640,"Ġforming":8641,"Ġincomplete":8642,"Ġgrid":8643,"Ġattributes":8644,"Ġserver":8645,"Ġencephalitis":8646,"Ġimmunode":8647,"Ġdisclos":8648,"Ġorganized":8649,"ococcal":8650,"Ġpolyp":8651,"ĠMinistry":8652,"Ġunem":8653,"gov":8654,"acic":8655,"Ġissued":8656,"Ġstig":8657,"Ġiso":8658,"ĠOS":8659,"Ġrunning":8660,"ĠMP":8661,"ĠCK":8662,"Ġdyspnea":8663,"ĠSR":8664,"Ġreturned":8665,"Ġgre":8666,"encia":8667,"Ġundertaken":8668,"ovir":8669,"Ġbasal":8670,"Ġmarginal":8671,"outhern":8672,"Ġcomment":8673,"Ġimposed":8674,"Ġcentres":8675,"Ġnod":8676,"Ġreveals":8677,"Ġinstruments":8678,"ĠIRF":8679,"Ġhelped":8680,"Ġterminal":8681,"Ġcit":8682,"Ġconnections":8683,"ĠSwed":8684,"tification":8685,"Ġinadequate":8686,"amination":8687,"Ġimmunized":8688,"nCoV":8689,"Ġprecautions":8690,"Ġpreference":8691,"ĠIts":8692,"Ġtoday":8693,"Further":8694,"Ġnet":8695,"home":8696,"Ġcounties":8697,"Ġproportions":8698,"Ġtranscriptional":8699,"FT":8700,"ĠBr":8701,"alys":8702,"Ġinhal":8703,"Ġmus":8704,"Ġsequenced":8705,"Ġembedded":8706,"Ġyielded":8707,"Âµ":8708,"iversities":8709,"oked":8710,"plo":8711,"Ġring":8712,"Ġsyncy":8713,"Ġnewbor":8714,"Ġproduces":8715,"Ġhors":8716,"Ġinvestigating":8717,"ĠAccordingly":8718,"Ġanat":8719,"EG":8720,"Ġretro":8721,"Ġeryth":8722,"Ġinteracting":8723,"Ġhabit":8724,"lated":8725,"olgi":8726,"tri":8727,"ndrom":8728,"Ġencoded":8729,"ht":8730,"Ġattitude":8731,"ĠSpike":8732,"ĠAppro":8733,"TGTT":8734,"ck":8735,"âĦ":8736,"Ġindivid":8737,"Ġ250":8738,"Ġinterleukin":8739,"Ġindication":8740,"Ġcorrectly":8741,"angi":8742,"Ġorientation":8743,"Ġreper":8744,"Ġneurop":8745,"aved":8746,"ashing":8747,"atics":8748,"Ġdependence":8749,"Ġintestine":8750,"Ġvesicles":8751,"Ġcarriers":8752,"Ġbac":8753,"Ġinitiatives":8754,"psy":8755,"Ġsubtypes":8756,"ciÃ³n":8757,"Ġwastewater":8758,"Ġcomfort":8759,"ĠmAb":8760,"Ġheparin":8761,"ĠGovernment":8762,"GC":8763,"ĠIAV":8764,"ĠLaboratory":8765,"Ġconversion":8766,"Ġlifestyle":8767,"ĠPol":8768,"Ġcytometry":8769,"ĠEthics":8770,"ĠPRRSV":8771,"Ġure":8772,"ĠMAP":8773,"Ġpartner":8774,"Ġinfant":8775,"Ġintrinsic":8776,"ĠProgram":8777,"Ġmunicip":8778,"itory":8779,"Ġpy":8780,"Ġproportional":8781,"Ġencourage":8782,"Ġaccounted":8783,"ĠTur":8784,"Ġsegmentation":8785,"bf":8786,"olution":8787,"Ġfatty":8788,"dep":8789,"ĠPan":8790,"Ġcavity":8791,"dehyde":8792,"Ġabundant":8793,"det":8794,"Ġbench":8795,"Ġtherapeutics":8796,"Ġ76":8797,"Ġthinking":8798,"ĠPO":8799,"Ġcarrying":8800,"Ġciv":8801,"Ġoccupational":8802,"ura":8803,"dered":8804,"Ġhandling":8805,"glyc":8806,"ĠPhase":8807,"Ġoverw":8808,"ĠYet":8809,"Ġdecade":8810,"eine":8811,"Ġconsiderably":8812,"Ġinterested":8813,"Ġadjacent":8814,"Ġarise":8815,"Ġventricular":8816,"Ġinjected":8817,"ĠOpen":8818,"ĠSDS":8819,"Ġ2008":8820,"Ġdimer":8821,"Ġdriving":8822,"Hg":8823,"Ġgranul":8824,"Ġfacing":8825,"Ġurg":8826,"Ġdefinitions":8827,"Ġsolve":8828,"Ġcombining":8829,"Ġadsor":8830,"sies":8831,"Ġchi":8832,"Ġaccommod":8833,"Ġobtaining":8834,"Ġprovinces":8835,"ĠRus":8836,"ĠMI":8837,"293":8838,"Ġprefer":8839,"ĠTra":8840,"Ġdepressive":8841,"Ġtomography":8842,"Ġ88":8843,"Ġfitness":8844,"verting":8845,"inform":8846,"ĠIndian":8847,"ender":8848,"Ġrecall":8849,"SI":8850,"ĠSingapore":8851,"ĠWithin":8852,"Ġmmol":8853,"Ġmyc":8854,"Ġcreation":8855,"Ġbank":8856,"emed":8857,"ĠBM":8858,"Ġupregulated":8859,"Ġcategorized":8860,"Ġreplicate":8861,"From":8862,"Ġindices":8863,"Ġantioxidant":8864,"ensor":8865,"site":8866,"osed":8867,"itÃ©":8868,"Ġrecording":8869,"Ġuncom":8870,"Ġblind":8871,"Ġhuge":8872,"Background":8873,"Ġmovements":8874,"Ġappreci":8875,"ĠFood":8876,"Ġmosquito":8877,"Ġfigures":8878,"Ġns":8879,"Ġflo":8880,"Ġanc":8881,"AST":8882,"Ġmaturation":8883,"Bio":8884,"Ġanswers":8885,"Ġloads":8886,"Ġideas":8887,"BE":8888,"Ġimmunogenicity":8889,"ĠCNN":8890,"ĠThrough":8891,"ĠÎĶ":8892,"Ġkeeping":8893,"Ġcleaning":8894,"ĠBlood":8895,"ĠCre":8896,"Pre":8897,"Ġbehaviours":8898,"lective":8899,"Ġcontinuously":8900,"Ġsupplementation":8901,"ora":8902,"ĠSequ":8903,"Ġinnovative":8904,"âĢ¢âĢ¢":8905,"Ġdendritic":8906,"nee":8907,"sch":8908,"nia":8909,"Ġrefr":8910,"Ġ69":8911,"Ġpredis":8912,"identi":8913,"Ġbottom":8914,"Ġreson":8915,"fare":8916,"usting":8917,"letal":8918,"Ġpercentages":8919,"rench":8920,"Ġgerm":8921,"Ġvolunt":8922,"Ġradical":8923,"ensitive":8924,"Ġfaculty":8925,"Ġpour":8926,"Ġoptical":8927,"Ġpermeability":8928,"aemia":8929,"Ġenroll":8930,"Ġelectroph":8931,"Ġfeeling":8932,"Ġcompetition":8933,"Ġactors":8934,"ĠÏĢ":8935,"ĠFlu":8936,"rote":8937,"ariable":8938,"ĠUse":8939,"Ġcytotoxicity":8940,"Ġzinc":8941,"Ġyields":8942,"Ġdisability":8943,"ĠHT":8944,"stage":8945,"denti":8946,"Ġgame":8947,"ĠRCT":8948,"CAM":8949,"Ġpock":8950,"ĠMo":8951,"repres":8952,"Ġfluor":8953,"Ġenabled":8954,"Ġlethal":8955,"Ġunde":8956,"Ġcooperation":8957,"Ġworkplace":8958,"Ġconservation":8959,"Ġimmunoglobulin":8960,"Ġbrid":8961,"ÃĢ":8962,"Ġri":8963,"Ġreporter":8964,"Ġstring":8965,"Ġbook":8966,"Ġexpectations":8967,"Ġevolved":8968,"high":8969,"ĠRdRp":8970,"Ġminority":8971,"ectin":8972,"Ġconcom":8973,"ithromycin":8974,"Ġracial":8975,"Ġut":8976,"Ġhorizon":8977,"More":8978,"Ġagon":8979,"Ġplayed":8980,"Ġarrival":8981,"inol":8982,"Ġ78":8983,"fol":8984,"Ġkinetics":8985,"Ġcoordination":8986,"Ġpharmacological":8987,"Ġlocalized":8988,"Ġperm":8989,"Ġplatelets":8990,"ĠAKI":8991,"ocomp":8992,"Ġcorrection":8993,"serv":8994,"rected":8995,"Be":8996,"onom":8997,"nals":8998,"Ġresc":8999,"Ġforced":9000,"acco":9001,"Ġdiscrep":9002,"ipp":9003,"att":9004,"ĠBel":9005,"Ġachieving":9006,"fi":9007,"Ġfavorable":9008,"ĠRP":9009,"Ġclones":9010,"Ġillustrate":9011,"Ġporcine":9012,"Ġdenote":9013,"Ġmotion":9014,"utral":9015,"Ġoverwhel":9016,"ĠGDP":9017,"Ther":9018,"cious":9019,"Ġvalidate":9020,"Ġprobabilities":9021,"Ġavoiding":9022,"Ġshel":9023,"ĠPath":9024,"Ġboard":9025,"Ġ92":9026,"Ġaccounting":9027,"Ġfourth":9028,"Ġforces":9029,"Ġelimination":9030,"ĠDo":9031,"MM":9032,"ĠLi":9033,"Ġpollut":9034,"Ġborder":9035,"ĠComp":9036,"Ġ79":9037,"Ġunexpected":9038,"Ġburnout":9039,"Ġconcentrated":9040,"Ġairways":9041,"fig":9042,"Ġparticipated":9043,"iliary":9044,"Ġprescribed":9045,"Ġblocked":9046,"opinavir":9047,"Ġvirion":9048,"arin":9049,"enic":9050,"ĠIran":9051,"Ġlocally":9052,"Ġ93":9053,"Ġcomplain":9054,"Ġsug":9055,"RO":9056,"Ġsustainability":9057,"Ġentity":9058,"Ġtransfection":9059,"Ġstimulate":9060,"Ġuntreated":9061,"ĠÃ¾":9062,"Ġmetabolites":9063,"âī":9064,"icin":9065,"ĠPoly":9066,"words":9067,"Ġ73":9068,"ĠÎ¼L":9069,"****":9070,"tering":9071,"amy":9072,"Ġimmunosuppressive":9073,"Ġgenotypes":9074,"Ġroutinely":9075,"beit":9076,"Ġallele":9077,"called":9078,"Ġfeelings":9079,"actor":9080,"Ġask":9081,"Ġinterfe":9082,"ĠUnfortunately":9083,"Ġthorough":9084,"iasis":9085,"Ġrow":9086,"Ġtriage":9087,"Ġech":9088,"Ġconverted":9089,"fall":9090,"Ġeating":9091,"ĠCXCL":9092,"Ġsial":9093,"inin":9094,"Ġtrajectory":9095,"ĠDCs":9096,"Ġaligned":9097,"Ġdiscrimination":9098,"ĠProv":9099,"Ġworkforce":9100,"proportion":9101,"ĠEarly":9102,"otypic":9103,"Ġstation":9104,"ĠKingdom":9105,"imeric":9106,"HF":9107,"nam":9108,"Ġcomments":9109,"iled":9110,"Ġargue":9111,"Ġhemod":9112,"Ġshar":9113,"ĠStand":9114,"Ġoverlapping":9115,"Ġherd":9116,"defined":9117,"omething":9118,"ĠSU":9119,"Ġdisinfection":9120,"ĠJournal":9121,"Ġfitting":9122,"ĠDevelopment":9123,"ĠSubsequently":9124,"Ġmessage":9125,"Ġadministrative":9126,"Ġdeposition":9127,"Despite":9128,"Ġmicrogl":9129,"ĠClass":9130,"Sp":9131,"ĠDR":9132,"vidence":9133,"ĠSpanish":9134,"Ġmonthly":9135,"Ġtermin":9136,"TI":9137,"Ġharvested":9138,"Ġchoices":9139,"ĠSaudi":9140,"ĠmRNAs":9141,"http":9142,"Ġlateral":9143,"Ġnic":9144,"ĠPlas":9145,"BB":9146,"ĠType":9147,"Ġdementia":9148,"ĠChildren":9149,"Ġprepare":9150,"Ġwid":9151,"YP":9152,"Ġdiagnostics":9153,"ĠQual":9154,"ĠCCL":9155,"median":9156,"Ġmorphology":9157,"Ġpropagation":9158,"Ġretention":9159,"ĠRo":9160,"Ġparental":9161,"Ġcatheter":9162,"Here":9163,"ĠDel":9164,"umer":9165,"ĠInfection":9166,"ĠEd":9167,"zz":9168,"Ġsi":9169,"Ġnutritional":9170,"DI":9171,"Ġtumour":9172,"Ġsuspic":9173,"Ġregulating":9174,"Ġentered":9175,"ĠMark":9176,"Ġoblig":9177,"Ġetiology":9178,"Ġunderestim":9179,"Ġprevented":9180,"Ġdemographics":9181,"Ġacting":9182,"Several":9183,"Ġkits":9184,"Ġaccessibility":9185,"iento":9186,"gers":9187,"Ġ84":9188,"ĠPeople":9189,"Ġproperly":9190,"Ġ77":9191,"Ġfamili":9192,"Ġverify":9193,"poration":9194,"Ġconsequently":9195,"edical":9196,"Ġphenotypes":9197,"Ġdepicted":9198,"ĠHist":9199,"oss":9200,"Ġcompeting":9201,"ĠHealthcare":9202,"ĠHPV":9203,"atology":9204,"Ġallevi":9205,"Ġmarkedly":9206,"Ġstra":9207,"uff":9208,"Ġtrees":9209,"Ġperman":9210,"aper":9211,"aration":9212,"Ġsubgroups":9213,"Stud":9214,"ferase":9215,"Ġurinary":9216,"olism":9217,"Ġpropos":9218,"Ġmicroar":9219,"Ġmeasles":9220,"Ġimpos":9221,"ĠANOVA":9222,"Ġinterrup":9223,"Ġspan":9224,"Ġmention":9225,"Ġarthritis":9226,"Ġutilizing":9227,"aire":9228,"Ġdramatically":9229,"ĠCt":9230,"upplemental":9231,"lix":9232,"ĠConclusions":9233,"ĠBoard":9234,"Ġ82":9235,"amer":9236,"Ġsomewhat":9237,"Ġmandatory":9238,"Ġvisualization":9239,"olars":9240,"Ġinfluencing":9241,"Ġimproves":9242,"anta":9243,"Ġdiabetic":9244,"Ġmedicines":9245,"Ġcann":9246,"Ġhttp":9247,"mosp":9248,"Ġsubstance":9249,"Ġresponded":9250,"Ġopening":9251,"Ġpose":9252,"asters":9253,"tor":9254,"Ġwur":9255,"ective":9256,"Ġwestern":9257,"opic":9258,"Ġautomatically":9259,"Ġconfirmation":9260,"Ġhomeostasis":9261,"Ġspinal":9262,"Ġexclusively":9263,"lla":9264,"Ġenabling":9265,"Ġwaiting":9266,"Ġassuming":9267,"According":9268,"Health":9269,"Ġhomogene":9270,"Ġsenti":9271,"pens":9272,"ensities":9273,"sacchar":9274,"oses":9275,"Ġsuppress":9276,"Ġhomology":9277,"iry":9278,"Ġacknowled":9279,"Ġethnicity":9280,"Ġemotion":9281,"log":9282,"values":9283,"idents":9284,"Ġsupplies":9285,"Ġcategorical":9286,"idase":9287,"EN":9288,"Ġecosystem":9289,"Ġweakness":9290,"Ġ83":9291,"Ġopposite":9292,"uming":9293,"Ġcompartments":9294,"Ġemphasis":9295,"Ġdifferentiate":9296,"MPs":9297,"ĠPharm":9298,"Ġchloroquine":9299,"Ġcontagious":9300,"Ġevolving":9301,"Ġconducting":9302,"Ġflav":9303,"Ġdistances":9304,"pandemic":9305,"Ġtendency":9306,"Ġ74":9307,"ARDS":9308,"Ġboost":9309,"termin":9310,"Ġsufficiently":9311,"ostr":9312,"gestion":9313,"Ġvision":9314,"Ġcovering":9315,"ĠTGF":9316,"Ġyouth":9317,"poly":9318,"Ġdiscrete":9319,"ĠBas":9320,"MERS":9321,"mend":9322,"Ġdestr":9323,"uris":9324,"Ġbp":9325,"domain":9326,"bodies":9327,"Ġtransformed":9328,"ypical":9329,"Ġsubstrates":9330,"Ġcompute":9331,"Ġuniversities":9332,"Ġpreferences":9333,"Ġpurchased":9334,"Ġecological":9335,"hether":9336,"ectomy":9337,"Ġattending":9338,"Ġconsolidation":9339,"fek":9340,"Ġserved":9341,"Ġdeterioration":9342,"Bank":9343,"osocial":9344,"ĠDist":9345,"Ġneph":9346,"Ġsensing":9347,"Ġnotable":9348,"eck":9349,"Ġgraft":9350,"Ġengaged":9351,"SC":9352,"Ġcalculations":9353,"idi":9354,"ĠCL":9355,"Ġcloud":9356,"ĠÃ¼":9357,"ĠBackground":9358,"Ġvill":9359,"Ġregarded":9360,"Ġprogrammes":9361,"ĠNPs":9362,"Ġsocieties":9363,"Ġou":9364,"Ġexplicitly":9365,"ĠAltern":9366,"Ġsquare":9367,"ford":9368,"Ġseroprevalence":9369,"etherlands":9370,"ĠIndividual":9371,"Ġwird":9372,"RR":9373,"MPV":9374,"Ġconsumer":9375,"ritin":9376,"ĠUl":9377,"Ġtranslated":9378,"Ġsecret":9379,"chym":9380,"press":9381,"ĠDa":9382,"Ġserine":9383,"Ġzur":9384,"300":9385,"gia":9386,"Ġchemokines":9387,"ĠInstead":9388,"Ġserves":9389,"Ġattacks":9390,"Ġreagents":9391,"Ġincons":9392,"Ġpaired":9393,"ĠEduc":9394,"ĠTA":9395,"Ġnotion":9396,"Ġstatements":9397,"adjusted":9398,"ishes":9399,"Ġvirt":9400,"Ġspectra":9401,"Ġloneliness":9402,"ĠIndex":9403,"Ġemp":9404,"ĠNone":9405,"ĠCase":9406,"sense":9407,"ĠCommission":9408,"Ġscat":9409,"ultry":9410,"Ġsupplementary":9411,"pressing":9412,"Ġillustrates":9413,"Ġmanagers":9414,"Ġwaves":9415,"SL":9416,"Ġfell":9417,"Î¼":9418,"ĠRMS":9419,"metric":9420,"OT":9421,"Ġregularly":9422,"Ġspecialized":9423,"Ġcutoff":9424,"Ġrespirator":9425,"Ġstimuli":9426,"Ã©n":9427,"Ġnitrogen":9428,"Ãŀ":9429,"Ġ]":9430,"Ind":9431,"Ġclaims":9432,"Ġfoods":9433,"ugin":9434,"Ġsomething":9435,"irable":9436,"Ġindirectly":9437,"Ġretrieved":9438,"Ġstrategic":9439,"Ġagency":9440,"coronavirus":9441,"Ġshifts":9442,"Ġcovariates":9443,"Ġworker":9444,"Ġsecure":9445,"la":9446,"Ġgp":9447,"ifies":9448,"adian":9449,"Ġ81":9450,"Ġreactivity":9451,"dist":9452,"mg":9453,"ĠCentral":9454,"Ġoffice":9455,"Ġum":9456,"TM":9457,"Ġprogen":9458,"avirin":9459,"Ġneuronal":9460,"ana":9461,"Ġindoor":9462,"Ġouter":9463,"ribution":9464,"Ġveget":9465,"Ġglycoproteins":9466,"RV":9467,"Ġconflicts":9468,"Ġyellow":9469,"Ġtob":9470,"ĠNetherlands":9471,"echnology":9472,"Ġshop":9473,"ĠMann":9474,"'-":9475,"Ġreturns":9476,"adic":9477,"Ġdeemed":9478,"Ġedges":9479,"Ġreass":9480,"lease":9481,"Ġmixing":9482,"Ġcomposite":9483,"rology":9484,"pred":9485,"Thermo":9486,"Ġdenotes":9487,"Ġdisparities":9488,"Ġdelays":9489,"Ġeliminate":9490,"Ġencouraged":9491,"ĠEP":9492,"Ġimportantly":9493,"ĠTa":9494,"Ġischemic":9495,"Ġchallenged":9496,"aning":9497,"panic":9498,"lies":9499,"Ġcomprom":9500,"VHD":9501,"factor":9502,"Ġplaus":9503,"Ġproductivity":9504,"Ġseiz":9505,"Ġinsertion":9506,"ĠMex":9507,"Ġprofound":9508,"Ġindustries":9509,"uria":9510,"Ġdark":9511,"KU":9512,"Ġsimilarities":9513,"ĠLast":9514,"Ġscored":9515,"Ġoxide":9516,"Ġconvers":9517,"Ġcham":9518,"cd":9519,"Ġfiles":9520,"oxyl":9521,"Ġexem":9522,"ocytopenia":9523,"Ġvictim":9524,"ĠAuthor":9525,"Ġvertical":9526,"ĠDisc":9527,"Ġions":9528,"usp":9529,"ĠGram":9530,"Ġcys":9531,"Ġstrept":9532,"confirmed":9533,"Ġhypotheses":9534,"dens":9535,"ĠmmHg":9536,"Ġsuicide":9537,"Ġpassed":9538,"partic":9539,"ĠCyt":9540,"Ġlooking":9541,"Ġrabbit":9542,"Ġembedding":9543,"Ġimported":9544,"Ġease":9545,"essment":9546,"Ġconsultations":9547,"Conclusion":9548,"Ġdiscour":9549,"Ġtheories":9550,"ĠHa":9551,"ĠmAbs":9552,"LU":9553,"ĠPost":9554,"Ġmediate":9555,"structural":9556,"anged":9557,")/":9558,"Ġcloser":9559,"ey":9560,"iding":9561,"Ãº":9562,"NR":9563,"ĠAA":9564,"Ġcompetitive":9565,"Ġ86":9566,"ulture":9567,"Ġreplicates":9568,"Ġwelfare":9569,"GGA":9570,"inib":9571,"Ġexclude":9572,"Ġfluctu":9573,"ellitus":9574,"Ġcomputation":9575,"ĠFrench":9576,"Ġvascul":9577,"Ġcomputing":9578,"ĠSF":9579,"ĠChem":9580,"ocompromised":9581,"Ġradiological":9582,"ĠDA":9583,"Ġloading":9584,"Ġsubstances":9585,"Ġadvoc":9586,"hythm":9587,"iers":9588,"Ġ87":9589,"ularly":9590,"ĠBayesian":9591,"ellen":9592,"Ġincorporate":9593,"ĠÃ©t":9594,"Ġspectrom":9595,"Ġspons":9596,"::":9597,"ĠCAR":9598,"Ġcentrifugation":9599,"Ġinference":9600,"Ġintact":9601,"ompass":9602,"Ġdass":9603,"eta":9604,"Ġlandsc":9605,"Ġoxygenation":9606,"Ġirradi":9607,"Ġfractions":9608,"Ġcollaborative":9609,"Ġatmosp":9610,"Ġgained":9611,"ocomial":9612,"Ġment":9613,"urin":9614,"ĠNaCl":9615,"Patients":9616,"De":9617,"Ġsecreted":9618,"Ã¡s":9619,"ĠâĪĨ":9620,"Ġindications":9621,"NL":9622,"ĠEmergency":9623,"ohist":9624,"cel":9625,"Ġethanol":9626,"Ġbow":9627,"Ġbenchmark":9628,"Ġfight":9629,"ĠMaterials":9630,"Ġcrises":9631,"Ġestablishing":9632,"Ġapps":9633,"Ġaggressive":9634,"Ġchose":9635,"Ġinteracts":9636,"Ġattached":9637,"Ġ89":9638,"ĠChar":9639,"Ġreligious":9640,"Ġexpensive":9641,"ĠAUC":9642,"ximately":9643,"Ġutilize":9644,"Ġfilters":9645,"Ġwinter":9646,"Ġafore":9647,"Ġbronchial":9648,"Ġsom":9649,"ĠTGEV":9650,"ĠGFP":9651,"Ġcoinc":9652,"Reg":9653,"Ġfarms":9654,"iert":9655,"Ġprophylactic":9656,"remia":9657,"PIs":9658,"ĠTables":9659,"ĠRegarding":9660,"valuation":9661,"002":9662,"CMV":9663,"Ġopi":9664,"Ġwells":9665,"Ġshut":9666,"Ġupregulation":9667,"Ġnt":9668,"Ġmodulate":9669,"Ġoutlined":9670,"agglut":9671,"Ġdownload":9672,"Ġimmunosuppression":9673,"ĠRh":9674,"vitrogen":9675,"ĠLT":9676,"system":9677,"Ġcontract":9678,"Ġrotavirus":9679,"Ġquery":9680,"Ġfocal":9681,"Ġforecast":9682,"Ġjournals":9683,"Ġanticipated":9684,"Ġimmunodeficiency":9685,"Ġimmob":9686,"ĠOp":9687,"Ġ91":9688,"Ġfederal":9689,"Ġarrest":9690,"ony":9691,"Ġintense":9692,"Ġvomiting":9693,"ĠCr":9694,"lock":9695,"ĠImp":9696,"Ġdesigns":9697,"ida":9698,"Ġvag":9699,"ĠSM":9700,"Ġpromotion":9701,"Ġtoc":9702,"Ã¯ve":9703,"Ġmelan":9704,"ĠSPSS":9705,"converting":9706,"can":9707,"Ġmism":9708,"host":9709,"ika":9710,"Ġmicroscope":9711,"Ġwillingness":9712,"chy":9713,"Ġpoultry":9714,"roscopic":9715,"ĠFin":9716,"Ġmoral":9717,"Ġthickness":9718,"ĠCollege":9719,"Ġestablishment":9720,"Ġexer":9721,"iff":9722,"Ġcomo":9723,"bd":9724,"ĠFace":9725,"Ġaforementioned":9726,"Ġtemporary":9727,"Ġregen":9728,"EF":9729,"Ġpleural":9730,"Ġchromatography":9731,"Ġfluids":9732,"Ġgastric":9733,"ivariate":9734,"Ġrelies":9735,"ĠConversely":9736,"osing":9737,"Ġcontrary":9738,"Ġcaspase":9739,"PT":9740,"ĠVSV":9741,"rozen":9742,"Ġmotifs":9743,"Ġmellitus":9744,"ĠMat":9745,"meas":9746,"Ġexaminations":9747,"Ġabuse":9748,"ĠmiRNAs":9749,"TTTT":9750,"Ġintelligence":9751,"Ġunus":9752,"phase":9753,"fers":9754,"ĠVL":9755,"Ġrhin":9756,"Ġdisproportion":9757,"Ġscaff":9758,"Ġâĸ":9759,"Ġsynerg":9760,"aphyl":9761,"Ġplasmids":9762,"Ġexposures":9763,"Ġdiagram":9764,"Ġpronounced":9765,"Ġneck":9766,"Ġleaving":9767,"ĠNY":9768,"ĠÂµm":9769,"Ġhistopath":9770,"zes":9771,"Î»":9772,"Ġfunds":9773,"Ġvolati":9774,"ilized":9775,"okers":9776,"Ġretic":9777,"ĠDay":9778,"fluorescence":9779,"ochemistry":9780,"idential":9781,"azole":9782,"Ġcaution":9783,"anges":9784,"Ġheavi":9785,"ĠEBV":9786,"Ġexogenous":9787,"sen":9788,"acoronavirus":9789,"Ġaccel":9790,"Ġrevers":9791,"ĠSix":9792,"Ġdefic":9793,"Ġupdate":9794,"Ġdoctor":9795,"aryng":9796,"Ġderivative":9797,"Ġbiomarker":9798,"keit":9799,"Ġforecasting":9800,"umber":9801,"uro":9802,"Ġcorpor":9803,"ĠBL":9804,"Ġ***":9805,"blasts":9806,"Ġreflecting":9807,"ĠPatienten":9808,"Ġquad":9809,"Ġjudg":9810,"olved":9811,"Ġamin":9812,"Ġfish":9813,"Ġapt":9814,"Ġneighborhood":9815,"Of":9816,"ĠLV":9817,"Ġantibacterial":9818,"methyl":9819,"Ġstratified":9820,"ĠTotal":9821,"endit":9822,"Ġlabels":9823,"Ġglo":9824,"Ġgrouped":9825,"aur":9826,"Ġencompass":9827,"Ġnose":9828,"oting":9829,"Ġconfinement":9830,"Ġluciferase":9831,"Cons":9832,"ĠSL":9833,"Ġdefects":9834,"Ġchol":9835,"Ġthym":9836,"Ġarrang":9837,"Ġcausative":9838,"Ġ**":9839,"Ġreferral":9840,"Ġcustom":9841,"Ġhorses":9842,"OM":9843,"Ġhair":9844,"Ġmodulation":9845,"iforn":9846,"Ġconfounding":9847,"Ġcrystall":9848,"Ġtocilizumab":9849,"paramet":9850,"optim":9851,"istan":9852,"Ġkill":9853,"Ġcharged":9854,"Ġbusinesses":9855,"ĠLikewise":9856,"Ġapart":9857,"ĠSamples":9858,"geb":9859,"Ġpartly":9860,"gly":9861,"adder":9862,"Ġaber":9863,"ĠOD":9864,"Ġimbal":9865,"Cov":9866,"ĠGM":9867,"Ġlists":9868,"Ġsignalling":9869,".).":9870,"Ġpg":9871,"549":9872,"plicity":9873,"Ġdialysis":9874,"ĠIFITM":9875,"Ġcomprising":9876,"CCAA":9877,"ĠIntroduction":9878,"App":9879,"ĠLik":9880,"inte":9881,"Ġgram":9882,"Ġautop":9883,"Ġpulse":9884,"Ġcontents":9885,"Ġenzymatic":9886,"Ġsyndrom":9887,"Ġeasier":9888,"Ġlegis":9889,"Ġfitted":9890,"ĠIT":9891,"Ġoptimize":9892,"acin":9893,"Ġpassage":9894,"sour":9895,"reatening":9896,"Ġcombat":9897,"labeled":9898,"that":9899,"ĠRepublic":9900,"Ġvein":9901,"Ġclassifier":9902,"arth":9903,"ĠNHS":9904,"Ġconstitute":9905,"vage":9906,"tie":9907,"Ġshall":9908,"Ġindividually":9909,"Ġdisinfec":9910,"Ġmaximal":9911,"net":9912,"ĠCoVs":9913,"Ġagricultural":9914,"ught":9915,"OX":9916,"Ġlysis":9917,"Ġconcomitant":9918,"Ġendpoint":9919,"ĠMyc":9920,"oche":9921,"ĠâĦ":9922,"Ġemergencies":9923,"ĠJapanese":9924,"Ġcascade":9925,"family":9926,"BR":9927,"Ġsummer":9928,"Ġchicken":9929,"Ġult":9930,"Ġparasite":9931,"ĠÃ¼ber":9932,"Ġinputs":9933,"dL":9934,"ĠSciences":9935,"Ġconvolution":9936,"Ġdealing":9937,"Ġcerv":9938,"Ġdecom":9939,"Ġshortage":9940,"PL":9941,"Ġtrap":9942,"Ġoutdo":9943,"Ġwards":9944,"Ġnotice":9945,"Ġsterile":9946,"abs":9947,"nic":9948,"versible":9949,"Ġdisasters":9950,"Ġlibraries":9951,"Ġaccompl":9952,"Ġrevised":9953,"ĠClin":9954,"Ġimmunocompromised":9955,"ĠPub":9956,"Ġfiltered":9957,"Ġemail":9958,"Ġtrajectories":9959,"Ġago":9960,"GD":9961,"ĠAny":9962,"ario":9963,"1000":9964,"Ġdense":9965,"ĠAir":9966,"Ġentirely":9967,"tific":9968,"Ġcurriculum":9969,"Ġenveloped":9970,"ĠTreg":9971,"Ġcollagen":9972,"Ġirre":9973,"Ġhighlighting":9974,"Ġpartnership":9975,"Ġdecay":9976,"Ġexpendit":9977,"hyd":9978,"Ġboundary":9979,"Ġtro":9980,"Ġsteady":9981,"Ġremoving":9982,"aker":9983,"Ġbands":9984,"Ġrepur":9985,"Ġsupernatants":9986,"Ġsubunits":9987,"ĠÎ·":9988,"heres":9989,"ĠMSCs":9990,"shop":9991,"wal":9992,"olit":9993,"Ġrelating":9994,"Ġcreatinine":9995,"ĠNE":9996,"Ġalleles":9997,"ĠDifferent":9998,"Ġpresentations":9999}