{"<pad>":0,"<unk>":1,"<cls>":2,"<sep>":3,"!":4,"\"":5,"#":6,"$":7,"%":8,"&":9,"'":10,"(":11,")":12,"*":13,"+":14,",":15,"-":16,".":17,"/":18,"0":19,"1":20,"2":21,"3":22,"4":23,"5":24,"6":25,"7":26,"8":27,"9":28,":":29,";":30,"<":31,"=":32,">":33,"?":34,"@":35,"A":36,"B":37,"C":38,"D":39,"E":40,"F":41,"G":42,"H":43,"I":44,"J":45,"K":46,"L":47,"M":48,"N":49,"O":50,"P":51,"Q":52,"R":53,"S":54,"T":55,"U":56,"V":57,"W":58,"X":59,"Y":60,"Z":61,"[":62,"\\":63,"]":64,"^":65,"_":66,"`":67,"a":68,"b":69,"c":70,"d":71,"e":72,"f":73,"g":74,"h":75,"i":76,"j":77,"k":78,"l":79,"m":80,"n":81,"o":82,"p":83,"q":84,"r":85,"s":86,"t":87,"u":88,"v":89,"w":90,"x":91,"y":92,"z":93,"{":94,"|":95,"}":96,"~":97,"¡":98,"¢":99,"£":100,"¤":101,"¥":102,"¦":103,"§":104,"¨":105,"©":106,"ª":107,"«":108,"¬":109,"®":110,"¯":111,"°":112,"±":113,"²":114,"³":115,"´":116,"µ":117,"¶":118,"·":119,"¸":120,"¹":121,"º":122,"»":123,"¼":124,"½":125,"¾":126,"¿":127,"À":128,"Á":129,"Â":130,"Ã":131,"Ä":132,"Å":133,"Æ":134,"Ç":135,"È":136,"É":137,"Ê":138,"Ë":139,"Ì":140,"Í":141,"Î":142,"Ï":143,"Ð":144,"Ñ":145,"Ò":146,"Ó":147,"Ô":148,"Õ":149,"Ö":150,"×":151,"Ø":152,"Ù":153,"Ú":154,"Û":155,"Ü":156,"Ý":157,"Þ":158,"ß":159,"à":160,"á":161,"â":162,"ã":163,"ä":164,"å":165,"æ":166,"ç":167,"è":168,"é":169,"ê":170,"ë":171,"ì":172,"í":173,"î":174,"ï":175,"ð":176,"ñ":177,"ò":178,"ó":179,"ô":180,"õ":181,"ö":182,"÷":183,"ø":184,"ù":185,"ú":186,"û":187,"ü":188,"ý":189,"þ":190,"ÿ":191,"Ā":192,"ā":193,"Ă":194,"ă":195,"Ą":196,"ą":197,"Ć":198,"ć":199,"Ĉ":200,"ĉ":201,"Ċ":202,"ċ":203,"Č":204,"č":205,"Ď":206,"ď":207,"Đ":208,"đ":209,"Ē":210,"ē":211,"Ĕ":212,"ĕ":213,"Ė":214,"ė":215,"Ę":216,"ę":217,"Ě":218,"ě":219,"Ĝ":220,"ĝ":221,"Ğ":222,"ğ":223,"Ġ":224,"ġ":225,"Ģ":226,"ģ":227,"Ĥ":228,"ĥ":229,"Ħ":230,"ħ":231,"Ĩ":232,"ĩ":233,"Ī":234,"ī":235,"Ĭ":236,"ĭ":237,"Į":238,"į":239,"İ":240,"ı":241,"Ĳ":242,"ĳ":243,"Ĵ":244,"ĵ":245,"Ķ":246,"ķ":247,"ĸ":248,"Ĺ":249,"ĺ":250,"Ļ":251,"ļ":252,"Ľ":253,"ľ":254,"Ŀ":255,"ŀ":256,"Ł":257,"ł":258,"Ń":259,"Ġt":260,"in":261,"Ġa":262,"re":263,"he":264,"on":265,"ti":266,"en":267,"Ġthe":268,"Ġs":269,"Ġo":270,"er":271,"Ġc":272,"ed":273,"Ġp":274,"al":275,"es":276,"Ġin":277,"or":278,"at":279,"Ġw":280,"nd":281,"is":282,"Ġof":283,"Ġd":284,"it":285,"tion":286,"Ġf":287,"Ġand":288,"Ġm":289,"ro":290,"an":291,"Ġb":292,"ing":293,"ic":294,"as":295,"ar":296,"Ġre":297,"Ġto":298,"ent":299,"le":300,"Ġe":301,"us":302,"ec":303,"ation":304,"ve":305,"Ġh":306,"Ġth":307,"ly":308,"ac":309,"Ġ(":310,"om":311,"Ġn":312,"ul":313,"os":314,"ur":315,"Ġl":316,"id":317,"ĠT":318,"im":319,"ll":320,"et":321,"ir":322,"ith":323,"Ġv":324,"ig":325,"Ġwith":326,"Ġfor":327,"ce":328,"ol":329,"Ġst":330,"Ġcon":331,"Ġis":332,"ut":333,"Ġwe":334,"Ġpro":335,"Ġg":336,"ĠC":337,"Ġas":338,"un":339,"Ġan":340,"Ġbe":341,"ot":342,"ow":343,"ati":344,"ter":345,"res":346,"ĠI":347,"ĠA":348,"il":349,"ĠS":350,"uc":351,"em":352,"am":353,"Ġon":354,"Ġthat":355,"if":356,"ab":357,"ity":358,"od":359,"Ġ1":360,"ts":361,"ver":362,"st":363,"Ġ.":364,"ted":365,"um":366,"Ġex":367,"oc":368,"Ġ2":369,"ate":370,"Ġres":371,"ated":372,"ĠThe":373,"ud":374,"tic":375,"ra":376,"ri":377,"si":378,"Ġwas":379,"qu":380,"op":381,"her":382,"ents":383,"Ġcom":384,"se":385,"ay":386,"fec":387,"Ġby":388,"Ġde":389,"ag":390,"Ġwere":391,"Ġare":392,"Ġor":393,"Ġac":394,"rom":395,"og":396,"ad":397,"th":398,"ure":399,"Ġdis":400,"Ġr":401,"Ġus":402,"pl":403,"ain":404,"ĠP":405,"Ġwh":406,"ment":407,"Ġim":408,"up":409,"el":410,"ore":411,"ical":412,"ess":413,"te":414,"ĠF":415,"Ġal":416,"ĠM":417,"ers":418,"ren":419,"ĠĠ":420,"Ġfrom":421,"por":422,"Ġse":423,"red":424,"ĠH":425,"ase":426,"und":427,"Ġinc":428,"ant":429,"ine":430,"Ġat":431,"ies":432,"tive":433,"pec":434,"Ġco":435,"ug":436,"Ġpati":437,"di":438,"ĠR":439,"Ġsh":440,"Ġch":441,"Ġad":442,"Ġstud":443,"Ġha":444,"iz":445,"ub":446,"Ġhe":447,"igh":448,"ell":449,"Ġcomp":450,"Ġen":451,"Ġne":452,"Ġthis":453,"ch":454,").":455,"ran":456,"Ġcont":457,"able":458,"sion":459,"Ġnot":460,"and":461,"ations":462,"Ġ3":463,"orm":464,"Ġle":465,"ĠIn":466,"ous":467,"ther":468,"vel":469,"ich":470,"est":471,"19":472,"ĠE":473,"Ġper":474,"ĠD":475,"ĠN":476,"tions":477,"ence":478,"ial":479,"Ġpre":480,"ID":481,"ge":482,"Ġit":483,"Ġpatients":484,"ĠB":485,"duc":486,"Ġhave":487,"OV":488,"Ġvir":489,"Ġinfec":490,"ign":491,"Ġcell":492,"act":493,"Ġcl":494,"vid":495,"OVID":496,"per":497,"ion":498,"enti":499,"Ġpar":500,"vi":501,"Ġcan":502,"Ġsy":503,"ĠW":504,"ific":505,"Ġass":506,"ĠCOVID":507,"fe":508,"00":509,"),":510,"Ġwhich":511,"ost":512,"pt":513,"Ġfo":514,"ill":515,"ary":516,"Ġap":517,"ph":518,"ip":519,"form":520,"Ġgen":521,"ke":522,"ia":523,"ory":524,"pro":525,"Ġca":526,"ist":527,"Ġdi":528,"ys":529,"ding":530,"ved":531,"ors":532,"tiv":533,"Ġmod":534,"Ġef":535,"ple":536,"Ġhas":537,"Ġinter":538,"ally":539,"Ġ4":540,"ear":541,"ome":542,"ance":543,"uld":544,"olog":545,"ased":546,"Ġdif":547,"lec":548,"feren":549,"Ġdat":550,"Ġun":551,"Ġ5":552,"so":553,"ĠO":554,"ĠG":555,"ue":556,"ative":557,"port":558,"ong":559,"Ġrec":560,"Ġab":561,"Ġint":562,"Ġresp":563,"ven":564,"rans":565,"iti":566,"alth":567,"etw":568,"Ġstudy":569,"Ġall":570,"Ġ0":571,"mun":572,"Ġ,":573,"Ġcons":574,"ach":575,"ari":576,"ĠL":577,"enc":578,"RS":579,"age":580,"Ġalso":581,"pres":582,"ases":583,"ugh":584,"lud":585,"ĠTh":586,"Ġpl":587,"all":588,"Ġwhe":589,"Ġpos":590,"reat":591,"Ġbeen":592,"ib":593,"Ġsc":594,"fic":595,"Ġ20":596,"Ġtrans":597,"end":598,"Ġob":599,"uch":600,"Ġshow":601,"yp":602,"ide":603,"Ġsign":604,"Ġme":605,"Ġdata":606,"ose":607,"Ġgro":608,"ork":609,"Ġout":610,"ath":611,"ting":612,"Ġdifferen":613,"Ġy":614,"vir":615,"tr":616,"Ġother":617,"oV":618,"Ġpres":619,"Ġtheir":620,"Ġdet":621,"Ġk":622,"ates":623,"Ġvirus":624,"ak":625,"fl":626,"Ġanti":627,"Ġresul":628,"Ġreg":629,"Ġaf":630,"rib":631,"ular":632,"Ġanal":633,"een":634,"Ġqu":635,"Ġdise":636,"val":637,"Ġmore":638,"Ġhealth":639,"Ġmay":640,"ĠU":641,"tein":642,"ility":643,"Ġcells":644,"etween":645,"ual":646,"Ġtim":647,"The":648,"Ġthese":649,"Ġeffec":650,"CoV":651,"ied":652,"Ġbetween":653,"out":654,"Ġinclud":655,"ep":656,"ew":657,"Ġrel":658,"Ġmed":659,"atory":660,"Ġsub":661,"Ġincre":662,"Ġsam":663,"ARS":664,"Ġund":665,"Ġmodel":666,"NA":667,"Ġstr":668,"our":669,"emic":670,"ber":671,"Ġag":672,"Ġused":673,"ap":674,"Ġind":675,"ight":676,"Ġspec":677,"Ġman":678,"tim":679,"oci":680,"pit":681,"uring":682,"Ġmet":683,"Ġcor":684,"ever":685,"20":686,"Ġusing":687,"ail":688,"Ġdes":689,"Ġsp":690,"Ġhigh":691,"Ġthan":692,"ast":693,"ens":694,"ĠSARS":695,"Ġprotein":696,"Ġrespon":697,"Ġsur":698,"str":699,"Ġph":700,"Ġacc":701,"Ġro":702,"Ġsuch":703,"Ġpartic":704,"Ġam":705,"ulation":706,"Ġinfection":707,"Ġpr":708,"ould":709,"ĠThis":710,"Ġser":711,"erm":712,"ass":713,"ures":714,"Ġ6":715,"ard":716,"Ġ=":717,"Ġvari":718,"velop":719,"Ġnum":720,"Ġgroup":721,"Ġno":722,"Ġtime":723,"tain":724,"Ġsup":725,"Ġem":726,"stem":727,"ech":728,"lo":729,"Ġdisease":730,"Ġpo":731,"ays":732,"Ġunder":733,"pos":734,"ves":735,"Ġli":736,"der":737,"tal":738,"Ġbut":739,"Ġsignific":740,"ble":741,"Ġlevel":742,"wo":743,"dition":744,"ating":745,"rap":746,"Ġanalys":747,"ne":748,"Ġimmun":749,"Ġdec":750,"plic":751,"Ġdevelop":752,"ree":753,"Ġover":754,"ang":755,"ile":756,"ten":757,"anc":758,"Ġour":759,"Ġwill":760,"'s":761,"Ġduring":762,"Ġâ":763,"isk":764,"Ġuse":765,"ĠV":766,"oth":767,"ution":768,"Ġsystem":769,"ized":770,"Ġsignificant":771,"Ġclin":772,"unc":773,"ace":774,"Ġone":775,"ĠFig":776,"Ġappro":777,"Ġ\"":778,"Ġval":779,"Ġthere":780,"Ġwho":781,"Ġrepor":782,"llow":783,"rain":784,"les":785,"Ġinfl":786,"rol":787,"Ġtwo":788,"Ġwork":789,"acc":790,"Ġlow":791,"cess":792,"owever":793,"ect":794,"ser":795,"are":796,"ack":797,"Ġtreat":798,"Ġstudies":799,"ational":800,"one":801,"Ġprovid":802,"ĠWe":803,"ared":804,"Ġsim":805,"Ġid":806,"Ġcol":807,"ros":808,"Ġnumber":809,"Ġmo":810,"ung":811,"ants":812,"ines":813,"ult":814,"ues":815,"Ġrisk":816,"Ġar":817,"uman":818,"Ġfollow":819,"Ġassoci":820,"Ġ7":821,"ond":822,"Ġcases":823,"Ġfact":824,"Ġresults":825,"Ġhad":826,"tivity":827,"arg":828,"Ġconc":829,"Ġfin":830,"own":831,"Ġdifferent":832,"Ġcoun":833,"virus":834,"ection":835,"rec":836,"als":837,"Ġafter":838,"li":839,"Ġmost":840,"int":841,"acter":842,"Ġdist":843,"Ġidenti":844,"Ġ10":845,"use":846,"fer":847,"Ġ9":848,"Ġgener":849,"yt":850,"irst":851,"ities":852,"mis":853,"Ġmeas":854,"ild":855,"Ġclinical":856,"Ġonly":857,"fore":858,"itive":859,"Ġaut":860,"ice":861,"Ġperform":862,"Ġtest":863,"Ġes":864,"Ġinto":865,"mpt":866,"Ġpresent":867,"Ġeach":868,"Ġvacc":869,"Ġexper":870,"hod":871,"atic":872,"Ġthey":873,"Ġanalysis":874,"Ġop":875,"Ġpe":876,"hed":877,"Ġwell":878,"andemic":879,"Ġviral":880,"Ġform":881,"ubl":882,"ological":883,"Ġindi":884,"Ġboth":885,"ospit":886,"Ġbi":887,"rough":888,"Ġpath":889,"Ġreported":890,"entr":891,"Ġnon":892,"uct":893,"ization":894,"ute":895,"over":896,"ments":897,"ving":898,"Ġhuman":899,"ential":900,"tical":901,"Ġpop":902,"mptom":903,"Ġhig":904,"mon":905,"Ġmon":906,"ater":907,"Ġdo":908,"ined":909,"Ġcould":910,"Ġq":911,"ism":912,"Ġobser":913,"Ġav":914,"ces":915,"Ġpandemic":916,"ability":917,"tern":918,"Ġexpres":919,"Ġits":920,"Ġloc":921,"Ġtr":922,"gen":923,"urther":924,"ram":925,"qui":926,"Ġma":927,"ust":928,"Ġcomple":929,"Ġup":930,"Ġcare":931,"Ġtreatment":932,"vidual":933,"ough":934,"ogen":935,"ĠK":936,"erg":937,"duced":938,"10":939,"ination":940,"Ġ8":941,"Ġver":942,"Ġneed":943,"Ġexam":944,"Ġfound":945,"Ġinform":946,"Ġpot":947,"Ġsome":948,"Ġrem":949,"Ġwhen":950,"Ġimport":951,"Ġfirst":952,"vol":953,"ef":954,"Ġindividual":955,"cc":956,"ord":957,"hen":958,"agn":959,"hib":960,"ency":961,"ian":962,"Ġmethod":963,"ology":964,"unction":965,"ĠJ":966,"Ġthrough":967,"ature":968,"Ġsec":969,"duction":970,"ress":971,"Ġpubl":972,"CT":973,"Ġra":974,"med":975,"rent":976,"Ġcontrol":977,"ĠIt":978,"Ġrece":979,"Ġantib":980,"ok":981,"view":982,"ĠHowever":983,"tit":984,"osis":985,"Ġidentif":986,"Ġtyp":987,"Ġresear":988,"ĠÎ":989,"pr":990,"Ġdem":991,"Ġindic":992,"Ġbec":993,"ugg":994,"ospital":995,"mission":996,"ort":997,"yl":998,"ited":999,"Ġmin":1000,"Ġ-":1001,"Ġshould":1002,"Ġcar":1003,"Ġyear":1004,"Ġassociated":1005,"Ġpatient":1006,"Ġnew":1007,"Ġimp":1008,"Ġpred":1009,"Ġmul":1010,"Ġhigher":1011,"ric":1012,"AA":1013,"Ġconf":1014,"amm":1015,"gan":1016,"Ġkn":1017,"ilar":1018,"Ġdisc":1019,"In":1020,"Ġset":1021,"Ġsugg":1022,"Ġparticip":1023,"ons":1024,"pective":1025,"Ġcur":1026,"Ġprot":1027,"Ġprocess":1028,"Ġwhere":1029,"ex":1030,"ently":1031,"Ġincluding":1032,"vere":1033,"Ġfl":1034,"rel":1035,"ite":1036,"action":1037,"Ġso":1038,"ange":1039,"Ġaddition":1040,"art":1041,"iratory":1042,"ise":1043,"Ġsymptom":1044,"ateg":1045,"ties":1046,"Ġj":1047,"old":1048,"ning":1049,"sive":1050,"usion":1051,"Ġthose":1052,"ition":1053,"ement":1054,"Ġ).":1055,"ocial":1056,"ark":1057,"fici":1058,"Ġend":1059,"Ġpers":1060,"iv":1061,"Ġpositive":1062,"its":1063,"ples":1064,"de":1065,"ox":1066,"ive":1067,"Ġrequi":1068,"Ġavail":1069,"emb":1070,"Ġsequ":1071,"ĠFor":1072,"Ġcr":1073,"Ġsm":1074,"ize":1075,"Ġlevels":1076,"Ġfe":1077,"ĠCh":1078,"omes":1079,"ĠFigure":1080,"ĠĠĠĠ":1081,"hes":1082,"echn":1083,"Ġdue":1084,"vious":1085,"Ġdesc":1086,"sible":1087,"ie":1088,"ona":1089,"Ġprog":1090,"ages":1091,"Ġpopulation":1092,"Ġlim":1093,"Ġcompared":1094,"Ġ2020":1095,"Ġins":1096,"uf":1097,"Ġdiagn":1098,"con":1099,"ks":1100,"Ġsever":1101,"Ġmain":1102,"read":1103,"Ġdr":1104,"CR":1105,"ural":1106,"Ġshown":1107,"Ġincreased":1108,"Ġlike":1109,"Ġcase":1110,"Ġinflu":1111,"Ġbased":1112,"Ġabout":1113,"ĠAs":1114,"plement":1115,"Ġapp":1116,"Ġinformation":1117,"af":1118,"Ġresponse":1119,"ĠÂ":1120,"Ġresearch":1121,"Ġrate":1122,"Ġfunction":1123,"Ġspecific":1124,"Ġrespiratory":1125,"ily":1126,"Ġocc":1127,"ron":1128,"ness":1129,"Ġhy":1130,"valu":1131,"Ġimportant":1132,"tics":1133,"Ġstruct":1134,"ld":1135,"Ġhospital":1136,"Ġantibod":1137,"Ġmulti":1138,".,":1139,"ety":1140,"Ġdays":1141,"Ġinhib":1142,"hem":1143,"Ġmor":1144,"TT":1145,"arget":1146,"Ġassess":1147,"Ġep":1148,"arge":1149,"Ġwithin":1150,"Ġsocial":1151,"rect":1152,"Ġsevere":1153,"Fig":1154,"inal":1155,"Ġpredic":1156,"Ġtherap":1157,"raph":1158,"Ġpublic":1159,"Ġtra":1160,"Ġagain":1161,"Ġpa":1162,"Ġamong":1163,"Ġany":1164,"Ġage":1165,"%)":1166,"ality":1167,"ful":1168,"ople":1169,"Ġthree":1170,"Ġi":1171,"Ġet":1172,"Ġavailable":1173,"ale":1174,"ĠAn":1175,"Ã©":1176,"Ġeffect":1177,"ĠRNA":1178,"Ġif":1179,"Ġevalu":1180,"Ġcount":1181,"Ġobserved":1182,"Ġinte":1183,"Ġwould":1184,"ĠThese":1185,"Ġ+":1186,"ĠThere":1187,"Ġcommun":1188,"ĠTable":1189,"tig":1190,"Ġdef":1191,"Ġtechn":1192,"Ġdeterm":1193,"ix":1194,"jec":1195,"iod":1196,"rop":1197,"ause":1198,"Ġimpro":1199,"ions":1200,"oun":1201,"ound":1202,"Ġauth":1203,"ption":1204,"ock":1205,"ries":1206,"arly":1207,"Ġtarget":1208,"ĠSt":1209,"Ġexpression":1210,"Ġgene":1211,"oid":1212,"Ġsimilar":1213,"Ġmean":1214,"iter":1215,"ross":1216,"vers":1217,"Ġshowed":1218,"Ġpotential":1219,"Ġpeople":1220,"cl":1221,"Ġlead":1222,"Ġprevious":1223,"Ġactivity":1224,"Ġyears":1225,"eng":1226,"cer":1227,"Ġprim":1228,"onavirus":1229,"Ġtes":1230,"Ġdescrib":1231,"Ġchar":1232,"Ġperiod":1233,"Ġwhile":1234,"icro":1235,"Ġcollec":1236,"iss":1237,"Ġclass":1238,"Ġel":1239,"ses":1240,"ulated":1241,"ade":1242,"atis":1243,"Ġbin":1244,"Ġchild":1245,"CA":1246,"Ġperformed":1247,"gative":1248,"Ġinfected":1249,"Ġestim":1250,"ĠĠĠ":1251,"Ġdep":1252,"Ġagainst":1253,"ental":1254,"Ġmany":1255,"ences":1256,"Ġreview":1257,"Ġrepres":1258,"ove":1259,"ived":1260,"Ġeffects":1261,"ense":1262,"echan":1263,"Ġoutc":1264,"Ġcharacter":1265,"Ġte":1266,"Ġ)":1267,"Ġpol":1268,"Ġfactors":1269,"Ġsymptoms":1270,"Ġthem":1271,"par":1272,"Ġfurther":1273,"ha":1274,"vent":1275,"uce":1276,"Ġdrug":1277,"Ġsame":1278,"min":1279,"Ġsamples":1280,"Ġtri":1281,"Ġincrease":1282,"Ġmeasure":1283,"ob":1284,"Ġcaus":1285,"Ġchang":1286,"Ġexpl":1287,"Ġgroups":1288,"Ġlong":1289,"Ġinvol":1290,"ĠAl":1291,"onstr":1292,"ince":1293,"ider":1294,"Ġorgan":1295,"Ġiniti":1296,"lob":1297,"Ġmechan":1298,"Ġcyt":1299,"ĠCD":1300,"inc":1301,"Ġcal":1302,"Ġobtain":1303,"Ġsol":1304,"enz":1305,"lood":1306,"though":1307,"ood":1308,"acy":1309,"Ġsus":1310,"ĠâĪ":1311,"Ġthen":1312,"ically":1313,"omic":1314,"ucle":1315,"Ġdeath":1316,"000":1317,"vention":1318,"Ġtotal":1319,"Ġoccur":1320,"Ġaffec":1321,"xim":1322,"iqu":1323,"Ġsecond":1324,"amet":1325,"ps":1326,"Ġproteins":1327,"Ġcurrent":1328,"vestig":1329,"ma":1330,"Ġimmune":1331,"Ġlarge":1332,"Ġz":1333,"mer":1334,"Ġrespective":1335,"me":1336,"Ġfinding":1337,"Ġpri":1338,"Ġdevelopment":1339,"ĠÃ":1340,"Ġfollowing":1341,"Ġdecre":1342,"hip":1343,"Ġsupport":1344,"reak":1345,"mit":1346,"Ġrole":1347,"Ġless":1348,"Ġwor":1349,"line":1350,"Ġindividuals":1351,"Ġepid":1352,"Ġcle":1353,"iven":1354,"Ġcommon":1355,"ately":1356,"Ġviruses":1357,"Ġlower":1358,"til":1359,"Ġlung":1360,"Ġevid":1361,"based":1362,"posed":1363,"Ġinvestig":1364,"Ġbeing":1365,"Ġcontain":1366,"RNA":1367,"Ġselec":1368,"led":1369,"Ġcountries":1370,"Ġlab":1371,"Ġrelated":1372,"Ġwithout":1373,"Ġinfections":1374,"ĠHe":1375,"Ġmemb":1376,"Ġsmall":1377,"Ġfac":1378,"Ġmodels":1379,"roph":1380,"Ġed":1381,"Ġnegative":1382,"ĠUn":1383,"Ġparticipants":1384,"Ġsignificantly":1385,"Ġstrateg":1386,"SA":1387,"jor":1388,"Ġu":1389,"Ġdemonstr":1390,"Ġblood":1391,"Ġder":1392,"sy":1393,"ograph":1394,"ified":1395,"Ġrecom":1396,"Ġincluded":1397,"Ġbl":1398,"ry":1399,"sequ":1400,"Ġ'":1401,"Ġ<":1402,"Ġterm":1403,"ormal":1404,"Ġrele":1405,"Ġ12":1406,"Ġdid":1407,"Ġbecause":1408,"Ġdesign":1409,"12":1410,"Ġla":1411,"Ġequ":1412,"print":1413,"sed":1414,"ish":1415,"ina":1416,"Ġconfir":1417,"requ":1418,"Ġidentified":1419,"plication":1420,"tality":1421,"CE":1422,"ected":1423,"Ġexperi":1424,"ording":1425,"ices":1426,"Ġbas":1427,"Ġprac":1428,"Ġpost":1429,"Ġallow":1430,"uid":1431,"oph":1432,"Ġcoronavirus":1433,"Ġmajor":1434,"Ġadd":1435,"Ġsit":1436,"io":1437,"ink":1438,"Ġstand":1439,"Ġrespectively":1440,"cri":1441,"Ġconcentr":1442,"Ġisol":1443,"Ġpossible":1444,"ores":1445,"Ġvis":1446,"ern":1447,"Ġacid":1448,"enza":1449,"idered":1450,"Ġhow":1451,"Ġseveral":1452,"Ġpreprint":1453,"to":1454,"arm":1455,"Ġconsidered":1456,"Ġparticular":1457,"TG":1458,"Ġvaccine":1459,"Ġmortality":1460,"other":1461,"Ġques":1462,"Ġ19":1463,"Ġactiv":1464,"Ġimpact":1465,"Ġmedical":1466,"ĠTo":1467,"Ġatt":1468,"ĠIL":1469,"Ġemerg":1470,"Ġext":1471,"Ģ¢":1472,"Ġremain":1473,"hel":1474,"Ġinflamm":1475,"ensi":1476,"Ġtransmission":1477,"ished":1478,"Ġeffective":1479,"Ġdistrib":1480,"ty":1481,"ium":1482,"Ġtre":1483,"Ġcomb":1484,"etwork":1485,"viron":1486,"of":1487,"round":1488,"ator":1489,"Ġmicro":1490,"iel":1491,"Ġchildren":1492,"Ġmolec":1493,"ind":1494,"Ġwee":1495,"reg":1496,"xt":1497,"Ġhel":1498,"Ġconsider":1499,"Ġsample":1500,"ov":1501,"endent":1502,"vant":1503,"break":1504,"Ġchanges":1505,"Ġ15":1506,"Ġprob":1507,"Ġill":1508,"Ġapproach":1509,"Ġcomplex":1510,"Ġmut":1511,"Ġacute":1512,"ics":1513,"stand":1514,"duce":1515,"oy":1516,"Ġvalues":1517,"Ġprovide":1518,"Ġresid":1519,"Ġproduc":1520,"ration":1521,"Ġke":1522,"ced":1523,"Ġvalue":1524,"Ġlikely":1525,"Ġrepresent":1526,"Ġanaly":1527,"11":1528,"Ġbefore":1529,"Ġexperim":1530,"Ġinhibit":1531,"Ġphys":1532,"zed":1533,"Ġmark":1534,"ables":1535,"Ġfrequ":1536,"Ġtem":1537,"onal":1538,"Ġdescribed":1539,"Ġresult":1540,"ake":1541,"Ġsurve":1542,"Ġdirect":1543,"Ġprof":1544,"Ġexample":1545,"Ġair":1546,"havi":1547,"Ġdiseases":1548,"Ġtype":1549,"Ġcompar":1550,"ditions":1551,"Ġevidence":1552,"Ġmanag":1553,"arch":1554,"ogn":1555,"Ġoutbreak":1556,"ised":1557,"ft":1558,"Ġday":1559,"Ġcontin":1560,"Ġpoly":1561,"yn":1562,"ening":1563,"Ġmat":1564,"TA":1565,"Ġspread":1566,"Ġrecept":1567,"Ġfam":1568,"Ġtesting":1569,"Ġ30":1570,"Ġlear":1571,"Ġgreat":1572,"av":1573,"Ġly":1574,"Ġearly":1575,"Ġmeasures":1576,"ually":1577,"verage":1578,"Ġcontrib":1579,"Ġgeneral":1580,"yc":1581,"ingle":1582,"ward":1583,"Ġconditions":1584,"neum":1585,"cent":1586,"Ġsugges":1587,"very":1588,"Ġserv":1589,"Ġbehavi":1590,"uted":1591,"Ġmechanism":1592,"Ġ50":1593,"Ġnetwork":1594,"cept":1595,"Ġmight":1596,"Ġenviron":1597,"Ġmade":1598,"Ġcap":1599,"verse":1600,"Ġgrow":1601,"Ġpart":1602,"IV":1603,"care":1604,"Ġparamet":1605,"Ġeven":1606,"ife":1607,"bility":1608,"related":1609,"Ġfindings":1610,"ĠAf":1611,"Ġanim":1612,"ĠAll":1613,"Ġobtained":1614,"Ġknow":1615,"Ġret":1616,"Ġgiven":1617,"tis":1618,"Ġinf":1619,"Ġfoc":1620,"nal":1621,"Ġsyn":1622,"Ġref":1623,"Ġconduc":1624,"Ġvery":1625,"Ġsuggest":1626,"ield":1627,"Ġlo":1628,"ists":1629,"Ġcalc":1630,"cep":1631,"Ġben":1632,"tious":1633,"ms":1634,"pon":1635,"Ġglob":1636,"Ġcult":1637,"Ġest":1638,"Ġsingle":1639,"Ġdom":1640,"Ġbinding":1641,"Ġmice":1642,"anti":1643,"Ġhyp":1644,"Ġmonth":1645,"Ġnucle":1646,"Ġchall":1647,"enter":1648,"ols":1649,"way":1650,"asing":1651,"Ġtrain":1652,"Ġmultiple":1653,"Ġpur":1654,"Ġtiss":1655,"15":1656,"Ġdeveloped":1657,"ral":1658,"Ġlic":1659,"Ġorder":1660,"ĠRes":1661,"ĠCon":1662,"Ġnec":1663,"face":1664,"14":1665,"Ġinfluenza":1666,"ulations":1667,"Ġproble":1668,"ended":1669,"Ġline":1670,"Ġlocal":1671,"Ġreport":1672,"Ġcop":1673,"Ġhost":1674,"Ġcri":1675,"ĠRe":1676,"Ġregion":1677,"ins":1678,"ision":1679,"ficient":1680,"Ġmethods":1681,"spec":1682,"for":1683,"Ġ14":1684,"actions":1685,"Ġprior":1686,"Ġstrain":1687,"Ġimprove":1688,"Ġfocus":1689,"Ġbet":1690,"ification":1691,"Ġdiagnos":1692,"ploy":1693,"Ġcer":1694,"Ġvi":1695,"ially":1696,"the":1697,"Ġrelative":1698,"Ġstandard":1699,"Ġyo":1700,"utions":1701,"Ġpat":1702,"ai":1703,"Ġdetection":1704,"Ġauthor":1705,"ults":1706,"Ġ[":1707,"overn":1708,"Ġextr":1709,"sure":1710,"omen":1711,"ources":1712,"Ġimplement":1713,"ither":1714,"Ġpneum":1715,"ick":1716,"Ġprogram":1717,"pected":1718,"abl":1719,"Ġelec":1720,"Ġknown":1721,"asc":1722,"ĠFurther":1723,"Ġbacter":1724,"infec":1725,"Ġlos":1726,"Ġunderstand":1727,"Ġstructure":1728,"ouse":1729,"Ġrelations":1730,"18":1731,"Ġer":1732,"Ġinclude":1733,"cop":1734,"Ġchange":1735,"Ġresponses":1736,"Ġhist":1737,"Ġstatis":1738,"Ġdispl":1739,"ĠCom":1740,"Ġpolic":1741,"Ġenvironment":1742,"Ġworld":1743,"Ġstate":1744,"Ġacross":1745,"16":1746,"ĠIF":1747,"ĠOn":1748,"Ġoutcomes":1749,"otyp":1750,"Ġwhether":1751,"ner":1752,"Ġtherapy":1753,"try":1754,"ets":1755,"ĠZ":1756,"Ġantibody":1757,"ocyt":1758,"aking":1759,"Ġdifferences":1760,"Ġsize":1761,"13":1762,"ĠAd":1763,"Ġsystems":1764,"Ġhand":1765,"Ġpresence":1766,"plications":1767,"Ġinteres":1768,"Ġplas":1769,"epti":1770,"Ġfour":1771,"eu":1772,"Ġlimit":1773,"elf":1774,"ount":1775,"Ġsensi":1776,"Ġfactor":1777,"Ġrap":1778,"ĠIg":1779,"ependent":1780,"Ġrates":1781,"Ġhelp":1782,"Ġvarious":1783,"ession":1784,"Ġantibodies":1785,"Ġcontr":1786,"Ġful":1787,"ĠQ":1788,"Ġepidemic":1789,"Ġrecomm":1790,"ters":1791,"uture":1792,"sych":1793,"tically":1794,"We":1795,"Ġnormal":1796,"Ġrequired":1797,"Ġproduction":1798,"ym":1799,"ledge":1800,"Ġstat":1801,"Ġidentify":1802,"Ġenc":1803,"Ġcancer":1804,"50":1805,"ĠâĪĴ":1806,"ivers":1807,"we":1808,"idence":1809,"ru":1810,"sing":1811,"ject":1812,"Ġinfectious":1813,"till":1814,"ĠPro":1815,"Ġconfirmed":1816,"Ġ24":1817,"Ġvol":1818,"ans":1819,"Ġecon":1820,"Ġneut":1821,"urn":1822,"Ġdiscus":1823,"Ġabs":1824,"ĠInd":1825,"rome":1826,"ored":1827,"Ġcat":1828,"Ġlicense":1829,"medi":1830,"ĠMore":1831,"onia":1832,"ĠY":1833,"17":1834,"lation":1835,"ators":1836,"Ġrapid":1837,"Ġstrong":1838,"Ġcontact":1839,"Ġrelationship":1840,"Ġstress":1841,"Ġ200":1842,"hold":1843,"Ġrange":1844,"Ġele":1845,"ĠChina":1846,"ax":1847,"Ġdiagnosis":1848,"Ġreduced":1849,"Ġvit":1850,"down":1851,"put":1852,"ression":1853,"%,":1854,"Ġreal":1855,"Ġ13":1856,"Ġ18":1857,"ci":1858,"Ġprimary":1859,"Ġgenes":1860,"rane":1861,"tt":1862,"Ġeduc":1863,"Ġ100":1864,"Ġvia":1865,"ules":1866,"hest":1867,"ĠDNA":1868,"ĠTherefore":1869,"Ġcharacteris":1870,"ger":1871,"Ġdomain":1872,"sel":1873,"Ġabove":1874,"Ġcommunity":1875,"itor":1876,"Ġexpos":1877,"Ġev":1878,"Ġdetected":1879,"ably":1880,"Ġstudents":1881,"ĠACE":1882,"low":1883,"ĠIC":1884,"Ġrecent":1885,"Ġquality":1886,"acts":1887,"roll":1888,"GA":1889,"ĠWh":1890,"Cs":1891,"Ġox":1892,"Ġmanagement":1893,"Ġadmin":1894,"ann":1895,"Ġproced":1896,"Ġdisplay":1897,"Ġconsist":1898,"Ġoften":1899,"Ġgovern":1900,"Ġscre":1901,"Ġreve":1902,"Ġdistribution":1903,"Ġsuc":1904,"Ġglobal":1905,"Ġsince":1906,"ote":1907,"Ġ16":1908,"Ġaccess":1909,"ndom":1910,"Ġcollected":1911,"Ġvariables":1912,"Ġsequence":1913,"irc":1914,"ata":1915,"Ġiss":1916,"tered":1917,"Ġprovided":1918,"Ġpresented":1919,"Ġself":1920,"cho":1921,"Ġinj":1922,"Ġleast":1923,"ĠX":1924,"Ġlimited":1925,"Ġprom":1926,"Ġhealthcare":1927,"05":1928,"Ġknowledge":1929,"des":1930,"itis":1931,"Ġlife":1932,"Ġeither":1933,"atures":1934,"Ġtested":1935,"Ġlabor":1936,"ynam":1937,"aterial":1938,"Ġpsych":1939,"Ġlearning":1940,"mph":1941,"izing":1942,"tice":1943,"ĠHealth":1944,"Ġbetter":1945,"21":1946,"Ġfuture":1947,"Ġgra":1948,"Ġaccording":1949,"Ġmas":1950,"Ġdemonstrated":1951,"Ġlack":1952,"Ġol":1953,"Ġaverage":1954,"term":1955,"Ġconducted":1956,"struc":1957,"Ġstill":1958,"Ġoptim":1959,"ndrome":1960,"Ġpathogen":1961,"aff":1962,"Ġfail":1963,"ird":1964,"Ġepit":1965,"xiv":1966,"Ġ11":1967,"Ġcorrel":1968,"Ġversion":1969,"Ġcardi":1970,"Ġrandom":1971,"pression":1972,"Rxiv":1973,"Ġpattern":1974,"Ġhowever":1975,"Ġda":1976,"Ġur":1977,"ances":1978,"Ġmy":1979,"Ġ25":1980,"Ġpreviously":1981,"Ġspecies":1982,"Ġoper":1983,"Ġread":1984,"Ġshort":1985,"Ġpneumonia":1986,"aging":1987,"Ġconte":1988,"Ġincreasing":1989,"Ġinitial":1990,"Ġkey":1991,"ane":1992,"Ġreceptor":1993,"Ġsignal":1994,"Ġdeg":1995,"Ġtests":1996,"Ġcytok":1997,"Ġenh":1998,"Ġthus":1999,"ference":2000,"Ġhyper":2001,"com":2002,"Ġmonths":2003,"tivi":2004,"Ġquestion":2005,"ino":2006,"PCR":2007,"Ġdel":2008,"pect":2009,"Ġproper":2010,"aled":2011,"Ġinst":2012,"Ġrat":2013,"uration":2014,"co":2015,"pecially":2016,"more":2017,"ardi":2018,"Ġhighly":2019,"Ġgo":2020,"yr":2021,"iral":2022,"ĠâĢ¢":2023,"Ġestabl":2024,"Ġgran":2025,"Ġcritical":2026,"Ġguid":2027,"Ġtimes":2028,"Ġrequire":2029,"cell":2030,"MP":2031,"tif":2032,"Ġach":2033,"Ġshows":2034,"specific":2035,"Ġcause":2036,"ique":2037,"ier":2038,"Ġfacil":2039,"ible":2040,"ode":2041,"Ġareas":2042,"Ġsetting":2043,"Th":2044,"Ġparameters":2045,"Ġassum":2046,"pri":2047,"Ġachie":2048,"Ġprevent":2049,"Ġtraining":2050,"Ġassay":2051,"ways":2052,"Ġrecogn":2053,"erv":2054,"Ġpreval":2055,"Ġdoes":2056,"like":2057,"ame":2058,"Ġexposure":2059,"set":2060,"Ġfew":2061,"Ġsum":2062,"Ġpul":2063,"ĠmedRxiv":2064,"Ġlymph":2065,"gl":2066,"Ġnecess":2067,"ĠÏ":2068,"Ġdeli":2069,"ronic":2070,"Ġsurface":2071,"Ġminim":2072,"Ġactive":2073,"Ġinv":2074,"not":2075,"Ġgrowth":2076,"ource":2077,"Ġfamily":2078,"ings":2079,"plied":2080,"Ġadv":2081,"//":2082,"Ġstep":2083,"Ġperformance":2084,"Ġartic":2085,"Ġreas":2086,"Ġmg":2087,"ĠIFN":2088,"Ġsw":2089,"Ġcirc":2090,"Ã¤":2091,"ĠAlthough":2092,"AP":2093,"Ġdifference":2094,"tivities":2095,"ict":2096,"Ġmedic":2097,"Ġadj":2098,"den":2099,"wh":2100,"Ġespecially":2101,"ody":2102,"Ġinvolved":2103,"Ġreduce":2104,"Ġrati":2105,"Ġgl":2106,"://":2107,"ĠII":2108,"Ġscore":2109,"Ġemploy":2110,"dro":2111,"Ġconcern":2112,"jects":2113,"Ġchem":2114,"Ġdefined":2115,"Ġhome":2116,"ious":2117,"ensity":2118,"Ġaccur":2119,"Ġadditional":2120,"Ġmust":2121,"Ġproposed":2122,"Ġexp":2123,"Ġcontinu":2124,"ights":2125,"ĠThus":2126,"Ġfollowed":2127,"pati":2128,"Ġneu":2129,"Ġauthors":2130,"Ġact":2131,"ascular":2132,"Ġsa":2133,"Ġsurvi":2134,"Ġservices":2135,"Ã³":2136,"ĠHC":2137,"icity":2138,"mitted":2139,"Ġactivation":2140,"Ġsyndrome":2141,"Ġcorres":2142,"Ġaim":2143,"Ġtissue":2144,"bo":2145,"Ġliter":2146,"Ġpepti":2147,"Ġtemper":2148,"ĠCT":2149,"Ġsci":2150,"ulate":2151,"Ġ2019":2152,"Ġsitu":2153,"Ġdiffic":2154,"be":2155,"Ġphysical":2156,"Ġradi":2157,"las":2158,"Ġmal":2159,"bid":2160,"any":2161,"Ġpoint":2162,"pe":2163,"Ġreduction":2164,"Ġstrategies":2165,"Ġorig":2166,"ician":2167,"eline":2168,"go":2169,"arding":2170,"ĠCo":2171,"hy":2172,"Ġdoc":2173,"RI":2174,"hesis":2175,"Ġbenef":2176,"Ġfram":2177,"Ġexist":2178,"Ġserum":2179,"Ġcomplete":2180,"Ġcaused":2181,"Ġterms":2182,"istic":2183,"Ġvalid":2184,"Ġinteg":2185,"ĠEn":2186,"inant":2187,"sc":2188,"Ġinteraction":2189,"Ġsurvey":2190,"Ġappear":2191,"ides":2192,"Ġmac":2193,"Ġtop":2194,"Ġfood":2195,"Ġtypes":2196,"aken":2197,"Ġ17":2198,"Ġchalleng":2199,"Ġeng":2200,"Ġcour":2201,"ector":2202,"ĠPCR":2203,"Ġactivities":2204,"Ġrespond":2205,"Ġreplication":2206,"Ġobserv":2207,"Ġutil":2208,"Ġcharacteristics":2209,"Ġgreater":2210,"Ġcompon":2211,"wn":2212,"Ġ>":2213,"AS":2214,"Ġlock":2215,"omy":2216,"Ġwomen":2217,"Ġtranscri":2218,"Ġarea":2219,"Ġcre":2220,"Ġtherefore":2221,"Ġrestr":2222,"Ġstatus":2223,"Ġevents":2224,"Ġsite":2225,"osph":2226,"ule":2227,"Ġcontext":2228,"Ġdrugs":2229,"Ġphase":2230,"afety":2231,"Ġseverity":2232,"ĠHIV":2233,"Ġable":2234,"Ġregions":2235,"inated":2236,"Ġsee":2237,"abil":2238,"Ġconcentration":2239,"Ġchronic":2240,"Ġfil":2241,"rit":2242,"Ġmen":2243,"Ġnovel":2244,"Ġrecord":2245,"ury":2246,"Ġmembrane":2247,"Ġculture":2248,"Ġsoci":2249,"ike":2250,"Ġclus":2251,"gi":2252,"anced":2253,"CC":2254,"Ġgly":2255,"Ġdown":2256,"here":2257,"Ġinflammatory":2258,"Ġonline":2259,"Ġoverall":2260,"Ġtreated":2261,"ĠOur":2262,"Ġfeatures":2263,"ĠSe":2264,"monary":2265,"Ġcateg":2266,"Ġsk":2267,"Ġcompound":2268,"ior":2269,"Ġventi":2270,"Ġsequences":2271,"Ġaddress":2272,"ĠME":2273,"portion":2274,"Ġsuccess":2275,"ours":2276,"Ps":2277,"Ġdynam":2278,"Ġdetail":2279,"Ġweeks":2280,"DS":2281,"ocytes":2282,"ems":2283,"ĠMoreover":2284,"25":2285,"ĠFurthermore":2286,"sp":2287,"ficiency":2288,"ene":2289,"Ġwater":2290,"Ġdeaths":2291,"Ġmuch":2292,"Ġvaccines":2293,"ĠAt":2294,"Ġess":2295,"ument":2296,"Ġcriter":2297,"Ġantiv":2298,"Ġatten":2299,"BD":2300,"ĠIm":2301,"Ġperson":2302,"ension":2303,"tial":2304,"ison":2305,"AR":2306,"Ġsuf":2307,"othe":2308,"Ġantigen":2309,"lying":2310,"Ġdetermined":2311,"Ġprotoc":2312,"Ġexperience":2313,"ĠEx":2314,"Ġenz":2315,"Ġseen":2316,"Ġdaily":2317,"omet":2318,"Ġanalyses":2319,"Ġdose":2320,"Ġlog":2321,"ogene":2322,"fication":2323,"ember":2324,"ze":2325,"ints":2326,"Ġmaterial":2327,"Ġprec":2328,"Ġgood":2329,"ether":2330,"Ġaffected":2331,"PE":2332,"enced":2333,"Ġbro":2334,"Ġtum":2335,"pite":2336,"cepti":2337,"ĠRT":2338,"gor":2339,"Ġdatas":2340,"utes":2341,"%),":2342,"Ġhem":2343,"ergy":2344,"Ġneeded":2345,"Ġability":2346,"Ġvaccination":2347,"Ġles":2348,"ient":2349,"Ġcoh":2350,"Ġcross":2351,"Ġevol":2352,"Ġmental":2353,"Ġdetermine":2354,"Ġlink":2355,"ware":2356,"gorith":2357,"Ġlockdown":2358,"Table":2359,"Ġoutcome":2360,"ĠCC":2361,"ank":2362,"els":2363,"Ġpercent":2364,"Ġher":2365,"ĠIntern":2366,"Ġwhat":2367,"Ġback":2368,"Ġanother":2369,"Ġprevalence":2370,"eration":2371,"Ġrestric":2372,"aps":2373,"erc":2374,"Ġreduc":2375,"Ġintro":2376,"active":2377,"Ġdie":2378,"Ġinteractions":2379,"Ġstaff":2380,"Ġ;":2381,"Ġhol":2382,"Ġplay":2383,"PS":2384,"Ġtoward":2385,"ower":2386,"Ġanalyzed":2387,"pre":2388,"Ġadmission":2389,"30":2390,"Ġ95":2391,"Ġgenome":2392,"Ġappropri":2393,"Ġliterature":2394,"Ġintervention":2395,"Ġlarg":2396,"Ġfib":2397,"Ġinstit":2398,"Ġfield":2399,"Ġmeasured":2400,"Ġreceived":2401,"ĠAfter":2402,"Ġloss":2403,"emi":2404,"inally":2405,"95":2406,"pet":2407,"Ġwide":2408,"Ġclose":2409,"Ġeconomic":2410,"Ġmolecular":2411,"Ġexc":2412,"helial":2413,"acted":2414,"GG":2415,"lusion":2416,"Ġcentr":2417,"Ġpaper":2418,"Ġdev":2419,"Ġtherapeu":2420,"Ġapplied":2421,"Ġclear":2422,"hers":2423,"iversity":2424,"Ġnat":2425,"odes":2426,"Ġcondition":2427,"aches":2428,"Ġincub":2429,"Ġresist":2430,"Ġge":2431,"Ġrevealed":2432,"infl":2433,"air":2434,"Ġtemperature":2435,"Ġaround":2436,"abol":2437,"ength":2438,"Ġsl":2439,"Ġdon":2440,"Ġphen":2441,"Ġbu":2442,"Ġindicated":2443,"Ġcent":2444,"RF":2445,"Ġvs":2446,"Ġexpressed":2447,"och":2448,"Ġbehavior":2449,"Ġcapac":2450,"ported":2451,"Ġanimals":2452,"MS":2453,"po":2454,"see":2455,"Ġantiviral":2456,"Ġmake":2457,"Ġratio":2458,"Ġbest":2459,"Ġlaboratory":2460,"Ġresources":2461,"ancing":2462,"Ġrelevant":2463,"pose":2464,"Ġsensitivity":2465,"entially":2466,"RT":2467,"Ġintern":2468,"Ġ40":2469,"under":2470,"Ġway":2471,"Ġselected":2472,"Ġalthough":2473,"Ġevery":2474,"Ġexpected":2475,"ttps":2476,"eed":2477,"ĠÂ±":2478,"Ġparticularly":2479,"ficacy":2480,"Ġscho":2481,"Ġprote":2482,"ĠIf":2483,"bor":2484,"Ġpractice":2485,"uk":2486,"Ġx":2487,"Ġproblem":2488,"BS":2489,"Ġdecreased":2490,"Ġillness":2491,"Ġalgorith":2492,"Ġmix":2493,"ave":2494,"Ġdys":2495,"Ġnur":2496,"Ġeth":2497,"Ġsuscepti":2498,"Ġcall":2499,"Ġsafety":2500,"Ġmechanisms":2501,"Ġplace":2502,"Ġâī":2503,"ferred":2504,"Ġstim":2505,"Ġcountry":2506,"Ġmedia":2507,"ĠMed":2508,"Ġestimated":2509,"Ġstrategy":2510,"ographic":2511,"encing":2512,"urop":2513,"xi":2514,"ĠCI":2515,"kn":2516,"Ġincidence":2517,"Ġmonitor":2518,"Ġweek":2519,"sibility":2520,"ocy":2521,"ital":2522,"Ġworkers":2523,"Ġsepar":2524,"ĠCl":2525,"Ġdam":2526,"Ġexplain":2527,"Ġproportion":2528,"As":2529,"overy":2530,"Ġreflec":2531,"To":2532,"Ġeducation":2533,"IC":2534,"ovirus":2535,"Ġ*":2536,"Ġcommunic":2537,"ify":2538,"Ġmaintain":2539,"org":2540,"Ġfr":2541,"tro":2542,"ustr":2543,"Ġconn":2544,"ining":2545,"ands":2546,"Ġflow":2547,"Ġcalculated":2548,"Ġassociation":2549,"Ġbody":2550,"Ġgovernment":2551,"ĠAc":2552,"stit":2553,"AC":2554,"ĠICU":2555,"Ġconst":2556,"Ġpolicy":2557,"Ġfive":2558,"Ġdecrease":2559,"Ġpredict":2560,"Ġsubsequ":2561,"istration":2562,"Ġevaluated":2563,"ising":2564,"ring":2565,"ume":2566,"Ġcontrast":2567,"ĠThey":2568,"Ġcarri":2569,"Ġpulmonary":2570,"Ġperce":2571,"Ġstar":2572,"SV":2573,"Ġcriteria":2574,"Ġcost":2575,"Ġgranted":2576,"ĠOne":2577,"iat":2578,"ĠMarch":2579,"Ġresulting":2580,"Ġ28":2581,"Ġdifficult":2582,"roup":2583,"Ġassessment":2584,"Ġdirectly":2585,"Ġprofession":2586,"Ġprotec":2587,"Ġapproxim":2588,"Ġstrains":2589,"ĠWhile":2590,"Ġmedi":2591,"erate":2592,"Ġsuggested":2593,"Ġnecessary":2594,"rup":2595,"Ġessential":2596,"urope":2597,"abor":2598,"ventions":2599,"Ġplasma":2600,"ĠÂµ":2601,"Ġtrials":2602,"Ġregarding":2603,"Ġpressure":2604,"Ġmaxim":2605,"Ġsites":2606,"Ġinterest":2607,"Ġcourse":2608,"Ġothers":2609,"Ġ22":2610,"vement":2611,"Ġcertain":2612,"Ġcoll":2613,"inary":2614,"Ġneeds":2615,"ĠCO":2616,"uity":2617,"Ġsubst":2618,"Ġrecommend":2619,"Ġtrial":2620,"rid":2621,"Ġneutral":2622,"LI":2623,"bers":2624,"Ġflu":2625,"illion":2626,"Ġappropriate":2627,"Ġcellular":2628,"Ġthough":2629,"tle":2630,"HO":2631,"funder":2632,"Ġden":2633,"yright":2634,"Ġscale":2635,"Ġreports":2636,"Ġunderstanding":2637,"Ġsumm":2638,"Ġsecondary":2639,"Ġfem":2640,"This":2641,"Ġsu":2642,"Ġhaving":2643,"Ġfailure":2644,"Ġnational":2645,"Ġscreening":2646,"long":2647,"inflamm":2648,"xiety":2649,"rolled":2650,"ygen":2651,"artic":2652,"ales":2653,"CD":2654,"Ġinflammation":2655,"Ġconsum":2656,"001":2657,"row":2658,"Ġcopyright":2659,"rad":2660,"ogens":2661,"Ġteam":2662,"40":2663,"aces":2664,"Ġwhereas":2665,"equ":2666,"Ġcapacity":2667,"ulating":2668,"Ġmembers":2669,"Ġdetect":2670,"ĠIgG":2671,"Ġavoid":2672,"rim":2673,"Ġbar":2674,"ik":2675,"Ġliver":2676,"usc":2677,"Ġnow":2678,"Ġpopulations":2679,"ĠSim":2680,"Ġconsequ":2681,"ymptom":2682,"Ġbecome":2683,"Ġmetabol":2684,"outh":2685,"Ġ37":2686,"iness":2687,"ĠEurope":2688,"olar":2689,"Ġcontaining":2690,"ĠPati":2691,"ĠUS":2692,"Ġpublished":2693,"Ġchain":2694,"Ġyou":2695,"bi":2696,"Ġefficacy":2697,"lor":2698,"Ġinn":2699,"Ġ23":2700,"Â°":2701,"Ġfull":2702,"opath":2703,"ponding":2704,"Ġpoor":2705,"ont":2706,"Ġ60":2707,"ĠAr":2708,"Ġinterventions":2709,"itation":2710,"Ġimportance":2711,"Ġ21":2712,"upplement":2713,"king":2714,"LA":2715,"arr":2716,"Ġadults":2717,"Ġperpet":2718,"fusion":2719,"Ġblock":2720,"time":2721,"aneous":2722,"pared":2723,"elines":2724,"Ġtas":2725,"Ġdim":2726,"Ġinjury":2727,"01":2728,"Ġevaluation":2729,"Ġcorrelation":2730,"Ġtherapeutic":2731,"pp":2732,"wide":2733,"Ġgenerated":2734,"Ġnan":2735,"day":2736,"ĠUSA":2737,"Ġdiagnostic":2738,"pir":2739,"ories":2740,"Ġsolution":2741,"Ġreaction":2742,"Ġload":2743,"ysis":2744,"II":2745,"ww":2746,"ĠPE":2747,"Ġlater":2748,"oma":2749,"Ġinfluence":2750,"Ã¼":2751,"Ġhistory":2752,"Ġprovides":2753,"iting":2754,"Ġemergency":2755,"Ġenergy":2756,"Ġdig":2757,"typ":2758,"Ġhighl":2759,"ĠInternational":2760,"Ġpeak":2761,"Ġmeans":2762,"Ġevent":2763,"Ġapproaches":2764,"ficial":2765,"enari":2766,"Ġcohort":2767,"Ġent":2768,"app":2769,"han":2770,"Ġassessed":2771,"Ġdri":2772,"ae":2773,"Ġleading":2774,"ĠSp":2775,"atform":2776,"do":2777,"Ġanimal":2778,"Ġface":2779,"Ġfund":2780,"Ġyoung":2781,"Ġhydro":2782,"ologies":2783,"Ġfinal":2784,"Ġlat":2785,"Ġlip":2786,"Ġfever":2787,"Ġhumans":2788,"Ã³n":2789,"22":2790,"ili":2791,"Ġrather":2792,"AT":2793,"Ġfat":2794,"ĠNo":2795,"ĠÎ¼":2796,"Ġmit":2797,"Ġenter":2798,"Ġpersonal":2799,"Ġagents":2800,"Ġhom":2801,"Ġadop":2802,"Ġimmunity":2803,"Ġholder":2804,"Ġdiab":2805,"Ġbroad":2806,"âĢ¢":2807,"Ġtaken":2808,"Ġbacterial":2809,"Ġfrequency":2810,"Ġmild":2811,"Ġnatural":2812,"ere":2813,"unctions":2814,"Ġcris":2815,"Ġanxiety":2816,"let":2817,"Ġscores":2818,"ĠmRNA":2819,"COVID":2820,"Ġquestions":2821,"rag":2822,"NF":2823,"Ġvitro":2824,"Ġolder":2825,"Ġprocesses":2826,"formation":2827,"rence":2828,"Ġcombination":2829,"LR":2830,"ancy":2831,"Ġcomparison":2832,"encies":2833,"Ġconcentrations":2834,"Ġdecision":2835,"Ġonset":2836,"Ġpathogens":2837,"Ġbrain":2838,"Ġtechnology":2839,"plant":2840,"ply":2841,"Ġpower":2842,"ditional":2843,"Ġconsistent":2844,"Ġproducts":2845,"Ġview":2846,"Ġaltern":2847,"amin":2848,"Ġindex":2849,"bs":2850,"Ġindicate":2851,"ready":2852,"Ġmedian":2853,"Ġaffect":2854,"Ġcorresponding":2855,"isc":2856,"Ġreason":2857,"Ġpharm":2858,"Ġhealthy":2859,"Ġweight":2860,"Ġfunctional":2861,"Ġperpetuity":2862,"icians":2863,"Ġsal":2864,"Ġsex":2865,"Î±":2866,"eness":2867,"Ġplan":2868,"Ġoxygen":2869,"Ġintegr":2870,"Ġeas":2871,"Ġvariable":2872,"Ġsubjects":2873,"Ġtake":2874,"Ġcho":2875,"Ġcomput":2876,"PA":2877,"Ġroom":2878,"Ġ26":2879,"emia":2880,"Ġnumbers":2881,"induced":2882,"Ġregression":2883,"Ġinterval":2884,"Ġfree":2885,"Ġalong":2886,"EM":2887,"Ġ29":2888,"Ġindependent":2889,"Ġplatform":2890,"meric":2891,"GF":2892,"inflammatory":2893,"Ġlay":2894,"Ġhighest":2895,"otype":2896,"Ġclos":2897,"Ġlast":2898,"activ":2899,"ĠWith":2900,"Ġevaluate":2901,"iatric":2902,"Ġprobability":2903,"Ġstage":2904,"esis":2905,"tional":2906,"Ġuseful":2907,"Ġfacilit":2908,"osts":2909,"Ġhours":2910,"ymptomatic":2911,"Ġelectr":2912,"Ġtele":2913,"Ġaff":2914,"Ġinduced":2915,"Ġalready":2916,"Ġintr":2917,"hing":2918,"Ġrelatively":2919,"Ġnas":2920,"etes":2921,"ifically":2922,"Ġrecently":2923,"Ġisolated":2924,");":2925,"Ġproblems":2926,"Ġpor":2927,"Ġposted":2928,"Ġincreases":2929,"Ġsource":2930,"eb":2931,"which":2932,"Ġremo":2933,"Ġdepend":2934,"Ġfind":2935,"ray":2936,"24":2937,"Ġadded":2938,"Ġgenetic":2939,"ĠPre":2940,"Ġcyc":2941,"Ġexperiments":2942,"Ġscenari":2943,"Ġbo":2944,"Ġsuggests":2945,"Ġprotection":2946,"artment":2947,"erative":2948,"ĠÎ²":2949,"Ġexten":2950,"antit":2951,"Ġdatab":2952,"Ġspecial":2953,"Ġfit":2954,"entific":2955,"IS":2956,"Ġphosph":2957,"ext":2958,"Ġisolation":2959,"ude":2960,"Ġsoft":2961,"hood":2962,"Ġissues":2963,"Î²":2964,"Ġhttps":2965,"oti":2966,"Ġpoints":2967,"Ġinten":2968,"ead":2969,"ĠWhen":2970,"Ġamino":2971,"yme":2972,"Ġve":2973,"Figure":2974,"by":2975,"Ġcollection":2976,"Ġche":2977,"Ġbelow":2978,"akes":2979,"Ġpathway":2980,"ending":2981,"NC":2982,"SARS":2983,"ĠMet":2984,"Ġduration":2985,"ulatory":2986,"Ġrang":2987,"Ġquar":2988,"Ġpeer":2989,"Ġdelivery":2990,"ospitals":2991,"Ġproperties":2992,"aring":2993,"ope":2994,"arily":2995,"Ġsurvival":2996,"80":2997,"Ġsuccessful":2998,"ework":2999,"most":3000,"Ġlength":3001,"Ġseries":3002,"Ġpotentially":3003,"Ġresearc":3004,"Ġtog":3005,"Ġbeli":3006,"Ġposition":3007,"ND":3008,"Ġimages":3009,"Ġbiological":3010,"certain":3011,"Ġparticles":3012,"clusion":3013,"onic":3014,"Ġcompounds":3015,"Ġuntil":3016,"entry":3017,"Ġstates":3018,"Ġstructures":3019,"ots":3020,"Ġheter":3021,"aged":3022,"side":3023,"Ġsection":3024,"Ġformation":3025,"Ġregard":3026,"ĠMERS":3027,"ones":3028,"BV":3029,"pril":3030,"Ġtogether":3031,"Ġcannot":3032,"Ġapplication":3033,"Ġmajority":3034,"Ġprocedures":3035,"Ġear":3036,"âĪ":3037,"Ġaccount":3038,"PD":3039,"Ġimproved":3040,"Ġmass":3041,"fort":3042,"Ġreli":3043,"gery":3044,"Ġvolume":3045,"ĠRec":3046,"Ġ27":3047,"Ġopen":3048,"atives":3049,"portun":3050,"Ġestablished":3051,"ransi":3052,"Ġchallenges":3053,"Ġsix":3054,"Ġprotective":3055,"Ġthrom":3056,"Ġexhib":3057,"Ġfunctions":3058,"Ġhere":3059,"isted":3060,"Ġrest":3061,"ero":3062,"infected":3063,"Ġrequ":3064,"Ġworking":3065,"ĠPh":3066,"Ġremains":3067,"Ġguidelines":3068,"Ġstructural":3069,"Ġcompos":3070,"Ġmillion":3071,"Ġtrend":3072,"nai":3073,"less":3074,"Ġmolecules":3075,"Ġtit":3076,"ĠAR":3077,"NS":3078,"ney":3079,"ĠÎ±":3080,"luded":3081,"lex":3082,"yst":3083,"Ġhouse":3084,"ats":3085,"ĠSimilar":3086,"Ġventilation":3087,"iques":3088,"Ġerr":3089,"Ġown":3090,"Ġarticle":3091,"orbid":3092,"ĠAm":3093,"Ġupon":3094,"Ġantibio":3095,"Ġenti":3096,"Ġbaseline":3097,"Ġsuggesting":3098,"jective":3099,"23":3100,"OS":3101,"ditionally":3102,"amp":3103,"Ġelev":3104,"Ġinterpre":3105,"Ġproduced":3106,"Ġquanti":3107,"Ġresistance":3108,"Ġprotocol":3109,"Ġ),":3110,"Ġtub":3111,"Ġtransport":3112,"Ġsampl":3113,"Ġparen":3114,"ds":3115,"enge":3116,"Ġoff":3117,"ured":3118,"Ġsens":3119,"29":3120,"Ġhospitals":3121,"Ġentry":3122,"gn":3123,"Ġstudied":3124,"Ġcurrently":3125,"erved":3126,"Ġtox":3127,"Ġemb":3128,"Ġepidemi":3129,"ĠMS":3130,"Ġprov":3131,"%).":3132,"gical":3133,"Ġopportun":3134,"Ġpromot":3135,"Ġmainly":3136,"HC":3137,"ĠAfric":3138,"ĠUnited":3139,"Ġmonitoring":3140,"Ġdeveloping":3141,"eth":3142,"Ġpsychological":3143,"ler":3144,"Ġensure":3145,"60":3146,"Ġsituation":3147,"Ġdos":3148,"isation":3149,"Ġ:":3150,"Ġtool":3151,"ĠÃĹ":3152,"Ġinvestigated":3153,"rolog":3154,"Ġir":3155,"Ġsearch":3156,"ES":3157,"ography":3158,"Ġassays":3159,"going":3160,"Ġdamage":3161,"ii":3162,"Ġdate":3163,"ked":3164,"Ġasymptomatic":3165,"Ġampl":3166,"Ġpass":3167,"ysi":3168,"Ġconstruc":3169,"Ġdifferenti":3170,"ÃŃ":3171,"istered":3172,"Ġframework":3173,"ĠAmeric":3174,"Ġpatterns":3175,"Ġdesigned":3176,"Ġstatistical":3177,"ground":3178,"Ġmutations":3179,"Ġdefin":3180,"Ġtransi":3181,"Ġcontrols":3182,"Ġdecl":3183,"Ġadministration":3184,"Ġbur":3185,"Ġinternational":3186,"Ġcomponents":3187,"oplas":3188,"wise":3189,"Ġmacroph":3190,"Ġcrisis":3191,"CM":3192,"Ġgu":3193,"Ġnature":3194,"az":3195,"Ġhal":3196,"Ġlarger":3197,"CG":3198,"Ġmic":3199,"ĠCor":3200,"Ġpractic":3201,"Ġprevention":3202,"Ġtranscription":3203,"izes":3204,"Ġide":3205,"Ġrepe":3206,"PI":3207,"aced":3208,"ĠApril":3209,"Ġintra":3210,"ĠUniversity":3211,"Ġtravel":3212,"Ġright":3213,"Ġpredicted":3214,"Ġcontent":3215,"Ġexperimental":3216,"Ġusually":3217,"upplementary":3218,"ered":3219,"illance":3220,"Ġsecre":3221,"Ġrepro":3222,"Ġul":3223,"DA":3224,"Ġwhole":3225,"ccording":3226,"Ġaction":3227,"Ġfore":3228,"Ġdegree":3229,"iving":3230,"ĠOf":3231,"Ġheart":3232,"Ġdataset":3233,"ĠStud":3234,"Ġaer":3235,"%.":3236,"ĠFinally":3237,"Ġcytokines":3238,"Ġ48":3239,"ologic":3240,"Ġinhibition":3241,"PR":3242,"Ġdil":3243,"Ġseg":3244,"Ġdiabetes":3245,"known":3246,"2020":3247,"Ġmid":3248,"ĠData":3249,"roscop":3250,"Ġrob":3251,"Ġvers":3252,"Ġmarket":3253,"tioned":3254,"Ġresidues":3255,"Ġabsence":3256,"ges":3257,"Ġenvironmental":3258,"Ġservice":3259,"Ġevolution":3260,"Ġcauses":3261,"inical":3262,"flu":3263,"apt":3264,"Ġunique":3265,"Ġrecomb":3266,"Ġreference":3267,"Ġhypot":3268,"overed":3269,"ĠDe":3270,"PV":3271,"andid":3272,"Ġapproximately":3273,"Ġcentral":3274,"oly":3275,"ancial":3276,"Ġcarried":3277,"Ġcomplications":3278,"Ġselection":3279,"Ġthird":3280,"Ġyet":3281,"thesis":3282,"rand":3283,"Ġdiss":3284,"Ġrecru":3285,"Ġimplementation":3286,"IR":3287,"Ġquantit":3288,"Ġamount":3289,"tified":3290,"Ġnext":3291,"Ġexamined":3292,"Ġbeg":3293,"Ġ/":3294,"Ġdirec":3295,"Ġdocument":3296,"Ġpregn":3297,"100":3298,"asis":3299,"ellular":3300,"Ġagg":3301,"Ġrelease":3302,"rotein":3303,"Ġalgorithm":3304,"Ġcluster":3305,"Ġaccuracy":3306,"Ġpain":3307,"urrent":3308,"tives":3309,"Ġemo":3310,"Ġpan":3311,"fold":3312,"Ġsignaling":3313,"eding":3314,"27":3315,"Ġadverse":3316,"Ġdistancing":3317,"An":3318,"rial":3319,"atisf":3320,"urity":3321,"rophil":3322,"trans":3323,"Ġunit":3324,"Ġchallenge":3325,"Ġresol":3326,"arc":3327,"reng":3328,"ah":3329,"Ġbacteria":3330,"Ġimaging":3331,"ĠSince":3332,"Ġtumor":3333,"uble":3334,"Ġspace":3335,"otherap":3336,"Ġbound":3337,"ream":3338,"Ġmm":3339,"Ġtechniques":3340,"Ġmeet":3341,"Ġmedium":3342,"Ġschool":3343,"Ġsurgery":3344,"Ġinhibitors":3345,"oles":3346,"mL":3347,"Ġprocedure":3348,"Ġplate":3349,"Ġspike":3350,"Ġpathways":3351,"Ġestimate":3352,"oids":3353,"Ġled":3354,"Ġviv":3355,"Ġdistance":3356,"ocyte":3357,"Ġside":3358,"ĠItal":3359,"Ġtowards":3360,"Ġcommunication":3361,"ifest":3362,"Ġsources":3363,"ronch":3364,"Ġrun":3365,"Ġnoted":3366,"tiveness":3367,"Ġsyst":3368,"Ġsoftware":3369,"Ġprinc":3370,"Ġcytokine":3371,"estinal":3372,"tre":3373,"Ġhis":3374,"90":3375,"Ġresulted":3376,"Ġ35":3377,"orders":3378,"Ġdone":3379,"man":3380,"Ġquestionnai":3381,"Ġattention":3382,"where":3383,"Ġvisual":3384,"bial":3385,"ĠOr":3386,"Ġlonger":3387,"Ġexisting":3388,"..":3389,"ites":3390,"Ġtract":3391,"ml":3392,"Ġsubstanti":3393,"Ġpeptide":3394,"ĠBe":3395,"Ġword":3396,"Ġfar":3397,"CAA":3398,"Ġconfirm":3399,"Ġcontribute":3400,"Ġrecommended":3401,"28":3402,"Ġswab":3403,"orld":3404,"26":3405,"dependent":3406,"OR":3407,"Ġshe":3408,"Ġcapt":3409,"ĠJan":3410,"Ġturn":3411,"ĠBi":3412,"Ġdistinc":3413,"Ġdynamics":3414,"Ġlig":3415,"Ġ%":3416,"Ġdelay":3417,"EV":3418,"Ġsupplement":3419,"Ġpast":3420,"Ġcontinuous":3421,"Ġreceptors":3422,"ibility":3423,"Ġrecovery":3424,"ĠmM":3425,"Ġrequires":3426,"bl":3427,"Ġpercentage":3428,"Ġoccurred":3429,"aryn":3430,"rix":3431,"Ġincludes":3432,"cence":3433,"Ġkid":3434,"Ġcod":3435,"Ġrespondents":3436,"AL":3437,"AD":3438,"Ġlight":3439,"Ġcombined":3440,"Ġvivo":3441,"Ġallowed":3442,"Ġmuc":3443,"acellular":3444,"Ġred":3445,"Ġalternative":3446,"struct":3447,"Ġgenerally":3448,"iÃ³n":3449,"Ġenzyme":3450,"Ġspecim":3451,"CS":3452,"âĢ":3453,"Ġattrib":3454,"imer":3455,"ĠMay":3456,"Ġuncertain":3457,"Ġresponsible":3458,"Ġfollows":3459,"Ġincor":3460,"Ġget":3461,"Ġbasis":3462,"function":3463,"Ġsurveillance":3464,"ĠUK":3465,"order":3466,"omp":3467,"cal":3468,"dom":3469,"Ġinterview":3470,"Ġpig":3471,"ĠSome":3472,"Ġmoderate":3473,"ufact":3474,"type":3475,"Ġconver":3476,"Ġunderlying":3477,"Ġproviding":3478,"43":3479,"Ġsettings":3480,"CL":3481,"mod":3482,"Ġfinancial":3483,"Ġrepresents":3484,"Ġlimitations":3485,"Ġhousehold":3486,"Ġusers":3487,"AG":3488,"Ġidentification":3489,"ulin":3490,"une":3491,"Ġstreng":3492,"Ġdiscussed":3493,"Ġadap":3494,"Ġestimates":3495,"normal":3496,"Ġvul":3497,"reshold":3498,"Ġinput":3499,"Ġdensity":3500,"Ġexposed":3501,"Ġefficiency":3502,"ĠSec":3503,"ape":3504,"MI":3505,"ĠFirst":3506,"45":3507,"ibr":3508,"Ġcharacterized":3509,"Ġrout":3510,"Ġpriv":3511,"forts":3512,"Ġ80":3513,"Ġmouse":3514,"ĠSc":3515,"Ġdepression":3516,"Ġresearchers":3517,"ĠDec":3518,"Ġequip":3519,"ache":3520,"Ġimplemented":3521,"Ġderived":3522,"Ġquarant":3523,"BY":3524,"DV":3525,"Ġbuil":3526,"Ġsurgical":3527,"ĠStates":3528,"Ġtools":3529,"Ġrapidly":3530,"que":3531,"Ġtissues":3532,"Ġsustain":3533,"Ġapproved":3534,"uary":3535,"bin":3536,"Ġindicating":3537,"Ġmaximum":3538,"Ġpolicies":3539,"aren":3540,"Ġwild":3541,"Ġcandid":3542,"Ġspecificity":3543,"Ġmaking":3544,"Ġfix":3545,"70":3546,"alysis":3547,"Ġpractices":3548,"eli":3549,"Ġsubsequent":3550,")-":3551,"oster":3552,"Ġadvant":3553,"ĠAdditionally":3554,"ban":3555,"ĠPR":3556,"Ã¶":3557,"Ġbarri":3558,"sh":3559,"Ġfluid":3560,"Ġprepared":3561,"Ġagre":3562,"Ġvector":3563,"Ġproduct":3564,"35":3565,"sia":3566,"Ġnetworks":3567,"Ġleft":3568,"Ġbiom":3569,"ĠCF":3570,"Ġbenefit":3571,"Ġbias":3572,"Ġcardiac":3573,"Ġfusion":3574,"Ġsafe":3575,"Ġallows":3576,"Ġproduce":3577,"aching":3578,"eral":3579,"mediated":3580,"Ġsatisf":3581,"ports":3582,"Ġconcept":3583,"Ġstay":3584,"IT":3585,"Ġque":3586,"ĠPatients":3587,"Ġreducing":3588,"Ġmanufact":3589,"ĠResults":3590,"aly":3591,"Ġdra":3592,"ole":3593,"Ġthreat":3594,"Ġprediction":3595,"Ġsigns":3596,"aries":3597,"Ġein":3598,"Ġarg":3599,"ociated":3600,"Ġthreshold":3601,"pects":3602,"Ġtrig":3603,"Ġforms":3604,"Ġdisch":3605,"ĠSy":3606,"ĠPD":3607,"eg":3608,"level":3609,"Ġrisks":3610,"Ġsynthe":3611,"Ġcomorbid":3612,"ĠNew":3613,"38":3614,"Ġimmedi":3615,"rosis":3616,"Ġvulner":3617,"Ġ90":3618,"izations":3619,"ĠRBD":3620,"Ġefforts":3621,"Ġoutbreaks":3622,"Ġenhance":3623,"ert":3624,"Ġmusc":3625,"Ġshif":3626,"ME":3627,"Ġindicates":3628,"infection":3629,"Ġ31":3630,"Ġaccept":3631,"utri":3632,"ĠBy":3633,"Ġrecorded":3634,"Ġsusceptible":3635,"Ġtransplant":3636,"Ġoral":3637,"sib":3638,"ĠCovid":3639,"Ġpoli":3640,"Ġfrequently":3641,"Ġstatistically":3642,"ĠDes":3643,"Ġstain":3644,"Ġglyc":3645,"Ġ36":3646,"Ġlines":3647,"ened":3648,"doi":3649,"For":3650,"Ġbus":3651,"ued":3652,"Ġjust":3653,"land":3654,"Ġoptimal":3655,"Ġcommonly":3656,"Ġbre":3657,"Ġperceived":3658,"ĠInte":3659,"Ġgender":3660,"Ġleg":3661,"Ġlinear":3662,"ĠJanuary":3663,"Ġchest":3664,"earch":3665,"ĠAccording":3666,"Ġexperiment":3667,"Ġsuper":3668,"Ġpersist":3669,"isms":3670,"Ġimprovement":3671,"Ġcut":3672,"Ġsimple":3673,"Ġworldwide":3674,"Ġtargets":3675,"Ġalone":3676,"SD":3677,"Ġdatabase":3678,"off":3679,"Ġreturn":3680,"olic":3681,"Ġsystemic":3682,"Ġrepl":3683,"Ġlit":3684,"âĪĴ":3685,"Ġsynthesis":3686,"Ġimage":3687,"Ġchec":3688,"Ġagent":3689,"Ġyield":3690,"Ġtransfer":3691,"Ġbenefits":3692,"otic":3693,"IF":3694,"dle":3695,"Ġhead":3696,"Ġhalf":3697,"Ġconcerns":3698,"Ġwidely":3699,"Ġdistress":3700,"ĠĠĠĠĠ":3701,"33":3702,"ĠCR":3703,"usted":3704,"ĠGen":3705,"Ġfeature":3706,"Ġpolymer":3707,"ĠAg":3708,"ycl":3709,"ĠOther":3710,"Ġbasic":3711,"Ġmatrix":3712,"Ġpair":3713,"Ġinvestigate":3714,"Ġbuf":3715,"Ġentire":3716,"Ġcough":3717,"Ġadapt":3718,"Ġ45":3719,"Ġestablish":3720,"Ġfrag":3721,"cript":3722,"ocardi":3723,"Ġextre":3724,"Ġliving":3725,"Ġasth":3726,"icine":3727,"itable":3728,"Ġreporting":3729,"Ġleads":3730,"ached":3731,"Ġfocused":3732,"Ġnumer":3733,"Ġachieved":3734,"Ġassign":3735,"ades":3736,"ighted":3737,"Ġmale":3738,"Ġinternal":3739,"Ġbronch":3740,"Ġendot":3741,"group":3742,"Ġconsent":3743,"Ġparameter":3744,"Ġalmost":3745,"Ġarter":3746,"Ġantic":3747,"Ġdisorders":3748,"\",":3749,"year":3750,"Ġmig":3751,"ĠDuring":3752,"Ġsystematic":3753,"Ġincorpor":3754,"Ġoccurs":3755,"inese":3756,"heless":3757,"Ġconclusion":3758,"Ġcertified":3759,"ST":3760,"Ġstable":3761,"Ġmacrophages":3762,"101":3763,"Ġitems":3764,"Ġaspects":3765,"sis":3766,"associated":3767,"ta":3768,"ER":3769,"Ġdigital":3770,"Ġapplications":3771,"Ġinstitution":3772,"isions":3773,"Ġec":3774,"Ġclassification":3775,"merc":3776,"Ġillustr":3777,"48":3778,"Ġelevated":3779,"Ġrelationships":3780,"Ġlesions":3781,"Ġtend":3782,"Ġeffectiveness":3783,"Ġvary":3784,"Ġ33":3785,"otherapy":3786,"self":3787,"tual":3788,"met":3789,"ises":3790,"ediatric":3791,"Ġepithelial":3792,"Ġbio":3793,"DNA":3794,"NT":3795,"Ġthroughout":3796,"Ġinduce":3797,"Ġposi":3798,"itig":3799,"ĠpH":3800,".\"":3801,"Ġacids":3802,"ĠReg":3803,"MV":3804,"Ġneutrophil":3805,"Ġunknown":3806,"Ġroutine":3807,"angu":3808,"Ġsampling":3809,"Ġpharmac":3810,"pond":3811,"ovascular":3812,"immun":3813,"Ġseas":3814,"ids":3815,"Ġdivid":3816,"mic":3817,"Ġprograms":3818,"Ġspecifically":3819,"Ġmask":3820,"IP":3821,"inity":3822,"ped":3823,"MA":3824,"OC":3825,"Ġdiscussion":3826,"Ġdemand":3827,"Ġrare":3828,"Ġexerc":3829,"49":3830,"EC":3831,"Ġneuro":3832,"Ġfraction":3833,"inate":3834,"Ġscientific":3835,"ling":3836,"ĠChinese":3837,"ĠDi":3838,"Ġversus":3839,"astr":3840,"fered":3841,"Ġcoef":3842,"Ġfully":3843,"Al":3844,"Ġves":3845,"Ġextent":3846,"Ġkidney":3847,"agement":3848,"cont":3849,"oring":3850,"Ġold":3851,"Ġvariants":3852,"aling":3853,"oking":3854,"Ġadult":3855,"Ġcycle":3856,"hods":3857,"Ġadhe":3858,"Ġsummar":3859,"Ġinduc":3860,"Ġdiagnosed":3861,"Ġlocation":3862,"Ġmil":3863,"ipher":3864,"Ġmis":3865,"acing":3866,"Ġter":3867,"ĠAT":3868,"Ġdisrup":3869,"Ġlearn":3870,"ĠSci":3871,"asive":3872,"Ġlas":3873,"Ġinhibitor":3874,"Ġspati":3875,"iRNA":3876,"lier":3877,"Ġfeed":3878,"Ġunits":3879,"istry":3880,"reen":3881,"Ġpossibility":3882,"ĠWHO":3883,"ture":3884,"ectors":3885,"ĠWu":3886,"ĠAss":3887,"Ġqual":3888,"Ġincubated":3889,"Ġgeneration":3890,"Ġdespite":3891,"Ġreplic":3892,"lif":3893,"Ġexperienced":3894,"Ġupper":3895,"Ġans":3896,"Ġserious":3897,"Ġautom":3898,"aster":3899,"Ġcosts":3900,"tee":3901,"Ġsequencing":3902,"omer":3903,"Ġvariation":3904,"Ġcommunities":3905,"zing":3906,"Ġmach":3907,"Ġfamil":3908,"Ġfemale":3909,"positive":3910,"AV":3911,"Ġinstance":3912,"ĠGerm":3913,"ying":3914,"Ġbegin":3915,"Ġyour":3916,"Ġgain":3917,"ĠNS":3918,"Ġput":3919,"Ġbelie":3920,"Ġcorrelated":3921,"Ġhospitalized":3922,"patient":3923,"Ġskin":3924,"Ġuser":3925,"Ġexce":3926,"Ġprogression":3927,"Ġoriginal":3928,"Ġtreatments":3929,"pi":3930,"Ġcruc":3931,"Ġlist":3932,"otypes":3933,"Ġcontacts":3934,"Ġoutside":3935,"Ġrobust":3936,"Ġ70":3937,"Ġwa":3938,"rh":3939,"Ġcompl":3940,"Ġprocessing":3941,"Ġmutation":3942,"Ġvide":3943,"pers":3944,"Ġâī¥":3945,"Ġsupply":3946,"ged":3947,"Ġadequ":3948,"Ġ38":3949,"oint":3950,"Ġgraph":3951,"Ġcollabor":3952,"rief":3953,"hol":3954,"Ġrecommendations":3955,"rospective":3956,"organ":3957,"Ġhospitalization":3958,"75":3959,"back":3960,"ĠCons":3961,"Ġwrit":3962,"99":3963,"Ġetc":3964,"Ġcogn":3965,"Ġvariety":3966,"ĠEuropean":3967,"Ġefficient":3968,"Ġmechanical":3969,"Ġcontains":3970,"Ġrespect":3971,"Ġintensive":3972,"Ġ2021":3973,"**":3974,"ĠAmong":3975,"There":3976,"ĠTNF":3977,"Ġpeptides":3978,"Ġmiss":3979,"Ġadmitted":3980,"Ġdistinct":3981,"Ġgluc":3982,"Ġ32":3983,"Ġconstant":3984,"ills":3985,"tingly":3986,"Ġcalled":3987,"Ġlinked":3988,"Ã¡":3989,"Ġtw":3990,"Ġsignificance":3991,"jected":3992,"Ġextensive":3993,"Ġann":3994,"phyl":3995,"iring":3996,"Ġfluores":3997,"Ġfacilities":3998,"erb":3999,"Ġpromis":4000,"Ġweak":4001,"Ġgenerate":4002,"Ġachieve":4003,"Ġdescri":4004,"ĠMost":4005,"being":4006,"Ġissue":4007,"ĠNational":4008,"Ġemerging":4009,"Ġdog":4010,"Ġtempor":4011,"Ġcrucial":4012,"Ġarticles":4013,"Ġpack":4014,"omal":4015,"Ġfeel":4016,"Ġcolon":4017,"Ġnor":4018,"Ġcomplement":4019,"Ġburden":4020,"ash":4021,"Ġnote":4022,"Ġnorm":4023,"ogenic":4024,"ĠWuhan":4025,"everal":4026,"Ġenhanced":4027,"BM":4028,"Ġfig":4029,"ĠInc":4030,"Ġdemonstrate":4031,"Ġtechnique":4032,"ĠSouth":4033,"Ġaccum":4034,"Ġdeep":4035,"operative":4036,"otox":4037,"Ġdescribe":4038,"Ġconfidence":4039,"Ġdiarr":4040,"tension":4041,"CI":4042,"Ġlate":4043,"Ġquestionnaire":4044,"tition":4045,"Ġmitig":4046,"position":4047,"34":4048,"Ġmasks":4049,"Cl":4050,"inter":4051,"Ġsimulation":4052,"Ġlittle":4053,"Ġconsumption":4054,"Ġextracted":4055,"ĠCont":4056,"Ġbal":4057,"atin":4058,"Ġaeros":4059,"Ġasthma":4060,"36":4061,"Ġprepar":4062,"ochem":4063,"luding":4064,"seud":4065,"ecause":4066,"ĠAD":4067,"Ġdoi":4068,"Ġregular":4069,"Ġneur":4070,"Ġurban":4071,"oqu":4072,"Ġinterpret":4073,"Ġprop":4074,"Ġrenal":4075,"mia":4076,"Ġalle":4077,"Ġalter":4078,"ire":4079,"Ġdependent":4080,"Ġquarantine":4081,"Ġexpect":4082,"lear":4083,"Ġphysi":4084,"rich":4085,"otide":4086,"Ġemph":4087,"Ġtraditional":4088,"Ġtransl":4089,"atal":4090,"ĠInstit":4091,"ĠFeb":4092,"Ġfav":4093,"Ġabnormal":4094,"Ġexcluded":4095,"Ġattem":4096,"Ġstages":4097,"Ġalign":4098,"Ġappears":4099,"ĠLe":4100,"Ġdomains":4101,"ards":4102,"aw":4103,"fact":4104,"Ġnodes":4105,"Ġcompre":4106,"Ġquantitative":4107,"Ġequipment":4108,"37":4109,"sized":4110,"Ġinteract":4111,"TR":4112,"Ġprogn":4113,"Ġheterogene":4114,"Ġbuffer":4115,"ĠHR":4116,"Ġseems":4117,"Ġsupported":4118,"kg":4119,"Ġmar":4120,"Ġprogress":4121,"Ġcompare":4122,"Ġunc":4123,"HV":4124,"agen":4125,"Ġcomponent":4126,"gens":4127,"Ġster":4128,"Ġinvolvement":4129,"Ġbat":4130,"point":4131,"Ġexamination":4132,"ĠCoV":4133,"200":4134,"Ġname":4135,"Ġsubject":4136,"astro":4137,"ruary":4138,"1101":4139,"Ġcore":4140,"Ġcontrolled":4141,"Ġstability":4142,"Ġhar":4143,"Ġmanifest":4144,"Ġstrongly":4145,"Ġnm":4146,"Ġdysfunction":4147,"ĠAb":4148,"ĠORF":4149,"ophil":4150,"ĠSD":4151,"Ġsuspected":4152,"Ġsteps":4153,"inations":4154,"Ġcommerc":4155,"Ġproject":4156,"ycin":4157,"Ġoutput":4158,"Ġdetailed":4159,"Ġongoing":4160,"65":4161,"ĠSh":4162,"Ġmem":4163,"ĠHospital":4164,"Ġfamilies":4165,"Ġdimension":4166,"Ġchemical":4167,"restingly":4168,"Ġenzym":4169,"Ġapop":4170,"Ġstart":4171,"Ġdivers":4172,"LISA":4173,"Ġcolle":4174,"Ġpromote":4175,"Ġsufficient":4176,"Ġlocated":4177,"Ġpoll":4178,"ĠSimilarly":4179,"Ġavailability":4180,"Ġlangu":4181,"Ġmeta":4182,"Ġdu":4183,"PC":4184,"Ġreasons":4185,"Ġtargeting":4186,"ching":4187,"Ġfixed":4188,"Ġpurpose":4189,"Ġperipher":4190,"Ġobes":4191,"Wh":4192,"Ġinvestigation":4193,"Ġ34":4194,"Ġhypothesis":4195,"ĠHere":4196,"Ġauto":4197,"Ġsensitive":4198,"Ġextreme":4199,"Ġcarb":4200,"Ġtechnologies":4201,"ĠMe":4202,"ĠOver":4203,"ococ":4204,"ĠPA":4205,"Ġdro":4206,"apan":4207,"yond":4208,"Ġcreat":4209,"Ġchann":4210,"Ġbusiness":4211,"Ġregulation":4212,"Ġemployed":4213,"Ġfal":4214,"Ġonce":4215,"Ġprolif":4216,"mo":4217,"Ġrecombinant":4218,"Â·":4219,"Ġreceiving":4220,"Ġcurve":4221,"Ġrecognition":4222,"Ġmentioned":4223,"Ġtaking":4224,"Ġpool":4225,"Ġbed":4226,"Ġresidents":4227,"Ġconsequences":4228,"ĠER":4229,"ou":4230,"Ġslight":4231,"crib":4232,"Ġwar":4233,"cy":4234,"sor":4235,"Ġintroduced":4236,"Ġlungs":4237,"ĠSecond":4238,"HS":4239,"Ġcardiovascular":4240,"Ġmob":4241,"Ġconstit":4242,"xy":4243,"Ġlive":4244,"Ġadministered":4245,"ensus":4246,"Ġsymptomatic":4247,"ĠHA":4248,"HR":4249,"leep":4250,"ĠOR":4251,"Ġelements":4252,"Ġearlier":4253,"Ġcomprehen":4254,"Ġshowing":4255,"Ġcorrect":4256,"It":4257,"ferences":4258,"ĠBl":4259,"Ġcoord":4260,"ĠWorld":4261,"NP":4262,"treated":4263,"Ġalways":4264,"ĠDise":4265,"phal":4266,"ĠBoth":4267,"Ġlayer":4268,"ylation":4269,"Ġexperiences":4270,"usive":4271,"Ġshare":4272,"ventional":4273,"Ġspecimens":4274,"Ġmedicine":4275,"Ġtrue":4276,"ĠCS":4277,"Ġfear":4278,"Ġconsidering":4279,"aus":4280,"ressive":4281,"ĠâĪĪ":4282,"ĠItaly":4283,"ternal":4284,"Ġretrospective":4285,"fect":4286,"ada":4287,"Ġtask":4288,"Ġerror":4289,"Ġtext":4290,"Ġreceive":4291,"Ġnasal":4292,"arent":4293,"pts":4294,"viruses":4295,"ĠCA":4296,"Ġrights":4297,"Ġelectro":4298,"Ġcategories":4299,"Ġthromb":4300,"brid":4301,"elling":4302,"ĠFebruary":4303,"ĠNor":4304,"Ġlabel":4305,"Ġinnate":4306,"Ġhep":4307,"Ġsil":4308,"Our":4309,"Ġcontinue":4310,"Ġaged":4311,"Ġoccup":4312,"Ġdevi":4313,"Ġslow":4314,"ĠED":4315,"Ġmanus":4316,"Ġpresentation":4317,"Ġcontam":4318,"rest":4319,"Ġassist":4320,"Ġpersons":4321,"Ġobservations":4322,"ched":4323,"ĠResearch":4324,"Ġcoronaviruses":4325,"Ġways":4326,"ĠEach":4327,"Ġmaterials":4328,"epend":4329,"Ġcompr":4330,"Ġproviders":4331,"IL":4332,"ĠTwo":4333,"Ġbreat":4334,"dis":4335,"IG":4336,"Ġprofessionals":4337,"Ġdevices":4338,"ĠAlso":4339,"abilities":4340,"ĠJune":4341,"ĠSpec":4342,"Ġasked":4343,"Ġcreated":4344,"ĠmL":4345,"opes":4346,"Ġangi":4347,"Ġsusp":4348,"Ġmodified":4349,"Ġtargeted":4350,"ĠCol":4351,"Ġscenario":4352,"Ġincubation":4353,"Ġvisits":4354,"Ġsubstr":4355,"ĠAnother":4356,"stream":4357,"lim":4358,"Ġoffer":4359,"St":4360,"rin":4361,"ournal":4362,"valent":4363,"ĠJapan":4364,"ĠSuch":4365,"uly":4366,"NV":4367,"Ġinclusion":4368,"umn":4369,"Ġrestrictions":4370,"Ġaccoun":4371,"Ġ39":4372,"Ġpossib":4373,"Ġobjective":4374,"veolar":4375,"Ġinformed":4376,"Ġfrequent":4377,"estern":4378,"Ġsolutions":4379,"Ġaggreg":4380,"Ġshared":4381,"Ġobservation":4382,"micro":4383,"MD":4384,"ements":4385,"onomic":4386,"Ġcity":4387,"Ġantigens":4388,"Ġsmaller":4389,"Ġhum":4390,"Ġdoses":4391,"Ġprotease":4392,"Ġincome":4393,"04":4394,"Ġmicroscop":4395,"ĠSub":4396,"ering":4397,"Ġkin":4398,"Ġcompleted":4399,"ĠTr":4400,"geal":4401,"Ġrecip":4402,"Ġmixed":4403,"hal":4404,"Ġdrople":4405,"ustry":4406,"Ġepidemiological":4407,"Ġpolitical":4408,"ients":4409,"vered":4410,"Ġwave":4411,"irth":4412,"ocal":4413,"gent":4414,"Ġreactions":4415,"ĠOrgan":4416,"Ġcounter":4417,"Ġvon":4418,"aria":4419,"Ġairway":4420,"Ġoxid":4421,"aryngeal":4422,"ĠBased":4423,"Ġquantif":4424,"ĠSection":4425,"raz":4426,"aciÃ³n":4427,"ophag":4428,"Ġaden":4429,"Ġinterfer":4430,"Ġconj":4431,"ather":4432,"coprotein":4433,"ulf":4434,"Ġplasm":4435,"Ġsense":4436,"Ġvisit":4437,"Ġelim":4438,"tra":4439,"quired":4440,"Ġrefer":4441,"vari":4442,"Ġimmunos":4443,"itative":4444,"Ġtheory":4445,"ĠNot":4446,"Ġmarkers":4447,"Ġexplore":4448,"ĠARDS":4449,"Ġexamine":4450,"Ġhypertension":4451,"ĠIndia":4452,"ademic":4453,"Ġregim":4454,"Ġconfl":4455,"ublic":4456,"au":4457,"iltr":4458,"Ġbase":4459,"ek":4460,"Ġinnov":4461,"Ġleuk":4462,"63":4463,"Ġ55":4464,"Ġquick":4465,"Ġappe":4466,"Ġinduction":4467,"risk":4468,"Ġcompet":4469,"Ġtypically":4470,"Ġspatial":4471,"Ġprincip":4472,"Ġreverse":4473,"men":4474,"Ġfer":4475,"ĠUsing":4476,"ĠSur":4477,"BP":4478,"uth":4479,"ĠInterestingly":4480,"Ġnurses":4481,"MR":4482,"Ġ|":4483,"ĠIV":4484,"Ġcomorbidities":4485,"Ġneurolog":4486,"ĠFrom":4487,"Ġintensity":4488,"Ġstem":4489,"articip":4490,"ĠAfrica":4491,"Ġpros":4492,"ĠIndeed":4493,"Ġreviewed":4494,"GTT":4495,"osa":4496,"Ġmanuscript":4497,"Ġseem":4498,"Ġnutri":4499,"ĠMod":4500,"orn":4501,"Ġendothelial":4502,"ership":4503,"rogen":4504,"Ġclearly":4505,"Ġbelong":4506,"ACE":4507,"Ġfacilitate":4508,"Ġvascular":4509,"Ġencod":4510,"Ġinstitutions":4511,"Ġdiet":4512,"plicated":4513,"ula":4514,"Ġsets":4515,"Ġprolong":4516,"All":4517,"Ġrep":4518,"ĠPM":4519,"etal":4520,"trum":4521,"Ġremaining":4522,"Ġperipheral":4523,"selves":4524,"ĠMethods":4525,"Ġnear":4526,"Ġorigin":4527,"uments":4528,"Ġaffinity":4529,"ĠTLR":4530,"Ġgenomic":4531,"Ġinvest":4532,"Ġequal":4533,"Ġperiods":4534,"ĠPBS":4535,"Ġcorrespond":4536,"Ġtraum":4537,"ogenous":4538,"Ġcomprehensive":4539,"Ġdecisions":4540,"Ġmeasurement":4541,"Ġmeasurements":4542,"Ġconsult":4543,"Ġmanner":4544,"oquine":4545,"ĠDecember":4546,"osomes":4547,"Ġassemb":4548,"Ġsession":4549,"tosis":4550,"Ġdetails":4551,"Ġml":4552,"Ġgive":4553,"free":4554,"ĠIs":4555,"Ġcenter":4556,"Ġinoc":4557,"Ġmemory":4558,"Ġphysicians":4559,"fected":4560,"ĠAp":4561,"mittee":4562,"Ġimpacts":4563,"Ġremoved":4564,"Ġsleep":4565,"Ġmuscle":4566,"Ġprofile":4567,"Ġrib":4568,"Ġregulatory":4569,"Ġinstruc":4570,"Ġsubstit":4571,"Ġseven":4572,"HD":4573,"Ġremained":4574,"Ġbene":4575,"CV":4576,"Ġansw":4577,"ees":4578,"Ġcreate":4579,"Ġencour":4580,"Ġactivated":4581,"Ġbehaviors":4582,"ĠCan":4583,"mal":4584,"Ġcognitive":4585,"Ġneigh":4586,"Ġinstr":4587,"Ġeffectively":4588,"Ġwind":4589,"amine":4590,"itiz":4591,"Ġwhose":4592,"with":4593,"Ġupd":4594,"plies":4595,"Ġventil":4596,"Ġstarted":4597,"Ġhyd":4598,"Ġelder":4599,"Ġdeb":4600,"ĠThen":4601,"Ġexercise":4602,"open":4603,"regulated":4604,"Ġuncertainty":4605,"CO":4606,"hea":4607,"oral":4608,"NN":4609,"ET":4610,"acerb":4611,"Ġregional":4612,"Ġdatasets":4613,"Ġpredom":4614,"Ġclassified":4615,"Ġgastro":4616,"iance":4617,"ott":4618,"alle":4619,"Ġimm":4620,"Ġmobility":4621,"Ġaw":4622,"asion":4623,"68":4624,"Ġchrom":4625,"igen":4626,"Ġneutralizing":4627,"Ġmicrobi":4628,"Ġcoverage":4629,"Ġsuppres":4630,"Ġparticipant":4631,"Ġoverl":4632,"Ġaccurate":4633,"elihood":4634,"Ġitself":4635,"ping":4636,"Ġbeyond":4637,"nel":4638,"umab":4639,"Ġdynamic":4640,"theless":4641,"ste":4642,"Ġindustry":4643,"Ġdiff":4644,"Ġrelation":4645,"ĠGiven":4646,"Ġpanel":4647,"Ġdiverse":4648,"Ġcas":4649,"loroquine":4650,"Ġsegment":4651,"Ġsubstantial":4652,"Ġprimarily":4653,"Ġlipid":4654,"Ch":4655,"Ġmorbid":4656,"protein":4657,"Ġbind":4658,"Ġsusceptibility":4659,"Ġgrad":4660,"PP":4661,"pha":4662,"ĠST":4663,"apping":4664,"Î³":4665,"Ġbackground":4666,"Ġpolymerase":4667,"Ġpathogenesis":4668,"Ġsecurity":4669,"Ġinvolving":4670,"Ġparents":4671,"Ġtoo":4672,"ĠPer":4673,"ĠPl":4674,"Ġlatter":4675,"Ġstrength":4676,"Ġmagn":4677,"ĠMD":4678,"Ġkeep":4679,"ĠRSV":4680,"ollow":4681,"ĠSupplementary":4682,"Ġmess":4683,"Ġremote":4684,"ateral":4685,"Ġuses":4686,"Ġvirtual":4687,"chem":4688,"Ġmakes":4689,"Ġdivided":4690,"Ġjob":4691,"Ġpap":4692,"load":4693,"Ġdest":4694,"Ġexternal":4695,"ulative":4696,"47":4697,"ocation":4698,"Ġexacerb":4699,"Ġactual":4700,"Ġrecovered":4701,"ĠELISA":4702,"ĠGermany":4703,"ĠHence":4704,"Ġbehaviour":4705,"Ġdegrad":4706,"orph":4707,"oscop":4708,"Ġmeth":4709,"\".":4710,"ission":4711,"ired":4712,"Ġconstrain":4713,"lets":4714,"viral":4715,"Ġminimum":4716,"98":4717,"Ġglycoprotein":4718,"Ġdiversity":4719,"Ġthink":4720,"Ġclim":4721,"Ġbuilding":4722,"Ġgoal":4723,"oh":4724,"reatment":4725,"Ġprofessional":4726,"Ġvan":4727,"Ġarch":4728,"32":4729,"US":4730,"TC":4731,"ĠBecause":4732,"Ġreach":4733,"regulation":4734,"kelihood":4735,"axis":4736,"Ġresource":4737,"Ġsocio":4738,"Ġinactiv":4739,"ĠEngl":4740,"57":4741,"tag":4742,"ery":4743,"Ġflex":4744,"ĠDespite":4745,"Ġmeaning":4746,"Ġens":4747,"Ġexplained":4748,"Ġrecognized":4749,"Ġclusters":4750,"Ġconventional":4751,"Ġexpand":4752,"sian":4753,"Ġfalse":4754,"ull":4755,"Ġdrop":4756,"Ġolig":4757,"Ġchoice":4758,"astic":4759,"oglob":4760,"urb":4761,"Ġmostly":4762,"Ġ42":4763,"ensin":4764,"Ġeasily":4765,"Ġpen":4766,"Ġdevice":4767,"Ab":4768,"Ġdele":4769,"terminal":4770,"ico":4771,"TAA":4772,"Ġroles":4773,"Ġindirect":4774,"Ġcausing":4775,"opathy":4776,"onucle":4777,"Ġdied":4778,"used":4779,"Ġbeginning":4780,"Ġreflect":4781,"Ġacademic":4782,"Ġaimed":4783,"uting":4784,"Ġrepresented":4785,"Ġrh":4786,"Ġmamm":4787,"Ġminor":4788,"Ġcities":4789,"Ġrequiring":4790,"Ġelderly":4791,"Ġlanguage":4792,"Ġscience":4793,"Ġinstead":4794,"Ġisolates":4795,"arged":4796,"bit":4797,"Ġadequate":4798,"ows":4799,"Ġtrack":4800,"ĠVir":4801,"67":4802,"Ġprotect":4803,"Ġten":4804,"Ġfarm":4805,"Ġrepeated":4806,"Ġprobably":4807,"Ġexact":4808,"Ġtransition":4809,"ĠTrans":4810,"microbial":4811,"Ġcultures":4812,"44":4813,"ĠTB":4814,"Res":4815,"ĠNe":4816,"psis":4817,"Ġcategor":4818,"avage":4819,"Ġ75":4820,"umin":4821,"ola":4822,"Ġdistributed":4823,"binding":4824,"urer":4825,"Ġextraction":4826,"Ġrequirements":4827,"Ġfall":4828,"Ġdogs":4829,"utive":4830,"Ġrecruit":4831,"39":4832,"Ġtiters":4833,"Ġprotocols":4834,"Ġdiffer":4835,"Ġactions":4836,"Ġsector":4837,"went":4838,"nder":4839,"ĠMin":4840,"Ġdouble":4841,"Ġstop":4842,"Ġground":4843,"mark":4844,"Ġwaste":4845,"Ġvolun":4846,"take":4847,"Ġskills":4848,"Ġattack":4849,"dr":4850,"health":4851,"Ġ65":4852,"Ġthemselves":4853,"ocks":4854,"Ġtheore":4855,"ĠCell":4856,"ivir":4857,"31":4858,"ella":4859,"Ġnode":4860,"Ġsociety":4861,"Ġones":4862,"ches":4863,"ultaneous":4864,"Ġscan":4865,"Ġvulnerable":4866,"Ġmarked":4867,"Ġrank":4868,"ij":4869,"Ġsubs":4870,"Ġexcept":4871,"Ad":4872,"ested":4873,"Ġantibiotics":4874,"Ġpromising":4875,"Ġperspective":4876,"ye":4877,"Ġcere":4878,"Ġadopted":4879,"Ġapoptosis":4880,"Ġfilter":4881,"Ġcapit":4882,"Ġcats":4883,"ptions":4884,"Ġenvelop":4885,"ochond":4886,"Ġbil":4887,"Ġsuitable":4888,"Ġbirth":4889,"BC":4890,"ĠIS":4891,"Ġabund":4892,"Ġmotiv":4893,"Ġattit":4894,"Ġâī¤":4895,"Ġtherapies":4896,"piratory":4897,"ologists":4898,"Ġconnec":4899,"Ġprofil":4900,"Ġhard":4901,"ĠNO":4902,"ĠAmerican":4903,"Ġdepending":4904,"Ġpay":4905,"ĠEV":4906,"Ġclasses":4907,"Ġcounts":4908,"ĠÂ¼":4909,"Ġthought":4910,"isting":4911,"Ġmyocardi":4912,"ema":4913,"GAA":4914,"Ġplaced":4915,"Ġdischarge":4916,"aim":4917,"well":4918,"antly":4919,"Ġsepsis":4920,"Ġmorbidity":4921,"Ġtransform":4922,"Ġphenomen":4923,"odies":4924,"ustral":4925,"Ġ44":4926,"Ġpseud":4927,"Ġlargely":4928,"endi":4929,"lu":4930,"ĠPr":4931,"Ġplant":4932,"Ġclinically":4933,"Ġcommercial":4934,"Ġtypical":4935,"ends":4936,"Ġenough":4937,"ĠSeveral":4938,"Ġemotional":4939,"ident":4940,"hematic":4941,"Ġsch":4942,"Ġassumed":4943,"Ġinitially":4944,"Ġresolution":4945,"Ġepitopes":4946,"ficiently":4947,"Ġcum":4948,"Ġthereby":4949,"Ġ2018":4950,"ĠMany":4951,"Is":4952,"Ġantibiotic":4953,"TCT":4954,"Ġlikelihood":4955,"ĠEm":4956,"Ġfeas":4957,"osen":4958,"RA":4959,"patitis":4960,"che":4961,"cor":4962,"ives":4963,"ĠID":4964,"Ġlaw":4965,"Ġconserved":4966,"test":4967,"oon":4968,"activity":4969,"Ġpediatric":4970,"Ġminutes":4971,"Ġbreast":4972,"Ġ47":4973,"Ġsent":4974,"Ġcover":4975,"Ġscenarios":4976,"Ġplanning":4977,"Ġdemographic":4978,"Ġdefinition":4979,"ĠHCV":4980,"avi":4981,"Ġequi":4982,"Ġdifferential":4983,"Ġadvantage":4984,"Ġnucleic":4985,"Ġagreement":4986,"Ġqualitative":4987,"Ġadvanced":4988,"Ġwords":4989,"icular":4990,"otensin":4991,"Ġmodeling":4992,"ĠInter":4993,"Ġseparate":4994,"Ġprivate":4995,"acement":4996,"oxid":4997,"02":4998,"ars":4999,"Ġax":5000,"nce":5001,"Ġempir":5002,"Ġderiv":5003,"ica":5004,"88":5005,"oz":5006,"Ġgenomes":5007,"fection":5008,"Ġinfiltr":5009,"Ġfir":5010,"Ġsubsequently":5011,"Ġparticipation":5012,"Ġobesity":5013,"ront":5014,"Ġintracellular":5015,"Ġsem":5016,"41":5017,"CP":5018,"ĠIII":5019,"Ġranging":5020,"Ġantimicrobial":5021,"alities":5022,"faces":5023,"Ġbiomark":5024,"Ġstarting":5025,"Ġproliferation":5026,"Ġeducational":5027,"Ġschools":5028,"Ġrecords":5029,"Ġmove":5030,"Ġinfants":5031,"Ġimpair":5032,"Ġinser":5033,"Ġtrained":5034,"Ġcompletely":5035,"Ġtable":5036,"Ġland":5037,"vity":5038,"Ġbond":5039,"Ġsuccessfully":5040,"Ġkind":5041,"ĠAS":5042,"roke":5043,"Ġclean":5044,"ethyl":5045,"sequently":5046,"ĠDE":5047,"Ġreached":5048,"Ġ41":5049,"Ġther":5050,"Ġmovement":5051,"itude":5052,"www":5053,"Ġindepend":5054,"ĠConclusion":5055,"osomal":5056,"Ġmetabolic":5057,"evertheless":5058,"ocl":5059,"ĠâĢ":5060,"Ws":5061,"Ġdefine":5062,"'t":5063,"Ġsubun":5064,"ĠMedical":5065,"Ġrandomized":5066,"Ġvideo":5067,"ĠCH":5068,"Ġphot":5069,"Ġcenters":5070,"Ġmolecule":5071,"derived":5072,"Ġbone":5073,"ĠSer":5074,"Ġ56":5075,"Ġstudent":5076,"ĠDisease":5077,"poses":5078,".)":5079,"ĠAI":5080,"bal":5081,"scale":5082,"Ġbios":5083,"Ġimplications":5084,"Ġemission":5085,"Ġhepatitis":5086,"ĠSw":5087,"Ġcust":5088,"Ġshed":5089,"Ġlibr":5090,"Ġ46":5091,"ĠAustral":5092,"Ġcolumn":5093,"lude":5094,"Ġglucose":5095,"ĠJuly":5096,"ĠSystem":5097,"Se":5098,"Ġnanop":5099,"Ġexplan":5100,"Ġidentifying":5101,"Ġextended":5102,"Ġpregnancy":5103,"Ġcomparing":5104,"economic":5105,"Ġexch":5106,"Ġclosely":5107,"Ġparts":5108,"Ġcritically":5109,"Ġbreak":5110,"Ġapplic":5111,"ĠĠĠĠĠĠĠĠ":5112,"Ġpredictive":5113,"articipants":5114,"Ġcomparable":5115,"endix":5116,"LP":5117,"Ġdoct":5118,"Ġcontinued":5119,"Ġbeneficial":5120,"Ġprospective":5121,"osome":5122,"Ġsimultaneous":5123,"Ġdocumented":5124,"Ġcoli":5125,"areness":5126,"ĠPPE":5127,"Ġmode":5128,"Ġsignals":5129,"Con":5130,"Ġcheck":5131,"Ġanalyze":5132,"Ġcm":5133,"Ġï":5134,"pressive":5135,"Ġplays":5136,"Ġcleavage":5137,"Pro":5138,"Ġcompan":5139,"Ġpresents":5140,"ĠPT":5141,"pen":5142,"55":5143,"Ġmediated":5144,"Ġabsor":5145,"Ġple":5146,"Ġslightly":5147,"Ġtranslation":5148,"Ġvariant":5149,"force":5150,"omestic":5151,"Ġadaptive":5152,"upl":5153,"Ġ43":5154,"Ġmembran":5155,"Ġadjusted":5156,"Ġcarry":5157,"Ġzu":5158,"Ġalgorithms":5159,"esthe":5160,"MT":5161,"Ġdur":5162,"Ġdiarrhea":5163,"ulates":5164,"Ġlys":5165,"astruct":5166,"Ġopportunity":5167,"Ġteac":5168,"Ġpurified":5169,"Ġserve":5170,"ĠSE":5171,"Ġmanufacturer":5172,"ĠCV":5173,"03":5174,"Ġaerosol":5175,"Ġnursing":5176,"ĠCX":5177,"97":5178,"Ġparticle":5179,"ochemical":5180,"Ġcapture":5181,"Ġvalidation":5182,"ĠDr":5183,"Ġintestinal":5184,"Ġdiscre":5185,"Ġeight":5186,"Ġshock":5187,"Ġconsists":5188,"urs":5189,"Ġforec":5190,"Ġparticipate":5191,"Ġbecame":5192,"aired":5193,"Ġmitochond":5194,"pan":5195,"Ġparas":5196,"ritis":5197,"oe":5198,"agulation":5199,"BL":5200,"Ġopportunities":5201,"Ġacces":5202,"tingu":5203,"Ġcam":5204,"Ġassociations":5205,"Ġpossibly":5206,"Ġenzymes":5207,"elt":5208,"Ġlymphocytes":5209,"Ġextract":5210,"Ġwhy":5211,"Ġphyl":5212,"Ġalco":5213,"Ġnsp":5214,"ided":5215,"Ġamb":5216,"Ġlargest":5217,"Ġteaching":5218,"rant":5219,"Ġrev":5220,"Ġspeed":5221,"Ġ57":5222,"GCT":5223,"Ġsimulations":5224,"Ġsituations":5225,"iver":5226,"ented":5227,"Ġadjust":5228,"Ġunp":5229,"Ġinteresting":5230,"Ġgrowing":5231,"Ġcategory":5232,"Ġdepends":5233,"Ġallowing":5234,"Ġcircum":5235,"ĠSup":5236,"arb":5237,"Ġidentity":5238,"Ġalveolar":5239,"rance":5240,"ĠHS":5241,"53":5242,"Ġreferred":5243,"borne":5244,"Ġdegradation":5245,"Ġmachine":5246,"terior":5247,"ĠNF":5248,"Ġhybrid":5249,"ĠCP":5250,"Ġdistingu":5251,"Ġinjection":5252,"Ġdecline":5253,"ĠClinical":5254,"HA":5255,"hydro":5256,"Ġexhibited":5257,"Ġamplification":5258,"Ġpartial":5259,"Ġcumulative":5260,"Ġ58":5261,"udes":5262,"Ġ#":5263,"Ġshift":5264,"Ġimmunosup":5265,"Ġtrust":5266,"Ġbecomes":5267,"Ġspl":5268,"Ġpublication":5269,"Ġhypox":5270,"ifications":5271,"Ġchanged":5272,"Ġnuclear":5273,"otal":5274,"Ġattenu":5275,"ĠAP":5276,"Ġdonor":5277,"Ġeine":5278,"Ġsummary":5279,"Ġrise":5280,"Ġorganizations":5281,"ĠImmun":5282,"Ġfeedback":5283,"negative":5284,"Ġcontributed":5285,"ime":5286,"Ġplus":5287,"ĠAnti":5288,"Ġsuffer":5289,"Ġcontroll":5290,"Ġindust":5291,"Ġengagement":5292,"ĠSA":5293,"Ġcontained":5294,"Ġcompe":5295,"ming":5296,"Ġplatforms":5297,"Ġimmediately":5298,"Ġmorph":5299,"Ġspe":5300,"Ġdisorder":5301,"Ġchosen":5302,"ct":5303,"Ġsym":5304,"orrh":5305,"taining":5306,"Ġnews":5307,"esides":5308,"analysis":5309,"ariate":5310,"plicit":5311,"istr":5312,"Ġcode":5313,"Ġnucleotide":5314,"Ġformed":5315,"Ġplot":5316,"Ġassigned":5317,"46":5318,"Ġtour":5319,"artments":5320,"son":5321,"Ġconnected":5322,"allel":5323,"Ġ72":5324,"Ġhab":5325,"OD":5326,"Ġsched":5327,"Ġguidance":5328,"Ġintegrated":5329,"ungen":5330,"icht":5331,"ĠNevertheless":5332,"times":5333,"Ġ49":5334,"Ġcomposition":5335,"Ġchallenging":5336,"Ġclinic":5337,"LS":5338,"Ġnumerous":5339,"Ġrepresentative":5340,"ED":5341,"Ġimproving":5342,"FA":5343,",\"":5344,"Ġcontribution":5345,"Ġmotif":5346,"Ġutilized":5347,"rie":5348,"Ġreliable":5349,"Ġcolleag":5350,"Ġcryst":5351,"Ġcomplexes":5352,"Ġhapp":5353,"ubation":5354,"Ġmissing":5355,"Ġrural":5356,"ollowing":5357,"Ġstored":5358,"ĠKore":5359,"59":5360,"Ġwhite":5361,"erve":5362,"come":5363,"ĠOb":5364,"Ġmother":5365,"ifi":5366,"Ġnit":5367,"Ġassume":5368,"ĠÃł":5369,"Ġpreparation":5370,"Ġpredominant":5371,"Ġmiddle":5372,"âĢ²":5373,"ifug":5374,"Ġunclear":5375,"Ġhypothe":5376,"Ġethn":5377,"Ġstrict":5378,"Ġcoefficient":5379,"ĠSch":5380,"Ġapparent":5381,"Ġnanopartic":5382,"Ġvitamin":5383,"Ġbiop":5384,"Ġexplored":5385,"Ġharm":5386,"SS":5387,"Ġviol":5388,"Ġintervals":5389,"Ġmember":5390,"ĠÃĢ":5391,"Ġengine":5392,"ĠDep":5393,"Ġpigs":5394,"Ġconsideration":5395,"EP":5396,"Ġmedication":5397,"ton":5398,"Ġgreen":5399,"Ġmobile":5400,"Ġprolonged":5401,"GTG":5402,"Ġconsensus":5403,"tially":5404,"Ġemphas":5405,"Ġdonors":5406,"immune":5407,"ĠHLA":5408,"Ġoccurrence":5409,"Ġfemales":5410,"Ġclaim":5411,"Ġ59":5412,"pread":5413,"Ġphosphory":5414,"Ġpathogenic":5415,"ĠNa":5416,"Ġmaintained":5417,"Ġvalidated":5418,"Ġnam":5419,"Ġbalance":5420,"uction":5421,"Ġstatistics":5422,"Ġdepartment":5423,"Ġreproduc":5424,"tras":5425,"ĠÃ©":5426,"Ġ52":5427,"Ġeconomy":5428,"Ġawareness":5429,"Ġod":5430,"rastruct":5431,"Ġuptake":5432,"ffic":5433,"Ġord":5434,"IK":5435,"aceu":5436,"Ġcompliance":5437,"section":5438,"Ġcomputed":5439,"Ġnever":5440,"Ġprophyl":5441,"Ġlocations":5442,"Ġstimulation":5443,"ĠNK":5444,"Ġdomestic":5445,"Ġsolid":5446,"Ġanalog":5447,"Ġmembranes":5448,"Ġmales":5449,"Ġcandidate":5450,"atically":5451,"ĠCa":5452,"isher":5453,"Ġclimate":5454,"Ġhighlighted":5455,"Ġsimilarity":5456,"GE":5457,"Ġng":5458,"olute":5459,"Ġtoler":5460,"Ġstroke":5461,"Ġformal":5462,"ĠMA":5463,"ernat":5464,"Ġtechnical":5465,"77":5466,"Ġbarriers":5467,"ĠDue":5468,"Ġinterpretation":5469,"Ġreleased":5470,"Ġ96":5471,"Ġquickly":5472,"ocking":5473,"ĠOrganization":5474,"Ġdiscuss":5475,"ameter":5476,"Ġmetric":5477,"ĠNP":5478,"range":5479,"lium":5480,"Ġacquired":5481,"Ġeffort":5482,"Ġcytoplas":5483,"Ġcereb":5484,"Ġappeared":5485,"Ġcytotox":5486,"Ġcome":5487,"plate":5488,"ptive":5489,"iform":5490,"dim":5491,"cyt":5492,"Ġindicators":5493,"Ġenable":5494,"Ġneon":5495,"Ġdissem":5496,"lyc":5497,"Ġtasks":5498,"Ġcolleagues":5499,"Ġkit":5500,"Ġtoxicity":5501,"olid":5502,"Ġclinicians":5503,"itect":5504,"Ġyounger":5505,"edic":5506,"Ġheat":5507,"illed":5508,"Ġrab":5509,"fective":5510,"ĠÂ·":5511,"LC":5512,"Ġsubstrate":5513,"intestinal":5514,"cephal":5515,"Ġloop":5516,"Ġhemat":5517,"ordance":5518,"Ġspectrum":5519,"Ġrats":5520,"Ġdiscrim":5521,"Ã¼r":5522,"life":5523,"ĠAfrican":5524,"Ġven":5525,"Ġgas":5526,"ament":5527,"Ġtax":5528,"Ġintermedi":5529,"Ġdifferentiation":5530,"IN":5531,"Ġminimal":5532,"Ġoptions":5533,"Ġinvolves":5534,"LD":5535,"Ġoffic":5536,"Ġfung":5537,"igible":5538,"ulti":5539,"64":5540,"Ġ$":5541,"Ġpositively":5542,"Ġequation":5543,"FP":5544,"venous":5545,"Ġprimers":5546,"Although":5547,"Ġalcohol":5548,"okine":5549,"Ġcorrec":5550,"Ġ51":5551,"ĠPatient":5552,"phone":5553,"Ġpotent":5554,"Ġ54":5555,"Ġswabs":5556,"human":5557,"Ġ500":5558,"Ġtrends":5559,"Ġpersonnel":5560,"obic":5561,"ded":5562,"razil":5563,"Ġmultiv":5564,"ventive":5565,"ĠOnly":5566,"Ġlet":5567,"isons":5568,"Ġlook":5569,"including":5570,"Ġrespir":5571,"Ġmyel":5572,"flow":5573,"hr":5574,"ifying":5575,"Ġhence":5576,"bola":5577,"Ġexamples":5578,"lic":5579,"Ġmutant":5580,"icts":5581,"85":5582,"Ġinterferon":5583,"Ġrecruitment":5584,"Ġcompanies":5585,"Ġcapable":5586,"cribed":5587,"Ġfast":5588,"ĠGroup":5589,"Ġschem":5590,"Ġtree":5591,"Ġstandards":5592,"Ġsupporting":5593,"Ġdetec":5594,"ubiqu":5595,"Ġaud":5596,"Ġcycl":5597,"RSV":5598,"arity":5599,"Ġperception":5600,"Ġselective":5601,"ĠIgM":5602,"Ġtrade":5603,"Ġforce":5604,"Ġvaccinated":5605,"Ġfluorescence":5606,"Ġusage":5607,"oor":5608,"ometry":5609,"akers":5610,"UC":5611,"Ġemerged":5612,"ĠAnd":5613,"Ġinfrastruct":5614,"Ġemergence":5615,"ibri":5616,"Ġsubgroup":5617,"Ġprimer":5618,"cin":5619,"ĠOverall":5620,"Ġanalysed":5621,"Ġmater":5622,"Ġphysiological":5623,"ĠSo":5624,"Ġsharing":5625,"Ġtransplantation":5626,"icles":5627,"Ġpregnant":5628,"Ġunlike":5629,"Ġheterogeneity":5630,"ĠPar":5631,"Ġtranscript":5632,"ĠHE":5633,"Ġcamp":5634,"Ġpractical":5635,"urance":5636,"Ġsurfaces":5637,"96":5638,"ilities":5639,"Ġligand":5640,"Ġestimation":5641,"alk":5642,"ilience":5643,"Ġbarrier":5644,"Ġapply":5645,"ĠÎ³":5646,"ĠEr":5647,"Ġvariance":5648,"ĠRV":5649,"ĠBut":5650,"Ġwashed":5651,"Ġnearly":5652,"Ġpresenting":5653,"Ġcarbon":5654,"Ġmalign":5655,"Ġmanifestations":5656,"Ġshor":5657,"Ġpartn":5658,"ecutive":5659,"Ġpreventing":5660,"Ġexpressing":5661,"Ġorganization":5662,"Ġtopic":5663,"Ġtrauma":5664,"ĠApp":5665,"Ġbelieve":5666,"Ġdraw":5667,"Ġacqu":5668,"olec":5669,"Ġ53":5670,"avir":5671,"Ġfunding":5672,"Ġvariability":5673,"Supplementary":5674,"CCT":5675,"Ġvectors":5676,"Ġinsuf":5677,"Ġkinase":5678,"cus":5679,"Ġsmo":5680,"Ġtraffic":5681,"ĠNon":5682,"Ġstaining":5683,"ares":5684,"get":5685,"))":5686,"Ġmes":5687,"ĠInstitute":5688,"Ġtracing":5689,"Ġdeviation":5690,"Ġcortic":5691,"Ġwer":5692,"71":5693,"Ġzero":5694,"Ġsupernat":5695,"Ġdisplayed":5696,"ging":5697,"Ġadoles":5698,"Ġbr":5699,"Ġconform":5700,"ostic":5701,"Ġprognosis":5702,"Ġsmart":5703,"IA":5704,"RE":5705,"ĠBrazil":5706,"Ġacce":5707,"Ġaffecting":5708,"Ġvital":5709,"06":5710,"Ġist":5711,"Ġethical":5712,"Ġ2017":5713,"Ġautophag":5714,"Ã©s":5715,"NPs":5716,"Ġneurological":5717,"Ġfigure":5718,"actic":5719,"Ġepis":5720,"Ġinvasive":5721,"Ġstake":5722,"opharyngeal":5723,"ret":5724,"Ġsections":5725,"LT":5726,"osin":5727,"Ġvirul":5728,"56":5729,"Ġlogistic":5730,"Ġhold":5731,"Ġfibrosis":5732,"link":5733,"ceptions":5734,"Ġindependently":5735,"Ġaddressed":5736,"Ġcharacteristic":5737,"Ġattr":5738,"Ġauf":5739,"Ġtrigger":5740,"char":5741,"aving":5742,"openia":5743,"thal":5744,"Ġjus":5745,"Ġpolym":5746,"omb":5747,"Ġaffects":5748,"ancer":5749,"Ġnamely":5750,"Ġoption":5751,"Ã¨":5752,"ister":5753,"Ġapproval":5754,"Ġlowest":5755,"ogenetic":5756,"Ġarchitect":5757,"Ġwall":5758,"ĠVirus":5759,"ĠHuman":5760,"atories":5761,"version":5762,"Ġencoun":5763,"itions":5764,"Ġbuild":5765,"Ġfragment":5766,"Ġimmunization":5767,"iR":5768,"urally":5769,"Ġcirculating":5770,"Ġotherwise":5771,"Ġpara":5772,"Ġ&":5773,"Ġembed":5774,"rate":5775,"Ġreduces":5776,"ĠEU":5777,"anned":5778,"Ġsera":5779,"ometric":5780,"Ġelectronic":5781,"Ġparallel":5782,"Ġinhibitory":5783,"Ġtail":5784,"cessive":5785,"ĠHis":5786,"Ġattributed":5787,"ocytosis":5788,"MO":5789,"Ġfu":5790,"Ġsqu":5791,"Ġprecise":5792,"Ġcomplexity":5793,"lab":5794,"Ġneutrophils":5795,"Gs":5796,"Ġconstruct":5797,"ĠCoronavirus":5798,"Ġspreading":5799,"onin":5800,"Ġdeliver":5801,"tile":5802,"idespread":5803,"Ġgel":5804,"Ġsatisfaction":5805,"obacter":5806,"Ġmedications":5807,"ICU":5808,"Ġinfect":5809,"oclonal":5810,"Ġunderst":5811,"Ġabsolute":5812,"Ġconduct":5813,"Ġproxim":5814,"Ġtemporal":5815,"agul":5816,"Ġliqu":5817,"volution":5818,"Ġorgans":5819,"Ġaccumulation":5820,"ques":5821,"hospital":5822,"jectives":5823,"then":5824,"''":5825,"Ġexpress":5826,"78":5827,"ecal":5828,"On":5829,"ĠDif":5830,"Ġdiscovery":5831,"Ġinequ":5832,"vit":5833,"Es":5834,"Ġinfluenced":5835,"Ġreproduction":5836,"Ġmetabolism":5837,"42":5838,"Ġcoupl":5839,"Ġlisted":5840,"value":5841,"ĠEth":5842,"ercul":5843,"Ġinstitutional":5844,"Ms":5845,"ĠEven":5846,"Ġmatter":5847,"Ġpreventive":5848,"Ġmarg":5849,"Ġble":5850,"ns":5851,"Ġphenotype":5852,"Ġion":5853,"medicine":5854,"Ġhygi":5855,"ounts":5856,"ocom":5857,"vors":5858,"Ġrestricted":5859,"oming":5860,"idae":5861,"Â±":5862,"Ġsat":5863,"yle":5864,"ubiquit":5865,"Ġwors":5866,"Ġcomm":5867,"Ġaccomp":5868,"Ġexpon":5869,"Ġnewly":5870,"Ġclearance":5871,"Ġforward":5872,"Ġobserve":5873,"Ġclosed":5874,"Ġextra":5875,"Ġfa":5876,"Ġneural":5877,"Ġpas":5878,"Ġroute":5879,"Ġconserv":5880,"Ġsurge":5881,"Ġinhibited":5882,"oli":5883,"ĠCal":5884,"Ġmap":5885,"ĠControl":5886,"Ġcapital":5887,"Ġstabil":5888,"ĠMan":5889,"ĠCNS":5890,"entical":5891,"Ġsecretion":5892,"Ġoccurring":5893,"Ġeasy":5894,"Ġthor":5895,"Ġguide":5896,"):":5897,"Ġfewer":5898,"ergic":5899,"TAT":5900,"Ġinterviews":5901,"Ġexperts":5902,"Ġauthorities":5903,"Ġdecreases":5904,"Ġwidespread":5905,"Ġmethodology":5906,"Ġstandardi":5907,"Ġunderwent":5908,"person":5909,"Ġdroplets":5910,"Ex":5911,"Ġsubmitted":5912,"Ġmom":5913,"Ġren":5914,"ota":5915,"Ġcaps":5916,"Ġgastrointestinal":5917,"Ġwritten":5918,"Ġopin":5919,"Ġvalu":5920,"Ġprofiles":5921,"Ġextremely":5922,"ocr":5923,"Ġtakes":5924,"troph":5925,"sts":5926,"acting":5927,"Net":5928,"Ġsurround":5929,"66":5930,"Ġtransferred":5931,"Ġhistor":5932,"Ġmarker":5933,"Ġdelayed":5934,"Ġsizes":5935,"Ġepidemics":5936,"ĠSP":5937,"sess":5938,"Ġconcer":5939,"Ġtwice":5940,"Ġplates":5941,"existing":5942,"strand":5943,"Ġmonit":5944,"Ġtook":5945,"Ġenvironments":5946,"Ġbrief":5947,"DP":5948,"Ġstated":5949,"Ġencephal":5950,"know":5951,"ĠEbola":5952,"Ġinsights":5953,"08":5954,"ACT":5955,"Ġincreasingly":5956,"Ġhot":5957,"07":5958,"Ġplants":5959,"Ġequil":5960,"Ġcentrifug":5961,"Ġquite":5962,"ackground":5963,"ishing":5964,"Ġmigration":5965,"ado":5966,"Ġresilience":5967,"ĠCenter":5968,"Ġthick":5969,"ptember":5970,"Ġelectron":5971,"Ġlimitation":5972,"Ġplacebo":5973,"ken":5974,"Ġexchange":5975,"haps":5976,"Ġfavor":5977,"ATT":5978,"Ġpurch":5979,"Ġ''":5980,"ĠGu":5981,"Ġcopies":5982,"ylated":5983,"Ġcomputer":5984,"Ġfed":5985,"gram":5986,"ĠHCoV":5987,"ĠUV":5988,"Ġmand":5989,"ĠGP":5990,"Ġpropose":5991,"inating":5992,"Ġnegatively":5993,"Ġconstructed":5994,"Ġpapers":5995,"Ġpredictions":5996,"Ġtrop":5997,"Ġexpan":5998,"Ġscreen":5999,"fluenza":6000,"atig":6001,"Ġsubset":6002,"Ġintegration":6003,"Ġintroduction":6004,"Ġpersistent":6005,"ttp":6006,"Ġuns":6007,"Ġoperating":6008,"Ġrules":6009,"Ġnone":6010,"Ġinitiation":6011,"Ġbehavioral":6012,"ria":6013,"TP":6014,"Ġplatelet":6015,"Ġcitiz":6016,"Ġsmoking":6017,"Ġcultural":6018,"clusive":6019,"Ġmixture":6020,"Ġerrors":6021,"69":6022,"ĠĠĠĠĠĠ":6023,"Ġdirection":6024,"Ġ2015":6025,"CF":6026,"Ġstock":6027,"Ġcandidates":6028,"ĠEq":6029,"Ġweb":6030,"Ġround":6031,"oted":6032,"Ġadherence":6033,"Ġeti":6034,"Ig":6035,"Ġreserved":6036,"umb":6037,"ux":6038,"ĠParticipants":6039,"Ġimmediate":6040,"Ġtrache":6041,"Ġvariations":6042,"ĠQu":6043,"uous":6044,"icle":6045,"Ġelement":6046,"ĠTe":6047,"Ġrandomly":6048,"clinical":6049,"Ġdetermin":6050,"Ġcareful":6051,"Ġ2016":6052,"Ġstorm":6053,"Ġdistr":6054,"Ġcorticoster":6055,"Ġchanging":6056,"Ġhous":6057,"Rs":6058,"Ġconsiderable":6059,"onym":6060,"ese":6061,"ulum":6062,"Ġtheoretical":6063,"Ġvaried":6064,"izumab":6065,"Ġpermission":6066,"Ġprogressive":6067,"Ġrepresentation":6068,"Ġmel":6069,"Ġfacility":6070,"ĠTechn":6071,"Ġempirical":6072,"Ġuna":6073,"Ġsummarized":6074,"vance":6075,"09":6076,"ĠWestern":6077,"Ġemployees":6078,"Ġexhibit":6079,"aran":6080,"Ġcontamination":6081,"Ġfront":6082,"Ġcontag":6083,"Ġangiotensin":6084,"IKV":6085,"ee":6086,"Ġunderstood":6087,"icted":6088,"Ġtreating":6089,"nea":6090,"entral":6091,"ogenesis":6092,"Ġofficial":6093,"ighting":6094,"ĠStatis":6095,"ĠAug":6096,"ĠBo":6097,"Ġaccom":6098,"ologous":6099,"',":6100,"ien":6101,"Ġelic":6102,"ĠMO":6103,"tenance":6104,"Ġlives":6105,"Ġremoval":6106,"Ġoil":6107,"Ġalpha":6108,"Ġgovernments":6109,"Ġhosts":6110,"58":6111,"ĠHCWs":6112,"ĠVero":6113,"urrently":6114,"orage":6115,"Ġarri":6116,"Ġsaliv":6117,"Ġchannel":6118,"].":6119,"Ġserop":6120,"ĠCare":6121,"Ġaltered":6122,"Ġvessel":6123,"making":6124,"ĠDM":6125,"Ġinfrastructure":6126,"Ġbig":6127,"Ġhaem":6128,"work":6129,"ĠsiRNA":6130,"entation":6131,"Ġwerden":6132,"Ġassembly":6133,"ei":6134,"Ġhydrogen":6135,"Ġbei":6136,"odium":6137,"BI":6138,"entists":6139,"Ġmilk":6140,"ĠEast":6141,"Ġmonoclonal":6142,"ĠAng":6143,"Ġaims":6144,"ĠGo":6145,"Ġobvious":6146,"Ġhighlight":6147,"Ġworks":6148,"oms":6149,"Ġamounts":6150,"Ġmagnitude":6151,"Ġcataly":6152,"Ġpathology":6153,"Ġcolor":6154,"rept":6155,"Ġbelief":6156,"timately":6157,"Ġmathematic":6158,"Ġpurposes":6159,"Ġsynthetic":6160,"ĠPEDV":6161,"Ġequivalent":6162,"Ġori":6163,"Ġintravenous":6164,"erculosis":6165,"ĠVer":6166,"Ġpositions":6167,"Ġinterface":6168,"Ġmalaria":6169,"RSS":6170,"Ġport":6171,"Ġenrolled":6172,"yro":6173,"TS":6174,"Ġgut":6175,"jection":6176,"osal":6177,"ontin":6178,"Ġnation":6179,"Ġexpansion":6180,"atigue":6181,"ogram":6182,"Ġna":6183,"appro":6184,"no":6185,"Ġannot":6186,"ĠCommittee":6187,"Ġnanoparticles":6188,"part":6189,"LE":6190,"Ġprobe":6191,"ĠLD":6192,"Ġwebs":6193,"agne":6194,"Ġstri":6195,"Ġwhom":6196,"Ġfile":6197,"atively":6198,"Ġorganisms":6199,"vo":6200,"Ġpropag":6201,"Ġshape":6202,"Ġtraject":6203,"pes":6204,"Ġdram":6205,"ATG":6206,"ias":6207,"los":6208,"iples":6209,"Ġadju":6210,"Ġpairs":6211,"Ġcontrolling":6212,"ystem":6213,"iction":6214,"ĨĴ":6215,"Ġadvantages":6216,"Ġcircumst":6217,"ĠSeptember":6218,"ĠStudies":6219,"Bs":6220,"water":6221,"vian":6222,"Ġpil":6223,"era":6224,"Ġoperation":6225,"tes":6226,"Ġassessing":6227,"Ġminimize":6228,"Ġimmuno":6229,"Ġstimul":6230,"Ġmanage":6231,"ensional":6232,"ift":6233,"ignific":6234,"Ġcred":6235,"Ġrecipients":6236,"Ġresidue":6237,"Ġ~":6238,"ancre":6239,"Ġcomposed":6240,"ĠTM":6241,"Ġnasopharyngeal":6242,"Ġphysician":6243,"ĠÂµg":6244,"rog":6245,"Ġjud":6246,"Ġhygiene":6247,"Ġpossess":6248,"ulties":6249,"ĠNorth":6250,"Ġbox":6251,"Ġidea":6252,"Ġhaz":6253,"Ġinduces":6254,"ociation":6255,"oviruses":6256,"ĠÎ¼g":6257,"ĠSO":6258,"Ġidentical":6259,"such":6260,"Ġveh":6261,"otes":6262,"fied":6263,"Ġcomparisons":6264,"Ġ99":6265,"Ġperforming":6266,"Ġabnormalities":6267,"Ġultras":6268,"Ġchlor":6269,"plete":6270,"ĠCent":6271,"Ġplasmid":6272,"Ġexists":6273,"ĠÎ»":6274,"ĠPI":6275,"Ġresistant":6276,"Ġconsequence":6277,"Ġinfectivity":6278,"aceutical":6279,"Ġlayers":6280,"Ġune":6281,"ads":6282,"Ġblue":6283,"omas":6284,"amental":6285,"aque":6286,"Ġproven":6287,"GS":6288,"Ġfi":6289,"62":6290,"Ġurgent":6291,"Ġmind":6292,"ĠFollowing":6293,"TCA":6294,"acent":6295,"ĠNote":6296,"inks":6297,"Ġassumption":6298,"embrane":6299,"Ġunable":6300,"Ġaccordance":6301,"Ġcurves":6302,"73":6303,"Ġsometimes":6304,"Ġmaternal":6305,"Ġcarcin":6306,"ĠMon":6307,"Ġgeograph":6308,"key":6309,"Ġinsulin":6310,"ato":6311,"Ġmaintaining":6312,"ricult":6313,"Ġneighbor":6314,"Ġphenomenon":6315,"Ġreviews":6316,"Ġdas":6317,"urine":6318,"Ġrepresenting":6319,"Ġdeclared":6320,"Ġunivers":6321,"Ġconcerning":6322,"Ġbov":6323,"DM":6324,"Ġdental":6325,"idal":6326,"chloroquine":6327,"Ġsensor":6328,"LV":6329,"ĠStr":6330,"state":6331,"ĠPS":6332,"itary":6333,"Ġtransmitted":6334,"Ġvarying":6335,"Ġliquid":6336,"prising":6337,"na":6338,"mental":6339,"Ġrule":6340,"ĠFrance":6341,"Ġratios":6342,"Ġepitope":6343,"Ġcry":6344,"asting":6345,"ĠLPS":6346,"Ġextracellular":6347,"ĠTw":6348,"amples":6349,"Ġdistributions":6350,"CH":6351,"Ġsimultaneously":6352,"Ġdecreasing":6353,"ĠAsia":6354,"Ġseason":6355,"lig":6356,"ĠPa":6357,"Ġgoals":6358,"Ġtoxic":6359,"alled":6360,"ococcus":6361,"ĠKorea":6362,"amide":6363,"Ġvaluable":6364,"Ġteachers":6365,"Ġfold":6366,"Ġimpaired":6367,"OVA":6368,"Ġdeficiency":6369,"ĠNA":6370,"Ġcalves":6371,"Ġreag":6372,"Ġ1000":6373,"apse":6374,"Ġmyocardial":6375,"Ġadministr":6376,"Ġstorage":6377,"ĠSpecifically":6378,"Ġ2009":6379,"Ġvolunte":6380,"Ġmaintenance":6381,"Ġcathe":6382,"Ġcomputational":6383,"ĠHigh":6384,"EA":6385,"istent":6386,"Com":6387,"sur":6388,"engue":6389,"Ġbats":6390,"QR":6391,"ployment":6392,"Ġ300":6393,"ĠÂ°":6394,"mber":6395,"Ġevident":6396,"MPRSS":6397,"Ġcollaboration":6398,"Ġsuperv":6399,"ĠAmerica":6400,"Ġmonocytes":6401,"ss":6402,"Ġinside":6403,"Ġtwe":6404,"Ġneg":6405,"osp":6406,"ĠLa":6407,"Ġpac":6408,"Ġuniversity":6409,"%;":6410,"Ġglobally":6411,"Ġinvolve":6412,"ĠIBV":6413,"holders":6414,"Ġinvestigations":6415,"Ġbiomarkers":6416,"Ġencoding":6417,"eded":6418,"Ġjoint":6419,"Ġhor":6420,"Ġpartially":6421,"otor":6422,"Ġang":6423,"Ġevaluating":6424,"Ġreliability":6425,"ounc":6426,"Ġprotected":6427,"Ġsubunit":6428,"Ġseasonal":6429,"Ġacet":6430,"CCA":6431,"Ġbinds":6432,"Ġorth":6433,"Ġmonitored":6434,"Ġobstruc":6435,"phosph":6436,"Ġgap":6437,"yth":6438,"Ġneutralization":6439,"ĠcDNA":6440,"Ġfatigue":6441,"Ġprinciples":6442,"Ġfri":6443,"Ġcold":6444,"Ġalb":6445,"Ġpollution":6446,"Ġintermediate":6447,"anted":6448,"Ġobservational":6449,"Ġtelemedicine":6450,"Ġthrombo":6451,"Ġtumors":6452,"Ġsupports":6453,"Ġcultured":6454,"Ġretrie":6455,"desivir":6456,"dominal":6457,"....":6458,"Ġanswer":6459,"Ġrelevance":6460,"valence":6461,"anger":6462,"Ġinh":6463,"ÃŁ":6464,"https":6465,"Ġconjug":6466,"Ġexplicit":6467,"ĠCanada":6468,"ĠPL":6469,"oronavirus":6470,"One":6471,"Ġdecades":6472,"Ġchains":6473,"Ġovercome":6474,"cepts":6475,"omers":6476,"illing":6477,"Ġoptimization":6478,"gal":6479,"Ġrecruited":6480,"ĠDet":6481,"Ġdelivered":6482,"ĠSa":6483,"ovember":6484,"Ġoutpatient":6485,"Ġinters":6486,"89":6487,"resh":6488,"ĠBAL":6489,"week":6490,"Ġdocking":6491,"xychloroquine":6492,"Ġdiameter":6493,"alian":6494,"ĠHy":6495,"Ġdilution":6496,"Ġexception":6497,"Re":6498,"Ġdeter":6499,"ĠDie":6500,"reported":6501,"orts":6502,"Ġsynthesized":6503,"0001":6504,"itud":6505,"Ġworse":6506,"Ġchick":6507,"Ġattempt":6508,"Ġsessions":6509,"Ġdial":6510,"Ġfundamental":6511,"Ġodds":6512,"86":6513,"ĠAN":6514,"rs":6515,"habil":6516,"Ġadapted":6517,"ĠAugust":6518,"Ġprice":6519,"dose":6520,"Ġcoding":6521,"vis":6522,"Ġoperations":6523,"Ġswit":6524,"Ġframe":6525,"ris":6526,"Ġfibro":6527,"ĠLabor":6528,"Ġ2014":6529,"fects":6530,"Ġprocessed":6531,"Ġsurveys":6532,"Ġinstructions":6533,"Ġonto":6534,"escent":6535,"ptic":6536,"ibrium":6537,"Ġstrati":6538,"Ġ{":6539,"isol":6540,"ĠSpain":6541,"eter":6542,"otides":6543,"ĠThree":6544,"Ġtopics":6545,"Ġsimpl":6546,"Ġanticip":6547,"RP":6548,"ĠMean":6549,"Ġgradi":6550,"Ġcovari":6551,"ĠHF":6552,"ĠmiRNA":6553,"Ġcycles":6554,"Ġconfound":6555,"Ġwilling":6556,"Ġmicrobial":6557,"Ġnine":6558,"Ġprivacy":6559,"Ġreads":6560,"onary":6561,"cto":6562,"Ġexcess":6563,"Ġeiner":6564,"Ġphases":6565,"Îº":6566,"Ġreveal":6567,"Ġdifficulties":6568,"tagon":6569,"Ġneurons":6570,"ĠAustralia":6571,"irds":6572,"Ġlost":6573,"Ġsed":6574,"Ġmicroscopy":6575,"Ġreasonable":6576,"ĠRA":6577,"ĠVP":6578,"Ġenvelope":6579,"Ġstrengthen":6580,"acet":6581,"ĠWT":6582,"Ġpancre":6583,"Ġcalculate":6584,"Ġaspect":6585,"ctober":6586,"Ġprovision":6587,"Ġmitochondrial":6588,"cription":6589,"data":6590,"Ġpopular":6591,"porting":6592,"ĠDepartment":6593,"ĠPe":6594,"Ġtube":6595,"Ġspect":6596,"72":6597,"Ġresidual":6598,"Ġdescription":6599,"Ġhouseholds":6600,"cipl":6601,"Ġranged":6602,"nen":6603,"vasive":6604,"Ac":6605,"Ġformat":6606,"eds":6607,"Ġaid":6608,"Ġradiation":6609,"mes":6610,"Ġdimensions":6611,"Ġbeh":6612,"agnetic":6613,"Ġpredictors":6614,"Ġcollect":6615,"Ġtiter":6616,"Ġcircumstances":6617,"ĠFour":6618,"Ġtransfusion":6619,"Ġaway":6620,"ĠInformation":6621,"dimensional":6622,"79":6623,"Ġclar":6624,"Ġteams":6625,"zen":6626,"unately":6627,"Ġvalidity":6628,"Ġrestriction":6629,"ounced":6630,"Ġbuilt":6631,"sin":6632,"ÃĹ":6633,"Ġbreath":6634,"ĠUnder":6635,"rade":6636,"elled":6637,"Ġdownstream":6638,"Ġubiquit":6639,"cents":6640,"ĠDis":6641,"Ġhemorrh":6642,"Ġrac":6643,"place":6644,"ĠOut":6645,"Ġfields":6646,"Ġprelim":6647,"llig":6648,"ĠIgA":6649,"iddle":6650,"Ġphosphorylation":6651,"Ġsin":6652,"Ġdatabases":6653,"Ġautoimmune":6654,"Ġlact":6655,"Ġdiluted":6656,"Ġperme":6657,"Ġapplicable":6658,"Ġzoon":6659,"Ġpriority":6660,"ĠMHV":6661,"inted":6662,"Ġbran":6663,"52":6664,"sectional":6665,"resist":6666,"Ġaspir":6667,"Ġdetermining":6668,"Ġsodium":6669,"tensive":6670,"Ġworth":6671,"acchar":6672,"leuk":6673,"Ġantagon":6674,"Ġmodification":6675,"MC":6676,"Ġdeal":6677,"Ġweekly":6678,"etic":6679,"Ġoxidative":6680,"Ġindicator":6681,"Ġmetast":6682,"Ġdirected":6683,"lin":6684,"rose":6685,"Ġclustering":6686,"Ġsubstantially":6687,"ĠTG":6688,"TE":6689,"vascular":6690,"illin":6691,"Ġfailed":6692,"Ġsan":6693,"Ġbegan":6694,"discipl":6695,"At":6696,"Ġmoment":6697,"ĠPublic":6698,"ĠCOPD":6699,"wing":6700,"Ġeen":6701,"ĠIR":6702,"ĠES":6703,"omics":6704,"Ġpromoting":6705,"Af":6706,"ask":6707,"Ġce":6708,"Ġemployment":6709,"HE":6710,"ĠBio":6711,"Ġlymphocyte":6712,"Ġlimits":6713,"ĠCDC":6714,"reactive":6715,"review":6716,"body":6717,"herent":6718,"Ġscreened":6719,"Ġlibrary":6720,"Ġrational":6721,"Ġattitudes":6722,"Ġepithe":6723,"Da":6724,"Ġreserv":6725,"radi":6726,"cepted":6727,"ĠImport":6728,"ĠConsider":6729,"Ġconflict":6730,"ĠCRP":6731,"Ġraised":6732,"ĠIP":6733,"-,":6734,"Ġrequirement":6735,"Ġnecrosis":6736,"Ġcoping":6737,"mol":6738,"Ġinitiated":6739,"ĠReview":6740,"DR":6741,"atitis":6742,"Ġtuberculosis":6743,"Ġlegal":6744,"ĠBesides":6745,"ON":6746,"Ġischem":6747,"ĠNovember":6748,"Ġintake":6749,"Ġextension":6750,"Ġsimply":6751,"Ġacknow":6752,"Ġfelt":6753,"Ġonc":6754,"Ġcompartment":6755,"54":6756,"ĠPrevious":6757,"--":6758,"oir":6759,"ĠMedicine":6760,"achment":6761,"Rec":6762,"ĠSoci":6763,"Ġpreca":6764,"cut":6765,"Ġshedding":6766,"Ġphone":6767,"inine":6768,"Ġefficiently":6769,"Ġcitizens":6770,"ficients":6771,"Ġhydroph":6772,"Ġsen":6773,"Ġrot":6774,"Ġattend":6775,"Ġglycos":6776,"ĠPF":6777,"Ġselect":6778,"Ġheight":6779,"lobal":6780,"Ġconcluded":6781,"uation":6782,"Ġpandemics":6783,"ML":6784,"urg":6785,"Ġmeeting":6786,"Ġpractition":6787,"habilitation":6788,"Ġrein":6789,"bound":6790,"class":6791,"ĠfÃ¼r":6792,"romised":6793,"ducing":6794,"ĠMRI":6795,"Ġconsecutive":6796,"Ġrecognize":6797,"Ġconstruction":6798,"ĠEl":6799,"Ġarth":6800,"BA":6801,"Ġadvance":6802,"Ġadaptation":6803,"Ġforeign":6804,"ĠRespiratory":6805,"Ġpublications":6806,"94":6807,"isition":6808,"CMO":6809,"Ġdry":6810,"ĠmiR":6811,"eces":6812,"KI":6813,"mean":6814,"ĠEnglish":6815,"Ġburn":6816,"ĠRecently":6817,"Ġexplo":6818,"With":6819,"lich":6820,"Ġchemotherapy":6821,"Ġmodifications":6822,".;":6823,"ĠSS":6824,"Ġaver":6825,"Ġnoise":6826,"Ġexec":6827,"Ġdetecting":6828,"Ġplaces":6829,"Ġpi":6830,"ĠMHC":6831,"Ġdiffusion":6832,"Ġregardless":6833,"Ġremark":6834,"76":6835,"Ġstakeholders":6836,"Ġuniform":6837,"81":6838,"ience":6839,"Ġdoctors":6840,"Ġbud":6841,"Ġplans":6842,"ĠMaterial":6843,"Ġwindow":6844,"Ġbovine":6845,"Ġgives":6846,"ancies":6847,"Ġoffered":6848,"Ġpreliminary":6849,"Ġreuse":6850,"posing":6851,"Ġarterial":6852,"Ġintubation":6853,"Ġprevalent":6854,"Ġwel":6855,"glut":6856,"Since":6857,"lands":6858,"Ġconstraints":6859,"Ġprojects":6860,"ĠTyp":6861,"Ġcorrelations":6862,"RNAs":6863,"ĠWhat":6864,"Ġinterests":6865,"Ġimpairment":6866,"kt":6867,"Ġreconstr":6868,"Ġste":6869,"Ġ64":6870,"ucid":6871,"Ġundergo":6872,"iet":6873,"93":6874,"Ġlaboratories":6875,"Ġfatality":6876,"rang":6877,"income":6878,"ump":6879,"oxide":6880,"Ġtet":6881,"Ġwriting":6882,"kin":6883,"Ġhelpful":6884,"ĠStudy":6885,"Ġcoefficients":6886,"Ġsaid":6887,"Ġexplor":6888,"Ġarchitecture":6889,"olester":6890,"Ġframes":6891,"Ġpathological":6892,"Ġfrequencies":6893,"Ġaus":6894,"itudinal":6895,"vest":6896,"ĠGene":6897,"Ġ150":6898,"ĠOctober":6899,"inding":6900,"ÃŃa":6901,"Ġhour":6902,"Ġsubjected":6903,"Ġdeple":6904,"Ġcoronary":6905,"prot":6906,"ayer":6907,"word":6908,"Ġhumid":6909,"Ġana":6910,"ĠMR":6911,"osystem":6912,"Ġsich":6913,"Ġappearance":6914,"Ġoffers":6915,"membrane":6916,"uge":6917,"Ġexcell":6918,"Ġtiming":6919,"Ġblot":6920,"FV":6921,"ĠTest":6922,"ortic":6923,"Ġfragments":6924,"Ġprinciple":6925,"Ġgreatly":6926,"Ġgold":6927,"Ġbring":6928,"Ġlob":6929,"ĠÏĥ":6930,"Ġgrade":6931,"Ġmarkets":6932,"Ġapplying":6933,"Ġpert":6934,"Ġdetectable":6935,"Ġurine":6936,"pid":6937,"83":6938,"igma":6939,"Ġconval":6940,"atch":6941,"Ġreading":6942,"ĠPC":6943,"Ġutility":6944,"Ġstrand":6945,"empor":6946,"Ġpackage":6947,"ĠShe":6948,"Ġepithelium":6949,"Ġesc":6950,"Ġautophagy":6951,"2019":6952,"Ġunex":6953,"Ġdifficulty":6954,"Ġbeta":6955,"92":6956,"Ġdeterior":6957,"OH":6958,"Ġbott":6959,"ĠMal":6960,"Ġsulf":6961,"Ġmucosal":6962,"Ġbilateral":6963,"Ġpromin":6964,"oprotein":6965,"ione":6966,"hyth":6967,"Ġassessments":6968,"Ġcontributing":6969,"ample":6970,"Ġisolate":6971,"Ġconsolid":6972,"Ġcoagulation":6973,"Ġinhibits":6974,"ĠTheir":6975,"ĠAppendix":6976,"],":6977,"Ġdriven":6978,"Ġphylogenetic":6979,"ĠMulti":6980,"Ġmeasuring":6981,"disciplinary":6982,"Ġtimely":6983,"Ġinfusion":6984,"Ġartery":6985,"Ġfeasible":6986,"Ġband":6987,"Ġrecover":6988,"Ġannual":6989,"Ġchannels":6990,"Ġsuperior":6991,"Ġarm":6992,"Ġactually":6993,"Ġpacient":6994,"Ġabstr":6995,"ĠAnalysis":6996,"Ġdiscovered":6997,"ĠTC":6998,"Ġequilibrium":6999,"74":7000,"Ġdisruption":7001,"Ġrig":7002,"Ġinstrument":7003,"ĠItalian":7004,"standing":7005,"Ġdiver":7006,"Ġbreathing":7007,"Ġassumptions":7008,"Ġ(\"":7009,"pressed":7010,"Ġrelax":7011,"Ġconsisting":7012,"91":7013,"efined":7014,"Ġconsisted":7015,"Ġ85":7016,"Ġsurvivors":7017,"adj":7018,"ĠYork":7019,"Ġrace":7020,"Ġsexual":7021,"Ġelse":7022,"ĠSI":7023,"Ġfetal":7024,"Ġkept":7025,"'.":7026,"apsid":7027,"Ġconclusions":7028,"month":7029,"Ġpreferred":7030,"ĠThat":7031,"Ġfatal":7032,"Ġtransportation":7033,"ĠRep":7034,"Ġligands":7035,"Ġstandardized":7036,"onavir":7037,"Ġvas":7038,"zer":7039,"Ġtemplate":7040,"Ġendogenous":7041,"tained":7042,"versely":7043,"ĠMicro":7044,"Ġadolescents":7045,"Ġgoing":7046,"rank":7047,"ĠTMPRSS":7048,"Ġusual":7049,"Ġcreating":7050,"ĠLA":7051,"Ġhier":7052,"Ġseparated":7053,"ought":7054,"ellow":7055,"tex":7056,"Im":7057,"HP":7058,"zation":7059,"Ġlabeled":7060,"Ġpredicting":7061,"tificial":7062,"Ġexistence":7063,"Ġsectors":7064,"Ġexplanation":7065,"dri":7066,"olecular":7067,"ponse":7068,"illary":7069,"Ġals":7070,"Ġcollective":7071,"ams":7072,"Ġvo":7073,"aign":7074,"Ġpneumoniae":7075,"nt":7076,"Ġseverely":7077,"Ġmodern":7078,"ĠEf":7079,"idad":7080,"idine":7081,"Ġsuic":7082,"Ġacquisition":7083,"Ġantico":7084,"Ġblack":7085,"Ġbul":7086,"Ġconcepts":7087,"Ġ2010":7088,"iger":7089,"Ġeye":7090,"ĠExper":7091,"51":7092,"Ġkine":7093,"ĠModel":7094,"Ġconven":7095,"itter":7096,"Ġinsufficient":7097,"Abs":7098,"Ġagencies":7099,"Ġaug":7100,"ĠArab":7101,"Ġfresh":7102,"Ġcohorts":7103,"ication":7104,"ĠBlack":7105,"Ġtom":7106,"âĢ¦":7107,"Ġmammalian":7108,"Ġcontributions":7109,"Ġremove":7110,"Ġcyst":7111,"Ġcontributes":7112,"tention":7113,"olytic":7114,"Ġrefers":7115,"ĠMa":7116,"Ġequations":7117,"87":7118,"Ġdischarged":7119,"yel":7120,"Ġpredominantly":7121,"acterial":7122,"ians":7123,"ĠRNAs":7124,"Ġscope":7125,"matic":7126,"Ġengage":7127,"Ġregistered":7128,"ischen":7129,"Ġshorter":7130,"restim":7131,"Ġalignment":7132,"ynamic":7133,"GO":7134,"cing":7135,"GFP":7136,"ĠHD":7137,"Ġconfig":7138,"Ġunf":7139,"Ġhomes":7140,"ĠDC":7141,"Des":7142,"gr":7143,"ĠFisher":7144,"Ġpooled":7145,"bre":7146,"Ġmurine":7147,"Ġranges":7148,"Ġseparately":7149,"ĠProtein":7150,"Ġpict":7151,"WHO":7152,"Ġbeds":7153,"GTA":7154,"stim":7155,"ĠLike":7156,"Ġcompany":7157,"61":7158,"Ġdisaster":7159,"Ġdescribes":7160,"Ġwearing":7161,"Ġincom":7162,"Ġcharge":7163,"While":7164,"Ġmim":7165,"Ġperhaps":7166,"path":7167,"formed":7168,"Ġtourism":7169,"Ġclassical":7170,"Ġcovered":7171,"Ġitem":7172,"IDS":7173,"Ġdispar":7174,"Ġmitigate":7175,"Ġavian":7176,"Ġwr":7177,"Ġadding":7178,"ror":7179,"ÎºB":7180,"uate":7181,"SE":7182,"linked":7183,"Ġventr":7184,"Ġexcessive":7185,"oscopy":7186,"Ġinsight":7187,"Ġintended":7188,"Ġ2012":7189,"Ġproved":7190,"ĠAsian":7191,"ĠFDA":7192,"Ġelucid":7193,"ĠâĨĴ":7194,"cers":7195,"Ġdemonstrates":7196,"ifer":7197,"Ġabdominal":7198,"Ġinvestment":7199,"Ġnamed":7200,"ios":7201,"Ġbelieved":7202,"Ġkg":7203,"wan":7204,"Ġindustrial":7205,"Ġhepatic":7206,"eptide":7207,"Ġperceptions":7208,"Ġaware":7209,"inement":7210,"Ġeconom":7211,"Data":7212,"Ġrecur":7213,"Ġpredictor":7214,"Ġaccompan":7215,"ĠKong":7216,"Ġcontex":7217,"Ġreactive":7218,"Ġclon":7219,"Ġlacking":7220,"Ġformer":7221,"Ġultimately":7222,"Ġlimiting":7223,"Ġtransfected":7224,"ĠSocial":7225,"Ġdead":7226,"RIS":7227,"umes":7228,"Ġsurrounding":7229,"athe":7230,"ĠÏĦ":7231,"heum":7232,"Ġconnection":7233,"Ġexclusive":7234,"avy":7235,"Un":7236,"ulty":7237,"However":7238,"Ġpolymorph":7239,"from":7240,"Ġunlikely":7241,"dimer":7242,"Ġmicroorgan":7243,"Ġtransformation":7244,"Ġexclusion":7245,"Ġdysp":7246,"Ġagricult":7247,"ulator":7248,"Ġcommit":7249,"Ġbecoming":7250,"Ġ2013":7251,"ĠGI":7252,"Ġendemic":7253,"Ġstronger":7254,"ĠConsequently":7255,"amb":7256,"Ġinnovation":7257,"Ġparent":7258,"ips":7259,"rained":7260,"ungs":7261,"patients":7262,"Ġaccessible":7263,"ĠHong":7264,"Ġexcellent":7265,"ocon":7266,"ĠSal":7267,"ĠNT":7268,"Ġthrombosis":7269,"oper":7270,"Ġresponsibility":7271,"Ġsick":7272,"roat":7273,"Ġpip":7274,"Ġsuppression":7275,"Ġsensors":7276,"Ġserological":7277,"RD":7278,"emble":7279,"Ġnormalized":7280,"Ġgeographic":7281,"tail":7282,"Ġhighlights":7283,"Ġweights":7284,"va":7285,"ĠCells":7286,"resistant":7287,"Ġagree":7288,"inder":7289,"Ġsustainable":7290,"omycin":7291,"Ġuniversal":7292,"Ġproof":7293,"Ġactivate":7294,"ogle":7295,"84":7296,"Ġpromoter":7297,"abled":7298,"Ġmutants":7299,"arrow":7300,"Ġmarrow":7301,"Ġsocioeconomic":7302,"Ġsimulated":7303,"Ġinfer":7304,"Ġdiscontin":7305,"Ġmathematical":7306,"verex":7307,"treatment":7308,"olesterol":7309,"Ġcodon":7310,"ito":7311,"ĠBMI":7312,"Ġillustrated":7313,"Ġske":7314,"Ġanesthe":7315,"through":7316,"Ġproducing":7317,"Ġsaturation":7318,"Ġraw":7319,"Ġadoption":7320,"Ġ2000":7321,"Ġmanaged":7322,"lined":7323,"book":7324,"ĠAB":7325,"Ġsearc":7326,"Ġsaliva":7327,"Ġvirulence":7328,"Ġblocking":7329,"Ġundergoing":7330,"Ġwant":7331,"Ġinhibiting":7332,"Ġevolutionary":7333,"rought":7334,"uz":7335,"Ġemissions":7336,"ously":7337,"-(":7338,"raft":7339,"ĠViral":7340,"Ġexpert":7341,"Ġdedic":7342,"Ġaccepted":7343,"imal":7344,"ĠRed":7345,"undred":7346,"Ġprem":7347,"plex":7348,"lect":7349,"Ġhydroxychloroquine":7350,"Ġproperty":7351,"gg":7352,"Ġlesion":7353,"Ġmetrics":7354,"III":7355,"Ġbleeding":7356,"Ġdominant":7357,"Ġdend":7358,"Ġembry":7359,"uries":7360,"Ġeosin":7361,"Ġcampaign":7362,"ĠAdditional":7363,"Ġhydrophobic":7364,"genic":7365,"ĠGA":7366,"Ġeventually":7367,"Ġspaces":7368,"ocytic":7369,"Ġcomplicated":7370,"Ġsay":7371,"pted":7372,"Ġimprovements":7373,"Ġimplies":7374,"RBD":7375,"insic":7376,"ĠRecent":7377,"Ġepidemiology":7378,"ĠPV":7379,"ĠDiagn":7380,"82":7381,"Ġpal":7382,"label":7383,"Ġfirms":7384,"givers":7385,"Ġsuffering":7386,"Ġgenotype":7387,"dR":7388,"mentioned":7389,"Ġeligible":7390,"Ġspont":7391,"Ġscales":7392,"Ġaz":7393,"Ġgradient":7394,"Ġmapping":7395,"Ġreservoir":7396,"plicate":7397,"Ġnerv":7398,"Ġgather":7399,"titive":7400,"Ġcirculation":7401,"Ġintention":7402,"ĠPP":7403,"unic":7404,"Ġmax":7405,"Ġbodies":7406,"ĠHP":7407,"ĠNotably":7408,"Ġbiology":7409,"iol":7410,"riched":7411,"ĠWest":7412,"ulmonary":7413,"Ġenrich":7414,"Ġindeed":7415,"Ġimmunoglob":7416,"Ġfaster":7417,"chain":7418,"ester":7419,"ogenicity":7420,"kal":7421,"Ġ2003":7422,"Ġparticipating":7423,"Ġdistinguish":7424,"Ġaugment":7425,"ĠImportantly":7426,"fortunately":7427,"Ġvic":7428,"yes":7429,"Ġknock":7430,"Ġlongitudinal":7431,"ipl":7432,"Ġallocation":7433,"Ġsustained":7434,"icillin":7435,"Ġgeographical":7436,"Ġrecombination":7437,"bed":7438,"Ġcodes":7439,"Met":7440,"Ġregulate":7441,"rants":7442,"Ġrepair":7443,"Ġabundance":7444,"ignificant":7445,"Ġdengue":7446,"Ġproinflammatory":7447,"ĠGovern":7448,"Ġposterior":7449,"Ġcausal":7450,"Ġreadily":7451,"elle":7452,"Ġfair":7453,"ĠBay":7454,"ĠÂ®":7455,"uthor":7456,"Ġrad":7457,"Ġlatent":7458,"fit":7459,"Med":7460,"Ġconvalescent":7461,"ĠScience":7462,"uing":7463,"ests":7464,"emographic":7465,"Ġideal":7466,"Ġsn":7467,"Ġanalytical":7468,"Ġprev":7469,"2021":7470,"Ġdies":7471,"Ġscheme":7472,"Ġgenerating":7473,"Ġstained":7474,"Ġquantified":7475,"night":7476,"rees":7477,"No":7478,"ĠIniti":7479,"Ġcorresponds":7480,"Ġsoon":7481,"Ns":7482,"Ġprovince":7483,"Ġseek":7484,"Ġhorm":7485,"adequ":7486,"Ġhelps":7487,"ĠHSV":7488,"Ġdimin":7489,"Ġsought":7490,"anks":7491,"Ġclinics":7492,"ĠChild":7493,"invasive":7494,"vision":7495,"Ġinternet":7496,"Ġmatched":7497,"Ġspecimen":7498,"Ġobjectives":7499,"vation":7500,"Ġmitigation":7501,"Ġmodelling":7502,"Ġcalls":7503,"Ġsegments":7504,"ĠHBV":7505,"When":7506,"Ġnervous":7507,"Ġnative":7508,"He":7509,"Ġcomes":7510,"Ġscientists":7511,"Ġconsistently":7512,"Ġregulated":7513,"ferent":7514,"Ġacceptable":7515,"Ġconclude":7516,"vey":7517,"Ġvel":7518,"ados":7519,"Ġnecessarily":7520,"Ġregulations":7521,"Ġtelehealth":7522,"Ġrelig":7523,"ĠAcute":7524,"Ġsoluble":7525,"Ġincorporated":7526,"Ġcul":7527,"Ġlif":7528,"Ġderivatives":7529,"Ġsimilarly":7530,"ils":7531,"quar":7532,"ĠState":7533,"ĠSV":7534,"ĠÎ¸":7535,"These":7536,"Ġhands":7537,"ureus":7538,"ĠdÃ©":7539,"Ġserial":7540,"generation":7541,"Ġhepat":7542,"Ġagreed":7543,"anol":7544,"ĠPrim":7545,"actory":7546,"after":7547,"Ġalterations":7548,"ben":7549,"Ġnicht":7550,"Ġacts":7551,"ĠScientific":7552,"Ġbiopsy":7553,"ĠPo":7554,"Ġspontaneous":7555,"Co":7556,"gered":7557,"ophysi":7558,"Pati":7559,"conf":7560,"hydr":7561,"NE":7562,"Ġexperiencing":7563,"orth":7564,"Ġ63":7565,"Ġstream":7566,"Ġcombinations":7567,"leukin":7568,"__":7569,"Ġhypothesized":7570,"asal":7571,"Ġrequest":7572,"ĠEC":7573,"Ġintersti":7574,"Ġantioxid":7575,"Ġcaptured":7576,"Ġaccompanied":7577,"Ġdisturb":7578,"Ġentities":7579,"Ġcharacterization":7580,"Ġproteases":7581,"ano":7582,"Ġ62":7583,"Ġmassive":7584,"ĠÎ´":7585,"Ġpoorly":7586,"Ġupdated":7587,"ĠCMV":7588,"Ġneonatal":7589,"Ġentre":7590,"Ġcytos":7591,"Ġultrasound":7592,"Ġgr":7593,"chool":7594,"Gen":7595,"Ġfinally":7596,"Ġcontinues":7597,"erge":7598,"Ġautomated":7599,"Ġsuspension":7600,"Ġundert":7601,"Ġpartners":7602,"ACA":7603,"Ġfocusing":7604,"nec":7605,"Ġthroat":7606,"Ġparad":7607,"cytes":7608,"Ġinsurance":7609,"Ġrely":7610,"Ġcontexts":7611,"PSS":7612,"Ġinterpreted":7613,"Ġpolar":7614,"ositive":7615,"Ġattachment":7616,"olip":7617,"Ġcoupled":7618,"ische":7619,"grad":7620,"ush":7621,"Ġsple":7622,"Ġtranscripts":7623,"Ġauch":7624,"iO":7625,"romycin":7626,"ocapsid":7627,"Ġenables":7628,"Ġhistorical":7629,"uled":7630,"Ġreplaced":7631,"pm":7632,"Ġlect":7633,"operation":7634,"Ġderm":7635,"Ġprobes":7636,"Ġutilization":7637,"Ġconceptual":7638,"Ag":7639,"Ġbinary":7640,"target":7641,"Ġadmissions":7642,"Ds":7643,"Ġplanned":7644,"Ġviolence":7645,"ĠThird":7646,"okines":7647,"ologist":7648,"Ġadhesion":7649,"Ġprognostic":7650,"arian":7651,"ĠNC":7652,"sm":7653,"ĠCompared":7654,"Ġcompens":7655,"Ġhundred":7656,"ĠSociety":7657,"Ġchoose":7658,"ĠATP":7659,"ĠDevelop":7660,"Ġprophylaxis":7661,"Ġconformation":7662,"apped":7663,"while":7664,"amily":7665,"Ġprep":7666,"aj":7667,"Am":7668,"containing":7669,"Ġaureus":7670,"Ġzoonotic":7671,"cine":7672,"ĠServ":7673,"Ġdeterminants":7674,"Ġacceptance":7675,"GT":7676,"Ġaxis":7677,"Ġtransmis":7678,"vacc":7679,"Ġmanufacturing":7680,"bes":7681,"Ġleadership":7682,"ĠHCQ":7683,"ĠÂµM":7684,"Ġinsec":7685,"Ġdual":7686,"reviewed":7687,"ĠMV":7688,"1111":7689,"Ġdemonstrating":7690,"rot":7691,"Ġreplacement":7692,"aden":7693,"Ġgave":7694,"ĠCity":7695,"uit":7696,"enn":7697,"nc":7698,"ĠPK":7699,"ĠMT":7700,"ĠMiddle":7701,"Ġimmunological":7702,"Ġbehind":7703,"Ġconcerned":7704,"Ġmultivariate":7705,"uck":7706,"Ġveloc":7707,"Ġconsultation":7708,"Ġpreced":7709,"Ġgest":7710,"GB":7711,"Ġexponential":7712,"Ġreproductive":7713,"OL":7714,"500":7715,"Ġsmooth":7716,"Ġassistance":7717,"Ġflexibility":7718,"Ġentit":7719,"Ġ(>":7720,"Ġcalculation":7721,"Ġphag":7722,"ogether":7723,"Ġmultic":7724,"iment":7725,"Ġexpanded":7726,"ĠÃħ":7727,"ĠOnce":7728,"Ġprecision":7729,"During":7730,"Ġreflected":7731,"Ġlag":7732,"Ġdetermination":7733,"Ġprominent":7734,"aves":7735,"Ġmanip":7736,"omod":7737,"dra":7738,"ostasis":7739,"stranded":7740,"olding":7741,"Ġglut":7742,"types":7743,"Ġlinks":7744,"Ġwashing":7745,"Ġsupernatant":7746,"Ġreflects":7747,"Ġbroader":7748,"ĠEngland":7749,"ĠInternet":7750,"After":7751,"Ġrarely":7752,"ĠAE":7753,"ĠEmerg":7754,"reed":7755,"Ġiron":7756,"Ġsuppor":7757,"Ġvac":7758,"Ġtag":7759,"Ġcharacterize":7760,"tility":7761,"Ġsput":7762,"Ġ120":7763,"Ġneither":7764,"sub":7765,"gence":7766,"squ":7767,"Ġcatalytic":7768,"Ġaccurately":7769,"Ġinoculated":7770,"Ġprioriti":7771,"inger":7772,"SP":7773,"ĠTai":7774,"Ġheld":7775,"thern":7776,"Ġhepar":7777,"Ġ000":7778,"Ġemotions":7779,"MB":7780,"Ġintest":7781,"Ġopac":7782,"illus":7783,"Ġmoder":7784,"etry":7785,"Ġpenet":7786,"Ġwear":7787,"dRp":7788,"Ġtechnological":7789,"ĠSC":7790,"Ġdoing":7791,"mat":7792,"what":7793,"lectr":7794,"alling":7795,"sities":7796,"Ġfract":7797,"Ġheavy":7798,"Ġamplified":7799,"oman":7800,"Ġspecified":7801,"Ġopinion":7802,"CSF":7803,"Ġdurch":7804,"Ġthemes":7805,"plas":7806,"Ġmodule":7807,"controlled":7808,"pop":7809,"amma":7810,"Ġ61":7811,"Ġdocuments":7812,"Ġgam":7813,"Ġcaregivers":7814,"Ġseparation":7815,"\")":7816,"OP":7817,"linear":7818,"ĠNI":7819,"ĠSm":7820,"Ġjour":7821,"ĠScale":7822,"AE":7823,"Ġherpes":7824,"Ġintroduce":7825,"troduction":7826,"Ġ98":7827,"Ġing":7828,"Ġdedicated":7829,"Ġremdesivir":7830,"Ġdesignated":7831,"Ġedema":7832,"Ġdepartments":7833,"Ġcorticosteroids":7834,"ployed":7835,"Ġcalcium":7836,"Ġheterogeneous":7837,"Ġintegrity":7838,"ĠBrief":7839,"Ġpsychiatric":7840,"oside":7841,"%-":7842,"Ġsupplemented":7843,"Ġequally":7844,"ĠEqu":7845,"Ġmoving":7846,"Ġplastic":7847,"Results":7848,"Ġthermal":7849,"ĠIFIT":7850,"avail":7851,"ĠAut":7852,"Ġimplementing":7853,"Ġsampled":7854,"Ġairborne":7855,"Ġacceler":7856,"Ġfluct":7857,"Ġlocalization":7858,"head":7859,"atus":7860,"cells":7861,"Ġorders":7862,"Ġattenuated":7863,"Ġorganiz":7864,"ocated":7865,"Ġventilator":7866,"ĠnM":7867,"Ġmeaningful":7868,"Ġgradually":7869,"Ġprone":7870,"Ġinadequ":7871,"Finally":7872,"ensive":7873,"Ġpresum":7874,"Me":7875,"ĠVE":7876,"Ġintellig":7877,"col":7878,"Ġconsiderations":7879,"hand":7880,"ifier":7881,"ĠVari":7882,"tise":7883,"ĠROS":7884,"Ġoverex":7885,"Ġrehabilitation":7886,"heses":7887,"Ar":7888,"Ġvirions":7889,"Ġinfiltration":7890,"Ġbirds":7891,"ĠHub":7892,"Ġarray":7893,"Ġ400":7894,"Ġmotor":7895,"itus":7896,"Ġveter":7897,"Ġrecurrent":7898,"Ġvulnerability":7899,"asts":7900,"Ġmacro":7901,"Ġimplicated":7902,"anish":7903,"Ġthous":7904,"Ġflexible":7905,"Ĥ·":7906,"Ġfecal":7907,"Ġformula":7908,"Ġ68":7909,"Ġantigenic":7910,"Ġpractitioners":7911,"Ġcholesterol":7912,"Ġimpacted":7913,"factory":7914,"iones":7915,"Ġprovider":7916,"ĠGoogle":7917,"reced":7918,"Ġdepth":7919,"Ġleaders":7920,"yg":7921,"Ġmethyl":7922,"step":7923,"Ġtransp":7924,"Ġclosure":7925,"Ġvaries":7926,"raf":7927,"lysis":7928,"ĠNext":7929,"size":7930,"NO":7931,"Ġvor":7932,"ĠInst":7933,"ĠECMO":7934,"ĠHu":7935,"sup":7936,"Ġfriends":7937,"abric":7938,"IQR":7939,"Ġmanaging":7940,"Ġquantify":7941,"utional":7942,"Ġrepeat":7943,"Ġchance":7944,"Ġlifest":7945,"Ġsubjective":7946,"Ġsind":7947,"Ġgrown":7948,"Ġguaran":7949,"Ġpron":7950,"Ġcasc":7951,"Ġpathophysi":7952,"Ġdeletion":7953,"ĠGl":7954,"ĠKing":7955,"Ġrich":7956,"La":7957,"En":7958,"Ġzone":7959,"Ġviability":7960,"ĠML":7961,"Ġneighb":7962,"udden":7963,"Ġsputum":7964,"Ġepisodes":7965,"Ġmaps":7966,"Ġregimen":7967,"Ġdefense":7968,"Ġtelephone":7969,"Ġconce":7970,"Based":7971,"Ġmagnetic":7972,"Ġeffector":7973,"Ġbes":7974,"Ġpowerful":7975,"Ġdiffuse":7976,"wards":7977,"ĠFe":7978,"Ġye":7979,"Â®":7980,"ĠGlobal":7981,"Ġcytotoxic":7982,"Ġquestionnaires":7983,"Ġward":7984,"ya":7985,"Ġartificial":7986,"Ġconsistency":7987,"Ġjo":7988,"udi":7989,"Ġpress":7990,"ĠWork":7991,"Ġever":7992,"recedented":7993,"Ġadenovirus":7994,"ilst":7995,"ĠNeu":7996,"Ġgreatest":7997,"Ġexha":7998,"Ġmacrophage":7999,"Ġstatement":8000,"lling":8001,"Ġtur":8002,"Ġafford":8003,"ritic":8004,"bio":8005,"AK":8006,"ĠPH":8007,"length":8008,"Ġethics":8009,"tiary":8010,"ĠGS":8011,"Ġvenous":8012,"chron":8013,"oding":8014,"Ġdesired":8015,"antic":8016,"Ġaddressing":8017,"Ġconstructs":8018,"Ġfluorescent":8019,"points":8020,"cons":8021,"cutaneous":8022,"Ġwww":8023,"Ġtransmembrane":8024,"ĠCSF":8025,"ĠCommon":8026,"ĠTreatment":8027,"Ġadjuvant":8028,"ĠTherap":8029,"ĠProt":8030,"Ġroot":8031,"Ġbillion":8032,"ante":8033,"ĠCompar":8034,"otrop":8035,"Ã¤t":8036,"Ġpromotes":8037,"Ġabsent":8038,"Ġpilot":8039,"Ġfiltr":8040,"Ġmill":8041,"Ġgovernance":8042,"opo":8043,"Ġnutrition":8044,"Ġdroplet":8045,"jections":8046,"Ġnormally":8047,"Ġlot":8048,"Ġvast":8049,"olin":8050,"Ġsaline":8051,"etric":8052,"oea":8053,"Ġsole":8054,"Ġhoriz":8055,"Ġbrought":8056,"Ġcourses":8057,"Ġoste":8058,"Ġaccounts":8059,"Ġbonds":8060,"ĠRem":8061,"Ġcontaminated":8062,"yroid":8063,"Ġvolumes":8064,"Ġ66":8065,"Ġportion":8066,"Ġgenus":8067,"Ġastro":8068,"pin":8069,"Ġson":8070,"Ġoverlap":8071,"eliness":8072,"Ġdrawn":8073,"Ġcrystal":8074,"Ġpreparedness":8075,"oglobin":8076,"Ġsto":8077,"Ġoder":8078,"ĠDS":8079,"acr":8080,"Ġspp":8081,"Ġfine":8082,"activation":8083,"Ġunprecedented":8084,"ĠTaiwan":8085,"Ġmening":8086,"Ġmature":8087,"Ġanalyzing":8088,"uses":8089,"driven":8090,"Ġcontainment":8091,"Ġmessages":8092,"Ġenhancement":8093,"Ġfunctioning":8094,"ĠGC":8095,"vested":8096,"effective":8097,"itant":8098,"Ġnucleus":8099,"reci":8100,"hern":8101,"ĠEnd":8102,"Ġpositivity":8103,"eties":8104,"Ġfirm":8105,"ĠLet":8106,"Another":8107,"Ġcame":8108,"ĠIncre":8109,"Ġdiag":8110,"Ġprove":8111,"Ġnumerical":8112,"Ġhierarch":8113,"ĠTR":8114,"Ġrooms":8115,"Ġdietary":8116,"rene":8117,"IFN":8118,"Ġreality":8119,"activated":8120,"ĠHer":8121,"Ġpacientes":8122,"oud":8123,"ĠCB":8124,"Ġprincipal":8125,"Ġmatching":8126,"Ġ94":8127,"Ġovernight":8128,"Ġlon":8129,"cellular":8130,"dic":8131,"Ġdemands":8132,"aques":8133,"Ġresolved":8134,"Ġvessels":8135,"advant":8136,"Ġmos":8137,"ĠHB":8138,"ĠPrevention":8139,"Ġinherent":8140,"Ġformulation":8141,"onomy":8142,"Ġadi":8143,"Ġ67":8144,"gene":8145,"ĠStatistical":8146,"Ġbiot":8147,"Ġblocks":8148,"imilar":8149,"Ġcarcinoma":8150,"Ġobject":8151,"unicip":8152,"Ġvisible":8153,"Ġcapability":8154,"izer":8155,"Ġoperational":8156,"ĠNH":8157,"Ġmothers":8158,"Ġhousing":8159,"Ġages":8160,"Ġtweets":8161,"Ġadjustment":8162,"ĠSIR":8163,"Ġspleen":8164,"ĠHRV":8165,"Ġhumidity":8166,"Ġfoot":8167,"Ġinstances":8168,"but":8169,"Ġcentury":8170,"Ġinactivation":8171,"pectives":8172,"Ġdepos":8173,"ĠGe":8174,"ĠFc":8175,"Ġenriched":8176,"Ġextracts":8177,"ĠPres":8178,"ochastic":8179,"ĠInfec":8180,"Ġproce":8181,"Ã¯":8182,"GCA":8183,"Ġcerebral":8184,"Ġaging":8185,"ographics":8186,"Ġwebsite":8187,"ĠPri":8188,"Ġabsorption":8189,"Ġoverview":8190,"Over":8191,"Ġeosinophil":8192,"Ġsemi":8193,"Ġlearned":8194,"Ġcytoplasm":8195,"using":8196,"Ġ00":8197,"Ġsplit":8198,"Ġstimulated":8199,"Ġinjuries":8200,"Ġrecommendation":8201,"Ġsound":8202,"Ġplaque":8203,"Ġadvice":8204,"aut":8205,"Ġvolunteers":8206,"Ġolfactory":8207,"Ġtemperatures":8208,"occ":8209,"angl":8210,"Ġcurric":8211,"ece":8212,"Ġinterstitial":8213,"qPCR":8214,"Ġsel":8215,"DC":8216,"Ġinducing":8217,"astric":8218,"ga":8219,"inavir":8220,"Ġglass":8221,"NK":8222,"Ġstead":8223,"Ġdescriptive":8224,"Ġproximity":8225,"ĠSing":8226,"Ġnurse":8227,"ĠSTAT":8228,"Ġdans":8229,"Ġquantity":8230,"br":8231,"ĠZIKV":8232,"Ġsudden":8233,"Ġhet":8234,"ysical":8235,"Ġau":8236,"Ġensuring":8237,"Ġprogramme":8238,"Ġhumoral":8239,"has":8240,"Ġdrive":8241,"Ġpharmaceutical":8242,"severe":8243,"Ġwellbeing":8244,"Ġgiving":8245,"Ġlosses":8246,"ĠCurrently":8247,"Ġoptimized":8248,"Ġbelonging":8249,"Ġcapabilities":8250,"GFR":8251,"Ġthreats":8252,"DE":8253,"Ġinfarc":8254,"Ġjournal":8255,"lection":8256,"econd":8257,"Ġsurprising":8258,"ĠCommun":8259,"Ġtolerance":8260,"Ġplots":8261,"ĠMy":8262,"Ġcy":8263,"orescence":8264,"adi":8265,"mm":8266,"If":8267,"Ġty":8268,"Ġbiochemical":8269,"onymous":8270,"ĠSevere":8271,"Ġroutes":8272,"dehy":8273,"Ġfra":8274,"Ġ2011":8275,"Ġobjects":8276,"ĠRel":8277,"ĠHow":8278,"tep":8279,"Ġdiscussions":8280,"teen":8281,"Ġmanual":8282,"information":8283,"Ph":8284,"Ġfungal":8285,"Ġnarr":8286,"posite":8287,"Ġheadache":8288,"ĠBayes":8289,"lege":8290,"Ġds":8291,"oxy":8292,"Ġdeclare":8293,"Ġpostoperative":8294,"tid":8295,"Ġcomparative":8296,"proof":8297,"Ġsupportive":8298,"Ġcounty":8299,"Ġ(<":8300,"Ġmicroorganisms":8301,"Ġdegrees":8302,"Ġtry":8303,"ĠrÃ©":8304,"IM":8305,"ĠFuture":8306,"ĠÏģ":8307,"apter":8308,"Ġpropor":8309,"ĠEB":8310,"ibration":8311,"ĠFigures":8312,"ĠÂµL":8313,"Ġtertiary":8314,"Ġquantification":8315,"Ġprecip":8316,"ĠHep":8317,"Ġpeaks":8318,"Ġcattle":8319,"ette":8320,"Ġgaps":8321,"ĠNetwork":8322,"Ġtight":8323,"Ġadopt":8324,"ascul":8325,"Ġescape":8326,"Ġbeliefs":8327,"lasts":8328,"Ġillnesses":8329,"lines":8330,"unt":8331,"Ġleave":8332,"ĠBriefly":8333,"Ġinoculation":8334,"Ġwound":8335,"120":8336,"Ġfulf":8337,"irmed":8338,"ĠNLR":8339,"Ġspent":8340,"Ġrheum":8341,"Ġont":8342,"Ġinactivated":8343,"Ġnaturally":8344,"ensitivity":8345,"Ġhope":8346,"rays":8347,"Ġcentre":8348,"ara":8349,"ĠĠĠĠĠĠĠ":8350,"Ġnucleocapsid":8351,"212":8352,"orous":8353,"Ġedge":8354,"ilizumab":8355,"ĠDrug":8356,"Ġchromat":8357,"ĠCE":8358,"ĠkDa":8359,"otion":8360,"ĠMor":8361,"ional":8362,"Fs":8363,"Ġfru":8364,"Ġhazard":8365,"Ġappoint":8366,"Ġleak":8367,"Ġtransient":8368,"agic":8369,"Ġdiagnoses":8370,"Ġinvasion":8371,"Ġdisadvant":8372,"Ġcord":8373,"inking":8374,"Ġprompt":8375,"opathic":8376,"itone":8377,"Ġcompletion":8378,"Ġweighted":8379,"Ġphosphate":8380,"Ġmotivation":8381,"Ġethnic":8382,"Ġfeasibility":8383,"Ġcancers":8384,"ĠâĪ¼":8385,"Ġreaching":8386,"Ġseptic":8387,"Ġpel":8388,"ĠZe":8389,"ails":8390,"ĠInfluenza":8391,"process":8392,"Ġsubsets":8393,"Ã±":8394,"Ġpasseng":8395,"Ġcontro":8396,"Ġcommittee":8397,"GP":8398,"Ġstructured":8399,"Ġign":8400,"ĠÎ¼M":8401,"Ġpicture":8402,"Ġextend":8403,"Ġtracking":8404,"Ġconsumers":8405,"eling":8406,"Ġsor":8407,"osine":8408,"ĠPers":8409,"ĠGeneral":8410,"inates":8411,"ividual":8412,"Ġswine":8413,"alking":8414,"ilization":8415,"Ġcoming":8416,"forms":8417,"etheless":8418,"ulators":8419,"ucifer":8420,"seq":8421,"Ġstudying":8422,"Ġmetal":8423,"Ġrough":8424,"ls":8425,"Ġdiges":8426,"Ġexamining":8427,"Ġcomplementary":8428,"last":8429,"Ġmatch":8430,"Ġpow":8431,"pase":8432,"Ġ97":8433,"rend":8434,"Ġtransmit":8435,"Ġviable":8436,"Ġlum":8437,"Ġdisag":8438,"Ġnerve":8439,"Ã©e":8440,"Ġcorrelate":8441,"Ġgeneralized":8442,"Ġfibrin":8443,"Ġorganism":8444,"Ġvom":8445,"aped":8446,"pass":8447,"Ġextensively":8448,"Ġmediators":8449,"Ġwithdra":8450,"Ġcopy":8451,"Ġunless":8452,"ĠAssociation":8453,"ried":8454,"Ġsubstitution":8455,"Ġwider":8456,"asome":8457,"ĠAL":8458,"Ġamongst":8459,"control":8460,"Ġenrichment":8461,"Ġhypoxia":8462,"Ġfeeding":8463,"veness":8464,"ĠWhere":8465,"Ġallergic":8466,"iii":8467,"ĠCar":8468,"ĠHubei":8469,"ospor":8470,"ĠCAP":8471,"Ġinfluences":8472,"Ġelective":8473,"Ġscoring":8474,"Ġinpatient":8475,"Ġnach":8476,"Ġcapsid":8477,"Ġdissemination":8478,"Ġpublicly":8479,"Ġorganis":8480,"Ġdanger":8481,"Ġprices":8482,"Ġinner":8483,"ĠAF":8484,"Ġchildhood":8485,"ĠPBM":8486,"Ġdiscipl":8487,"omial":8488,"Ġmultiplex":8489,"ĠLC":8490,"Ġpaid":8491,"Ġconformational":8492,"gener":8493,"umor":8494,"Ġscans":8495,"Ġobst":8496,"abling":8497,"Ġdecided":8498,"Ġperspectives":8499,"COV":8500,"Ġcarefully":8501,"Ġexpertise":8502,"Ġmucosa":8503,"Ġverified":8504,"Ġviews":8505,"chen":8506,"Ġworked":8507,"entia":8508,"jug":8509,"Ġresident":8510,"Ġfaced":8511,"Ġmodes":8512,"raining":8513,"aten":8514,"Ġelsewhere":8515,"Ġmicrobiota":8516,"throm":8517,"Ġcrow":8518,"Ġpover":8519,"ometer":8520,"room":8521,"Ġanth":8522,"rile":8523,"Ġimmunomod":8524,"Ġrota":8525,"Ġimper":8526,"Ġpoverty":8527,"igm":8528,"oney":8529,"ĠConsidering":8530,"inces":8531,"Ġcytoplasmic":8532,"Ġpurification":8533,"ault":8534,"Ġengineering":8535,"Ġactively":8536,"drug":8537,"Ġlineage":8538,"Ġnos":8539,"Ġrod":8540,"Ġattempts":8541,"revalence":8542,"Ġseeking":8543,"world":8544,"Ġinvestigators":8545,"Ġmeetings":8546,"ministration":8547,"Ġtriggered":8548,"Ġorganic":8549,"ĠSan":8550,"totic":8551,"gu":8552,"inting":8553,"lected":8554,"anine":8555,"Nase":8556,"iber":8557,"arse":8558,"Ġrhino":8559,"ĠFl":8560,"Ġcriterion":8561,"Ġfabric":8562,"Ġmouth":8563,"Ġrating":8564,"Ġtrim":8565,"Ġcomprised":8566,"Ġbroadly":8567,"quito":8568,"ĠVacc":8569,"Ġfiltration":8570,"apore":8571,"ĠEM":8572,"Ġlicens":8573,"Ġcomplication":8574,"ĠThose":8575,"NI":8576,"CTTT":8577,"Ġenhancing":8578,"Ġnarrow":8579,"Ġpurs":8580,"Ġpersistence":8581,"ĠSyndrome":8582,"house":8583,"ĠDENV":8584,"Ġvelocity":8585,"Ġpure":8586,"weight":8587,"ampl":8588,"ille":8589,"Ġputative":8590,"quality":8591,"Ġ71":8592,"ading":8593,"Ġera":8594,"Ġalbumin":8595,"HIV":8596,"Ġstochastic":8597,"Ġoccasion":8598,"Ġorganizational":8599,"Ġdescribing":8600,"Ġthings":8601,"Ġpassive":8602,"Ġreductions":8603,"Ġoc":8604,"Ġnucleotides":8605,"ĠKit":8606,"Ġprobable":8607,"Ġvehicle":8608,"ĠAct":8609,"ĠVal":8610,"Ġaerosols":8611,"Ġcompati":8612,"Ġadvances":8613,"Ġyeast":8614,"Ġaggregation":8615,"Ġscar":8616,"ypsin":8617,"uciferase":8618,"Ġworsening":8619,"Ġgetting":8620,"umm":8621,"Ġfocuses":8622,"ĠTwitter":8623,"Ġdepletion":8624,"Ġegg":8625,"Ġdispos":8626,"Ġforming":8627,"Ġincomplete":8628,"non":8629,"Ġgrid":8630,"Ġattributes":8631,"Ġserver":8632,"Ġencephalitis":8633,"Ġimmunode":8634,"Ġdisclos":8635,"Ġorganized":8636,"ococcal":8637,"Ġpolyp":8638,"ĠMinistry":8639,"Ġunem":8640,"gov":8641,"acic":8642,"Ġissued":8643,"Ġstig":8644,"Ġiso":8645,"ĠOS":8646,"Ġrunning":8647,"ĠMP":8648,"ĠCK":8649,"Ġdyspnea":8650,"ĠSR":8651,"Ġreturned":8652,"Ġgre":8653,"encia":8654,"Ġundertaken":8655,"ovir":8656,"Ġbasal":8657,"Ġmarginal":8658,"outhern":8659,"Ġcomment":8660,"Ġimposed":8661,"Ġcentres":8662,"Ġnod":8663,"Ġreveals":8664,"Ġinstruments":8665,"ĠIRF":8666,"Ġhelped":8667,"Ġterminal":8668,"Ġcit":8669,"Ġconnections":8670,"ĠSwed":8671,"tification":8672,"Ġinadequate":8673,"amination":8674,"Ġimmunized":8675,"nCoV":8676,"Ġprecautions":8677,"Ġpreference":8678,"ĠIts":8679,"Ġtoday":8680,"Further":8681,"Ġnet":8682,"home":8683,"Ġcounties":8684,"Ġproportions":8685,"Ġtranscriptional":8686,"FT":8687,"ĠBr":8688,"alys":8689,"Ġinhal":8690,"Ġmus":8691,"Ġsequenced":8692,"Ġembedded":8693,"Ġyielded":8694,"Âµ":8695,"iversities":8696,"oked":8697,"plo":8698,"Ġring":8699,"Ġsyncy":8700,"Ġnewbor":8701,"Ġproduces":8702,"Ġhors":8703,"Ġinvestigating":8704,"ĠAccordingly":8705,"Ġanat":8706,"EG":8707,"Ġretro":8708,"Ġeryth":8709,"Ġinteracting":8710,"Ġhabit":8711,"lated":8712,"olgi":8713,"ndrom":8714,"Ġencoded":8715,"ht":8716,"Ġattitude":8717,"ck":8718,"ĠSpike":8719,"ĠAppro":8720,"TGTT":8721,"âĦ":8722,"tri":8723,"Ġindivid":8724,"Ġ250":8725,"Ġinterleukin":8726,"Ġindication":8727,"Ġcorrectly":8728,"angi":8729,"aved":8730,"Ġorientation":8731,"Ġreper":8732,"Ġneurop":8733,"ashing":8734,"atics":8735,"Ġdependence":8736,"Ġintestine":8737,"Ġvesicles":8738,"Ġcarriers":8739,"Ġbac":8740,"Ġinitiatives":8741,"psy":8742,"Ġsubtypes":8743,"ciÃ³n":8744,"Ġwastewater":8745,"Ġcomfort":8746,"ĠmAb":8747,"Ġheparin":8748,"ĠGovernment":8749,"GC":8750,"ĠIAV":8751,"ĠLaboratory":8752,"Ġconversion":8753,"Ġlifestyle":8754,"ĠPol":8755,"Ġcytometry":8756,"ĠEthics":8757,"ĠPRRSV":8758,"Ġure":8759,"ĠMAP":8760,"Ġpartner":8761,"Ġinfant":8762,"Ġintrinsic":8763,"ĠProgram":8764,"Ġmunicip":8765,"itory":8766,"Ġpy":8767,"Ġproportional":8768,"Ġencourage":8769,"Ġaccounted":8770,"ĠTur":8771,"Ġsegmentation":8772,"olution":8773,"Ġfatty":8774,"dep":8775,"ĠPan":8776,"Ġcavity":8777,"det":8778,"Ġabundant":8779,"dehyde":8780,"Ġbench":8781,"Ġtherapeutics":8782,"Ġ76":8783,"Ġthinking":8784,"ĠPO":8785,"Ġcarrying":8786,"Ġciv":8787,"Ġoccupational":8788,"ura":8789,"aemia":8790,"Ġhandling":8791,"glyc":8792,"ĠPhase":8793,"Ġoverw":8794,"ĠYet":8795,"Ġdecade":8796,"eine":8797,"Ġconsiderably":8798,"Ġinterested":8799,"Ġadjacent":8800,"Ġarise":8801,"Ġventricular":8802,"Ġinjected":8803,"ĠOpen":8804,"ĠSDS":8805,"Ġ2008":8806,"Ġdimer":8807,"Ġdriving":8808,"Hg":8809,"Ġgranul":8810,"Ġfacing":8811,"Ġurg":8812,"Ġdefinitions":8813,"Ġsolve":8814,"Ġcombining":8815,"dered":8816,"Ġadsor":8817,"sies":8818,"Ġchi":8819,"Ġaccommod":8820,"Ġobtaining":8821,"Ġprovinces":8822,"ĠRus":8823,"ĠMI":8824,"Ġ88":8825,"Ġprefer":8826,"Ġdepressive":8827,"Ġtomography":8828,"ĠTra":8829,"Ġfitness":8830,"verting":8831,"inform":8832,"ĠIndian":8833,"ender":8834,"Ġrecall":8835,"SI":8836,"ĠSingapore":8837,"fi":8838,"ĠWithin":8839,"Ġmmol":8840,"Ġmyc":8841,"Ġcreation":8842,"Ġbank":8843,"emed":8844,"ĠBM":8845,"Ġupregulated":8846,"Ġcategorized":8847,"Ġreplicate":8848,"From":8849,"Ġindices":8850,"Ġantioxidant":8851,"ensor":8852,"site":8853,"osed":8854,"itÃ©":8855,"Ġrecording":8856,"Ġuncom":8857,"Ġblind":8858,"Ġhuge":8859,"Background":8860,"Ġmovements":8861,"Ġappreci":8862,"ĠFood":8863,"Ġmosquito":8864,"Ġanc":8865,"Ġfigures":8866,"Ġns":8867,"Ġflo":8868,"AST":8869,"Ġmaturation":8870,"Bio":8871,"Ġanswers":8872,"Ġloads":8873,"Ġideas":8874,"BE":8875,"Ġimmunogenicity":8876,"ĠCNN":8877,"ĠThrough":8878,"ĠÎĶ":8879,"Ġkeeping":8880,"Ġcleaning":8881,"ĠBlood":8882,"ĠCre":8883,"Pre":8884,"Ġbehaviours":8885,"lective":8886,"Ġcontinuously":8887,"sch":8888,"Ġsupplementation":8889,"ora":8890,"ĠSequ":8891,"Ġinnovative":8892,"âĢ¢âĢ¢":8893,"Ġdendritic":8894,"nee":8895,"nia":8896,"Ġrefr":8897,"Ġ69":8898,"Ġpredis":8899,"identi":8900,"Ġbottom":8901,"Ġreson":8902,"fare":8903,"usting":8904,"letal":8905,"Ġpercentages":8906,"rench":8907,"Ġgerm":8908,"Ġvolunt":8909,"Ġradical":8910,"ensitive":8911,"Ġfaculty":8912,"Ġpour":8913,"Ġoptical":8914,"Ġpermeability":8915,"Ġenroll":8916,"Ġelectroph":8917,"Ġfeeling":8918,"Ġcompetition":8919,"Ġactors":8920,"ĠÏĢ":8921,"ĠFlu":8922,"rote":8923,"ariable":8924,"ĠUse":8925,"Ġcytotoxicity":8926,"Ġzinc":8927,"Ġyields":8928,"Ġdisability":8929,"ĠHT":8930,"stage":8931,"denti":8932,"Ġgame":8933,"ĠRCT":8934,"CAM":8935,"Ġpock":8936,"repres":8937,"Ġfluor":8938,"Ġenabled":8939,"Ġlethal":8940,"Ġunde":8941,"ĠMo":8942,"Ġcooperation":8943,"Ġworkplace":8944,"Ġconservation":8945,"Ġimmunoglobulin":8946,"Ġbrid":8947,"ÃĢ":8948,"Ġri":8949,"Ġreporter":8950,"Ġstring":8951,"Ġbook":8952,"Ġexpectations":8953,"Ġevolved":8954,"high":8955,"ĠRdRp":8956,"Ġminority":8957,"ectin":8958,"Ġ78":8959,"Ġconcom":8960,"ithromycin":8961,"Ġracial":8962,"Ġut":8963,"Ġhorizon":8964,"More":8965,"Ġagon":8966,"Ġplayed":8967,"Ġarrival":8968,"fol":8969,"inol":8970,"Ġkinetics":8971,"Ġcoordination":8972,"Ġpharmacological":8973,"Ġlocalized":8974,"Ġperm":8975,"Ġplatelets":8976,"ĠAKI":8977,"Be":8978,"ocomp":8979,"Ġcorrection":8980,"serv":8981,"rected":8982,"onom":8983,"nals":8984,"Ġresc":8985,"Ġforced":8986,"acco":8987,"Ġdiscrep":8988,"ipp":8989,"att":8990,"ĠBel":8991,"Ġachieving":8992,"Ġfavorable":8993,"ĠRP":8994,"Ġclones":8995,"Ġillustrate":8996,"Ġporcine":8997,"Ġdenote":8998,"Ġmotion":8999,"utral":9000,"Ġoverwhel":9001,"ĠGDP":9002,"Ther":9003,"cious":9004,"Ġvalidate":9005,"Ġprobabilities":9006,"Ġavoiding":9007,"Ġshel":9008,"ĠPath":9009,"Ġboard":9010,"Ġaccounting":9011,"Ġfourth":9012,"Ġforces":9013,"Ġelimination":9014,"ĠDo":9015,"MM":9016,"ĠLi":9017,"Ġ79":9018,"Ġpollut":9019,"Ġborder":9020,"ĠComp":9021,"Ġunexpected":9022,"Ġ92":9023,"fig":9024,"Ġburnout":9025,"Ġconcentrated":9026,"Ġairways":9027,"Ġparticipated":9028,"iliary":9029,"Ġprescribed":9030,"Ġblocked":9031,"opinavir":9032,"Ġvirion":9033,"arin":9034,"enic":9035,"ĠIran":9036,"Ġlocally":9037,"Ġcomplain":9038,"Ġ93":9039,"Ġsug":9040,"RO":9041,"Ġsustainability":9042,"Ġentity":9043,"Ġtransfection":9044,"Ġstimulate":9045,"Ġuntreated":9046,"ĠÃ¾":9047,"Ġmetabolites":9048,"âī":9049,"icin":9050,"ĠPoly":9051,"words":9052,"ĠÎ¼L":9053,"Ġ73":9054,"****":9055,"ĠEd":9056,"tering":9057,"amy":9058,"Ġimmunosuppressive":9059,"Ġgenotypes":9060,"Ġroutinely":9061,"beit":9062,"called":9063,"Ġallele":9064,"Ġfeelings":9065,"actor":9066,"Ġask":9067,"Ġinterfe":9068,"ĠUnfortunately":9069,"Ġthorough":9070,"Ġrow":9071,"Ġtriage":9072,"Ġech":9073,"fall":9074,"Ġconverted":9075,"Ġeating":9076,"ĠCXCL":9077,"Ġsial":9078,"inin":9079,"Ġtrajectory":9080,"ĠDCs":9081,"Ġaligned":9082,"Ġdiscrimination":9083,"ĠProv":9084,"Ġworkforce":9085,"proportion":9086,"ĠEarly":9087,"otypic":9088,"Ġstation":9089,"ĠKingdom":9090,"imeric":9091,"HF":9092,"nam":9093,"Ġcomments":9094,"iled":9095,"Ġargue":9096,"Ġhemod":9097,"Ġherd":9098,"Ġshar":9099,"ĠStand":9100,"Ġoverlapping":9101,"defined":9102,"omething":9103,"ĠSU":9104,"Ġdisinfection":9105,"ĠJournal":9106,"Ġfitting":9107,"ĠDevelopment":9108,"ĠSubsequently":9109,"Ġmessage":9110,"Ġadministrative":9111,"Ġdeposition":9112,"Despite":9113,"Ġmicrogl":9114,"ĠClass":9115,"Sp":9116,"ĠDR":9117,"vidence":9118,"ĠSpanish":9119,"Ġmonthly":9120,"Ġtermin":9121,"TI":9122,"Ġharvested":9123,"Ġchoices":9124,"ĠSaudi":9125,"ĠmRNAs":9126,"http":9127,"Ġlateral":9128,"Ġnic":9129,"ĠPlas":9130,"BB":9131,"ĠType":9132,"Ġdementia":9133,"ĠChildren":9134,"293":9135,"Ġprepare":9136,"Ġwid":9137,"YP":9138,"Ġdiagnostics":9139,"ĠQual":9140,"ĠCCL":9141,"median":9142,"Ġmorphology":9143,"Ġpropagation":9144,"Ġretention":9145,"ĠRo":9146,"Ġparental":9147,"Ġcatheter":9148,"Here":9149,"ĠDel":9150,"umer":9151,"ĠInfection":9152,"zz":9153,"Ġsi":9154,"Ġnutritional":9155,"DI":9156,"Ġtumour":9157,"Ġsuspic":9158,"Ġregulating":9159,"Ġentered":9160,"ĠMark":9161,"Ġoblig":9162,"Ġetiology":9163,"Ġunderestim":9164,"Ġprevented":9165,"Ġdemographics":9166,"Ġacting":9167,"Several":9168,"Ġkits":9169,"Ġaccessibility":9170,"Ġ84":9171,"iento":9172,"gers":9173,"ĠPeople":9174,"Ġproperly":9175,"Ġ77":9176,"Ġfamili":9177,"Ġverify":9178,"poration":9179,"uff":9180,"Ġconsequently":9181,"edical":9182,"Ġphenotypes":9183,"Ġdepicted":9184,"ĠHist":9185,"oss":9186,"Ġcompeting":9187,"ĠHealthcare":9188,"ĠHPV":9189,"atology":9190,"Ġallevi":9191,"Ġmarkedly":9192,"aper":9193,"Ġtrees":9194,"Ġstra":9195,"Ġperman":9196,"aration":9197,"Ġsubgroups":9198,"Stud":9199,"ferase":9200,"Ġurinary":9201,"idi":9202,"olism":9203,"Ġpropos":9204,"Ġmicroar":9205,"Ġmeasles":9206,"Ġimpos":9207,"ĠANOVA":9208,"Ġinterrup":9209,"Ġspan":9210,"anta":9211,"Ġmention":9212,"Ġarthritis":9213,"Ġutilizing":9214,"aire":9215,"Ġdramatically":9216,"ĠCt":9217,"upplemental":9218,"lix":9219,"ĠConclusions":9220,"ĠBoard":9221,"amer":9222,"Ġsomewhat":9223,"Ġmandatory":9224,"Ġvisualization":9225,"olars":9226,"Ġinfluencing":9227,"Ġimproves":9228,"Ġdiabetic":9229,"Ġmedicines":9230,"Ġcann":9231,"Ġhttp":9232,"mosp":9233,"Ġsubstance":9234,"Ġresponded":9235,"Ġ82":9236,"Ġopening":9237,"Ġpose":9238,"asters":9239,"tor":9240,"Ġwur":9241,"ective":9242,"Ġwestern":9243,"opic":9244,"Ġautomatically":9245,"Ġconfirmation":9246,"Ġhomeostasis":9247,"Ġspinal":9248,"Ġexclusively":9249,"lla":9250,"Ġenabling":9251,"Ġwaiting":9252,"Ġassuming":9253,"According":9254,"Health":9255,"Ġhomogene":9256,"Ġsenti":9257,"pens":9258,"ensities":9259,"sacchar":9260,"oses":9261,"Ġsuppress":9262,"Ġhomology":9263,"iry":9264,"Ġacknowled":9265,"Ġethnicity":9266,"Ġemotion":9267,"log":9268,"values":9269,"idents":9270,"Ġsupplies":9271,"Ġcategorical":9272,"idase":9273,"EN":9274,"Ġecosystem":9275,"Ġweakness":9276,"Ġ83":9277,"Ġopposite":9278,"uming":9279,"Ġcompartments":9280,"Ġemphasis":9281,"Ġdifferentiate":9282,"MPs":9283,"ĠPharm":9284,"Ġchloroquine":9285,"Ġcontagious":9286,"Ġevolving":9287,"Ġconducting":9288,"Ġflav":9289,"Ġdistances":9290,"pandemic":9291,"Ġ74":9292,"Ġtendency":9293,"ARDS":9294,"Ġboost":9295,"termin":9296,"Ġsufficiently":9297,"ostr":9298,"gestion":9299,"Ġvision":9300,"Ġcovering":9301,"ĠTGF":9302,"Ġyouth":9303,"poly":9304,"Ġdiscrete":9305,"ĠBas":9306,"MERS":9307,"mend":9308,"Ġdestr":9309,"uris":9310,"Ġbp":9311,"domain":9312,"bodies":9313,"Ġtransformed":9314,"ypical":9315,"ford":9316,"Ġsubstrates":9317,"Ġcompute":9318,"Ġuniversities":9319,"Ġpreferences":9320,"Ġpurchased":9321,"Ġecological":9322,"hether":9323,"ĠDa":9324,"ectomy":9325,"Ġattending":9326,"Ġconsolidation":9327,"fek":9328,"Ġserved":9329,"Ġdeterioration":9330,"Bank":9331,"osocial":9332,"ĠDist":9333,"Ġneph":9334,"Ġsensing":9335,"ff":9336,"Ġnotable":9337,"eck":9338,"Ġgraft":9339,"Ġengaged":9340,"SC":9341,"Ġcalculations":9342,"ĠCL":9343,"Ġcloud":9344,"ĠÃ¼":9345,"ĠBackground":9346,"Ġvill":9347,"Ġregarded":9348,"Ġprogrammes":9349,"ĠNPs":9350,"Ġsocieties":9351,"Ġou":9352,"Ġexplicitly":9353,"ĠAltern":9354,"Ġsquare":9355,"Ġseroprevalence":9356,"etherlands":9357,"ĠIndividual":9358,"Ġwird":9359,"RR":9360,"MPV":9361,"Ġconsumer":9362,"iasis":9363,"ritin":9364,"ĠUl":9365,"Ġtranslated":9366,"Ġsecret":9367,"chym":9368,"press":9369,"Ġserine":9370,"Ġzur":9371,"gia":9372,"Ġchemokines":9373,"ĠInstead":9374,"Ġserves":9375,"Ġattacks":9376,"Ġreagents":9377,"Ġincons":9378,"Ġpaired":9379,"ĠEduc":9380,"ĠTA":9381,"Ġnotion":9382,"Ġstatements":9383,"adjusted":9384,"ishes":9385,"Ġvirt":9386,"Ġspectra":9387,"Ġloneliness":9388,"ĠIndex":9389,"Ġemp":9390,"ĠNone":9391,"ĠCase":9392,"sense":9393,"ĠCommission":9394,"Ġscat":9395,"ultry":9396,"Ġsupplementary":9397,"pressing":9398,"Ġillustrates":9399,"Ġmanagers":9400,"Ġwaves":9401,"SL":9402,"Ġfell":9403,"Î¼":9404,"ĠRMS":9405,"metric":9406,"OT":9407,"Ġregularly":9408,"Ġspecialized":9409,"Ġcutoff":9410,"Ġrespirator":9411,"Ġstimuli":9412,"Ã©n":9413,"Ġnitrogen":9414,"Ãŀ":9415,"Ġ]":9416,"Ind":9417,"Ġclaims":9418,"Ġfoods":9419,"ugin":9420,"Ġsomething":9421,"irable":9422,"Ġindirectly":9423,"Ġretrieved":9424,"Ġstrategic":9425,"Ġagency":9426,"coronavirus":9427,"Ġshifts":9428,"Ġcovariates":9429,"Ġworker":9430,"la":9431,"Ġsecure":9432,"Ġgp":9433,"ifies":9434,"adian":9435,"Ġ81":9436,"dist":9437,"Ġreactivity":9438,"mg":9439,"ĠCentral":9440,"Ġoffice":9441,"Ġum":9442,"ana":9443,"TM":9444,"Ġprogen":9445,"avirin":9446,"Ġneuronal":9447,"Ġindoor":9448,"Ġouter":9449,"ribution":9450,"Ġveget":9451,"Ġglycoproteins":9452,"RV":9453,"Ġconflicts":9454,"Ġyellow":9455,"Ġtob":9456,"ĠTa":9457,"ĠNetherlands":9458,"echnology":9459,"Ġshop":9460,"ĠMann":9461,"'-":9462,"Ġreturns":9463,"adic":9464,"Ġdeemed":9465,"Ġedges":9466,"Ġreass":9467,"lease":9468,"Ġmixing":9469,"Ġcomposite":9470,"rology":9471,"pred":9472,"Thermo":9473,"Ġdenotes":9474,"Ġdisparities":9475,"Ġdelays":9476,"Ġeliminate":9477,"Ġencouraged":9478,"ĠEP":9479,"Ġimportantly":9480,"Ġischemic":9481,"Ġchallenged":9482,"aning":9483,"panic":9484,"lies":9485,"Ġcomprom":9486,"VHD":9487,"factor":9488,"Ġplaus":9489,"Ġproductivity":9490,"Ġseiz":9491,"Ġinsertion":9492,"ĠMex":9493,"Ġprofound":9494,"Ġindustries":9495,"uria":9496,"Ġdark":9497,"KU":9498,"Ġsimilarities":9499,"ĠLast":9500,"Ġscored":9501,"Ġoxide":9502,"Ġconvers":9503,"Ġcham":9504,"Ġfiles":9505,"oxyl":9506,"Ġexem":9507,"ocytopenia":9508,"Ġvictim":9509,"ĠAuthor":9510,"Ġvertical":9511,"ĠDisc":9512,"Ġions":9513,"usp":9514,"ĠGram":9515,"Ġcys":9516,"Ġstrept":9517,"confirmed":9518,"dens":9519,"Ġhypotheses":9520,"ĠmmHg":9521,"Ġsuicide":9522,"Ġpassed":9523,"partic":9524,"ĠCyt":9525,"Ġlooking":9526,"Ġrabbit":9527,"ĠHa":9528,"Ġembedding":9529,"Ġimported":9530,"Ġease":9531,"essment":9532,"Ġconsultations":9533,"Conclusion":9534,"Ġdiscour":9535,"Ġtheories":9536,"ĠmAbs":9537,"LU":9538,"ĠPost":9539,"Ġ86":9540,"Ġmediate":9541,"structural":9542,"ey":9543,"anged":9544,")/":9545,"Ġcloser":9546,"iding":9547,"Ãº":9548,"NR":9549,"ĠAA":9550,"Ġcompetitive":9551,"ulture":9552,"Ġreplicates":9553,"Ġwelfare":9554,"GGA":9555,"inib":9556,"Ġexclude":9557,"Ġfluctu":9558,"ellitus":9559,"Ġcomputation":9560,"ĠFrench":9561,"Ġvascul":9562,"Ġcomputing":9563,"ĠSF":9564,"ĠChem":9565,"ocompromised":9566,"Ġradiological":9567,"ĠDA":9568,"Ġloading":9569,"Ġsubstances":9570,"Ġadvoc":9571,"hythm":9572,"iers":9573,"Ġ87":9574,"ularly":9575,"ĠBayesian":9576,"ellen":9577,"Ġincorporate":9578,"ĠÃ©t":9579,"Ġspectrom":9580,"Ġspons":9581,"::":9582,"ĠCAR":9583,"Ġcentrifugation":9584,"Ġinference":9585,"Ġintact":9586,"ompass":9587,"Ġdass":9588,"eta":9589,"Ġlandsc":9590,"Ġoxygenation":9591,"Ġirradi":9592,"Ġfractions":9593,"Ġcollaborative":9594,"Ġatmosp":9595,"Ġgained":9596,"ocomial":9597,"Ġment":9598,"De":9599,"urin":9600,"ĠNaCl":9601,"Patients":9602,"Ġsecreted":9603,"Ã¡s":9604,"ĠâĪĨ":9605,"Ġindications":9606,"NL":9607,"ĠEmergency":9608,"ohist":9609,"cel":9610,"Ġbow":9611,"Ġethanol":9612,"Ġbenchmark":9613,"Ġfight":9614,"ĠMaterials":9615,"Ġcrises":9616,"Ġestablishing":9617,"Ġapps":9618,"Ġaggressive":9619,"Ġchose":9620,"Ġinteracts":9621,"Ġattached":9622,"Ġ89":9623,"ĠChar":9624,"Ġreligious":9625,"Ġexpensive":9626,"ĠAUC":9627,"ximately":9628,"Ġutilize":9629,"Ġfilters":9630,"Ġwinter":9631,"Ġafore":9632,"Ġbronchial":9633,"Ġsom":9634,"ĠTGEV":9635,"ĠGFP":9636,"Ġcoinc":9637,"Reg":9638,"Ġfarms":9639,"iert":9640,"Ġprophylactic":9641,"remia":9642,"PIs":9643,"ĠTables":9644,"ĠRegarding":9645,"valuation":9646,"CMV":9647,"Ġopi":9648,"Ġwells":9649,"Ġshut":9650,"Ġupregulation":9651,"Ġnt":9652,"Ġmodulate":9653,"Ġoutlined":9654,"agglut":9655,"Ġdownload":9656,"Ġimmunosuppression":9657,"ĠRh":9658,"vitrogen":9659,"ĠLT":9660,"system":9661,"Ġcontract":9662,"Ġrotavirus":9663,"300":9664,"Ġquery":9665,"Ġfocal":9666,"Ġforecast":9667,"Ġjournals":9668,"Ġanticipated":9669,"Ġimmunodeficiency":9670,"Ġimmob":9671,"ĠOp":9672,"Ġ91":9673,"Ġfederal":9674,"Ġarrest":9675,"ony":9676,"Ġintense":9677,"Ġvomiting":9678,"ĠCr":9679,"lock":9680,"ĠImp":9681,"Ġdesigns":9682,"Ġtoc":9683,"ida":9684,"Ġvag":9685,"ĠSM":9686,"Ġpromotion":9687,"can":9688,"Ã¯ve":9689,"Ġmelan":9690,"ĠSPSS":9691,"iff":9692,"converting":9693,"Ġmism":9694,"host":9695,"ika":9696,"Ġmicroscope":9697,"Ġwillingness":9698,"chy":9699,"Ġpoultry":9700,"roscopic":9701,"Ġmoral":9702,"Ġthickness":9703,"ĠCollege":9704,"Ġestablishment":9705,"ĠFin":9706,"Ġexer":9707,"Ġcomo":9708,"ĠFace":9709,"Ġaforementioned":9710,"Ġtemporary":9711,"Ġregen":9712,"EF":9713,"Ġpleural":9714,"Ġchromatography":9715,"Ġfluids":9716,"Ġgastric":9717,"geb":9718,"ivariate":9719,"Ġrelies":9720,"ĠConversely":9721,"osing":9722,"Ġcontrary":9723,"Ġcaspase":9724,"PT":9725,"ĠVSV":9726,"rozen":9727,"Ġmotifs":9728,"Ġmellitus":9729,"ĠMat":9730,"meas":9731,"Ġexaminations":9732,"Ġabuse":9733,"ĠmiRNAs":9734,"TTTT":9735,"Ġintelligence":9736,"Ġunus":9737,"fers":9738,"phase":9739,"ĠVL":9740,"Ġrhin":9741,"Ġdisproportion":9742,"Ġscaff":9743,"Ġâĸ":9744,"Ġsynerg":9745,"aphyl":9746,"Ġplasmids":9747,"Ġexposures":9748,"Ġdiagram":9749,"Ġpronounced":9750,"Ġneck":9751,"Ġleaving":9752,"ĠNY":9753,"ĠÂµm":9754,"Ġhistopath":9755,"zes":9756,"Î»":9757,"Ġfunds":9758,"Ġvolati":9759,"ilized":9760,"okers":9761,"Ġretic":9762,"ĠDay":9763,"fluorescence":9764,"ochemistry":9765,"idential":9766,"azole":9767,"Ġcaution":9768,"anges":9769,"Ġheavi":9770,"ĠEBV":9771,"Ġexogenous":9772,"acoronavirus":9773,"Ġaccel":9774,"Ġrevers":9775,"ĠSix":9776,"Ġdefic":9777,"Ġupdate":9778,"Ġdoctor":9779,"aryng":9780,"sen":9781,"Ġderivative":9782,"Ġbiomarker":9783,"keit":9784,"Ġforecasting":9785,"umber":9786,"uro":9787,"Ġcorpor":9788,"ĠBL":9789,"Ġ***":9790,"blasts":9791,"Ġreflecting":9792,"ĠPatienten":9793,"Ġquad":9794,"Ġjudg":9795,"olved":9796,"Ġamin":9797,"Of":9798,"Ġfish":9799,"Ġapt":9800,"Ġneighborhood":9801,"ĠLV":9802,"Ġantibacterial":9803,"methyl":9804,"aur":9805,"Ġstratified":9806,"ĠTotal":9807,"endit":9808,"Ġlabels":9809,"Ġglo":9810,"Ġgrouped":9811,"efin":9812,"Ġencompass":9813,"Ġnose":9814,"oting":9815,"Ġconfinement":9816,"Ġluciferase":9817,"Cons":9818,"ait":9819,"ĠSL":9820,"Ġdefects":9821,"Ġchol":9822,"Ġthym":9823,"Ġarrang":9824,"Ġcausative":9825,"Ġ**":9826,"Ġreferral":9827,"Ġcustom":9828,"Ġhorses":9829,"OM":9830,"Ġhair":9831,"Ġmodulation":9832,"iforn":9833,"Ġconfounding":9834,"Ġcrystall":9835,"Ġtocilizumab":9836,"paramet":9837,"optim":9838,"istan":9839,"Ġkill":9840,"Ġcharged":9841,"Ġbusinesses":9842,"ĠLikewise":9843,"Ġapart":9844,"ĠSamples":9845,"Ġpartly":9846,"gly":9847,"adder":9848,"Ġaber":9849,"ĠOD":9850,"Ġimbal":9851,"Cov":9852,"ĠGM":9853,"Ġlists":9854,"Ġsignalling":9855,".).":9856,"Ġpg":9857,"plicity":9858,"Ġdialysis":9859,"ĠIFITM":9860,"Ġcomprising":9861,"CCAA":9862,"ĠIntroduction":9863,"App":9864,"ĠLik":9865,"inte":9866,"Ġgram":9867,"Ġautop":9868,"Ġpulse":9869,"Ġcontents":9870,"Ġenzymatic":9871,"Ġsyndrom":9872,"Ġeasier":9873,"Ġlegis":9874,"Ġfitted":9875,"ĠIT":9876,"Ġoptimize":9877,"acin":9878,"Ġpassage":9879,"sour":9880,"reatening":9881,"Ġcombat":9882,"labeled":9883,"that":9884,"ĠRepublic":9885,"Ġvein":9886,"Ġclassifier":9887,"arth":9888,"ĠNHS":9889,"Ġconstitute":9890,"vage":9891,"tie":9892,"Ġshall":9893,"Ġindividually":9894,"Ġdisinfec":9895,"Ġmaximal":9896,"net":9897,"ĠCoVs":9898,"Ġagricultural":9899,"ught":9900,"OX":9901,"Ġlysis":9902,"Ġconcomitant":9903,"Ġendpoint":9904,"ĠMyc":9905,"oche":9906,"ĠâĦ":9907,"Ġemergencies":9908,"family":9909,"ĠJapanese":9910,"Ġcascade":9911,"BR":9912,"Ġsummer":9913,"Ġchicken":9914,"Ġult":9915,"Ġparasite":9916,"ĠÃ¼ber":9917,"dL":9918,"Ġinputs":9919,"ĠSciences":9920,"Ġconvolution":9921,"Ġdealing":9922,"Ġcerv":9923,"PL":9924,"Ġdecom":9925,"Ġshortage":9926,"Ġtrap":9927,"Ġoutdo":9928,"Ġwards":9929,"Ġnotice":9930,"Ġsterile":9931,"abs":9932,"002":9933,"nic":9934,"versible":9935,"Ġdisasters":9936,"Ġlibraries":9937,"Ġaccompl":9938,"Ġrevised":9939,"ĠClin":9940,"orb":9941,"Ġimmunocompromised":9942,"ĠPub":9943,"Ġfiltered":9944,"Ġemail":9945,"Ġtrajectories":9946,"Ġago":9947,"GD":9948,"ĠAny":9949,"ario":9950,"Ġdense":9951,"ĠAir":9952,"Ġentirely":9953,"tific":9954,"Ġcurriculum":9955,"Ġenveloped":9956,"ĠTreg":9957,"Ġcollagen":9958,"Ġirre":9959,"Ġhighlighting":9960,"Ġpartnership":9961,"Ġdecay":9962,"Ġexpendit":9963,"hyd":9964,"Ġboundary":9965,"Ġtro":9966,"Ġsteady":9967,"Ġremoving":9968,"aker":9969,"Ġbands":9970,"Ġrepur":9971,"1000":9972,"Ġsupernatants":9973,"Ġsubunits":9974,"ĠÎ·":9975,"heres":9976,"ĠMSCs":9977,"shop":9978,"wal":9979,"olit":9980,"Ġrelating":9981,"Ġcreatinine":9982,"ĠNE":9983,"Ġalleles":9984,"ĠDifferent":9985,"Ġpresentations":9986,"rices":9987,"erves":9988,"Ġcorrelates":9989,"Ġinequality":9990,"otrans":9991,"quire":9992,"etary":9993,"Ġhit":9994,"Ġancest":9995,"CDC":9996,"ĠTime":9997,"cre":9998,"sial":9999,"ficiencies":10000,"olysis":10001,"Ġice":10002,"Ġelevation":10003,"Ġscal":10004,"Ġsystematically":10005,"Ġpix":10006,"ori":10007,"Ġowing":10008,"Ġhim":10009,"ĠGerman":10010,"Ġdiarrh":10011,"enses":10012,"Ġdebate":10013,"stud":10014,"Ġatypical":10015,"Ġborn":10016,"ukary":10017,"Ġintran":10018,"Ġschedule":10019,"Ġwoman":10020,"Ġperfect":10021,"icting":10022,"Ġphage":10023,"Ġundet":10024,"ashion":10025,"Ġmalignant":10026,"Ġtobacco":10027,"ĠCas":10028,"siveness":10029,"Given":10030,"ocortic":10031,"arbon":10032,"Ġgenetically":10033,"Ġimpossible":10034,"uent":10035,"bohydr":10036,"Ġdifferentially":10037,"Ġchecked":10038,"Ġharmful":10039,"Ġvideos":10040,"Ġcultiv":10041,"Ġregimens":10042,"independent":10043,"Ġenteric":10044,"uginosa":10045,"ĠHEK":10046,"Ġsymb":10047,"Ġflat":10048,"Ġsocietal":10049,"Ġreally":10050,"Ġoperator":10051,"inator":10052,"Ġgraphs":10053,"uest":10054,"Ġmeat":10055,"Sigma":10056,"alli":10057,"Ġexperimentally":10058,"Ġsequential":10059,"Ã§":10060,"Ġreader":10061,"Ġconfiguration":10062,"ifornia":10063,"isch":10064,"Ġretained":10065,"square":10066,"Ġsinus":10067,"Ġtraits":10068,"ĠProvince":10069,"Ġpancreatic":10070,"utable":10071,"ĠNonetheless":10072,"Ġpromoted":10073,"Ġlipids":10074,"ĠAdministration":10075,"cm":10076,"ĠFA":10077,"Other":10078,"Ġparty":10079,"Ġdefinitive":10080,"Ġfrail":10081,"Ġnosocomial":10082,"ĠTCR":10083,"earson":10084,"TNF":10085,"Ġpiglets":10086,"Ġbeads":10087,"play":10088,"Ġsteroids":10089,"GATG":10090,"Ġsplic":10091,"Ġdates":10092,"Ã¶n":10093,"uncil":10094,"Ġoriginally":10095,"Ġdiscover":10096,"Ġinfarction":10097,"Ã¶r":10098,"amethas":10099,"Ġect":10100,"chymal":10101,"Ġcompatible":10102,"Ġfreed":10103,"ĠCCR":10104,"inf":10105,"Ġhospitalizations":10106,"onuclear":10107,"549":10108,"Ġbis":10109,"Ġprevents":10110,"Ġimmig":10111,"Ġgrant":10112,"Ġeffusion":10113,"conjug":10114,"igher":10115,"Ġfacilitated":10116,"Ġtraine":10117,"Ġmimic":10118,"Ġparasites":10119,"Ġprotecting":10120,"Ġdex":10121,"amivir":10122,"ĠChi":10123,"Di":10124,"roscopy":10125,"Ġvacu":10126,"Ġcontrover":10127,"sit":10128,"Ġdpi":10129,"Ġpotency":10130,"Ġcredit":10131,"Ġpsychosocial":10132,"Ġrelapse":10133,"ÎĶ":10134,"now":10135,"Ã£":10136,"Ġscholars":10137,"Ġnull":10138,"Ġatoms":10139,"Ġnorms":10140,"Ġargued":10141,"Ġstopped":10142,"MF":10143,"ĠBiot":10144,"Ġemerge":10145,"Ġavoided":10146,"Ġmanif":10147,"Ġinterference":10148,"apa":10149,"Ne":10150,"Ġroad":10151,"Ġestimating":10152,"Ġstraight":10153,"Ġsuffered":10154,"Ġaeruginosa":10155,"ĠWhite":10156,"ursor":10157,"Ġincl":10158,"ĠRisk":10159,"Ġvisualized":10160,"Ġholds":10161,"Ġmapped":10162,"Ġencountered":10163,"Ġwildlife":10164,"tral":10165,"Ġaggregate":10166,"Ġrhinovirus":10167,"Ġabsorb":10168,"ĠPrior":10169,"Ġdiffered":10170,"produc":10171,"Ġdeclined":10172,"ĠEpid":10173,"ĠInfectious":10174,"idden":10175,"ĠBCG":10176,"ynthesis":10177,"ijing":10178,"GI":10179,"Ġreact":10180,"ĠSee":10181,"Ġunrelated":10182,"Ġfacilitates":10183,"Ġrecurrence":10184,"Ġstool":10185,"Ġleukemia":10186,"ĠAcc":10187,"amethasone":10188,"Ġcir":10189,"Ġmissed":10190,"Ġimag":10191,"Ġkinds":10192,"Ġsoil":10193,"ĠEVs":10194,"Ġweather":10195,"Ġglycosylation":10196,"Ġattractive":10197,"ĠTRI":10198,"Ġdistal":10199,"Ġexacerbation":10200,"ĠOx":10201,"Ġobstructive":10202,"priate":10203,"ĠTX":10204,"Ġcervical":10205,"Ġclinician":10206,"eto":10207,"Ġconditional":10208,"Ġfacilitating":10209,"Ġmock":10210,"Ġnations":10211,"environ":10212,"ĠAnimal":10213,"ologically":10214,"Ġhemorrhage":10215,"Ġhall":10216,"Ġreferences":10217,"Ġuninfected":10218,"Ġconv":10219,"Ġlatest":10220,"pd":10221,"ĠAC":10222,"Ġcysteine":10223,"Ġadjusting":10224,"ĠCoun":10225,"iro":10226,"Ġraise":10227,"utrition":10228,"iders":10229,"she":10230,"WT":10231,"Ġremarkable":10232,"Ġbab":10233,"Ġcollege":10234,"ĠBP":10235,"iop":10236,"Ġpreclinical":10237,"Ġdetrim":10238,"two":10239,"Ġtrace":10240,"cr":10241,"itney":10242,"ĠRF":10243,"ropy":10244,"educ":10245,"Ġrobot":10246,"recip":10247,"ĠGolgi":10248,"onas":10249,"Ġreconstruction":10250,"Ġdoor":10251,"Ġ%)":10252,"âĲ":10253,"Ġcomorbidity":10254,"ĠJoh":10255,"wered":10256,"ĠAU":10257,"ĠMultiple":10258,"Journal":10259,"hl":10260,"pur":10261,"ĠIll":10262,"Ġmultidisciplinary":10263,"Ġsignature":10264,"Ġped":10265,"Ġupstream":10266,"Ġviewed":10267,"Ġmammals":10268,"WS":10269,"Ġtubes":10270,"Ġentering":10271,"Ġcustomers":10272,"Ls":10273,"ĠGO":10274,"Ġsubstitutions":10275,"Ġanterior":10276,"Ġdramatic":10277,"itoneal":10278,"adesh":10279,"bone":10280,"Ġevaluations":10281,"anz":10282,"Ġnotic":10283,"posure":10284,"Ġscanning":10285,"angladesh":10286,"necess":10287,"Ġmoney":10288,"Ġtermed":10289,"ĠÏī":10290,"da":10291,"Ġcited":10292,"Ġcivil":10293,"Ġsupplemental":10294,"ĠPneum":10295,"ĠISG":10296,"Ġpts":10297,"bul":10298,"Ġcommercially":10299,"Ġwhilst":10300,"Ġstrugg":10301,"âĦ¢":10302,"Ġexhaus":10303,"Ġforest":10304,"Ġproximal":10305,"otropic":10306,"itated":10307,"ubated":10308,"Ã©es":10309,"ĠInstitutional":10310,"Ġoligonucle":10311,"fung":10312,"Ġprescription":10313,"Ġlineages":10314,"Coronavirus":10315,"Ġ2002":10316,"Ġcation":10317,"ĠÎ¼m":10318,"sions":10319,"syn":10320,"Ġmachin":10321,"Ġtouch":10322,"Ġlaser":10323,"ING":10324,"orec":10325,"BT":10326,"Ġfashion":10327,"pecific":10328,"iant":10329,"rated":10330,"unk":10331,"orer":10332,"Ġzones":10333,"Ġdesigning":10334,"ĠCenters":10335,"âĢ²-":10336,"Ġbiof":10337,"Ġnom":10338,"Ġdoub":10339,"Ġworst":10340,"ylo":10341,"Ġjobs":10342,"Ġexploration":10343,"Ġhapl":10344,"Ġdevelopments":10345,"Ġtranspl":10346,"Ġmanually":10347,"ranial":10348,"Ġmodeled":10349,"ĠNsp":10350,"Ġmultim":10351,"ĠPort":10352,"oresis":10353,"Ġcope":10354,"Ġpointed":10355,"Ġdefining":10356,"Ġheavily":10357,"ĠQues":10358,"ietic":10359,"Ġgoods":10360,"Ġexploring":10361,"RSA":10362,"Ġfrontline":10363,"itarian":10364,"orthy":10365,"ĠMeanwhile":10366,"Ġcrop":10367,"Ġrend":10368,"Ġdeviations":10369,"ĠMac":10370,"ende":10371,"ception":10372,"Ġmonol":10373,"ĠCRIS":10374,"Ġlockdowns":10375,"Ġactivating":10376,"score":10377,"ĠVR":10378,"nes":10379,"Ġlessons":10380,"Ġtriggers":10381,"ĠQT":10382,"Ġdepri":10383,"oxin":10384,"ĠIBD":10385,"Ġdefault":10386,"Ġsolely":10387,"Ġbowel":10388,"Os":10389,"Ġcloned":10390,"Ġinitiate":10391,"Ġunre":10392,"ocrine":10393,"Ġ2007":10394,"Ã£o":10395,"Ġenl":10396,"Ġmatrices":10397,"ĠNow":10398,"Ġreagent":10399,"Ġfif":10400,"Ġunemployment":10401,"lip":10402,"Ġ600":10403,"Ġscaffold":10404,"prene":10405,"Ġeukary":10406,"Ġfacial":10407,"Ġfinite":10408,"Ġinserted":10409,"ĠBefore":10410,"Ġinterfere":10411,"valid":10412,"Ġglobe":10413,"Ġargument":10414,"His":10415,"Ġpocket":10416,"Ġwash":10417,"Ġcos":10418,"Ġsubtype":10419,"Ġpotenti":10420,"Ġsalt":10421,"Ġcontagion":10422,"inia":10423,"Ġsolvent":10424,"Ã¤n":10425,"Ġessentially":10426,"Ġobese":10427,"Ob":10428,"Ġascertain":10429,"Ġsure":10430,"HT":10431,"Ġpremature":10432,"Ġthousands":10433,"mitt":10434,"Ġsaving":10435,"Ġinteractive":10436,"static":10437,"Ġquantities":10438,"Ġchickens":10439,"Ġliteracy":10440,"Most":10441,"ĠArabia":10442,"arial":10443,"venue":10444,"Ġdemyel":10445,"timate":10446,"Ġlactate":10447,"Ġencodes":10448,"relation":10449,"oded":10450,"Ġcontinuing":10451,"ĠTesting":10452,"Ġprecursor":10453,"Ġsuppressed":10454,"item":10455,"grade":10456,"forcement":10457,"Ġdrinking":10458,"Ġrecipient":10459,"Ã«":10460,"Ġcentrifuged":10461,"ĠKD":10462,"hydrogen":10463,"Ġframesh":10464,"Ġgenerates":10465,"Ġerythro":10466,"Ġkcal":10467,"Ġeigen":10468,"Ġalkal":10469,"DCs":10470,"Ġcovers":10471,"Ġleaves":10472,"ĠNi":10473,"Ġdirections":10474,"ĠPsych":10475,"Ġsteroid":10476,"Ġruns":10477,"GR":10478,"opoietic":10479,"Ġwarning":10480,"istics":10481,"eptides":10482,"Ġgamma":10483,"Ġclients":10484,"Ġtransgenic":10485,"orient":10486,"botic":10487,"Ġradiograph":10488,"Ġapproximation":10489,"Ġincorporation":10490,"Ġequity":10491,"Ġlam":10492,"Ġenhances":10493,"HI":10494,"ley":10495,"Ġ293":10496,"ĠFI":10497,"Ġsubcutaneous":10498,"Ġhabits":10499,"ĠBangladesh":10500,"Ġexacerbations":10501,"ĠForm":10502,"traum":10503,"Ġthin":10504,"Ġdrivers":10505,"ophage":10506,"Ġresonance":10507,"anth":10508,"ĠTP":10509,"Ġmodules":10510,"Ġlymphoma":10511,"Ġinverse":10512,"ĠFive":10513,"gluc":10514,"ĠZh":10515,"Ġpharmacy":10516,"Among":10517,"ĠPTSD":10518,"Ġinability":10519,"ups":10520,"ĠAM":10521,"Ġdifferentiated":10522,"nis":10523,"Ġbars":10524,"Ġcommitment":10525,"itories":10526,"ĠNiger":10527,"Ġmitochondria":10528,"ĠAbs":10529,"Ġ2005":10530,"athy":10531,"ĠCalifornia":10532,"utation":10533,"plantation":10534,"osmia":10535,"ĠIdenti":10536,"ĠTri":10537,"Ġvoluntary":10538,"Ġrising":10539,"Ġdistrict":10540,"........":10541,"coming":10542,"ĠCM":10543,"abit":10544,"Ġperturb":10545,"ĠLow":10546,"Ġsyncytial":10547,"thing":10548,"rine":10549,"Ġpanels":10550,"Ġrs":10551,"TATG":10552,"Ġrobustness":10553,"Ġmood":10554,"Ġmodalities":10555,"Ġpipeline":10556,"¿½":10557,"ozyg":10558,"threatening":10559,"Ġloaded":10560,"Ġattempted":10561,"uil":10562,"learning":10563,"Ġdisper":10564,"Ġpropensity":10565,"ĠAustralian":10566,"Ġpolio":10567,"Ġnight":10568,"oll":10569,"ĠLong":10570,"Ġmoun":10571,"forward":10572,"Ġintegral":10573,"Ġfinger":10574,"Ġfungi":10575,"alyses":10576,"ĠmÃ©":10577,"irty":10578,"Ġcorona":10579,"ĠÃ°":10580,"assay":10581,"ĠBD":10582,"ĠUnlike":10583,"sa":10584,"Ġdosing":10585,"Ġconnectivity":10586,"orem":10587,"ĠSerum":10588,"Ġenf":10589,"Ġcomprises":10590,"Ġfeline":10591,"ĠDiseases":10592,"Ġoverexpression":10593,"ĠCRISPR":10594,"ĠRIG":10595,"Ġprogramming":10596,"ilm":10597,"Ġactivates":10598,"ĠqPCR":10599,"earing":10600,"Ġcarbohydr":10601,"Ġsuspended":10602,"ĠEnter":10603,"enh":10604,"ĠThough":10605,"ĠTechnology":10606,"Ġprecisely":10607,"wenty":10608,"ĠYou":10609,"Ġdilutions":10610,"Ġdosage":10611,"oT":10612,"Ġtension":10613,"Ġfrozen":10614,"ĠïĤ·":10615,"ĠSus":10616,"Ġdece":10617,"ceptor":10618,"Ġplotted":10619,"Ġsurvive":10620,"Ġmicrobiome":10621,"avig":10622,"Ġexhibits":10623,"Ġtun":10624,"Ġij":10625,"phosphate":10626,"ĠLikert":10627,"infections":10628,"ĠSweden":10629,"Ġmilitary":10630,"SO":10631,"ĠCentre":10632,"CATT":10633,"ĠLo":10634,"Ġship":10635,"Ġquer":10636,"Ġanalyse":10637,"Ap":10638,"Ġcarrier":10639,"berg":10640,"ĠAIDS":10641,"Ġbor":10642,"Ġsecretions":10643,"Ġeconomies":10644,"Ġferritin":10645,"Ġasym":10646,"Ġplausible":10647,"UV":10648,"Ġfiber":10649,"Ġexcluding":10650,"ĠNucle":10651,"Ġsurgeons":10652,"list":10653,"Ġincident":10654,"Ġmachinery":10655,"Ġcoated":10656,"ĠNSP":10657,"igare":10658,"Ġrenew":10659,"ĠÎ¼l":10660,"ranted":10661,"iaz":10662,"Ġperi":10663,"plan":10664,"Ġscarce":10665,"bar":10666,"Ġlopinavir":10667,"brile":10668,"case":10669,"Ġcanine":10670,"ĠART":10671,"Ġresponding":10672,"Ġminute":10673,"ĠRef":10674,"diagn":10675,"Ġchron":10676,"Ġarr":10677,"Ġobstruction":10678,"ativ":10679,"yo":10680,"Ġlandscape":10681,"Ġretail":10682,"Ġkm":10683,"Ġneoplas":10684,"td":10685,"Ġguideline":10686,"cemia":10687,"Ġtaste":10688,"Ġspeech":10689,"emerg":10690,"ocol":10691,"Ġdisseminated":10692,"norm":10693,"astern":10694,"Ġcollecting":10695,"Ġconservative":10696,"Ġdenoted":10697,"Ġstrictly":10698,"Ġcalibration":10699,"design":10700,"Ġstarts":10701,"Ġopacities":10702,"Ġath":10703,"Ġarbit":10704,"Ġinhalation":10705,"Ġrit":10706,"ĠTris":10707,"FR":10708,"Ġhomologous":10709,"eptid":10710,"Ġimmunomodulatory":10711,"614":10712,"ACS":10713,"Ġmisinformation":10714,"Ġsenior":10715,"Ġperfusion":10716,"Ġclustered":10717,"Ġanticoagulation":10718,"ĠCancer":10719,"Ġopposed":10720,"Ġscheduled":10721,"IgG":10722,"Ġcleaved":10723,"Ġworkflow":10724,"pharm":10725,"Ġmakers":10726,"eros":10727,"SAID":10728,"lot":10729,"Ġunnecess":10730,"present":10731,"ĠBios":10732,"Ġthyroid":10733,"amil":10734,"molec":10735,"Using":10736,"respective":10737,"igenous":10738,"ĠPur":10739,"ĠAND":10740,"Ġangle":10741,"Ġcis":10742,"ĠInt":10743,"Ġauthority":10744,"Ġspot":10745,"Ġorganisations":10746,"Ġportal":10747,"Whitney":10748,"Ġpolyprotein":10749,"dec":10750,"oft":10751,"Ġbases":10752,"Ġtack":10753,"Ġlived":10754,"HL":10755,"Ġribavirin":10756,"ĠFed":10757,"Ġcoded":10758,"oidal":10759,"ido":10760,"Methods":10761,"Ġcareer":10762,"Ġconfirming":10763,"Ġrated":10764,"Ġpage":10765,"abin":10766,"eren":10767,"Ġadequately":10768,"Ġnationwide":10769,"Ġrejection":10770,"Ġpathogenicity":10771,"Ġstom":10772,"ĠStrept":10773,"Ġmyeloid":10774,"Ġarrow":10775,"text":10776,"Ġprostate":10777,"personal":10778,"ĠSchool":10779,"Ġspik":10780,"FS":10781,"ĠAre":10782,"earning":10783,"ĠAu":10784,"Ġcertainly":10785,"response":10786,"Ġbad":10787,"Ġradio":10788,"Ġart":10789,"Ġgloves":10790,"comp":10791,"Ġbiomedical":10792,"Ġcounsel":10793,"itorial":10794,"Ġhandle":10795,"ĠAV":10796,"Ġ1990":10797,"ĠEducation":10798,"ĠFound":10799,"forming":10800,"Ġbelongs":10801,"Ġsynchron":10802,"Ġpressures":10803,"Ġflows":10804,"Ġteacher":10805,"Ġswitch":10806,"eless":10807,"EL":10808,"ĠStudent":10809,"ielding":10810,"ĠDirect":10811,"TACT":10812,"Ġdestruction":10813,"Two":10814,"tium":10815,"rus":10816,"ĠPB":10817,"wer":10818,"ĠdsRNA":10819,"onical":10820,"stable":10821,"Ġtel":10822,"imb":10823,"Ġpathophysiology":10824,"Ġpreferen":10825,"ĠMolecular":10826,"Ġscler":10827,"Ġannounced":10828,"ardia":10829,"itors":10830,"band":10831,"Ġdetrimental":10832,"ĠPandemic":10833,"ĠCouncil":10834,"ĠHyp":10835,"oxic":10836,"rosp":10837,"Ġtrunc":10838,"ĠâĢ¦":10839,"Ġkann":10840,"Ġstressors":10841,"ĠVA":10842,"Ġphenomena":10843,"Ġprescrib":10844,"Ġnecro":10845,"Ġfavour":10846,"Ġposts":10847,"Seq":10848,"Ġveterinary":10849,"rig":10850,"Ġtip":10851,"Ġthromboemb":10852,"ĠCardi":10853,"Ġtrave":10854,"Overall":10855,"Ġcontextual":10856,"Ġtrypsin":10857,"Ġsearched":10858,"Ġselecting":10859,"Ġlymphoid":10860,"Ġfamiliar":10861,"Ġazithromycin":10862,"ĠSect":10863,"igital":10864,"perg":10865,"Ġresidence":10866,"Ġnotably":10867,"Ġequipped":10868,"conjugated":10869,"Ġposes":10870,"ĠTCID":10871,"pH":10872,"Ġchapter":10873,"ham":10874,"itic":10875,"Ġengaging":10876,"uling":10877,"Ġbiases":10878,"ĠDen":10879,"AAAA":10880,"Ġtherm":10881,"Ġdifferently":10882,"Ġbalanced":10883,"cit":10884,"Ġeyes":10885,"Ġpaediatric":10886,"Ġcongen":10887,"Ġhidden":10888,"Ġautomatic":10889,"Ġfire":10890,"bach":10891,"Ġathe":10892,"Ġrabies":10893,"Ġpermanent":10894,"titis":10895,"ixed":10896,"oscopic":10897,"Ġremod":10898,"ained":10899,"ĠRR":10900,"Ġmodest":10901,"ĠNET":10902,"Ġlaws":10903,"Ġcontracting":10904,"STM":10905,"ĠCQ":10906,"Ġinfecting":10907,"hanol":10908,"Ġlabour":10909,"Ġopinions":10910,"Ġdevelopmental":10911,"AGA":10912,"Ġalternatives":10913,"Ġparadigm":10914,"Ġrepos":10915,"Ġinformal":10916,"Ġsomeone":10917,"Ġleader":10918,"ĠNMR":10919,"Ġabstract":10920,"Ġenrollment":10921,"Ġresemb":10922,"ĠIU":10923,"Ġregime":10924,"Some":10925,"hentic":10926,"Ġoffering":10927,"ĠZika":10928,"Ġresearcher":10929,"Ġends":10930,"Ġsmell":10931,"Ġregards":10932,"005":10933,"Ġproblematic":10934,"Ġlesser":10935,"Ġserology":10936,"Ġcamera":10937,"Ġextrap":10938,"renal":10939,"Ġrealistic":10940,"oler":10941,")).":10942,"Cor":10943,"Ġfibroblasts":10944,"ĠkÃ¶n":10945,"Ġanesthesia":10946,"Ġcardiomy":10947,"Ġdiagnose":10948,"rache":10949,"Many":10950,"Ġfreedom":10951,"Le":10952,"ĠBeijing":10953,"Ġnames":10954,"levant":10955,"Ġthresholds":10956,"otst":10957,"rosine":10958,"Ġencouraging":10959,"Ġintegrate":10960,"ĠVi":10961,"itness":10962,"ĠDD":10963,"Ġswe":10964,"Ġadditionally":10965,"Ġanemia":10966,"otyping":10967,"Ġ(+":10968,"Ġediting":10969,"Ġstrengths":10970,"Ġentreprene":10971,"Ġ}":10972,"Ġwat":10973,"Mod":10974,"Ġmonocyte":10975,"Ġclarify":10976,"clonal":10977,"Ġconcurrent":10978,"Ġincorporating":10979,"plasia":10980,"phen":10981,"Ġdiscl":10982,"Ġgastroenter":10983,"Ġaux":10984,"ĠGR":10985,"Ġsurfact":10986,"Ġtrait":10987,"Sup":10988,"ĠMexico":10989,"Ġdisinfect":10990,"road":10991,"CK":10992,"ĠDat":10993,"ĠProf":10994,"Ġcustomer":10995,"ycle":10996,"Ġseemed":10997,"Ġrub":10998,"ĠSH":10999,"ĠÎµ":11000,"Ġnuclei":11001,"sci":11002,"ĠCommons":11003,"Ġlicensed":11004,"Ġubiquitin":11005,"ĠIns":11006,"Ġhybridization":11007,"Ġcrypt":11008,"ĠIM":11009,"Ġguarantee":11010,"Ġresusc":11011,"ĠWeb":11012,"What":11013,"Ġroughly":11014,"omain":11015,"Ġbulk":11016,"ĠCreative":11017,"ĠARI":11018,"Ġunusual":11019,"Ġ(-":11020,"Ġspir":11021,"ĠGraph":11022,"ĠAG":11023,"metry":11024,"Ġneurode":11025,"del":11026,"ĠPf":11027,"Ġexcre":11028,"forced":11029,"aciones":11030,"Invitrogen":11031,"inn":11032,"right":11033,"Ġechocardi":11034,"acking":11035,"Ġfeces":11036,"Ġworkshop":11037,"ogeneic":11038,"Ġstigma":11039,"zone":11040,"Ġunders":11041,"ophosph":11042,"deficient":11043,"ĠIsra":11044,"ĠCry":11045,"iotic":11046,"Ġlicence":11047,"Ġemphasized":11048,"Ġcontroversial":11049,"Ġelicit":11050,"ĠUpon":11051,"ĠFacebook":11052,"lung":11053,"Ġunch":11054,"Ġmodify":11055,"Ġrelate":11056,"Ġwealth":11057,"neys":11058,"Ġlib":11059,"ĠRNase":11060,"Ġdisplays":11061,"Ġmer":11062,"Ġ2004":11063,"alliative":11064,"Ġ!":11065,"Ġinsecurity":11066,"Ġcoagul":11067,"Ġze":11068,"Ġwhee":11069,"ORF":11070,"only":11071,"Ġsentiment":11072,"Ġdrain":11073,"otstrap":11074,"Ġhemorrhagic":11075,"Ġbackbone":11076,"Ġmicroglia":11077,"bits":11078,"PAGE":11079,"Ġfruit":11080,"Ġshield":11081,"Ġaccession":11082,"Ġhr":11083,"Ġproductive":11084,"Ġdiffers":11085,"Ġclassify":11086,"Ġambient":11087,"Ġpollutants":11088,"ĠDPP":11089,"Ġcaregi":11090,"Ġbronchi":11091,"enia":11092,"ticle":11093,"Ġexactly":11094,"ĠHem":11095,"uer":11096,"Ġranking":11097,"Ġmonomer":11098,"Ġvig":11099,"ĠHSCT":11100,"ĠTaken":11101,"Ġsuggestive":11102,"Ts":11103,"ĠAccess":11104,"ĠnaÃ¯ve":11105,"ĠEBOV":11106,"Ġavoidance":11107,"Ġconjunc":11108,"Ġderive":11109,"Ġappropriately":11110,"Ġinequalities":11111,"Ġretrospectively":11112,"Figures":11113,"Ġworry":11114,"elles":11115,"Ġboundaries":11116,"uscular":11117,"ĠÃĤ":11118,"Ġpolicym":11119,"Ġcrude":11120,"FI":11121,"ĠAv":11122,"Ġsing":11123,"Ġocular":11124,"Ġshap":11125,"emporal":11126,"ĠLys":11127,"Ġmethodological":11128,"Ġmyocarditis":11129,"centr":11130,"Ġkern":11131,"igibility":11132,"Ġarising":11133,"monella":11134,"Ġje":11135,"Ġunw":11136,"Ġranked":11137,"ldrich":11138,"ĠÏĩ":11139,"Ġmarketing":11140,"ĠECG":11141,"Ġlivest":11142,"Ġpermitted":11143,"Ġinhaled":11144,"ka":11145,"Ġresponsib":11146,"depth":11147,"quartile":11148,"ĠSurvey":11149,"olation":11150,"Ġmoved":11151,"Ġcreates":11152,"ĠTS":11153,"ĠDL":11154,"Ġarms":11155,"ĠLatin":11156,"229":11157,"Ġtot":11158,"ĠGr":11159,"Ġexert":11160,"Ġfunctionality":11161,"ĠWhether":11162,"Ġmultivariable":11163,"Ġexpressions":11164,"Ġtraumatic":11165,"antitative":11166,"inflammation":11167,"atural":11168,"Ġthrombocytopenia":11169,"Ġchamber":11170,"Ġsports":11171,"Ġconscious":11172,"ĠCys":11173,"iolitis":11174,"Ġbenz":11175,"Ġrelaxation":11176,"Ġserotypes":11177,"urning":11178,"ĠCox":11179,"opening":11180,"ĠBank":11181,"Ġant":11182,"ĠSwit":11183,"By":11184,"phthal":11185,"aussian":11186,"both":11187,"Ġelicited":11188,"field":11189,"Ġhex":11190,"ĠNLRP":11191,"ausea":11192,"ĠEp":11193,"Ġcontrad":11194,"ĠDem":11195,"ritish":11196,"Ġpositives":11197,"pus":11198,"Ġwarranted":11199,"lact":11200,"Ġhelic":11201,"Ġelabor":11202,"Ġconfusion":11203,"hydrogenase":11204,"Ġregulates":11205,"Ġhelping":11206,"Ġho":11207,"Ġaddi":11208,"Ġtranslocation":11209,"Ġdiarrhoea":11210,"Ġpenetration":11211,"Ġpossibilities":11212,"NG":11213,"Ġhams":11214,"Ġpreparations":11215,"ĠHL":11216,"Ġtransitions":11217,"Ġpriorities":11218,"Sh":11219,"Ġattributable":11220,"efficacy":11221,"Ġwalking":11222,"uster":11223,"Ãł":11224,"Ġtex":11225,"Ġsubmission":11226,"itÃ¤t":11227,"Ġincenti":11228,"Ġmillions":11229,"Ġcampaigns":11230,"Ġinferred":11231,"Ġchemokine":11232,"Ġterr":11233,"Ġlabeling":11234,"ĠHCW":11235,"ondon":11236,"ĠÏĨ":11237,"Ġdeceased":11238,"enda":11239,"Ġbehavioural":11240,"days":11241,"ĠTF":11242,"alveolar":11243,"Ġcalf":11244,"eutic":11245,"Step":11246,"lity":11247,"ĠCYP":11248,"Ġcommunicate":11249,"acquired":11250,"Ġnoticed":11251,"Ġtried":11252,"andem":11253,"Ġquarter":11254,"Ġgal":11255,"Ġ2006":11256,"ama":11257,"Ġhomogen":11258,"ni":11259,"Ġidentifi":11260,"oglyc":11261,"Ġbranch":11262,"Ġvirulent":11263,"Ġspending":11264,"?\"":11265,"ĠManagement":11266,"Ġdeployed":11267,"Ġpiv":11268,"Ġcaring":11269,"Ġnarrative":11270,"Ġclosures":11271,"Ġsafely":11272,"anes":11273,"ĠMass":11274,"Ġreplace":11275,"Ġrestaur":11276,"Ġthrombotic":11277,"Ġrationale":11278,"Ġfill":11279,"Ġturned":11280,"gel":11281,"Ġsmartphone":11282,"tica":11283,"Ġnavig":11284,"Ġhemoglobin":11285,"Ġbudget":11286,"Ġabor":11287,"Ġensemble":11288,"EB":11289,"cap":11290,"Ġtransmissibility":11291,"queous":11292,"Ġanticoagul":11293,"ĠPAR":11294,"Ġtrying":11295,"Ġoxidation":11296,"amente":11297,"ĠMethod":11298,"Ġevidenced":11299,"Ġplacement":11300,"UR":11301,"ĠeIF":11302,"ube":11303,"Ġinvited":11304,"mann":11305,"Ġantivir":11306,"ando":11307,"cler":11308,"Ġsubpop":11309,"ĠUnion":11310,"Ġwrote":11311,"erally":11312,"Ġoperate":11313,"Ġhormone":11314,"ĠWil":11315,"Ġmanifestation":11316,"ĠET":11317,"ĠPearson":11318,"Ġepisode":11319,"Ġofficials":11320,"Ġendothe":11321,"Ġsatisfied":11322,"ĠPark":11323,"Ġmicroarray":11324,"terminus":11325,"coding":11326,"ĠRAS":11327,"Ġwent":11328,"Ġregulator":11329,"ĠAgain":11330,"uspended":11331,"light":11332,"ermal":11333,"Ġris":11334,"ĠPak":11335,"Ġischemia":11336,"Ġeligibility":11337,"ĠBC":11338,"Ġspring":11339,"Ġhydrox":11340,"Ġhierarchical":11341,"Ġtoxin":11342,"Ġspecialist":11343,"Ġcoordinated":11344,"First":11345,"Ġshortness":11346,"Ġintroducing":11347,"iling":11348,"etin":11349,"Ġbacteri":11350,"Ġapoptotic":11351,"Ġelectrophoresis":11352,"Ġcounted":11353,"onn":11354,"Ġaccelerated":11355,"Ġbron":11356,"parts":11357,"Ġadver":11358,"veloped":11359,"Clinical":11360,"ensors":11361,"Ġmere":11362,"ĠLastly":11363,"Ġinstability":11364,"Ġba":11365,"Per":11366,"ĠAmericans":11367,"Ġanch":11368,"ĠHM":11369,"Ġti":11370,"Ġintrac":11371,"Ġventilated":11372,"Ġunnecessary":11373,"ker":11374,"Ġseed":11375,"nucle":11376,"ĠBA":11377,"Ġimmunohist":11378,"Ġtriple":11379,"Ġpassengers":11380,"GGTT":11381,"ĠService":11382,"Ġcorrected":11383,"ĠSEIR":11384,"Ġcoughing":11385,"ĠSEM":11386,"Ġrequested":11387,"ĠPart":11388,"Ġseconds":11389,"ĠTechnologies":11390,"Ġkeywords":11391,"throughput":11392,"inance":11393,"Ġcolonization":11394,"CTTG":11395,"fr":11396,"Ġemploying":11397,"amiento":11398,"pring":11399,"ulose":11400,"Ġneonates":11401,"ĠFoundation":11402,"ĠRD":11403,"ĠNan":11404,"Ġverte":11405,"ailed":11406,"Ġclone":11407,"pox":11408,"Ġrelatives":11409,"isson":11410,"Ġwarm":11411,"Ġwet":11412,"ĠReal":11413,"Ġpermit":11414,"Ġunivariate":11415,"assion":11416,"processing":11417,"antum":11418,"Ġstret":11419,"amino":11420,"Ġsolved":11421,"Ġworkload":11422,"arency":11423,"Cas":11424,"sec":11425,"Ġhorizontal":11426,"Ġmicrobes":11427,"Ġlivestock":11428,"rological":11429,"Ġrain":11430,"Ġdexamethasone":11431,"zerland":11432,"Ġsar":11433,"trained":11434,"ĠUp":11435,"Ġine":11436,"Ġoutputs":11437,"hend":11438,"centi":11439,"eper":11440,"Ġemphasize":11441,"Ġstore":11442,"ĠMar":11443,"Ġresidential":11444,"Ġinspec":11445,"Ġlavage":11446,"ĠLS":11447,"Ġexport":11448,"ĠMM":11449,"survi":11450,"Ġchloride":11451,"Ġoutdoor":11452,"Ġclassic":11453,"Ġchemistry":11454,"Ġcirrh":11455,"acillus":11456,"Man":11457,"ĠAge":11458,"Ġtended":11459,"Ġdiminished":11460,"Ġenterpr":11461,"Ġformulations":11462,"Ġcongenital":11463,"Ġleukocytes":11464,"Ġjustice":11465,"Ġmining":11466,"Ġcombine":11467,"Ġglucocortic":11468,"Ġencode":11469,"oplasma":11470,"nisol":11471,"Ġsimulate":11472,"Ġbatch":11473,"Ġcapillary":11474,"ĠSNPs":11475,"Ġdetermines":11476,"Ġnano":11477,"Ġcoupling":11478,"Ġtach":11479,"Ġapproximate":11480,"Ġtransduction":11481,"Ġimmunofluorescence":11482,"2018":11483,"Ġregistration":11484,"Ġtrafficking":11485,"Ġoperators":11486,"Ġpharmacokine":11487,"Ġvehicles":11488,"vate":11489,"Ġstatic":11490,"ostomy":11491,"bas":11492,"Ġleukocyte":11493,"ĠIFNs":11494,"Ġeveryone":11495,"Ġfiltering":11496,"ĠEg":11497,"leb":11498,"Ġcontamin":11499,"Ġintroduc":11500,"Ġspecialists":11501,"Ġmediating":11502,"fice":11503,"Anal":11504,"aded":11505,"Ġsore":11506,"Ġcure":11507,"Ġarbitr":11508,"infectious":11509,"Ġdehydrogenase":11510,"Ġcatal":11511,"Ġsheep":11512,"uthors":11513,"Ġbag":11514,"Ġcool":11515,"Ġsmokers":11516,"Ġlymphopenia":11517,"ĠMeas":11518,"Ġconsiders":11519,"graduate":11520,"Ġpharmacists":11521,"Ġalert":11522,"Ġnecessity":11523,"hai":11524,"onitis":11525,"ativity":11526,"Ġscr":11527,"Ġmononuclear":11528,"lichen":11529,"Ġsmoke":11530,"Ġframeworks":11531,"Ġanswered":11532,"Fc":11533,"ĠBet":11534,"Ġspill":11535,"Ġdesirable":11536,"Ġfoundation":11537,"rogate":11538,"Ġinflammasome":11539,"Ġmucus":11540,"ichia":11541,"Ġtends":11542,"Ġdeposited":11543,"Ġphysically":11544,"Ġserocon":11545,"Ġaqueous":11546,"Ġresponsibilities":11547,"ayers":11548,"expressing":11549,"oration":11550,"ĠBritish":11551,"Ġsuspicion":11552,"ĠFP":11553,"ophen":11554,"Ġcoating":11555,"Ġimply":11556,"oxidase":11557,"Ġrheumat":11558,"Ġcontribut":11559,"Ġbij":11560,"ĠMalay":11561,"Ġpreceding":11562,"Ġaccumulated":11563,"availability":11564,"Ġsearches":11565,"ophy":11566,"Ġacquire":11567,"ĠâĪŀ":11568,"Ġwie":11569,"heast":11570,"ĠZn":11571,"scher":11572,"Ġclot":11573,"ergies":11574,"Ġelect":11575,"oL":11576,"Ġclade":11577,"Ġclient":11578,"Ġplayers":11579,"Ġsummarize":11580,"Ġlearners":11581,"ĠGuid":11582,"WH":11583,"Ġprime":11584,"pG":11585,"Ġsilico":11586,"regn":11587,"Ġfet":11588,"Ġ180":11589,"Ġencounter":11590,"ĠExperim":11591,"len":11592,"Ġaggregated":11593,"Ġcontempor":11594,"mouse":11595,"Ġfibers":11596,"spectrum":11597,"ĠBar":11598,"ĠBE":11599,"ulus":11600,"rd":11601,"Ġsaw":11602,"acer":11603,"Ġintram":11604,"informatics":11605,"Ġpet":11606,"uli":11607,"ĠLevel":11608,"003":11609,"Ġdefect":11610,"tees":11611,"Ġrepresentations":11612,"ĠAssessment":11613,"Ġsupervision":11614,"ĠEvidence":11615,"tailed":11616,"Ġparties":11617,"Ġspor":11618,"Ġ(âī":11619,"Ġconfer":11620,"arded":11621,"inea":11622,"tery":11623,"Ġdich":11624,"Ġmir":11625,"150":11626,"figure":11627,"Ġni":11628,"Ġcortex":11629,"Ġformulated":11630,"rill":11631,"Ġexplains":11632,"Ġfuel":11633,"Ġmetall":11634,"iliated":11635,"Ġlobe":11636,"Ġulcer":11637,"Ġindicative":11638,"GM":11639,"Ġ(~":11640,"Ġstimulus":11641,"ĠPakistan":11642,"Ġdemocr":11643,"Ġdisclose":11644,"Ġamplic":11645,"ĠPot":11646,"ĠAst":11647,"Ġfluctuations":11648,"Ġfilm":11649,"establ":11650,"Ġauthentic":11651,"Ġexosomes":11652,"Ġpolyclonal":11653,"Vir":11654,"tumor":11655,"Ġconvergence":11656,"ĠHyper":11657,"ĠAus":11658,"Ġsyndromes":11659,"greg":11660,"Ġsensory":11661,"ĠAlternatively":11662,"eld":11663,"ĠSwitzerland":11664,"Ġregistry":11665,"Ġpolice":11666,"respon":11667,"Ġnotes":11668,"stein":11669,"ĠOC":11670,"ĠLife":11671,"Ġcounterparts":11672,"itt":11673,"ĠHb":11674,"igene":11675,"Ġnausea":11676,"Ġsolving":11677,"Ġss":11678,"Ġfuzz":11679,"Ġwebsites":11680,"idin":11681,"Us":11682,"uan":11683,"Ser":11684,"idel":11685,"ĠConsistent":11686,"orest":11687,"appropriate":11688,"Ġacknowledge":11689,"chemical":11690,"Ġminimizing":11691,"Ġassembled":11692,"Ġtrainees":11693,"Ġcapita":11694,"Ġslowly":11695,"Ġallocated":11696,"ĠMad":11697,"ĠLondon":11698,"osity":11699,"Ġordered":11700,"Ġkb":11701,"Ġmeant":11702,"ifiers":11703,"Ġelucidate":11704,"Ġalarm":11705,"Ġquarantined":11706,"Similar":11707,"Ġil":11708,"Ġpick":11709,"Ġaller":11710,"ĠGal":11711,"Ġchromosome":11712,"ago":11713,"rown":11714,"tage":11715,"ultural":11716,"GGTG":11717,"ĠCu":11718,"dem":11719,"Ġassignment":11720,"board":11721,"Ġdocumentation":11722,"Ġinitiative":11723,"Ġconvenience":11724,"Ġpoorer":11725,"ĠPred":11726,"TCAA":11727,"ĠCurrent":11728,"Ġpreterm":11729,"Ġexecution":11730,"fulness":11731,"assi":11732,"Ġmodality":11733,"/âĪĴ":11734,"Ġgland":11735,"PH":11736,"ĠBV":11737,"Ġtransported":11738,"ĠStaphyl":11739,"Ġhealing":11740,"Ġhappen":11741,"ige":11742,"Ġhop":11743,"ietnam":11744,"ymph":11745,"Ġcapacities":11746,"dif":11747,"Ġinvestigator":11748,"Ġrespirators":11749,"Ġantagonist":11750,"nisolone":11751,"nex":11752,"Ġshorten":11753,"Ġlever":11754,"Ġconditioning":11755,"Ġhistological":11756,"mac":11757,"Ġfores":11758,"Ġdecide":11759,"Ġaudio":11760,"Ġcircuit":11761,"Ġconjugated":11762,"Ġgrap":11763,"Ġfolding":11764,"Ġgross":11765,"Ġcolony":11766,"aste":11767,"PDB":11768,"ĠPET":11769,"Ġtables":11770,"Furthermore":11771,"Ġtruth":11772,"Ġrandomised":11773,"Ġvaccinations":11774,"requency":11775,"Ġsharp":11776,"AN":11777,"IE":11778,"Ġnewborn":11779,"enty":11780,"zt":11781,"Ġchart":11782,"Ġalongside":11783,"rophic":11784,"zo":11785,"omonas":11786,"Ġbiased":11787,"obacterium":11788,"ĠâĬ":11789,"Ġguided":11790,"Ġlies":11791,"ca":11792,"Ġnonlinear":11793,"Ġparam":11794,"ĠâĢ²":11795,"Ġadsorption":11796,"ĠPubMed":11797,"tir":11798,"ĠMIS":11799,"Ġscaling":11800,"argo":11801,"ĠSalmonella":11802,"inson":11803,"ublished":11804,"TATT":11805,"Ġgoat":11806,"ĠPhil":11807,"Ġproceed":11808,"pty":11809,"Ġconjunction":11810,"Ġexpanding":11811,"essential":11812,"Ġdropped":11813,"Human":11814,"Ġlapa":11815,"Ġdistricts":11816,"Ġengineered":11817,"Ġversions":11818,"ires":11819,"glass":11820,"Inter":11821,"Ġmalignancy":11822,"Ãª":11823,"Ġreperto":11824,"urated":11825,"ĠCVD":11826,"andom":11827,"ĠGH":11828,"Ġadvised":11829,"ĠInf":11830,"Ġsales":11831,"generative":11832,"Ġlanguages":11833,"Ġwitness":11834,"ĠArg":11835,"Ġhomogeneous":11836,"ĠMedic":11837,"ĠMg":11838,"Ġepile":11839,"Ġsugar":11840,"Ġoriginated":11841,"Ġbiopsies":11842,"olitan":11843,"Ġexercises":11844,"Ġeliminated":11845,"ĠIgE":11846,"anda":11847,"Ġcalibr":11848,"Ġendocytosis":11849,"ĠCommunity":11850,"ĠRet":11851,"CRP":11852,"Ġhazards":11853,"Ġhub":11854,"Ġadjuv":11855,"atell":11856,"fluid":11857,"Ġinhabit":11858,"CoVs":11859,"Ġsemantic":11860,"Ġschemes":11861,"Ġvirtually":11862,"Ġvisitors":11863,"DH":11864,"Ġdispersion":11865,"Ġatom":11866,"Ġsper":11867,"Ġgon":11868,"Pad":11869,"ĠSystems":11870,"max":11871,"MSO":11872,"400":11873,"Ġju":11874,"Ġgoes":11875,"Ġpenicillin":11876,"Ġannotated":11877,"oplasmic":11878,"onc":11879,"Ġglomer":11880,"ĠEquation":11881,"structured":11882,"Ġinspi":11883,"Ġreaders":11884,"Ġtropism":11885,"Ġwalk":11886,"opulation":11887,"Ġpaths":11888,"hydroxy":11889,"iang":11890,"Ġinstruction":11891,"ijn":11892,"ĠCanadian":11893,"Ġtranscribed":11894,"ensis":11895,"tainment":11896,"arynx":11897,"ĠAust":11898,"hyper":11899,"soft":11900,"ĠDI":11901,"ĠTogether":11902,"ĠLim":11903,"Ġaccordingly":11904,"ĠVI":11905,"Ġgir":11906,"identified":11907,"unched":11908,"Ġsuggestions":11909,"ĠPseud":11910,"ĠmÃ¡s":11911,"Ġfunded":11912,"Ġapparently":11913,"holder":11914,"Ġgot":11915,"Ġbronchiolitis":11916,"Ġmaximize":11917,"blast":11918,"Ġmalignancies":11919,"Ġseeded":11920,"Ġshares":11921,"Ġbit":11922,"directed":11923,"ĠLM":11924,"Ġwhereby":11925,"Ġenorm":11926,"conn":11927,"Ġunchanged":11928,"Ġms":11929,"Ġdefinite":11930,"Ġom":11931,"Ġbootstrap":11932,"Ġinfiltrates":11933,"Ġdeployment":11934,"ronbach":11935,"Ġdried":11936,"ĠMil":11937,"Ġobstac":11938,"Ġimmunogenic":11939,"uty":11940,"Ġcorro":11941,"Ġcow":11942,"ĠVit":11943,"Ġappointments":11944,"scherichia":11945,"NH":11946,"odemographic":11947,"Ġpools":11948,"ĠEnviron":11949,"cost":11950,"ague":11951,"ĠâīĪ":11952,"ĠIncreased":11953,"ĠTher":11954,"arcin":11955,"AATT":11956,"Ġclassroom":11957,"symptom":11958,"ozo":11959,"Ġtranspor":11960,"ĠDMEM":11961,"Ġfuzzy":11962,"keys":11963,"Ġinvari":11964,"Ġsea":11965,"Ġremission":11966,"Ġtracheal":11967,"Ġcalculating":11968,"Ġpositioning":11969,"herence":11970,"TB":11971,"rets":11972,"Ġfilled":11973,"itoring":11974,"Ġcorticosteroid":11975,"Ġdangerous":11976,"ĠMDA":11977,"Ġmacaques":11978,"Ġpercenti":11979,"PBS":11980,"Ġallogeneic":11981,"Ġtranscriptase":11982,"Ġretain":11983,"Ġimped":11984,"Ġnd":11985,"Ġfoster":11986,"Ġnegl":11987,"Ġaccessed":11988,"ortem":11989,"Ġstriking":11990,"ĠNorthern":11991,"also":11992,"Ġlysates":11993,"Ġnormalization":11994,"ĠGW":11995,"Ġbriefly":11996,"amic":11997,"Ġnoting":11998,"circ":11999,"Ġpalliative":12000,"Ġrounds":12001,"ĠDO":12002,"ĠKa":12003,"ĠLtd":12004,"Ġregulators":12005,"Ġoncology":12006,"Ġautonomy":12007,"Ġslope":12008,"Ġglycan":12009,"Ġkidneys":12010,"Ġ].":12011,"Ġhemagglut":12012,"Ġrefractory":12013,"ĠLab":12014,"ĠIA":12015,"ulent":12016,"sus":12017,"Ġpredicts":12018,"ĠEcon":12019,"Ġdisrupted":12020,"Ġeinem":12021,"ĠFund":12022,"Ġcompromised":12023,"ĠFort":12024,"Ġcovid":12025,"geries":12026,"core":12027,"umps":12028,"Participants":12029,"za":12030,"uple":12031,"ellec":12032,"Ġdelivering":12033,"LAMP":12034,"ĠRE":12035,"reactivity":12036,"odil":12037,"ĠRadi":12038,"Ġwrite":12039,"Ġlimb":12040,"ainfluenza":12041,"ĠGaussian":12042,"Ġlinkage":12043,"mente":12044,"urch":12045,"Ġiterative":12046,"ĠBer":12047,"Ġresuscitation":12048,"Ġfebrile":12049,"atum":12050,"bott":12051,"Ġtailored":12052,"Ġselectivity":12053,"Ġfalls":12054,"ĠMul":12055,"sided":12056,"Ġconference":12057,"Ġingred":12058,"velength":12059,"apor":12060,"oke":12061,"ĠSafety":12062,"ĠPCV":12063,"Ġimmunotherapy":12064,"Ġphil":12065,"Ġpolymorphisms":12066,"Ġatheros":12067,"ĠSte":12068,"Ġshortages":12069,"ĠEPI":12070,"Ġgenera":12071,"ĠJAK":12072,"Ġtoll":12073,"ĠNigeria":12074,"\").":12075,"je":12076,"Ġsocially":12077,"lie":12078,"Ġfarmers":12079,"eworthy":12080,"Ġuncertainties":12081,"apid":12082,"Ġusefulness":12083,"Ġmerg":12084,"Ġadvis":12085,"Ġraises":12086,"Ġstory":12087,"ĠLeu":12088,"Ġstatistic":12089,"ĠCXR":12090,"Ġimperative":12091,"ĠQuestion":12092,"Ġspectrometry":12093,"Ġproteolytic":12094,"ficac":12095,"Ġgeneric":12096,"Ġinactive":12097,"Ġges":12098,"ned":12099,"Ġjustif":12100,"leg":12101,"Ġsequel":12102,"Ġcolumns":12103,"rex":12104,"Ġoutper":12105,"Ġbrand":12106,"Ġescal":12107,"Ġaveraged":12108,"arv":12109,"ĠSW":12110,"ĠLDH":12111,"fram":12112,"istically":12113,"ĠMSC":12114,"Ġtyrosine":12115,"Ġevolve":12116,"chlor":12117,"Ġprohib":12118,"resolution":12119,"ĠCle":12120,"Ġready":12121,"omnia":12122,"Ġpostpon":12123,"ĠStruct":12124,"aland":12125,"oren":12126,"rophy":12127,"Ã¤r":12128,"sensitive":12129,"tico":12130,"tite":12131,"Î´":12132,"Ġastrocytes":12133,"Bi":12134,"ĠTwenty":12135,"Ġultra":12136,"Ġdip":12137,"Ġ(âĪĴ":12138,"Ġsow":12139,"Ġautopsy":12140,"ĠFac":12141,"Ġexploratory":12142,"Ġnovo":12143,"itim":12144,"coun":12145,"orectal":12146,"AI":12147,"Ġconfidential":12148,"Ġsubmit":12149,"acute":12150,"titude":12151,"OF":12152,"Ġbuildings":12153,"atous":12154,"prim":12155,"Ġneurologic":12156,"ĠVol":12157,"osi":12158,"Ġmutated":12159,"Ġprost":12160,"Ġverification":12161,"Ġtransparency":12162,"adap":12163,"ĠVietnam":12164,"Ġcommunications":12165,"Ġresuspended":12166,"Ġspectral":12167,"Ġorally":12168,"Ġmutagen":12169,"Ġ110":12170,"Ġuncommon":12171,"Ġnorthern":12172,"feeding":12173,"species":12174,"actors":12175,"ĠLog":12176,"vor":12177,"ĠExpression":12178,"airs":12179,"selt":12180,"Ġirradiation":12181,"racheal":12182,"optimal":12183,"TOR":12184,"ĠTurkey":12185,"Ġpit":12186,"aric":12187,"Ġdevast":12188,"morbid":12189,"Ġtriggering":12190,"UD":12191,"Ġcard":12192,"Ġencaps":12193,"acetyl":12194,"table":12195,"Ġsetup":12196,"algia":12197,"ĠRO":12198,"Ġexplaining":12199,"Ġantivirals":12200,"Ġelectricity":12201,"Ġdoubl":12202,"tization":12203,"ĠSecondly":12204,"ĠStaphylococcus":12205,"Ġactin":12206,"Ġinstruct":12207,"Ġtheme":12208,"Ġelectrical":12209,"CATG":12210,"fts":12211,"amycin":12212,"Ġthoracic":12213,"Ġsurgeries":12214,"Ġglycans":12215,"Ġaddresses":12216,"Ġsignatures":12217,"Ġeff":12218,"Ġdistant":12219,"Ġgeneraliz":12220,"Ġmotivated":12221,"Ġreaches":12222,"Ġsialic":12223,"illi":12224,"ĠFBS":12225,"Ġskill":12226,"aldehyde":12227,"dl":12228,"lytic":12229,"Ġintu":12230,"Ġnonspecific":12231,"Ġenj":12232,"Ġattribute":12233,"HM":12234,"Ġexpenditure":12235,"Ġaggra":12236,"Ġnanom":12237,"Ġdestro":12238,"Ġannotation":12239,"Ġassets":12240,"ĠSoft":12241,"Ġprojected":12242,"Ġconstraint":12243,"Ġ\\":12244,"ĠPrimary":12245,"Ã©r":12246,"affected":12247,"lymph":12248,"Not":12249,"Ġrelief":12250,"ĠPartic":12251,"available":12252,"oriented":12253,"early":12254,"Ġaqu":12255,"ulo":12256,"orp":12257,"ĠLAMP":12258,"hn":12259,"omyel":12260,"Ġstations":12261,"Ġrandomization":12262,"Ġdeterminant":12263,"ĠHigher":12264,"Ġmono":12265,"oprecip":12266,"CACT":12267,"ĠGuang":12268,"saccharide":12269,"four":12270,"Ġopioid":12271,"NCT":12272,"ĠRB":12273,"Ġmetastatic":12274,"Ġwidth":12275,"petent":12276,"tized":12277,"Ġentropy":12278,"Ġimbalance":12279,"ĠRussia":12280,"Ġpore":12281,"Ġunstable":12282,"rer":12283,"Ġhospitalisation":12284,"Ġmediates":12285,"ĠStandard":12286,"Ġpunc":12287,"Ġsuppl":12288,"Ġsolub":12289,"Ġphyt":12290,"iagen":12291,"Ġaa":12292,"Ġsie":12293,"Ġlogic":12294,"Ġpackaging":12295,"ĠÎº":12296,"FC":12297,"ĠUnit":12298,"Ġresolve":12299,"ĠSign":12300,"ĠATG":12301,"ĠFR":12302,"ini":12303,"Ġspirit":12304,"Ġcompression":12305,"Ġcircular":12306,"Ġïģ":12307,"Ġbenign":12308,"Ġradius":12309,"ĠBelg":12310,"Ġjunction":12311,"ĠBT":12312,"local":12313,"Ġsecretory":12314,"ums":12315,"Ġleaf":12316,"Ġdisciplines":12317,"Ġreturning":12318,"Ġsont":12319,"iles":12320,"ifting":12321,"ipar":12322,"ĠZealand":12323,"nutrition":12324,"Ġalteration":12325,"Ġorthop":12326,"Ġendosomal":12327,"ellectual":12328,"Ġsurvived":12329,"ĠLearning":12330,"Ġsciences":12331,"Ġmethylation":12332,"Ġintens":12333,"goti":12334,"Second":12335,"ĠNur":12336,"ĠEle":12337,"aterials":12338,"Ġexacerbated":12339,"Ã©m":12340,"ĠPlan":12341,"Ġlocus":12342,"Ġhypoxemia":12343,"Ġsnee":12344,"ĠMMP":12345,"Ġproc":12346,"arges":12347,"Ġperic":12348,"Ġanonym":12349,"Ġcu":12350,"Ġaliqu":12351,"ĠEscherichia":12352,"letes":12353,"Ġneighbour":12354,"Ġquantum":12355,"Ġexplanations":12356,"Ġrecons":12357,"atase":12358,"aft":12359,"Ġreasoning":12360,"ĠÂµl":12361,"Ġbanks":12362,"Ġendothelium":12363,"Ġleuc":12364,"ĠSelf":12365,"ĠPoisson":12366,"Ġvoice":12367,"Ġdeeper":12368,"Ġapplies":12369,"ationally":12370,"change":12371,"SIG":12372,"producing":12373,"AATG":12374,"auc":12375,"ĠImage":12376,"Aldrich":12377,"hou":12378,"Ġmethodologies":12379,"Ġhelix":12380,"car":12381,"oline":12382,"Ġserotype":12383,"Ġbladder":12384,"Ã°":12385,"Ġposed":12386,"ĠTE":12387,"Ġcollapse":12388,"oom":12389,"blind":12390,"aid":12391,"Ġpresumably":12392,"Ġqui":12393,"Ġeggs":12394,"plicates":12395,"Ġreflection":12396,"/-":12397,".),":12398,"Vs":12399,"ĠIndones":12400,"ĠMC":12401,"Ġsigned":12402,"ĠLung":12403,"krank":12404,"rete":12405,"ritonavir":12406,"ki":12407,"commun":12408,"ĠCFR":12409,"sw":12410,"Ġdeficient":12411,"Ġbegins":12412,"Ġconvenient":12413,"Ġshifted":12414,"umina":12415,"Ġpromise":12416,"Ġdying":12417,"ĠFirstly":12418,"ĠNL":12419,"Ġsulfate":12420,"ĠTele":12421,"ĠServices":12422,"oter":12423,"Ġpued":12424,"Ġpathologies":12425,"Ëļ":12426,"Ġtitle":12427,"ĠTheorem":12428,"Because":12429,"functional":12430,"ythem":12431,"Ġpod":12432,"neutral":12433,"ĠVLPs":12434,"ĠCam":12435,"cardi":12436,"Ġdivision":12437,"Ġeut":12438,"endly":12439,"Ġconfirms":12440,"ĠLip":12441,"Ġlectin":12442,"Ġrescue":12443,"ronti":12444,"Ġsurfactant":12445,"kB":12446,"Ġshocks":12447,"Ġplac":12448,"ĠTRA":12449,"Ġdispers":12450,"ĠROC":12451,"ervation":12452,"Ġprofiling":12453,"onomous":12454,"Ġdisruptions":12455,"Ġblockade":12456,"ĠkÃ¶nnen":12457,"seltamivir":12458,"Ġpairwise":12459,"ĠEst":12460,"Ġleakage":12461,"Ġseizures":12462,"acht":12463,"Ġrefug":12464,"Ġrash":12465,"ĠTor":12466,"Ġpolicymakers":12467,"tub":12468,"Ġdonation":12469,"ĠqRT":12470,"ĠSpecific":12471,"Ġhpi":12472,"Ġcloth":12473,"athered":12474,"Ġmultif":12475,"yloid":12476,"Ġmol":12477,"Ġcancell":12478,"Ġcontacted":12479,"icher":12480,"Ġfrailty":12481,"kes":12482,"tte":12483,"Ġoroph":12484,"Ġmoderately":12485,"ĠInvestig":12486,"ropolitan":12487,"Ġtrimer":12488,"Ġsummarizes":12489,"ĠNR":12490,"hips":12491,"Ġmeningitis":12492,"social":12493,"Ġuncontrolled":12494,"Ġinhabitants":12495,"ĠLes":12496,"Ġplaying":12497,"ĠBrazilian":12498,"box":12499,"Ġremotely":12500,"Ġidentifies":12501,"Ġgenetics":12502,"ĠSG":12503,"ĠMN":12504,"Ġbridge":12505,"Ġsouthern":12506,"Ġdesire":12507,"Ġphenotypic":12508,"Ġdop":12509,"Ġendpoints":12510,"Ġrigorous":12511,"ĠChe":12512,"ĠPEEP":12513,"Ġresection":12514,"Ġcompleting":12515,"rac":12516,"Ġintegrating":12517,"Ã¼hr":12518,"ĠMc":12519,"Ġfloor":12520,"Ġemergent":12521,"coated":12522,"Ġmanipulation":12523,"Ġneighboring":12524,"Ġamel":12525,"ĠStatistics":12526,"Ġrear":12527,"Ġreconstruc":12528,"hu":12529,"Ġpooling":12530,"Ġplacent":12531,"ussion":12532,"ĠSigma":12533,"ĠGreen":12534,"Ġgastroenteritis":12535,"parametric":12536,"Ġaccompany":12537,"Ġflavi":12538,"Ġambig":12539,"Cell":12540,"liche":12541,"itability":12542,"Ġsupervised":12543,"Inte":12544,"ceptible":12545,"ĠALI":12546,"Ġcoordinates":12547,"Ġdecont":12548,"____":12549,"via":12550,"Ġpivotal":12551,"Ġwt":12552,"ludes":12553,"hi":12554,"ĠVEGF":12555,"Ġalbeit":12556,"PM":12557,"ĠPFU":12558,"Ġinformative":12559,"ĠQuality":12560,"Ġforecasts":12561,"Ġfracture":12562,"Ġagriculture":12563,"ĠICT":12564,"Ġpatent":12565,"Ġperceive":12566,"Ġincorrect":12567,"Ġâĸº":12568,"ĠSi":12569,"Ġtolerated":12570,"Ġpp":12571,"arose":12572,"Ġspin":12573,"Ġanthrop":12574,"Ġmutual":12575,"Ġcongestion":12576,"Ġsurveyed":12577,"Ġmanufacturers":12578,"Ġstressful":12579,"Thus":12580,"Qu":12581,"ĠVis":12582,"osan":12583,"Ġcirrhosis":12584,"coagul":12585,"Ġconnect":12586,"Ġger":12587,"Ġic":12588,"Ġhat":12589,"environment":12590,"Ġrabbits":12591,"chers":12592,"veillance":12593,"ĠResponse":12594,"New":12595,"Ġexceed":12596,"nov":12597,"Ġlaunched":12598,"cyte":12599,"145":12600,"ĠHeLa":12601,"Ġ229":12602,"Ġwavelength":12603,"Ġdye":12604,"Ġjuris":12605,"Ġmetastasis":12606,"otyped":12607,"Ġallo":12608,"Ġdamaged":12609,"Ġearth":12610,"ĠKorean":12611,"Ġcompromise":12612,"Ġloops":12613,"Ġrestrictive":12614,"regular":12615,"Additional":12616,"blue":12617,"Ġcorporate":12618,"Moreover":12619,"Ġadvers":12620,"ailand":12621,"ĠNCT":12622,"ĠAdv":12623,"ĠNIH":12624,"expression":12625,"Ġheating":12626,"rous":12627,"ĠADA":12628,"Ġtown":12629,"Ġï¿½":12630,"ĠEDTA":12631,"Ġcopper":12632,"Ġradiology":12633,"Ġeukaryotic":12634,"Ġflavon":12635,"Ġwait":12636,"Ġmann":12637,"Ġkilling":12638,"Pl":12639,"Ġemployee":12640,"ÏĦ":12641,"Ġlegislation":12642,"Ġcrim":12643,"Ġcompetence":12644,"ĠUr":12645,"Ġga":12646,"Ġdestination":12647,"Ġdigestion":12648,"ĠCap":12649,"ĠImpro":12650,"hene":12651,"Ġmelanoma":12652,"Ġiter":12653,"Ġsept":12654,"cause":12655,"Ġdevelops":12656,"Ġinfective":12657,"clerosis":12658,"vated":12659,"earman":12660,"Ġlengths":12661,"scill":12662,"ĠDV":12663,"eor":12664,"ĠCXCR":12665,"ventory":12666,"Ġparv":12667,"Ġcritic":12668,"ĠWar":12669,"anto":12670,"irium":12671,"ION":12672,"Ġbiod":12673,"Ġmechanistic":12674,"ĠIndividuals":12675,"Ġabilities":12676,"ĠComput":12677,"Ġdysregulation":12678,"GATT":12679,"Ġfibrinogen":12680,"Ġfused":12681,"ĠPositive":12682,"ĠAlex":12683,"Ġrequests":12684,"ĠBH":12685,"Ġselectively":12686,"rian":12687,"Ġpreoperative":12688,"ĠGre":12689,"mut":12690,"Ġgathered":12691,"ĠUN":12692,"ĠGVHD":12693,"ĠVTE":12694,"Ġeveryday":12695,"green":12696,"Â´":12697,"erving":12698,"Ġhomolog":12699,"emper":12700,"Ġenferm":12701,"Ġalve":12702,"Ġtranslational":12703,"ozygous":12704,"urable":12705,"ĠFIP":12706,"avirus":12707,"Ġtrat":12708,"UN":12709,"Ġpanic":12710,"cale":12711,"apsed":12712,"Ġflux":12713,"ĠUs":12714,"ĠInhib":12715,"aceae":12716,"Ġmedicinal":12717,"Ġstratification":12718,"ĠPEG":12719,"Ġproxy":12720,"Ġrotation":12721,"together":12722,"Ġsilver":12723,"critical":12724,"Ġinconsistent":12725,"Ġsociodemographic":12726,"Ġefficac":12727,"Ġpes":12728,"Ġadminister":12729,"Ġimplicit":12730,"Ġasking":12731,"Ġbiotin":12732,"opoly":12733,"Ġborders":12734,"Ġchimeric":12735,"Ġparainfluenza":12736,"standard":12737,"Ġordinary":12738,"Ġperforms":12739,"zyme":12740,"vary":12741,"Ġhematopoietic":12742,"ĠDetection":12743,"Ġdefines":12744,"Ġmarine":12745,"anghai":12746,"Ġhundreds":12747,"adem":12748,"ĠMain":12749,"ĠVarious":12750,"Ġamelior":12751,"PPE":12752,"Ġmorphological":12753,"Ġexit":12754,"romatic":12755,"Ġmast":12756,"GCAA":12757,"py":12758,"ampling":12759,"Ġrealized":12760,"Ġdriver":12761,"assium":12762,"tw":12763,"ermined":12764,"ĠWhereas":12765,"Ġoccasionally":12766,"Ġattenuation":12767,"Ġwithdrawal":12768,"Ġreviewers":12769,"ĠIoT":12770,"Ġharmon":12771,"Ġcutaneous":12772,"cience":12773,"Ġribosomal":12774,"Ġsoph":12775,"icks":12776,"ĠEng":12777,"abetes":12778,"Ġdraft":12779,"ĠInitial":12780,"Figs":12781,"Ġpseudo":12782,"ĠDecl":12783,"uated":12784,"Ġhospitalised":12785,"ĠWNV":12786,"ĠStreptococcus":12787,"ania":12788,"Ġinvestments":12789,"isolation":12790,"ĠAgency":12791,"ĠMedian":12792,"rist":12793,"antibodies":12794,"Ġknockout":12795,"llen":12796,"icorn":12797,"ĠContin":12798,"Ġadopting":12799,"ahr":12800,"tia":12801,"Ġincid":12802,"Ġvictims":12803,"Ġelectrostatic":12804,"Ġrup":12805,"angle":12806,"Ġgenerations":12807,"ĠArticle":12808,"Ġkernel":12809,"jk":12810,"Ġcamels":12811,"Ġmigrants":12812,"Ġstocks":12813,"ĠAtt":12814,"Ġsclerosis":12815,"Ġspray":12816,"LM":12817,"hour":12818,"itization":12819,"urate":12820,"Ġstrongest":12821,"Ġradiotherapy":12822,"first":12823,"Ġanomal":12824,"Ġmoi":12825,"Ġintellectual":12826,"Ġsubgen":12827,"ĠMRSA":12828,"Ġslides":12829,"Ġlatency":12830,"Ã¶gl":12831,"Ġot":12832,"Ġwanted":12833,"lockdown":12834,"ograms":12835,"ĠMG":12836,"Ġferrets":12837,"Ġprojections":12838,"ympt":12839,"ervised":12840,"amers":12841,"ĠMAPK":12842,"ceived":12843,"asks":12844,"formance":12845,"ĠMB":12846,"ĠLeg":12847,"Ġsignifi":12848,"ba":12849,"Ġcoagulopathy":12850,"Ġsave":12851,"ĠOH":12852,"Ġacidic":12853,"Ġrestrict":12854,"Ġmuscles":12855,"ĠIsrael":12856,"Ġgames":12857,"merase":12858,"established":12859,"Ġattended":12860,"Ġduplicate":12861,"Ġcomprise":12862,"Ġtransparent":12863,"Ġoverload":12864,"Ġplane":12865,"Ġcontemporary":12866,"uents":12867,"Ġchemicals":12868,"Ġpyr":12869,"Ġ140":12870,"ĠBSA":12871,"Ġallergy":12872,"rowth":12873,"Ġdownregulation":12874,"Ġfake":12875,"Ġmusic":12876,"Ġlinking":12877,"bing":12878,"war":12879,"plements":12880,"Ġlens":12881,"ĠCPE":12882,"Ġgradual":12883,"Ġball":12884,"ulas":12885,"ĠStrateg":12886,"adas":12887,"Ã©c":12888,"ĠFF":12889,"Ġhypers":12890,"Ġinjections":12891,"Due":12892,"Ġabscess":12893,"inhib":12894,"Ġtravelers":12895,"Ġaccelerate":12896,"Ġskeletal":12897,"MAP":12898,"Ġgains":12899,"ĠGes":12900,"Ġsearching":12901,"Ġupdates":12902,"represented":12903,"Ġenjoy":12904,"fungal":12905,"Ġreactivation":12906,"ĠEF":12907,"Ġradiologists":12908,"third":12909,"Ġlumen":12910,"Ġrigid":12911,"ĠFL":12912,"indi":12913,"Ġaiming":12914,"Ġinspection":12915,"Ġfurin":12916,"loop":12917,"Ġmulticenter":12918,"Ġcensus":12919,"ĠEpidemi":12920,"ĠNAD":12921,"brevi":12922,"tures":12923,"Ġskew":12924,"Ġinsomnia":12925,"ingly":12926,"random":12927,"Ġconstantly":12928,"plates":12929,"Ġairflow":12930,"brain":12931,"2016":12932,"Ġdownloaded":12933,"ĠCy":12934,"Ġkinases":12935,"iny":12936,"orax":12937,"spe":12938,"Ġassumes":12939,"ĠEin":12940,"Ġgovernmental":12941,"Ġlnc":12942,"ieren":12943,"Ġletter":12944,"Ġraising":12945,"ĠColl":12946,"Ġspeaking":12947,"AB":12948,"Ġserving":12949,"ref":12950,"Ġconstitutes":12951,"Ġta":12952,"ĠSymptom":12953,"ĠViruses":12954,"Ġthank":12955,"Ġincentives":12956,"Ġconfined":12957,"Ġmaster":12958,"Ġneedle":12959,"2017":12960,"Ġirrespective":12961,"ĠGenBank":12962,"gest":12963,"Ġbronchitis":12964,"Ġpolymers":12965,"Ġpent":12966,"Ġacknowledged":12967,"Ġcoordinate":12968,"Ġchoosing":12969,"Ġpurchase":12970,"appa":12971,"ilateral":12972,"flux":12973,"inent":12974,"March":12975,"Ġpeptid":12976,"Ġenormous":12977,"Anti":12978,"Ġanticancer":12979,"DG":12980,"Ġempty":12981,"ĠACT":12982,"Ġcef":12983,"Ġinappropriate":12984,"Ġestud":12985,"olus":12986,"uccess":12987,"ras":12988,"new":12989,"Ġ800":12990,"ogue":12991,"Ġrevenue":12992,"traumatic":12993,"Ġerythem":12994,"Ġnegoti":12995,"Ġlabelled":12996,"ĠPBMCs":12997,"ĠFigs":12998,"ĠCFTR":12999,"Ġseropositive":13000,"Ġ1980":13001,"Ġ2001":13002,"Ġaspiration":13003,"Ġcystic":13004,"graph":13005,"ĠExt":13006,"terious":13007,"Ġbearing":13008,"Ġqueries":13009,"ĠStudents":13010,"Ġhip":13011,"ĠHEV":13012,"How":13013,"Ġ125":13014,"abolic":13015,"Ġwrong":13016,"ĠThailand":13017,"liest":13018,"ĠHI":13019,"analy":13020,"ĠChest":13021,"Ġdissolved":13022,"ĠRCTs":13023,"heit":13024,"amed":13025,"Ġgatherings":13026,"SH":13027,"Rad":13028,"report":13029,"fen":13030,"Ġcatheps":13031,"fluent":13032,"ĠCer":13033,"clos":13034,"naire":13035,"itate":13036,"bral":13037,"Ġrecognised":13038,"ĠChen":13039,"ears":13040,"zu":13041,"escence":13042,"Ġanosmia":13043,"Ġlegitim":13044,"ĠEs":13045,"Ġ105":13046,"âĢ¬":13047,"unting":13048,"Ġlasting":13049,"matched":13050,"vaccinated":13051,"Ġsun":13052,"run":13053,"efficient":13054,"Ġkilled":13055,"Ġtwenty":13056,"Ġhappens":13057,"ĠIN":13058,"Ġstraightforward":13059,"cox":13060,"Ġbon":13061,"Ġstimulating":13062,"Ġow":13063,"Ġencounters":13064,"Ġcaregiver":13065,"Ġvolatility":13066,"Ġexempl":13067,"Ġdebt":13068,"Ġlenti":13069,"rax":13070,"DF":13071,"RTI":13072,"Ġelucidated":13073,"ĠPU":13074,"-)":13075,"Ġbund":13076,"Ġleth":13077,"Ġdensities":13078,"Ġreform":13079,"ĠFM":13080,"Ġtitres":13081,"cher":13082,"Ġcounseling":13083,"Ġcharacterised":13084,"Ġsedation":13085,"ĠTaq":13086,"Consider":13087,"Ġaortic":13088,"Ġcontig":13089,"Ġremodeling":13090,"ELISA":13091,"ĠUC":13092,"Ġtropical":13093,"Ġfoll":13094,"epid":13095,"idelity":13096,"incial":13097,"otom":13098,"Ġadipose":13099,"Ġtroponin":13100,"Ġamyloid":13101,"Ġhoc":13102,"heric":13103,"ĠEvaluation":13104,"Ġamph":13105,"NOS":13106,"Ġoscill":13107,"Ġinacc":13108,"Ġdairy":13109,"stimulated":13110,"Ġfractional":13111,"sample":13112,"uls":13113,"Ġoccupation":13114,"Ġrum":13115,"Ġdownregulated":13116,"004":13117,"Ġshopping":13118,"ĠPolic":13119,"ĠPrism":13120,"uilding":13121,"Ġpersonalized":13122,"ĠCHIKV":13123,"ĠDMSO":13124,"Ġcorrobor":13125,"Ġatmosphere":13126,"Ġsophistic":13127,"Ġbioactive":13128,"Ġexceeds":13129,"ĠMice":13130,"Ġartif":13131,"sim":13132,"Ġturnover":13133,"Ġexceeded":13134,"Ġhits":13135,"Ġker":13136,"olate":13137,"fectiveness":13138,"idium":13139,"ĠSNP":13140,"Ġpersonality":13141,"ilt":13142,"ĠbioRxiv":13143,"Ġtravell":13144,"Ġbroncho":13145,"Ġannually":13146,"Ġvalve":13147,"Next":13148,"Ġphospholip":13149,"ĠHKU":13150,"Ġrodents":13151,"ulos":13152,"ĠLine":13153,"Ġpreserved":13154,"VP":13155,"Ġprecaution":13156,"Ġreopening":13157,"Ġapical":13158,"umines":13159,"Ġirrit":13160,"shaped":13161,"Tr":13162,"Ġoverwhelming":13163,"Ġhearing":13164,"ĠGreat":13165,"ĠKen":13166,"Ġneuros":13167,"omorph":13168,"Ġpreserve":13169,"Ġprototype":13170,"Ġattendance":13171,"Ġalg":13172,"Ġgrants":13173,"fektion":13174,"ĠSyn":13175,"resid":13176,"Ġsynergistic":13177,"ISL":13178,"ophageal":13179,"Ġrecycl":13180,"Ġ[]":13181,"Ġarteries":13182,"ĠPrac":13183,"Ġalleviate":13184,"Ġloci":13185,"Ġhypothesize":13186,"Ġnoteworthy":13187,"Ġregeneration":13188,"Ġstrengthening":13189,"Ġpneumococcal":13190,"Ġinspired":13191,"mortem":13192,"Ġlec":13193,"reland":13194,"ĠComb":13195,"Ġanaesthe":13196,"Ġadditive":13197,"asi":13198,"Ġcodons":13199,"Ġdisturbances":13200,"izin":13201,"ĠGE":13202,"MICs":13203,"ĠConf":13204,"ĠCKD":13205,"half":13206,"Ġcolorectal":13207,"ĠOP":13208,"ATA":13209,"Ġsilencing":13210,"Ġurgently":13211,"avor":13212,"Ġextending":13213,"FiO":13214,"Ġswitching":13215,"Ġstringent":13216,"Ġpup":13217,"Ġslower":13218,"ounce":13219,"Ġvisited":13220,"Ġmodulating":13221,"Ġfatalities":13222,"transferase":13223,"Ġineffective":13224,"ky":13225,"chyma":13226,"Ġpayment":13227,"Ġdistinction":13228,"Ġseroconversion":13229,"Ġpriming":13230,"inki":13231,"ĠAnaly":13232,"Î¸":13233,"Ġhelper":13234,"Ġdiscom":13235,"Ġcanonical":13236,"Ġbic":13237,"weighted":13238,"ĠRNAi":13239,"Ġmoiety":13240,"Ġstere":13241,"Ġstores":13242,"Ġdot":13243,"Ġpeers":13244,"atie":13245,"Ġile":13246,"ĠPortug":13247,"Ġnegligible":13248,"VE":13249,"Ġvoltage":13250,"Ġathletes":13251,"Ġmanager":13252,"ĠReport":13253,"ĠDer":13254,"base":13255,"Ġinferior":13256,"Ġepic":13257,"Ġtelec":13258,"Ġproactive":13259,"Ġspots":13260,"Ġdispens":13261,"Ġove":13262,"Ġperiodic":13263,"Ġratings":13264,"Ġcolonies":13265,"bec":13266,"ĠMOI":13267,"Ġspecification":13268,"omegal":13269,"uter":13270,"ectable":13271,"ximab":13272,"Ġdeficits":13273,"ĠUTR":13274,"Ġventilators":13275,"Ġconvolutional":13276,"Ġanatom":13277,"ĠâĢ«":13278,"ĠGenerally":13279,"EU":13280,"Ġpand":13281,"ĠPaO":13282,"urations":13283,"ĠÎ½":13284,"AIDS":13285,"ĠUnivers":13286,"ĠLou":13287,"Ġces":13288,"Ġcoc":13289,"aining":13290,"Ġsurrogate":13291,"Ġhotsp":13292,"unch":13293,"ĠBALB":13294,"ĠJohn":13295,"ho":13296,"Ġembolism":13297,"Ġbuy":13298,"Ġgrand":13299,"Ġchip":13300,"Ġwheezing":13301,"Ġsequelae":13302,"ĠPos":13303,"Regarding":13304,"ĠRegion":13305,"fat":13306,"Ġconsumed":13307,"ocarcin":13308,"elsinki":13309,"rem":13310,"Ġinterpersonal":13311,"Ġdistinguished":13312,"Ġspillover":13313,"inase":13314,"tracted":13315,"Ġknockdown":13316,"Ġcounting":13317,"Ġfractures":13318,"Ġii":13319,"oder":13320,"rais":13321,"ĠOnt":13322,"Ġcess":13323,"Ġrefined":13324,"mentation":13325,"Ġdia":13326,"Ġasympt":13327,"ubin":13328,"Ġacetate":13329,"ostatic":13330,"reports":13331,"Ġepigene":13332,"SR":13333,"aturation":13334,"layer":13335,"ders":13336,"Ġparenchyma":13337,"ophilic":13338,"oreal":13339,"Ġelastic":13340,"Ġroll":13341,"top":13342,"flamm":13343,".'":13344,"Ġaccessing":13345,"Ġendoscopy":13346,"Ġepidemiologic":13347,"Ġphagocytosis":13348,"Ġgathering":13349,"covid":13350,"Ġstre":13351,"exper":13352,"lovir":13353,"Ġspend":13354,"Ġurea":13355,"Ġaccommodate":13356,"wa":13357,"elve":13358,"AF":13359,"ager":13360,"Ġrpm":13361,"Ġthickening":13362,"])":13363,"receptor":13364,"rical":13365,"Ġblotting":13366,"inucle":13367,"prisingly":13368,"sten":13369,"Ġexpectation":13370,"obacteria":13371,"ĠHelsinki":13372,"Ġpermits":13373,"onuclease":13374,"ytes":13375,"Ġbreeding":13376,"Sm":13377,"Ġinver":13378,"Ġrecognizing":13379,"map":13380,"Ġelong":13381,"Ġproposal":13382,"arith":13383,"especially":13384,"600":13385,"ĠHispanic":13386,"ĠDeep":13387,"ĠHAd":13388,"epit":13389,"Ġaugmented":13390,"ĠIreland":13391,"Ġdisulf":13392,"uximab":13393,"Ġmicroscopic":13394,"ocompati":13395,"Ġspreads":13396,"Ġpreexisting":13397,"Ġdiscrepancy":13398,"Ġtac":13399,"Ġintermitt":13400,"ĠDesign":13401,"Ġhesit":13402,"Ġrectal":13403,"Ġdominated":13404,"criptions":13405,"ĠGly":13406,"Ġflag":13407,"nature":13408,"acid":13409,"Ġthoughts":13410,"earchers":13411,"Ġeducators":13412,"Ġflood":13413,"Ġavec":13414,"Ġagarose":13415,"ĠCong":13416,"ĠÐ":13417,"how":13418,"oreg":13419,"Ġstyle":13420,"Ġbranches":13421,"mt":13422,"Ġtill":13423,"ĠSoftware":13424,"enal":13425,"Ġneo":13426,"aki":13427,"criptive":13428,"Ġhaemat":13429,"Ġblinded":13430,"Trans":13431,"Ġexhaustion":13432,"Ġintranasal":13433,"ologie":13434,"odal":13435,"Ġsimplicity":13436,"Ġsimplex":13437,"ĠCandid":13438,"Ġfifth":13439,"comes":13440,"STAT":13441,"Ġgrey":13442,"Ġresponders":13443,"ĠCri":13444,"indings":13445,"Ġexpectancy":13446,"Ġtermination":13447,"irm":13448,"tices":13449,"Ġagonist":13450,"ocument":13451,"Ġdisabilities":13452,"SM":13453,"Ġpotassium":13454,"three":13455,"El":13456,"ciences":13457,"Ġshelter":13458,"Ġrepertoire":13459,"Ġfairly":13460,"acific":13461,"ĠHBoV":13462,"ĠALT":13463,"Ġkom":13464,"Ġrecommends":13465,"Ġvoor":13466,"heimer":13467,"acrific":13468,"Ġrelates":13469,"Ġfunctionally":13470,"Ġcontrac":13471,"ball":13472,"national":13473,"Ġhelicase":13474,"ĠAbout":13475,"Ġgray":13476,"Ġappar":13477,"Ġrecipro":13478,"ĠsiRNAs":13479,"ĠHz":13480,"Ġdelirium":13481,"ele":13482,"Ġalloc":13483,"ĠComparison":13484,"Ġconsul":13485,"Ġsg":13486,"Ġnothing":13487,"ĠSignificant":13488,"ritten":13489,"ĠDifferences":13490,"Ġplaques":13491,"Ġneutrop":13492,"ĠCpG":13493,"Ġholding":13494,"ĠLF":13495,"Ġwurde":13496,"Ġcarbohydrate":13497,"Ġorganoids":13498,"Ġnested":13499,"ĠSAR":13500,"ĠRandom":13501,"Ġdiscomfort":13502,"ĠExamples":13503,"Ġasthmatic":13504,"Ġagar":13505,"Ġnebul":13506,"Ġdisrupt":13507,"/)":13508,"xia":13509,"Ġcryo":13510,"Ġdisposable":13511,"Ġpatch":13512,"Ġapplicability":13513,"Ġconstrained":13514,"TLR":13515,"Ġredund":13516,"Ġsystolic":13517,"Ġimpl":13518,"ÃŃn":13519,"Ġpartition":13520,"post":13521,"ĠDeclaration":13522,"ranged":13523,"Ġeuthan":13524,"Ġmachines":13525,"Ġcomplaints":13526,"Ġeinen":13527,"Ġthroughput":13528,"ĠTrump":13529,"Ġammon":13530,"Ġwhenever":13531,"Ġseriously":13532,"Let":13533,"ĠIG":13534,"ĠSY":13535,"Ġcatast":13536,"Ġdivergence":13537,"Ġrespondent":13538,"umental":13539,"Ġdevastating":13540,"burg":13541,"ĠBal":13542,"hot":13543,"Ġpolymorphism":13544,"Ġcigare":13545,"uss":13546,"Ġamplitude":13547,"Ġrobots":13548,"Ġtracheostomy":13549,"ĠPanel":13550,"Ġgli":13551,"Ġket":13552,"Ġbiosynthesis":13553,"Ã´":13554,"ĠCat":13555,"bert":13556,"Ġensures":13557,"Ġproton":13558,"Ġflight":13559,"Ġmult":13560,"scientific":13561,"Ġdissociation":13562,"Ġprimates":13563,"AGE":13564,"ophore":13565,"guid":13566,"Ġrevealing":13567,"Ġneighbors":13568,"Ġoseltamivir":13569,"Ġunter":13570,"Ġtruncated":13571,"Ġinnovations":13572,"Ġextrem":13573,"offs":13574,"Gl":13575,"Ġspeculate":13576,"Ġassociate":13577,"Ġprospectively":13578,"otomy":13579,"ĠAk":13580,"gorithm":13581,"Ġham":13582,"Ġrepeatedly":13583,"Ġownership":13584,"Ġorganisation":13585,"ĠSet":13586,"modified":13587,"Ġappointment":13588,"Ġadds":13589,"Ġhepatocytes":13590,"inoc":13591,"hesus":13592,"Ġcontinuity":13593,"ĠLocal":13594,"ĠWomen":13595,"Following":13596,"Ġreferring":13597,"real":13598,"Ġling":13599,"Ġlie":13600,"Ġarguments":13601,"Ġremind":13602,"Ġtopology":13603,"enden":13604,"approved":13605,"Ġclaimed":13606,"oyal":13607,"ritory":13608,"rupt":13609,"Ġrevision":13610,"Ġmigrant":13611,"coxon":13612,"protective":13613,"Ġfaces":13614,"Ġarbitrary":13615,"opathology":13616,"prof":13617,"Ġintentions":13618,"Ġsand":13619,"around":13620,"sol":13621,"fac":13622,"ĠOT":13623,"ferencing":13624,"osted":13625,"Ġfailures":13626,"istries":13627,"ĠSB":13628,")),":13629,"Ġreward":13630,"Ġcessation":13631,"/).":13632,"onset":13633,"nsp":13634,"ĠAST":13635,"olecules":13636,"ĠPDB":13637,"Ġelectrode":13638,"Ġearliest":13639,"Ġtell":13640,"ashington":13641,"Ġdisproportionately":13642,"medical":13643,"iner":13644,"ĠDP":13645,"Ġdisclosure":13646,"ecurity":13647,"Ġmyalgia":13648,"AM":13649,"hex":13650,"Ġinsect":13651,"Ġbile":13652,"Ġharbor":13653,"trop":13654,"Ġoperated":13655,"fu":13656,"connected":13657,"Ġtick":13658,"Ġaggregates":13659,"atosis":13660,"Ġprogressively":13661,"ĠHCC":13662,"ĠTarget":13663,"Ġconcrete":13664,"Ġophthal":13665,"Ġprompted":13666,"Ġtalk":13667,"Ġduc":13668,"Ġban":13669,"etts":13670,"Ġamplify":13671,"Ġsimplified":13672,"ĠConcer":13673,"SF":13674,"ĠILI":13675,"Ġchromatin":13676,"Ġwindows":13677,"Ġcytopathic":13678,"ĠAMP":13679,"gone":13680,"Ġglands":13681,"Ġtor":13682,"atid":13683,"ĠCronbach":13684,"ĠSuper":13685,"Ġactivator":13686,"ognitive":13687,"Ġsatisfactory":13688,"250":13689,"Ġwish":13690,"Ġfaecal":13691,"reement":13692,"Ġlooked":13693,"ĠrRNA":13694,"served":13695,"Ġpenal":13696,"ĠApproximately":13697,"Conclusions":13698,"ithub":13699,"ĠFEV":13700,"Ġmetagen":13701,"Ġpolitics":13702,"aux":13703,"Ġdust":13704,"Ġassisted":13705,"')":13706,"ĠMH":13707,"ĠVeter":13708,"Pa":13709,"Ġdescriptions":13710,"Immun":13711,"ĠProtection":13712,"CAGA":13713,"ĠProte":13714,"Ġcytosolic":13715,"Ġrepurposing":13716,"emale":13717,"Ġprescribing":13718,"Ġantifungal":13719,"eart":13720,"Ġconflicting":13721,"Ġspectroscopy":13722,"Ġsatisfy":13723,"Ġsophisticated":13724,"Ġsparse":13725,"ïĤ·":13726,"tase":13727,"Ġsubsc":13728,"fri":13729,"Therefore":13730,"Ġweaker":13731,"omyelitis":13732,"Ġrheumatoid":13733,"arest":13734,"chied":13735,"Ġdefective":13736,"UTR":13737,"keletal":13738,"ĠEastern":13739,"Ġabnorm":13740,"Ġatrial":13741,"Ġbesides":13742,"ĠChronic":13743,"urement":13744,"space":13745,"ĠIr":13746,"limited":13747,"piravir":13748,"ĠCross":13749,"Ġ160":13750,"have":13751,"ellar":13752,"zheimer":13753,"Ġshell":13754,"Ġphilos":13755,"GCG":13756,"Ġpercentile":13757,"Ġsheet":13758,"ocys":13759,"hydration":13760,"Ġ130":13761,"Ġinterim":13762,"ylate":13763,"Ġadvertis":13764,"ython":13765,"ĠElectr":13766,"%);":13767,"Ġinterplay":13768,"ĠFif":13769,"ĠActiv":13770,"washing":13771,"outs":13772,"Ġoligomer":13773,"PK":13774,"avipiravir":13775,"Ġdoubt":13776,"Ġprecipitation":13777,"traction":13778,"Ġclosing":13779,"ĠOffice":13780,"Ġretrieval":13781,"Ġnanoparticle":13782,"Ġdeline":13783,"ĠNTD":13784,"ĠBen":13785,"Ġsentence":13786,"Ġgall":13787,"ĠKey":13788,"pondents":13789,"ĠHel":13790,"Ġhappened":13791,"ĠSep":13792,"nit":13793,"Ġester":13794,"Ġdisplacement":13795,"endo":13796,"flox":13797,"assemb":13798,"ĠWithout":13799,"Ġduty":13800,"Ġoverestim":13801,"Ġtab":13802,"Ġvisiting":13803,"cast":13804,"Ġresponsive":13805,"Ġribosome":13806,"jun":13807,"Ġowners":13808,"Ġtubular":13809,"ibro":13810,"Ġinternalization":13811,"ĠLaboratories":13812,"Ġsplicing":13813,"Ġconnecting":13814,"ĠMBL":13815,"ĠHO":13816,"ĠGD":13817,"nah":13818,"ĠWang":13819,"ĠDenmark":13820,"Ġsuccessive":13821,"Ġpremis":13822,"Ġaccessory":13823,"ycardia":13824,"Ġencephalopathy":13825,"Ġstands":13826,"ĠKnow":13827,"Ġcorpus":13828,"125":13829,"fully":13830,"Ġconspir":13831,"Ġdiscourse":13832,"Ġsouth":13833,"Ġtal":13834,"child":13835,"oping":13836,"ATP":13837,"Ġsacrific":13838,"imp":13839,"Ġinfects":13840,"oblast":13841,"Ãģ":13842,"ĠUnderstanding":13843,"Ġexploited":13844,"illa":13845,"Ġlifetime":13846,"Ġdeprivation":13847,"Ġswelling":13848,"Ġmist":13849,"Ġabortion":13850,"Ġobserving":13851,"foc":13852,"Ġinterfering":13853,"Str":13854,"analyses":13855,
[...]
